static uint64_t conv1_weight[16 * 9] =
{ // torch.Size([16, 3, 3, 1])
0xd, 0xc, 0x4, 0x6, 0x7, 0x6, 0x6, 0xd, 0x5, 
0x6, 0x7, 0xd, 0x6, 0x6, 0xc, 0xe, 0xc, 0x3, 
0x5, 0xa, 0x1, 0xe, 0xd, 0x6, 0xe, 0x4, 0x7, 
0x4, 0x7, 0x6, 0xd, 0xd, 0xc, 0xe, 0xe, 0x2, 
0x6, 0x5, 0xc, 0x7, 0xa, 0xf, 0x6, 0xc, 0xe, 
0xd, 0xe, 0x3, 0xe, 0xe, 0xe, 0x6, 0x7, 0xe, 
0x5, 0xe, 0xf, 0x6, 0x4, 0xc, 0xd, 0x7, 0x4, 
0xf, 0x5, 0x5, 0xd, 0x6, 0x6, 0x4, 0x5, 0x4, 
0xd, 0xf, 0xd, 0xd, 0xe, 0x4, 0x6, 0x7, 0x7, 
0xe, 0x6, 0xd, 0x7, 0x6, 0x4, 0x5, 0x4, 0xb, 
0xd, 0x3, 0x6, 0xc, 0xa, 0x6, 0xe, 0x7, 0x3, 
0x6, 0x5, 0x7, 0x3, 0xb, 0x4, 0xe, 0xc, 0xe, 
0xe, 0x5, 0x6, 0xc, 0xa, 0x6, 0x5, 0xe, 0x7, 
0xf, 0xe, 0xe, 0x3, 0xd, 0xb, 0x5, 0x5, 0x4, 
0x7, 0x7, 0x4, 0x2, 0xd, 0xe, 0x6, 0xe, 0x5, 
0x7, 0x4, 0x1, 0x7, 0x6, 0xd, 0x7, 0xc, 0x4, 
};

static int relu1_threshold[16 * 7] =
{ // torch.Size([16, 7])
-508, -417, -326, -235, -99, 83, 355,
-194, -142, -90, -37, 41, 146, 303,
16, 72, 128, 183, 267, 379, 546,
123, 169, 215, 261, 330, 422, 560,
452, 517, 582, 647, 744, 875, 1070,
345, 416, 488, 559, 666, 809, 1023,
338, 389, 439, 490, 566, 667, 818,
-188, -142, -96, -51, 18, 110, 247,
34, 90, 146, 201, 285, 397, 565,
-416, -342, -268, -194, -83, 64, 286,
87, 142, 198, 253, 337, 448, 615,
154, 204, 254, 303, 378, 477, 626,
167, 226, 286, 346, 436, 555, 735,
189, 213, 237, 261, 297, 345, 418,
1297, 1681, 2064, 2448, 3024, 3792, 4943,
-817, -684, -552, -419, -220, 45, 442,
};

static uint64_t conv2_weight[16 * 1] =
{ // torch.Size([16, 1, 1, 16])
0x6eeebfecfd6f44df, 
0xfe57b3d66e5d6766, 
0x56cdcf605a6f7ec3, 
0xeed6ddfe495565eb, 
0x4d5dbfd7e5de65e2, 
0x5ee9e67f7e5bba69, 
0xdbdbd5d65754c6e6, 
0xeb5d46d6d9bf55bd, 
0xd66d4ddce66e7aec, 
0x6ee5f6554f77e766, 
0xa55d26d5dfd5ceee, 
0x53eef65d7c559ee6, 
0x6e715d37561ecee4, 
0xedc6f9f44ee5cb2e, 
0xf46ddcfdf5caccee, 
0x56dd6e7d66ab7d5e, 
};

static int quant2_threshold[16 * 14] =
{ // torch.Size([16, 14])
-1736, -1456, -1269, -1128, -1035, -941, -848, -754, -661, -567, -474, -333, -146, 134,
-861, -630, -475, -360, -282, -205, -128, -51, 26, 103, 180, 296, 451, 682,
-722, -493, -340, -225, -149, -72, 4, 81, 157, 233, 310, 425, 577, 807,
-1148, -893, -723, -596, -511, -427, -342, -257, -172, -87, -2, 125, 295, 549,
-705, -498, -360, -257, -188, -119, -50, 19, 88, 157, 226, 329, 467, 674,
-1222, -798, -516, -305, -164, -23, 118, 259, 400, 541, 682, 894, 1176, 1599,
-867, -661, -525, -422, -354, -285, -217, -149, -80, -12, 56, 159, 296, 501,
-576, -226, 7, 182, 298, 415, 531, 648, 764, 881, 997, 1172, 1405, 1755,
-2020, -1483, -1125, -857, -678, -499, -321, -142, 37, 216, 395, 663, 1021, 1557,
-804, -358, -62, 161, 309, 458, 606, 755, 903, 1051, 1200, 1422, 1719, 2165,
-1147, -946, -811, -710, -643, -576, -509, -442, -375, -307, -240, -140, -5, 196,
-1543, -1087, -783, -555, -403, -251, -99, 53, 205, 357, 509, 737, 1041, 1497,
-91, 148, 306, 426, 505, 584, 664, 743, 823, 902, 981, 1101, 1259, 1498,
-1078, -899, -779, -689, -630, -570, -510, -450, -391, -331, -271, -181, -62, 118,
-1695, -1370, -1153, -991, -882, -774, -665, -557, -449, -340, -232, -69, 148, 473,
-176, 86, 260, 390, 477, 564, 652, 739, 826, 913, 1000, 1131, 1305, 1566,
};

static uint64_t conv3_weight[16 * 9] =
{ // torch.Size([16, 3, 3, 16])
0xd93e6c6ddd4edc6d, 0xbcd23ed5bda6d5e9, 0xb56dd6eced355b3a, 0x665c4ece5c6dd5ee, 0xdcd1dbecdd0ddeed, 0xd6be543666b665d5, 0x6cea636eee7c4350, 0xc6ce65edef406ec3, 0xb670d6eddb065ded, 
0x4deec664ee5dd1e0, 0x65dd36eded05e5c4, 0x65e45556c554e74e, 0x545d4dbedc5edeec, 0x53dde35553d67acd, 0xd554e5da6d1453a7, 0x6cdd3f4ee65d4d0d, 0xbee5666ddde6c5be, 0xd556ecc9dd5536e5, 
0xb545d1e655eced66, 0x3e55545dc515b4ee, 0x62dd6e5e45dee59c, 0xcd46b65e4654e6eb, 0xce4f9edeeb6fd4d5, 0x925df6d956d65466, 0x5ebe5dddae60dce3, 0xe5c5e0eec6d566b5, 0x56365bed945dc6d5, 
0xc4665d5ce7d55e65, 0x643d327d4c5e45dd, 0x65dec5c66945cd5a, 0xcecf5d7ce7cc65ce, 0x4644bdc6dc35cef7, 0xded4566376b47d3b, 0xefec4ecbc46c6dca, 0x55e66d3d33dc4ce6, 0x6dd6ce55d6e555ed, 
0x545e4de50ee6e6bd, 0xecaedd66c5b66c2e, 0xdecec45ec52bcd0e, 0xe25664556dd5d7cb, 0xc66ec6e6d4ee5c59, 0x4c652eadd56ddd6e, 0x54e634c6155b4612, 0x26bdd6d13ce156ae, 0x4e6c5eb1574d1d59, 
0xeebdede3d6dded53, 0xeee3d6ec555dd6d4, 0x6b5d6ed6cb657be6, 0x5c3ee2e6603de465, 0xd3555ded65464356, 0x6b55b5e6c9e9c6a5, 0xdeead2ede606e35d, 0xdee4dc3e93c0e465, 0x5ed65eed34ebf56d, 
0x463707ed66e56064, 0xe15c74c576e65c4d, 0xeeee2c696c6ed6ef, 0x4dd4c4eb67304dbf, 0x6fee457af2bee55c, 0x34cc4d7c6ba5ebe5, 0xddcb7e6e1dafe9dd, 0x496ce45c3d57666a, 0x66c5d6ed5dd5e56d, 
0xdefc0dbe5365ede1, 0x4563db3561eb6644, 0x6c6565ed4d3e3adc, 0x5ae45cbdec5d505e, 0xead5c7edeced6ff5, 0xd62e6d5ce56bce54, 0xee442e6c51aeeb42, 0xe65e6d6eb3d563e6, 0xe55654ddcbbe5c4c, 
0x7eeedb3d455e55c5, 0xedee5e47e6e42595, 0x31e76527dc36a6d4, 0x54e9ed36d64d6c15, 0x64f5edcc5a63e796, 0x6cd56f5b65cea6cd, 0x6dd5e5e659e64eed, 0x545ee656d4556c46, 0x4e5c5e645d656c35, 
0xc5e7e456654b66c4, 0xe756e6d645e576bd, 0xe66d14e67eee7ec0, 0xd5d4ceceedd5e5b2, 0x6dee3cdecdebeeee, 0xd46dd7e5b6c65fd7, 0x3fce5e6de76c4fae, 0x6c636d5f525e5396, 0xc4665655d5456a46, 
0x66b6de3deee5cdee, 0x42e656444d3c6e5e, 0xcb64354c66a4cdd4, 0xe5644beb6bc31d64, 0xdded7b5bdc5ce5fb, 0xe37ce5c565ee5f5e, 0x5d255555557cbdee, 0xdc6f3355de22dccd, 0xf5754d6e66416cd6, 
0x6ccd53a66e5d656d, 0x7eebde5dce6466de, 0xd5e16edec3deeb55, 0xe566f5136ee56d65, 0x595edec56ba64546, 0x655ca3d3cd3d66ed, 0xe6c6d65dd6d1ed4a, 0xd5c53d5440c6de5d, 0xe4c5544d464cdbc5, 
0x6ddcbb5caccdeb34, 0x66eed55ede45ca3e, 0xd66456556ddb3ba6, 0x6d4ecdd6d0e6e6b6, 0xdc74e73c5b36ceb7, 0xcdbc54a463d55edc, 0xb554e651ded66fed, 0xe56e35c6d545bcb1, 0x50da43ebd5634d53, 
0x3d4564d1e2b49ee5, 0xddb4c155decbd665, 0xd56b6cced654eedd, 0xd6dd5deeece5cdd6, 0xe57756b6565c3ed4, 0xefde7deddeaf95ed, 0xcedc6e65e05cbc3d, 0xce6dcccefa5e46d6, 0xb56e46a645e55de6, 
0x5d5ed4ec6d602b4e, 0xddb9ced4ab64e6de, 0x6cb5dc26ef4ee055, 0x964446d7a6d75646, 0xd4dc4de76e374366, 0xe36ee6bd6ef6b654, 0xd5cc2475e2d0e66f, 0xe5912435e5eede2d, 0xd534cdd6e262d56d, 
0xd57656d36decded6, 0x5ec5c54e6ddeb40d, 0x43403ec2de644652, 0x5e65bc52d5d4c3d0, 0x6ed56d64563d5ebd, 0x5de5de4c4b24e5cc, 0xddbe4ec6e4ceea54, 0x965e436d46dd5e6c, 0x62ddcd54a75dd32c, 
};

static int relu3_threshold[16 * 7] =
{ // torch.Size([16, 7])
1786, 2206, 2625, 3045, 3675, 4515, 5774,
2103, 2524, 2945, 3366, 3998, 4841, 6104,
2391, 2820, 3249, 3679, 4323, 5181, 6469,
973, 1355, 1736, 2118, 2691, 3454, 4599,
2621, 2908, 3195, 3481, 3911, 4485, 5345,
1331, 1741, 2151, 2561, 3176, 3996, 5225,
738, 1713, 2688, 3663, 5125, 7075, 10000,
2296, 2685, 3075, 3465, 4050, 4830, 5999,
253, 711, 1169, 1626, 2313, 3228, 4601,
2879, 3289, 3699, 4110, 4725, 5545, 6776,
1435, 1899, 2362, 2826, 3521, 4448, 5839,
423, 880, 1336, 1792, 2477, 3389, 4758,
1130, 1557, 1983, 2410, 3050, 3903, 5183,
2604, 3111, 3618, 4124, 4884, 5897, 7417,
3090, 3426, 3762, 4099, 4603, 5275, 6283,
41, 876, 1710, 2544, 3796, 5465, 7968,
};

static uint64_t linear_weight[784 * 10] =
{ // torch.Size([10, 784])
0xeb5deeece4eddde4, 0x5e546640540a6dde, 0xc54dccc55e2e242d, 0x6e564a45bbeee45d, 0x5e45665edb2eed64, 0xdca3dea425664bcd, 0x9aa4455a454b56ab, 0xfe535fe4ebec4ddd, 0x5c53dc53454a9543, 0xd23deeeccededadb,
0x5c4cc5d3544c4e4a, 0x6ac6cc5bd5ec545e, 0x4d4ddb3add5d4cc4, 0xee5ad1dd504c44ad, 0xd1e5b9cc5ee4c5c6, 0xbdd1dce3edacdc50, 0x55d5addc6ceadcb3, 0x577cd5d66c66354d, 0x20d3bbcd9e34cbed, 0xcd5d24bcdcd33ad2,
0xdddd953e4babb654, 0x553656d5a46bd3e5, 0xd3de4d5bdd66cdd9, 0x2bcde4553efd505d, 0xdb3494c4234dd545, 0x9cde42dc3dd43a3a, 0x324eacd42cde53ab, 0xe625b6d55663e5bd, 0xcd9339dadd4d535d, 0x5655553dc53d4d53,
0x635cc13ee54344e9, 0x55d26553e65a954e, 0x0564bc5d443543dc, 0xb35c9ed3ac45455d, 0x6e5ee45a5dd1de5d, 0x2addda53503cd5d5, 0x40de016d439d21d3, 0xdc9ee2ddedceb6ed, 0xc33d15d4c5d14d44, 0xa0c3eddd33bce3b5,
0xc5db49434564c4ac, 0xbcb6631edbc464f3, 0x94cededfec55cdec, 0xeed9e23e45dc9efe, 0xd6656d4d559da5a4, 0xe43eca6b9e3d4656, 0x5bd5cb15ccceb535, 0xac55b9a452c4dede, 0x5153d543245dd33d, 0xe456c1b45544ed26,
0xd45555edec5a41da, 0x56bc4e5c66ee463c, 0xd5155cecd452c11b, 0x3d43cbdced535add, 0x4e43ec665ded02c4, 0xecb9c64edd4454ed, 0x30b513cb53555dc5, 0xcd9eddb46c222a59, 0xce3154dd455ab455, 0x54cad15bde2d954b,
0xddd5c595dbcd9bb5, 0xd6c5dcdc505d953e, 0x3e3546ddeebc15db, 0x43de46de5cdb54db, 0x66a1ce41db0ddde5, 0x443c5ecdc5d555da, 0x545935536654bd25, 0xec5c15ce5635e696, 0xcdc56d4c9bdb5dcb, 0xcdd35d55bed5ac56,
0x635ad514c3edc2dd, 0xbd5e1ccd5399eceb, 0x5559c3c435db493c, 0xd32566435cc63b52, 0xc4345465c2434be5, 0x30efe9ab33eb51de, 0x4a5ec4cdaed553d4, 0x56ba4aad260dde55, 0x5d5644ccc59b0564, 0xdedc34c10cd46653,
0xbbadb55d55a25bdd, 0x4cd5cceca55ddeee, 0xdc55db0355c55245, 0x6c5ad044ddbb3cce, 0xdde5ef35b543dce5, 0xcb2c355cc5a4dedb, 0x4cd4ac422ad5459a, 0xb5c6d9d4aecd54ed, 0xcddd5a5365bcdc95, 0x2c55dd044cce391b,
0x9b33e55dde2dce4a, 0x4965cd556d556dee, 0x3db34d5d3b45d5cd, 0x55eb56e5565edd62, 0xd66346deeec524dd, 0xd3cae4b2cd5cc046, 0xdb5565b0604d3b4c, 0xd2c50dc45d43e5cc, 0xcddce5dda5a4dd93, 0x4bdde45414552ccd,
0x15cc554cd14c54b4, 0x6d50ed5554ddedd2, 0x3433bed5c9dcedd5, 0x5934e5edd4ceee54, 0x5e542454c65662e5, 0xd5ddd4e53eda5b2d, 0x454c5aabdb2a45cc, 0x4dc3eeebd4ddde64, 0xc2d44a2a424564b9, 0xdcadc66dd4b66d44,
0xf3c4459503d2a664, 0x1d5e6d3c35554dee, 0xfe5dd345c5410445, 0xda6dcedded2b2eda, 0x2e0be5b5d6c5b2db, 0xf4d545dddd45dcac, 0xdc2b35ac2c354524, 0x55da5564ddcd3dec, 0xee2b5d5654c33650, 0x55d44b5c25499d04,
0xcb3cca4a3ebcebdd, 0x454e3ee4d9542eee, 0x23bd5d3c1c350edf, 0x49ea3caea5e55b46, 0x765b4456bbdebeb9, 0xd55255651db45b6c, 0xdd995ac6643b5ddb, 0xdf552d45cee66439, 0x5cbd2ebbd344956d, 0xdfc2e42cd4d25dd2,
0x3514bd5569dc41bd, 0xdd43ed54c500ed55, 0xdc5becc5b55cdbd9, 0x4ceb4ed5dbdcd36d, 0xbe70d4244a55d546, 0x4ed931dcfec5532e, 0xddedc56ceed11b3d, 0x4535ec6dbc4d35d5, 0x2ce5519965455c54, 0xe9cb533b5193c15d,
0x45aede6a1d55d56a, 0x355dd654e4d453de, 0x53d54b4049fedd53, 0xdb5ddcd451c294bd, 0xcbed664bde595cc4, 0x2546cd93d46343bd, 0xe55e4e55a2443544, 0x24bd56adcde55ded, 0x5d55d26adc5bc3dd, 0xc5d034ccd3155c35,
0x64d4d55cadc40fed, 0xde53545ad53ce3b4, 0x2305d54c3bbd14b5, 0x66544d55dd6ddeee, 0xebbd554ec5e54436, 0xcebd245bdcc5cedc, 0xcec552c1d545ebc4, 0xb635ced01c56b566, 0xd9bd4c54a345e9db, 0x60bee3035d4c5555,
0x5c3c94bded23ce44, 0xecceddaded4adee4, 0x4cb5553daca64edb, 0x3d0a95cd5644dedb, 0x54d5454de355b64d, 0xe2d14d5595cdc562, 0xd5adcd9c40dd3c4d, 0x95bc5cddd1b66ea0, 0x22535d552453c554, 0xdcc9dbda45be3ecc,
0xb3e134d4de345ee3, 0x644be546d60d3534, 0xa56bcced334cdc50, 0xc24c5656d92c3645, 0x5acede9db05e4c5d, 0xdecd6463db2c5762, 0xc3b24bc4d424ddc5, 0xdeceec4526de1b4d, 0xac144adcdb5dcced, 0xd11c553d4dbc45ee,
0x4a6d3ccab5e3d934, 0xc55d634be5dc55c5, 0xa5d40444d53aa220, 0x543ed335ceecd551, 0xccdcee0cae469c4c, 0x5d5433eadd2d334c, 0x455642ca355c32c2, 0xb5dd45d4392dc555, 0x3d5c13b9d523ddd0, 0x5eb3dec2dd45444d,
0xc5535c2d4dbd35ca, 0xd6a2d46ded5de03d, 0x22dddd4de52c5d23, 0x66dece4543414cc3, 0x3465504443c362ca, 0xd4eb46adcc4c4624, 0x25655ddcc54c5d5b, 0xcbbe244ca9adede4, 0x5ddbb53b43ccd41c, 0xccba5cd55455ed22,
0x5640ecddc3dd4ccd, 0xd546b64d6e3dccee, 0x5452a0c5554555a4, 0xe534a5d55bcd2ece, 0xc3d2645ed3d9bd4b, 0x44c65ec5dd9b454d, 0x44ddd211443ccc54, 0xed5cc5456445d535, 0x34d49636dd42c435, 0x9cc4d3c4dbceda4c,
0xadd44edad52ddeb5, 0xe435bdd5ddcedd6d, 0xcd52305d1dceeedd, 0x54dde51d4e144659, 0xedcdedc45edd55c5, 0x5d4d9cc1c45355d2, 0xa5390c1c5dd9e3dd, 0xda4dce5cd1eec645, 0x1c0443cddeb5ceed, 0x4d4ad5dbd9cb5365,
0x665c5c15ca34c4ee, 0xd355645be9e24444, 0xdeec5554c64553ad, 0xe5c56a3de4b55556, 0x5335e5656c553c64, 0x3ed5dee3be52bed4, 0xdddc2aa523333325, 0x5d4535a5ee3245eb, 0x4b4dc4c0dcdccda4, 0xdd54544ca5294bdb,
0xded5c5c4d64d51c3, 0x4e54ec1c35edde64, 0xdee544a225b422bc, 0xb90dde555e033a5d, 0x55465d9ea5dbd5dd, 0x6346d43c5dde4dbc, 0x4c45455354cdc0ad, 0x6545ed04cb6ec44d, 0x55b5354d35355d34, 0x44d249dcc9d4da55,
0xd3c4b55e44ecc52b, 0x05cdeddde4505b5d, 0x5db26cd344ee95ce, 0x4e5c5e6554ddc634, 0xdcddc5dd4e55c44c, 0x65c5c40d6c21d462, 0xd405dc65de0e35c2, 0xdd45d5cdbd4366ec, 0xddc4d5dd53ddd650, 0xdcc4249c59a344cc,
0xd455c545b5cb04dd, 0x2eecddac6ae0febc, 0x9e5d9c54cc25455c, 0xde5d5dcc5de44466, 0xc5e3eeed52bdfee4, 0x5b564135ddbcdaed, 0xcdcb0aee14b55dad, 0xd56ed6556d5c166c, 0x63dc9b554c4b143d, 0x43cd5334cde3b55c,
0xdc55c6dded9d35dd, 0x6c465dddded6a5ed, 0x56c5a65acdb59dec, 0xb5cb6cd5beddee6a, 0xbcbc5edb65b6ebd4, 0x4d4c95caadbc5c65, 0x34444c331d44d4c0, 0xd3eeed46ede54c4e, 0xd0433c42554b4c34, 0xea33cdca1612cd33,
0x4ace15ddc543954c, 0xb4cd6dcd52c34c65, 0xedd34dd514503d26, 0x9dc4a6cdca4463eb, 0x64cccee352edebc3, 0xd691c3663d555bdd, 0x3656545ee0cde5d1, 0x341d5dde3d5e44e5, 0xd3364ccc55c494db, 0xb4bd45d445d4ac2e,
0xdc4a5a5dd5454ad6, 0xe66dd6e3bddac6d6, 0xc3c566ddd2442cdd, 0x7dd33ddd4b596bc5, 0x4e13c66b3055665d, 0x6de3edd5d5c2c5dd, 0x59b3ed3534de45b4, 0x5d4c5654d55c56bc, 0x4da4dbecd445dc45, 0xcd4a5eed4b41dec1,
0xd52d4dd44ed4d56c, 0x5dd6bde35edde56e, 0xdb9db3cced4cd46d, 0xc45a2566665bdde6, 0x5cdd5cedde4d3eb3, 0x13d59565651a5466, 0xd355da2cbb1433dc, 0xced6dddc5ea2dccc, 0xdcd4c36efdeb1d49, 0x543c4cdc3155b5d3,
0xdf4d255d0325d4de, 0x56e4d654cd63d6b1, 0xdccccc52194bc463, 0xcdd4342d4aec5acd, 0xeceee3dd05ed6cdd, 0xd6596ad43dccd4c0, 0x56b36dc3531d29cb, 0x5c5c2be6c65ecbed, 0x4deaedd54e5d55dc, 0xa1ccc4554c4d13bd,
0xc244404dcdd4e534, 0xb341c45dc54c2ebc, 0x55522b2dddc4ca56, 0xddc2aee65cee45d3, 0x5e46661e65666d55, 0xddeed55656ccc5dd, 0x4bdd44545d243142, 0x595cde4d3a1c9c65, 0xbb654493d4c5d5dd, 0xcc4c435cececcdda,
0xcc4dc35b54446559, 0xbb66ed36e5c5cc64, 0xdc6b4cd23d355bd9, 0xddd534ddc4c3ef0e, 0x64ecbedd4e1b51cd, 0xa9d4354daccd3ac3, 0x350d455b4dd9d5b6, 0x54cccd4bcc3c044d, 0x51d4cb455ddd9da1, 0x4ca4043b45533d64,
0x44d33c25d4b32dde, 0x24e355dce214d3cd, 0xd4c5453ddd3c0d4d, 0x5d5ceb05d5d526cb, 0xd2c5c4d5cddd5ec3, 0xbe5dedd55dd55bb0, 0x5d3b55deedd4c4dd, 0x4aec44dd5b6aedc5, 0x2dad4e5db34c2555, 0x3ddbb4b493c32dd3,
0xc5dedc4b3ccedd5d, 0xeee2d0cddeee5c45, 0xd3505c42dd5b2dbc, 0xeea625ec3566ced5, 0xceee36b66eceae54, 0x6632a3d366dde526, 0x552deb5dbddcc9ca, 0x4d5465a3d5c41de4, 0x2a24c3cdac3dd544, 0xd54bddd5ac5cd4bc,
0xbedccfcc4d56cdb6, 0xd4ddede65db9be4e, 0xc56ccde32545c445, 0x25eb45ccdee31d55, 0xdcb45451e5d5dac5, 0xcd3d9b559646bc4e, 0x35c33e3c2d41dcd5, 0xdd36ee4c6146a3c5, 0x4eb534a3515c634c, 0xdeee55a3e240cbcc,
0x5354dd5c5c9ec434, 0xb52dd54dbcda6cce, 0xd55c15233dd643cb, 0x5bd5deea5dd4e262, 0xdb25a0ac0d0153c4, 0xd6ddde355d5e9c55, 0x955dcd05be5ab255, 0xc5d42e3decccee5c, 0x4bdddd9b2c5ebb24, 0x514d51cddd5cdd45,
0xdea444dc93d6d5d5, 0xcd54bcc17b4ddd56, 0xca055943d3abb59c, 0xeb35655eeda5d53d, 0x4bb554eb645ee56c, 0x649b3556caae6b35, 0x3459455546a5b5d4, 0xbdddad44beedc65d, 0x3dddd55ddd3d5cd4, 0x9db3c4dbd0da5d53,
0x4c5dbdddea3544de, 0xd6d46464de56c552, 0xd43dc4cc5d1452ad, 0xeeabec26ccd564cd, 0xa5c2d393e2eeea3e, 0x4de4c4cd6dbccae6, 0xcbdececdd1dc9abd, 0xbd23666dd497645c, 0xcadbd54dc24ee2d3, 0xb3c4dd4d3d9ddddb,
0xca5a055d5455bcbb, 0x54255646dd2ddd66, 0x4cdb5bb45c44c545, 0xcd45db6de2dccdc4, 0xfddca5dd31cbd56e, 0xe36dac545d59a465, 0x565b44c4ddd42eb5, 0xed553225444c5555, 0x2c53c43dadbaee1c, 0xed5bc5cdac4496bb,
0xe54cbcd5e43414ab, 0x5ed4ddacdbd4e9c5, 0xcddc544554bcdbc9, 0x5d4553cdd5c4ecdd, 0xbbced4dd44de6ace, 0xedaced4cddc535b2, 0x34ad0d4b554db942, 0x3ece645dbd4b5d14, 0x50512daa539d5ddb, 0x4540c43b45254ddd,
0xe5524c2a5c34d555, 0xc46e34dae59031d5, 0x3a135c31341dd4d9, 0xdc5ccc15d451c2eb, 0x6eebd49b55e9be45, 0x355c2d4edeebaacd, 0xcc1d5545345dd35c, 0x559354e5de3ddb5e, 0x3d4c54de1645253c, 0xbddb933dc13ddcbd,
0x5434efcd5be3b6d9, 0x5664d445d44bfc4d, 0xd55dddd0c45c54cc, 0x2d3bc6baeb442c04, 0xea346554572cd3bc, 0xc2d9b2d56e545a5c, 0x35da5dee4dcc055b, 0xcb6519425bdea404, 0x542bc1dd55464dd5, 0x453b400c36abc93c,
0xc4ed3bc2bc4cb5c4, 0xed1ecbd2dc355b6c, 0xb44cc444c555244b, 0x1635cd5d5a0ded3d, 0xdcd5d91da5d3cb5d, 0x1ee45cd52c6cc1dd, 0x1db53de1cd54b32c, 0x45c5b56b53b35333, 0xcdd55dc445455cdd, 0xcac5c40cc4a5eac4,
0xbc2ee5eeceede4ee, 0xa5ebbd5ddd45c2ed, 0x54b91b5cc544b4e0, 0xd665a5a6645465e3, 0x4b6c552ceeedd5be, 0xc4553d556b3d9636, 0xc9dfcbd56dfc3554, 0x4ccac6b5ec46a4b4, 0x4ceedb533eed9503, 0xed54ddedc5db43c2,
0x53bdd1355345edcc, 0x66dc5c0c65b34695, 0xcccb4bc3454aad13, 0x5dcc5da3ded56c42, 0xcbc5ed55dd4d32c5, 0xd4c5b9db43cb234d, 0x34d135c34343dc45, 0x6cebde94c34dd45e, 0x4aad5532dcdddeb4, 0xc5dbd24d5dd96d35,
0x5bced5cd5302dc5c, 0xddd0e5d435de5de1, 0xdd5ac35bbc54dc5b, 0xdaedd465cd4d31d5, 0x1deccdbedbdeeeed, 0x53dcebe4cdb35cec, 0xdbcdc1d0ddb69346, 0x553de0dcb5c66eee, 0x205acd64dc53e0e4, 0x4ce1d03cd5a53de3,
0x2e55c24ccc0ddd54, 0xe6cfdaec6e55d6c1, 0xc3541552ddc0903d, 0xcd5c6c454cfdedd4, 0x65a45466dcde6933, 0x4d55c3c45bcd7b6b, 0xc565ad345cb5e42d, 0x5dddee4b5b514c64, 0x545d2cccdd455c44, 0x54d32c544553ec55,
0xddcde5d1d9555d55, 0x54dd4d45dd465cc6, 0xdcebbc5adb554645, 0xd655c5ced5bd56cc, 0x44ced445b0dd444c, 0xcdcacc56cd6c34eb, 0x4be4ee45422550ad, 0x5a16356e4ecdddd5, 0xc5caecdeddb53a3c, 0x541c5b42cdbdcdd5,
};
