static uint64_t conv1_weight[16 * 9] =
{ // torch.Size([16, 3, 3, 1])
0xd, 0xc, 0x4, 0x6, 0x7, 0x6, 0x6, 0xd, 0x5, 
0x6, 0x7, 0xd, 0x6, 0x6, 0xc, 0xe, 0xc, 0x3, 
0x5, 0xa, 0x1, 0xe, 0xd, 0x6, 0xe, 0x4, 0x7, 
0x4, 0x7, 0x6, 0xd, 0xd, 0xc, 0xe, 0xe, 0x2, 
0x6, 0x5, 0xc, 0x7, 0xa, 0xf, 0x6, 0xc, 0xe, 
0xd, 0xe, 0x3, 0xe, 0xe, 0xe, 0x6, 0x7, 0xe, 
0x5, 0xe, 0xf, 0x6, 0x4, 0xc, 0xd, 0x7, 0x4, 
0xf, 0x5, 0x5, 0xd, 0x6, 0x6, 0x4, 0x5, 0x4, 
0xd, 0xf, 0xd, 0xd, 0xe, 0x4, 0x6, 0x7, 0x7, 
0xe, 0x6, 0xd, 0x7, 0x6, 0x4, 0x5, 0x4, 0xb, 
0xd, 0x3, 0x6, 0xc, 0xa, 0x6, 0xe, 0x7, 0x3, 
0x6, 0x5, 0x7, 0x3, 0xb, 0x4, 0xe, 0xc, 0xe, 
0xe, 0x5, 0x6, 0xc, 0xa, 0x6, 0x5, 0xe, 0x7, 
0xf, 0xe, 0xe, 0x3, 0xd, 0xb, 0x5, 0x5, 0x4, 
0x7, 0x7, 0x4, 0x2, 0xd, 0xe, 0x6, 0xe, 0x5, 
0x7, 0x4, 0x1, 0x7, 0x6, 0xd, 0x7, 0xc, 0x4, 
};

static int relu1_threshold[16 * 7] =
{ // torch.Size([16, 7])
-508, -417, -326, -235, -99, 83, 355,
-194, -142, -90, -37, 41, 146, 303,
16, 72, 128, 183, 267, 379, 546,
123, 169, 215, 261, 330, 422, 560,
452, 517, 582, 647, 744, 875, 1070,
345, 416, 488, 559, 666, 809, 1023,
338, 389, 439, 490, 566, 667, 818,
-188, -142, -96, -51, 18, 110, 247,
34, 90, 146, 201, 285, 397, 565,
-416, -342, -268, -194, -83, 64, 286,
87, 142, 198, 253, 337, 448, 615,
154, 204, 254, 303, 378, 477, 626,
167, 226, 286, 346, 436, 555, 735,
189, 213, 237, 261, 297, 345, 418,
1297, 1681, 2064, 2448, 3024, 3792, 4943,
-817, -684, -552, -419, -220, 45, 442,
};

static uint64_t conv2_weight[16 * 1] =
{ // torch.Size([16, 1, 1, 16])
0x6eeebfecfd6f44df, 
0xfe57b3d66e5d6766, 
0x56cdcf605a6f7ec3, 
0xeed6ddfe495565eb, 
0x4d5dbfd7e5de65e2, 
0x5ee9e67f7e5bba69, 
0xdbdbd5d65754c6e6, 
0xeb5d46d6d9bf55bd, 
0xd66d4ddce66e7aec, 
0x6ee5f6554f77e766, 
0xa55d26d5dfd5ceee, 
0x53eef65d7c559ee6, 
0x6e715d37561ecee4, 
0xedc6f9f44ee5cb2e, 
0xf46ddcfdf5caccee, 
0x56dd6e7d66ab7d5e, 
};

static int quant2_threshold[16 * 14] =
{ // torch.Size([16, 14])
-1736, -1456, -1269, -1128, -1035, -941, -848, -754, -661, -567, -474, -333, -146, 134,
-861, -630, -475, -360, -282, -205, -128, -51, 26, 103, 180, 296, 451, 682,
-722, -493, -340, -225, -149, -72, 4, 81, 157, 233, 310, 425, 577, 807,
-1148, -893, -723, -596, -511, -427, -342, -257, -172, -87, -2, 125, 295, 549,
-705, -498, -360, -257, -188, -119, -50, 19, 88, 157, 226, 329, 467, 674,
-1222, -798, -516, -305, -164, -23, 118, 259, 400, 541, 682, 894, 1176, 1599,
-867, -661, -525, -422, -354, -285, -217, -149, -80, -12, 56, 159, 296, 501,
-576, -226, 7, 182, 298, 415, 531, 648, 764, 881, 997, 1172, 1405, 1755,
-2020, -1483, -1125, -857, -678, -499, -321, -142, 37, 216, 395, 663, 1021, 1557,
-804, -358, -62, 161, 309, 458, 606, 755, 903, 1051, 1200, 1422, 1719, 2165,
-1147, -946, -811, -710, -643, -576, -509, -442, -375, -307, -240, -140, -5, 196,
-1543, -1087, -783, -555, -403, -251, -99, 53, 205, 357, 509, 737, 1041, 1497,
-91, 148, 306, 426, 505, 584, 664, 743, 823, 902, 981, 1101, 1259, 1498,
-1078, -899, -779, -689, -630, -570, -510, -450, -391, -331, -271, -181, -62, 118,
-1695, -1370, -1153, -991, -882, -774, -665, -557, -449, -340, -232, -69, 148, 473,
-176, 86, 260, 390, 477, 564, 652, 739, 826, 913, 1000, 1131, 1305, 1566,
};

static uint64_t conv3_weight[16 * 9] =
{ // torch.Size([16, 3, 3, 16])
0xd93e6c6ddd4edc6d, 0xbcd23ed5bda6d5e9, 0xb56dd6eced355b3a, 0x665c4ece5c6dd5ee, 0xdcd1dbecdd0ddeed, 0xd6be543666b665d5, 0x6cea636eee7c4350, 0xc6ce65edef406ec3, 0xb670d6eddb065ded, 
0x4deec664ee5dd1e0, 0x65dd36eded05e5c4, 0x65e45556c554e74e, 0x545d4dbedc5edeec, 0x53dde35553d67acd, 0xd554e5da6d1453a7, 0x6cdd3f4ee65d4d0d, 0xbee5666ddde6c5be, 0xd556ecc9dd5536e5, 
0xb545d1e655eced66, 0x3e55545dc515b4ee, 0x62dd6e5e45dee59c, 0xcd46b65e4654e6eb, 0xce4f9edeeb6fd4d5, 0x925df6d956d65466, 0x5ebe5dddae60dce3, 0xe5c5e0eec6d566b5, 0x56365bed945dc6d5, 
0xc4665d5ce7d55e65, 0x643d327d4c5e45dd, 0x65dec5c66945cd5a, 0xcecf5d7ce7cc65ce, 0x4644bdc6dc35cef7, 0xded4566376b47d3b, 0xefec4ecbc46c6dca, 0x55e66d3d33dc4ce6, 0x6dd6ce55d6e555ed, 
0x545e4de50ee6e6bd, 0xecaedd66c5b66c2e, 0xdecec45ec52bcd0e, 0xe25664556dd5d7cb, 0xc66ec6e6d4ee5c59, 0x4c652eadd56ddd6e, 0x54e634c6155b4612, 0x26bdd6d13ce156ae, 0x4e6c5eb1574d1d59, 
0xeebdede3d6dded53, 0xeee3d6ec555dd6d4, 0x6b5d6ed6cb657be6, 0x5c3ee2e6603de465, 0xd3555ded65464356, 0x6b55b5e6c9e9c6a5, 0xdeead2ede606e35d, 0xdee4dc3e93c0e465, 0x5ed65eed34ebf56d, 
0x463707ed66e56064, 0xe15c74c576e65c4d, 0xeeee2c696c6ed6ef, 0x4dd4c4eb67304dbf, 0x6fee457af2bee55c, 0x34cc4d7c6ba5ebe5, 0xddcb7e6e1dafe9dd, 0x496ce45c3d57666a, 0x66c5d6ed5dd5e56d, 
0xdefc0dbe5365ede1, 0x4563db3561eb6644, 0x6c6565ed4d3e3adc, 0x5ae45cbdec5d505e, 0xead5c7edeced6ff5, 0xd62e6d5ce56bce54, 0xee442e6c51aeeb42, 0xe65e6d6eb3d563e6, 0xe55654ddcbbe5c4c, 
0x7eeedb3d455e55c5, 0xedee5e47e6e42595, 0x31e76527dc36a6d4, 0x54e9ed36d64d6c15, 0x64f5edcc5a63e796, 0x6cd56f5b65cea6cd, 0x6dd5e5e659e64eed, 0x545ee656d4556c46, 0x4e5c5e645d656c35, 
0xc5e7e456654b66c4, 0xe756e6d645e576bd, 0xe66d14e67eee7ec0, 0xd5d4ceceedd5e5b2, 0x6dee3cdecdebeeee, 0xd46dd7e5b6c65fd7, 0x3fce5e6de76c4fae, 0x6c636d5f525e5396, 0xc4665655d5456a46, 
0x66b6de3deee5cdee, 0x42e656444d3c6e5e, 0xcb64354c66a4cdd4, 0xe5644beb6bc31d64, 0xdded7b5bdc5ce5fb, 0xe37ce5c565ee5f5e, 0x5d255555557cbdee, 0xdc6f3355de22dccd, 0xf5754d6e66416cd6, 
0x6ccd53a66e5d656d, 0x7eebde5dce6466de, 0xd5e16edec3deeb55, 0xe566f5136ee56d65, 0x595edec56ba64546, 0x655ca3d3cd3d66ed, 0xe6c6d65dd6d1ed4a, 0xd5c53d5440c6de5d, 0xe4c5544d464cdbc5, 
0x6ddcbb5caccdeb34, 0x66eed55ede45ca3e, 0xd66456556ddb3ba6, 0x6d4ecdd6d0e6e6b6, 0xdc74e73c5b36ceb7, 0xcdbc54a463d55edc, 0xb554e651ded66fed, 0xe56e35c6d545bcb1, 0x50da43ebd5634d53, 
0x3d4564d1e2b49ee5, 0xddb4c155decbd665, 0xd56b6cced654eedd, 0xd6dd5deeece5cdd6, 0xe57756b6565c3ed4, 0xefde7deddeaf95ed, 0xcedc6e65e05cbc3d, 0xce6dcccefa5e46d6, 0xb56e46a645e55de6, 
0x5d5ed4ec6d602b4e, 0xddb9ced4ab64e6de, 0x6cb5dc26ef4ee055, 0x964446d7a6d75646, 0xd4dc4de76e374366, 0xe36ee6bd6ef6b654, 0xd5cc2475e2d0e66f, 0xe5912435e5eede2d, 0xd534cdd6e262d56d, 
0xd57656d36decded6, 0x5ec5c54e6ddeb40d, 0x43403ec2de644652, 0x5e65bc52d5d4c3d0, 0x6ed56d64563d5ebd, 0x5de5de4c4b24e5cc, 0xddbe4ec6e4ceea54, 0x965e436d46dd5e6c, 0x62ddcd54a75dd32c, 
};

static int relu3_threshold[16 * 7] =
{ // torch.Size([16, 7])
1786, 2206, 2625, 3045, 3675, 4515, 5774,
2103, 2524, 2945, 3366, 3998, 4841, 6104,
2391, 2820, 3249, 3679, 4323, 5181, 6469,
973, 1355, 1736, 2118, 2691, 3454, 4599,
2621, 2908, 3195, 3481, 3911, 4485, 5345,
1331, 1741, 2151, 2561, 3176, 3996, 5225,
738, 1713, 2688, 3663, 5125, 7075, 10000,
2296, 2685, 3075, 3465, 4050, 4830, 5999,
253, 711, 1169, 1626, 2313, 3228, 4601,
2879, 3289, 3699, 4110, 4725, 5545, 6776,
1435, 1899, 2362, 2826, 3521, 4448, 5839,
423, 880, 1336, 1792, 2477, 3389, 4758,
1130, 1557, 1983, 2410, 3050, 3903, 5183,
2604, 3111, 3618, 4124, 4884, 5897, 7417,
3090, 3426, 3762, 4099, 4603, 5275, 6283,
41, 876, 1710, 2544, 3796, 5465, 7968,
};

static uint64_t linear_weight[10 * 784 / 16] =
{ // torch.Size([10, 784])
0x4eddde4eceeed5be, 0xa4e4c4453d5cc4c5, 0x456bbab4e359dddd, 0x9e44345ee31cc536, 0xca4c46543494bd5c, 0xad14a5cede55554d, 0x5bb9dcbd595c5ddd, 0xdd2cde3c415da536, 0xddb52a55d55bdabb, 0xa4ecd2edd55e33b9, 0x4b45c41dc455cc51, 0x466a2d3059544c3f, 0xddbecbe3a4acc3bc, 0xdb14cd9655db4153, 0xa65d55d1a6edea54, 0xdef04cdac55d4d46, 0x44ec32dedb49c3c5, 0x3ee543ed4d431e3b, 0x439d3e5bacc3d6a4, 0xac53dbd4d2c5355c, 0xdcc4dd3cddce0465, 0x5bedd25dade44dda, 0xee4c43ac51c5c566, 0x3c15d46d4c5c5ded, 0xb25cce44e55b4c3d, 0xdd40bc5b545c554d, 0xdd53d9dedd6c55cd, 0xc459345cdd51eca4, 0x6da4545dd5a5a4cd, 0xc65d4de44dd4d25d, 0xed4d5230d552d4fd, 0x435e4ddcd404442c, 0x95564445b53cd4cc, 0xedd23b4d52c33d44, 0xd5ddecc3b4cded5c, 0x6bdc65d4ccfccdeb, 0x434ce9c5c5dd4535, 0x5d5d6d39cd444aed, 0xed4453aedddbd5c4, 0xbbcb5545d550a5ac, 0xba41434e5dcbc45e, 0x555d43c5a2c4255e, 0x9d6b3eb5dcfe4345, 0x4c5bc4cb2cb3de4c, 0xee4edeecee5ee2cb, 0xccde5435531ddb35, 0xc5cd2035dc5decb5, 0x45ddd0ccc42c55e2, 0x55d5559d1d5edcdd, 
0xedd6a045046645e5, 0xe545ce5db5cc6ca6, 0x5e3db64a5d656355, 0xe459a56e35562d55, 0x3f464cbde1366bcb, 0xc364ee66c5e4cb65, 0xe359d505cdcd5c6d, 0xbece9935dcc1e5db, 0xeeedd55acecc5dc4, 0xeed655d655dc5694, 0x2ddedd4555de05d6, 0xeed45553c3d6e5d1, 0xeee2459d4ee3e454, 0x55de005c45de34dd, 0xed354d4e456dd553, 0x4b3ec35da54535ed, 0x4eeda4dedaddecce, 0x4353d06d645eb446, 0x5c55cd5eb436d55c, 0xd30ed5ded64d2a6d, 0xeeccd3e6d46b645d, 0xd6ddecdd5ddb534e, 0x44442e9eb546553d, 0x46edde53c1ce45e4, 0xd5b5054edddedc50, 0xcbef0ea6caddcee2, 0xde5a6dedddd564c6, 0x56c43c25dcd6dc4b, 0x6d6caddb3e6dd66e, 0xe65edde53edb6dd5, 0x1b6d36dc456d4e65, 0xcbe2c45cd54c143b, 0x46cc5c5e63de66bb, 0xdc3d412ecd553e42, 0x54c5eeeddc0d2eee, 0xe4eb9bd56ededd4d, 0xecc6adcbd45dd25b, 0x65ddd4b71ccb45dc, 0x255c65ed46464d6d, 0x66ddd2dd64655245, 0x5c9e4dbdcadd4de5, 0x5d13095ead43e64c, 0xd4cfb44d544d4665, 0xc6b553cd2dbce1de, 0xde2c54ddd5dbbe5a, 0x59643b56c0c5cd66, 0x1ed5ed534d5e0ddd, 0x1c6d55e6ceadfc6e, 0x6cc564dd54d4dd45, 
0xd242e2e55cccd45c, 0x4cc4d5dda3bdd4d4, 0x9ddc66ddb5d4ed3d, 0xcd345344d5cb4650, 0xcedc55cefdedec49, 0xb11c254dcec5515d, 0xbd51cbeedd6453e3, 0xc394bd534c3c9555, 0x54255c5530bd55cd, 0xdc5d54b3d5d43bd3, 0x5ddecd9c5deb3343, 0x5440145c543dd5ef, 0xfde053c1c3d5db32, 0x9dbdc55b5cceb5cd, 0x35ddef9404b45d35, 0x5b41dbb3c45d5032, 0xbde46acad3555bc4, 0x05cdc433deccb65a, 0x022aa35d44404d5a, 0x32d5c25ed4dddd22, 0x4a5554555c0a2545, 0xddeeecd1d50325dc, 0xda35546c4555ceed, 0xcb224b522a445eed, 0xec59ee443dc62bd5, 0xc55452cc45c9d5e9, 0xced95bdca56a5c65, 0x62d305415dd43dde, 0xddc2442ddd665c3c, 0xd64dc4decc3bd9bd, 0x364cb49125cccccd, 0x65ac4cddd2b22555, 0x9db553d32dc4b6cd, 0xd4d0c3ddd3545c4d, 0xcbd2b5dd24c5053d, 0x544c54523edcc65c, 0xbc346dd33251c55d, 0xc95bba3d349550ac, 0xda2541d5cc4cd34d, 0x545c44c54bb5bdc4, 0x9cbdcb455445cddc, 0x9d4dd14313c531a3, 0xcc45c54c0dddd55d, 0xb442555c444cc44b, 0x0e4b445cc5b19b45, 0x31daa4543cb4bccc, 0xb5cd45cbb53ca5dd, 0xd3090cdd2551453c, 0x546455bda5cbbecd, 
0xd54eeebb54a465e6, 0xda44c405dd1da5ee, 0xd505dfe3554edcb2, 0xd55454ca3de9c53b, 0xefe9cd54e32e9dee, 0xdda535decdbc34d3, 0xbd45bdc5ed64ed34, 0x25b36cc53466523d, 0xecc3bbdd440da5c6, 0x26dde5655e65be55, 0x45eeec4dde5e4395, 0xade2b2deddecd6ad, 0x64b55e5aeac3ae94, 0xd63dcdbd5de4bec4, 0xdb492c154dcdd5bd, 0xeeedd6dd55d44566, 0xbded4465dc59a0d3, 0x5463c29d6565c42c, 0x155dceec533de345, 0x3cc4143454eced66, 0xece2dcb55d5a435e, 0x956441e4d15edd45, 0x65555b4ed3a65c5e, 0xd5a330e555edd09b, 0x436cdd4556e5c5e4, 0x66444ed5ccd5d5ed, 0xa6eeddeb5dc6bc5b, 0xbe3644acdc6a4cd9, 0x5cb695b4ddd33dd7, 0x6eddb5666652a54c, 0xdca5cea4d2434ddc, 0x3d54eec56eea2cdd, 0xe0fe3c4cdd435ddd, 0xbc625d5d50bec5d5, 0x5dec6653ce526aee, 0x55d13eedcc54be52, 0x262e4dd5aeed5db5, 0xd35d5adee55653be, 0xdc465dcc62cebaee, 0x4cdccd2ed6bd54dc, 0xddce4c5ddc3554d5, 0xbe2c154d51ccc5cd, 0x40c244beab6cb3d2, 0xd3ded0a5d5dc5361, 0x3e5645466a5a566d, 0x24c65ded3ad5ccd5, 0x5d13d4dc564ddead, 0x4ddedfc454c6c5dc, 0xcc65db5dec5c556d, 
0x46dee2bde56654e5, 0x6c5c4ee5cc9b5e1d, 0x545dd4324c4943bd, 0xd5ed1dd5a54ee5e6, 0x4a5ad955d4d6566d, 0x4c20ded566ce34e4, 0x5eddd0bd14ec1a66, 0x5eb4342c5645434c, 0x5ecd345b53fe5edd, 0xdd425ceeed64366d, 0x5e26656c454245e5, 0xbd2b5c6d5b5eb0e2, 0x9bebedbb6544b567, 0x645d55a4424d07eb, 0x4cc595edb466debc, 0x63445e5ce455dbbe, 0xd46b553ed4545d45, 0xd5c4e50bd9edeca5, 0xc4c964eac0eecdcc, 0xac263c3444055643, 0xb4db9d3de5462d3c, 0x5c55dde54cdedcde, 0x46c355c6565e5335, 0xdd5dbd5ae9d56455, 0xc44c55e4dd5cddcd, 0x4eefdb25deee3e5c, 0x4dbe6b56bde5cbcb, 0x3cbede253eeccc46, 0xd5665503b66c31e4, 0x3be3d4eddec5ddc5, 0xddc6de50dd3eeece, 0x55d66656e16664e5, 0xdc15b1e4ddebce46, 0x3ce5dddc5d4c5c2d, 0x45eaece66b63eeec, 0x5cad5d5e15454bcd, 0x4c3510d0ca0a52bd, 0xc65ee546be455bb4, 0xe3aeee2e393d2c5a, 0xe65dbc13dd5acddf, 0xeca6ed44dd4decbb, 0x54eb9e55b94dbee6, 0xcb3dc275455643ae, 0xd5bc3d5ad19d5dcd, 0xeb5ddeeec255c6b4, 0x5c23d4dd55de5cbc, 0xdeeeedbdebdcced1, 0x3396edcd66454a56, 0xc444dd0b544dec44, 
0xdcb466524aed3acd, 0x05cdcade3ecd1ddb, 0xa3a34dd3cd24edc9, 0x5d5dc30535addda2, 0x6564d3e9b6ace34e, 0xde4544dde46c9bce, 0xad555d5cdce5c344, 0xed15be33ba9efe03, 0xbded4a5cc553c2bc, 0x640cc5dc2b4eac3d, 0xd2b5ade35e4ddd5d, 0xcacd54dddd545d4f, 0xc6b54bd15655255d, 0xe2355cefcd139de4, 0xdb34364d39dc6452, 0xcdec5ccdb542dbec, 0x265cdc5955d41d2e, 0x2675c2bd3646dced, 0xc433d2ddae3345d5, 0x4264c4ccda64be4d, 0xd454b9dd5ce56c44, 0x2d55354c1cc9d4d5, 0x4deb25eb3eed5de3, 0xcbd4edd5c34d6436, 0x264d12c6d04c5c56, 0xdeadcbdd531465b5, 0x56c5cbdaac59c4d4, 0xddb555d3663c196d, 0xdd5c2c5d5dde3ed6, 0x6645a15656595d31, 0x0c4dccd34da6956d, 0xdd5ccc65655deedd, 0x3ca3dccad4534d9a, 0x0bb55dd55dded5eb, 0x625edd663d3a2366, 0xe4cb646955b9d3dc, 0x55c9e5d553eddd6d, 0x53b6eaac6553b946, 0x6eaccbd6dc4c4ed4, 0x564a95d545cad63e, 0x2b535cddc4decade, 0xdcaabeede4d2c553, 0xc5a545e65d2b9d2c, 0xdd1cc6c25dc54ee1, 0x6369d3b655d3554c, 0xd432bc34bd9b5c4d, 0xcec53bdc4ebecd35, 0xb6b7dcb54c3c55d4, 0xbe43c6dc65ccacdc, 
0xba65b454a5544aa9, 0x3bcdaec6cdda5d55, 0xba35edc24dcae423, 0x3d12d934d610ed04, 0x535beccc51bc5db5, 0x5cd55535bc315b03, 0x52db456635539545, 0x4d355deadc4ce5a4, 0xa9545da224ca4dc4, 0xc4b3d4060b5655bd, 0xcc54a2bdbaa5c454, 0x425453c2ca53b2cd, 0xbdd5b3466ca599dd, 0xd3b11deec65cdedd, 0x4453442a55e4e55e, 0x4cbe545d1c255cec, 0xd4c3dd04c9dcda5d, 0x5cdd424d4cb42b3c, 0x2c23c553ac246554, 0xb5d5c45ccdd55652, 0x45ccc344112ddd44, 0xdd3e9dd5c1c0935a, 0x523333325aa2cddd, 0xda0cdc45355454c4, 0x2c53e0ed56cd504d, 0xdad55b41eea0bcdc, 0x0c4d44d133c44443, 0x1d5edc0ee5456563, 0x4b54ed4353de3b95, 0xcd3341bbc2ad553d, 0xbc92d1353cd63b65, 0x241342d54544ddb4, 0x6b5d9dd4b554d053, 0xdd4c4ddeed55b3d5, 0xac9ccddbd5bed255, 0x5dcd14d2c3e33c53, 0x552ba5eb50dcd559, 0x4d5b5a6455549543, 0xdba9cd1ddcecedbc, 0x5be24ddd4c44b565, 0x249bd455b4d0da43, 0xc53dd5435455d1cc, 0xb550ccd4eed5ad53, 0xc23b45dc1ed35bd1, 0x4553cfd65dbcfd9c, 0x54cd34343c531d43, 0x64396bdd0d1cdcbd, 0xd24e5bc543da565c, 0xda05522454ee4eb4, 
0xddd4cebe4ef535ef, 0xd45366c66d5dc775, 0xdb5e36655d6b526e, 0xde6becdedd2ee9cd, 0xeded4c254a9b55ca, 0x95a222c64bdde9dc, 0x696e5365ec51c5ce, 0x55edd062daa4ab65, 0xde45dcea4d9d6c5b, 0xcc5e34d54cd05c2d, 0x46eddd4dbeee3cd4, 0xced3dcdd4655ad55, 0x93466eec54d255fd, 0x5d53d4cbd6ce5354, 0xded55edcda65db42, 0x665b65c10dec536b, 0x0ae66b1dddc5cb59, 0xd4b1ed6254ceeced, 0x555cd2934d54dd5b, 0x4ededa9ac442ebbc, 0x535d5446545cc5de, 0x546cee1dc5ecd4ad, 0xbe5423ee5a5354d5, 0xd44ce6bc40de5456, 0xce6634dbdc5d54dd, 0xc661c5d6556de65d, 0xe4c45ede64deee3d, 0x5e44e5d3edd5d143, 0xcb65c55d4565c4d5, 0xcccd2ae5cddd6dec, 0xdebce56c6eb2c5c5, 0x56c9c1a3d4edc595, 0xd440c3ccb4dccc45, 0x5cdea6b5dd44cea4, 0x4ed14c5d3a5645d4, 0x5c3a6416c4ee63dd, 0xc5eeccced3e24d5c, 0xd56cdeeb44dadddb, 0xc546794dd66632db, 0x5555c444522355de, 0x41d5b4dbd546ece3, 0xe5bdd3ed5e453955, 0x404aedb5249156bc, 0x33353b35b65b5c54, 0x4b4a64ce5b6cacc4, 0xe54dd43c49edbec6, 0xeee66c5bcd0ed355, 0x46c415b5b4eeddd5, 0x5ddddce4e65361a5, 
0x3459a45435cd35c5, 0xdebc43e9dcbb3d02, 0xd535d4ddad9339dc, 0x44d41d5c4d51d33c, 0xd33dd542345d3515, 0x554ba554dd4513ec, 0xbcd5bdb9c4d65cdc, 0x4650b95ccc4465d5, 0x59cdcb5635a5dddc, 0x39dd4a5add5ecddc, 0x9b465424a2a44d2c, 0x05633c4565d5b2ee, 0xd659443dbbe2dbc5, 0x45c5545699155ec2, 0xdd3cb5cda62d55d5, 0xbd9e543a45c4db9d, 0x455c354255d53522, 0xdeccd5bdcda441ca, 0x0ddd325d9b31c5d3, 0xc14dcc34b35bbdd5, 0x534c24dd63694d43, 0xdeec5beddc3440c1, 0x4adccdcd0c4cd4b4, 0x43d55353d4535b55, 0x056ddd35dd5d4cdd, 0xd341b4c455b9cd36, 0x43c4b45524c3340d, 0xbd494c55ccc4633d, 0x54cd544dcebd4ad4, 0x94d1bedfe63c4dcd, 0xcd55d5e45ddeaed4, 0xdd5d5c4d394456bb, 0x1ad9ddd554bc4d15, 0x5552c43bd5e4dad2, 0x445dd3cadc3c42a2, 0xc436c5153a435be4, 0x42bbe5c2b9ddddb4, 0x4dc5d3ddd55dddd3, 0x3d2ee42cd45dbdac, 0xc1eeabdad34c35c2, 0xbdd5d935aad21505, 0xc3525461ed45c4d3, 0x5dd46455dd1cb245, 0xddc554544cd55ddc, 0x3059dee335bdeec4, 0x4bedddcd2355daa4, 0x4e0e35cd46dca502, 0x44c554ddccc2d545, 0xc3a35bddedceac5c, 
0xbdadedecceeed32d, 0x2da33dcdcb42d5dc, 0x35d4d35cd3555565, 0x5b3ecb33ddde3c0a, 0x62de44554b1c654e, 0xb459d2edb51dac45, 0x65ca5deb55d53ddc, 0x35664dc01c43cded, 0xb193ecc440dd55c2, 0xdcc25541454eddb4, 0x44d66b4dd66cdacd, 0x40d99452c5b44d55, 0x2dd52d4dc24e2cfd, 0xd51c3915b335bc9e, 0x53c5513dcc430d5c, 0x5555c4d5303eeb06, 0xcce3eb54adbd9ccd, 0xee54cbd4d355c11d, 0xd44454dd2ced3be5, 0x22de55455dc5abcc, 0xc4adecbd4c3d4cc9, 0x5635bc9dbd5da4d4, 0xbdb4925ac44545dd, 0x55ad4d9ccd942d44, 0xcc443a95c9424ccd, 0xc55b3edc4335dc34, 0x33dc2161acdc33ae, 0xe2ca4d544d54db4b, 0x1ced14b4dee5a4dc, 0x3d5b5513cdc4c345, 0xdb31d4c4554ccc1a, 0xaddccecec534c4cc, 0x46d33554b3404ac4, 0x3dd23c394b4bbdd3, 0xcb4dc5ca5dddb45d, 0xccbc042e3a55eeed, 0x54ddc5dddc15d415, 0x35d5ad0dbd4c3bd9, 0xbdddd9d3d4dd4c3b, 0xbb6944cadc5cb5de, 0xddd45254b34c0454, 0xdbcdd31cd339bddb, 0xc39cba63c004b354, 0x4cae5a4cc04c5cac, 0x2c34bd5cdedd45de, 0x53d69dd5d42dbd5c, 0x3ed35a5dc30d1ec4, 0x55ce355445c23d45, 0x5ddcdbdc24b5c145, 
};
