static uint64_t conv1_weight[16 * 9] =
{ // torch.Size([16, 3, 3, 1])
0xd, 0xc, 0x4, 0x6, 0x7, 0x6, 0x6, 0xd, 0x5, 
0x6, 0x7, 0xd, 0x6, 0x6, 0xc, 0xe, 0xc, 0x3, 
0x5, 0xa, 0x1, 0xe, 0xd, 0x6, 0xe, 0x4, 0x7, 
0x4, 0x7, 0x6, 0xd, 0xd, 0xc, 0xe, 0xe, 0x2, 
0x6, 0x5, 0xc, 0x7, 0xa, 0xf, 0x6, 0xc, 0xe, 
0xd, 0xe, 0x3, 0xe, 0xe, 0xe, 0x6, 0x7, 0xe, 
0x5, 0xe, 0xf, 0x6, 0x4, 0xc, 0xd, 0x7, 0x4, 
0xf, 0x5, 0x5, 0xd, 0x6, 0x6, 0x4, 0x5, 0x4, 
0xd, 0xf, 0xd, 0xd, 0xe, 0x4, 0x6, 0x7, 0x7, 
0xe, 0x6, 0xd, 0x7, 0x6, 0x4, 0x5, 0x4, 0xb, 
0xd, 0x3, 0x6, 0xc, 0xa, 0x6, 0xe, 0x7, 0x3, 
0x6, 0x5, 0x7, 0x3, 0xb, 0x4, 0xe, 0xc, 0xe, 
0xe, 0x5, 0x6, 0xc, 0xa, 0x6, 0x5, 0xe, 0x7, 
0xf, 0xe, 0xe, 0x3, 0xd, 0xb, 0x5, 0x5, 0x4, 
0x7, 0x7, 0x4, 0x2, 0xd, 0xe, 0x6, 0xe, 0x5, 
0x7, 0x4, 0x1, 0x7, 0x6, 0xd, 0x7, 0xc, 0x4, 
};

static int relu1_threshold[16 * 7] =
{ // torch.Size([16, 7])
-508, -417, -326, -235, -99, 83, 355,
-194, -142, -90, -37, 41, 146, 303,
16, 72, 128, 183, 267, 379, 546,
123, 169, 215, 261, 330, 422, 560,
452, 517, 582, 647, 744, 875, 1070,
345, 416, 488, 559, 666, 809, 1023,
338, 389, 439, 490, 566, 667, 818,
-188, -142, -96, -51, 18, 110, 247,
34, 90, 146, 201, 285, 397, 565,
-416, -342, -268, -194, -83, 64, 286,
87, 142, 198, 253, 337, 448, 615,
154, 204, 254, 303, 378, 477, 626,
167, 226, 286, 346, 436, 555, 735,
189, 213, 237, 261, 297, 345, 418,
1297, 1681, 2064, 2448, 3024, 3792, 4943,
-817, -684, -552, -419, -220, 45, 442,
};

static uint64_t conv2_weight[16 * 1] =
{ // torch.Size([16, 1, 1, 16])
0x6eeebfecfd6f44df, 
0xfe57b3d66e5d6766, 
0x56cdcf605a6f7ec3, 
0xeed6ddfe495565eb, 
0x4d5dbfd7e5de65e2, 
0x5ee9e67f7e5bba69, 
0xdbdbd5d65754c6e6, 
0xeb5d46d6d9bf55bd, 
0xd66d4ddce66e7aec, 
0x6ee5f6554f77e766, 
0xa55d26d5dfd5ceee, 
0x53eef65d7c559ee6, 
0x6e715d37561ecee4, 
0xedc6f9f44ee5cb2e, 
0xf46ddcfdf5caccee, 
0x56dd6e7d66ab7d5e, 
};

static int quant2_threshold[16 * 14] =
{ // torch.Size([16, 14])
-1736, -1456, -1269, -1128, -1035, -941, -848, -754, -661, -567, -474, -333, -146, 134,
-861, -630, -475, -360, -282, -205, -128, -51, 26, 103, 180, 296, 451, 682,
-722, -493, -340, -225, -149, -72, 4, 81, 157, 233, 310, 425, 577, 807,
-1148, -893, -723, -596, -511, -427, -342, -257, -172, -87, -2, 125, 295, 549,
-705, -498, -360, -257, -188, -119, -50, 19, 88, 157, 226, 329, 467, 674,
-1222, -798, -516, -305, -164, -23, 118, 259, 400, 541, 682, 894, 1176, 1599,
-867, -661, -525, -422, -354, -285, -217, -149, -80, -12, 56, 159, 296, 501,
-576, -226, 7, 182, 298, 415, 531, 648, 764, 881, 997, 1172, 1405, 1755,
-2020, -1483, -1125, -857, -678, -499, -321, -142, 37, 216, 395, 663, 1021, 1557,
-804, -358, -62, 161, 309, 458, 606, 755, 903, 1051, 1200, 1422, 1719, 2165,
-1147, -946, -811, -710, -643, -576, -509, -442, -375, -307, -240, -140, -5, 196,
-1543, -1087, -783, -555, -403, -251, -99, 53, 205, 357, 509, 737, 1041, 1497,
-91, 148, 306, 426, 505, 584, 664, 743, 823, 902, 981, 1101, 1259, 1498,
-1078, -899, -779, -689, -630, -570, -510, -450, -391, -331, -271, -181, -62, 118,
-1695, -1370, -1153, -991, -882, -774, -665, -557, -449, -340, -232, -69, 148, 473,
-176, 86, 260, 390, 477, 564, 652, 739, 826, 913, 1000, 1131, 1305, 1566,
};

static uint64_t conv3_weight[16 * 9] =
{ // torch.Size([16, 3, 3, 16])
0xd93e6c6ddd4edc6d, 0xbcd23ed5bda6d5e9, 0xb56dd6eced355b3a, 0x665c4ece5c6dd5ee, 0xdcd1dbecdd0ddeed, 0xd6be543666b665d5, 0x6cea636eee7c4350, 0xc6ce65edef406ec3, 0xb670d6eddb065ded, 
0x4deec664ee5dd1e0, 0x65dd36eded05e5c4, 0x65e45556c554e74e, 0x545d4dbedc5edeec, 0x53dde35553d67acd, 0xd554e5da6d1453a7, 0x6cdd3f4ee65d4d0d, 0xbee5666ddde6c5be, 0xd556ecc9dd5536e5, 
0xb545d1e655eced66, 0x3e55545dc515b4ee, 0x62dd6e5e45dee59c, 0xcd46b65e4654e6eb, 0xce4f9edeeb6fd4d5, 0x925df6d956d65466, 0x5ebe5dddae60dce3, 0xe5c5e0eec6d566b5, 0x56365bed945dc6d5, 
0xc4665d5ce7d55e65, 0x643d327d4c5e45dd, 0x65dec5c66945cd5a, 0xcecf5d7ce7cc65ce, 0x4644bdc6dc35cef7, 0xded4566376b47d3b, 0xefec4ecbc46c6dca, 0x55e66d3d33dc4ce6, 0x6dd6ce55d6e555ed, 
0x545e4de50ee6e6bd, 0xecaedd66c5b66c2e, 0xdecec45ec52bcd0e, 0xe25664556dd5d7cb, 0xc66ec6e6d4ee5c59, 0x4c652eadd56ddd6e, 0x54e634c6155b4612, 0x26bdd6d13ce156ae, 0x4e6c5eb1574d1d59, 
0xeebdede3d6dded53, 0xeee3d6ec555dd6d4, 0x6b5d6ed6cb657be6, 0x5c3ee2e6603de465, 0xd3555ded65464356, 0x6b55b5e6c9e9c6a5, 0xdeead2ede606e35d, 0xdee4dc3e93c0e465, 0x5ed65eed34ebf56d, 
0x463707ed66e56064, 0xe15c74c576e65c4d, 0xeeee2c696c6ed6ef, 0x4dd4c4eb67304dbf, 0x6fee457af2bee55c, 0x34cc4d7c6ba5ebe5, 0xddcb7e6e1dafe9dd, 0x496ce45c3d57666a, 0x66c5d6ed5dd5e56d, 
0xdefc0dbe5365ede1, 0x4563db3561eb6644, 0x6c6565ed4d3e3adc, 0x5ae45cbdec5d505e, 0xead5c7edeced6ff5, 0xd62e6d5ce56bce54, 0xee442e6c51aeeb42, 0xe65e6d6eb3d563e6, 0xe55654ddcbbe5c4c, 
0x7eeedb3d455e55c5, 0xedee5e47e6e42595, 0x31e76527dc36a6d4, 0x54e9ed36d64d6c15, 0x64f5edcc5a63e796, 0x6cd56f5b65cea6cd, 0x6dd5e5e659e64eed, 0x545ee656d4556c46, 0x4e5c5e645d656c35, 
0xc5e7e456654b66c4, 0xe756e6d645e576bd, 0xe66d14e67eee7ec0, 0xd5d4ceceedd5e5b2, 0x6dee3cdecdebeeee, 0xd46dd7e5b6c65fd7, 0x3fce5e6de76c4fae, 0x6c636d5f525e5396, 0xc4665655d5456a46, 
0x66b6de3deee5cdee, 0x42e656444d3c6e5e, 0xcb64354c66a4cdd4, 0xe5644beb6bc31d64, 0xdded7b5bdc5ce5fb, 0xe37ce5c565ee5f5e, 0x5d255555557cbdee, 0xdc6f3355de22dccd, 0xf5754d6e66416cd6, 
0x6ccd53a66e5d656d, 0x7eebde5dce6466de, 0xd5e16edec3deeb55, 0xe566f5136ee56d65, 0x595edec56ba64546, 0x655ca3d3cd3d66ed, 0xe6c6d65dd6d1ed4a, 0xd5c53d5440c6de5d, 0xe4c5544d464cdbc5, 
0x6ddcbb5caccdeb34, 0x66eed55ede45ca3e, 0xd66456556ddb3ba6, 0x6d4ecdd6d0e6e6b6, 0xdc74e73c5b36ceb7, 0xcdbc54a463d55edc, 0xb554e651ded66fed, 0xe56e35c6d545bcb1, 0x50da43ebd5634d53, 
0x3d4564d1e2b49ee5, 0xddb4c155decbd665, 0xd56b6cced654eedd, 0xd6dd5deeece5cdd6, 0xe57756b6565c3ed4, 0xefde7deddeaf95ed, 0xcedc6e65e05cbc3d, 0xce6dcccefa5e46d6, 0xb56e46a645e55de6, 
0x5d5ed4ec6d602b4e, 0xddb9ced4ab64e6de, 0x6cb5dc26ef4ee055, 0x964446d7a6d75646, 0xd4dc4de76e374366, 0xe36ee6bd6ef6b654, 0xd5cc2475e2d0e66f, 0xe5912435e5eede2d, 0xd534cdd6e262d56d, 
0xd57656d36decded6, 0x5ec5c54e6ddeb40d, 0x43403ec2de644652, 0x5e65bc52d5d4c3d0, 0x6ed56d64563d5ebd, 0x5de5de4c4b24e5cc, 0xddbe4ec6e4ceea54, 0x965e436d46dd5e6c, 0x62ddcd54a75dd32c, 
};

static int relu3_threshold[16 * 7] =
{ // torch.Size([16, 7])
1786, 2206, 2625, 3045, 3675, 4515, 5774,
2103, 2524, 2945, 3366, 3998, 4841, 6104,
2391, 2820, 3249, 3679, 4323, 5181, 6469,
973, 1355, 1736, 2118, 2691, 3454, 4599,
2621, 2908, 3195, 3481, 3911, 4485, 5345,
1331, 1741, 2151, 2561, 3176, 3996, 5225,
738, 1713, 2688, 3663, 5125, 7075, 10000,
2296, 2685, 3075, 3465, 4050, 4830, 5999,
253, 711, 1169, 1626, 2313, 3228, 4601,
2879, 3289, 3699, 4110, 4725, 5545, 6776,
1435, 1899, 2362, 2826, 3521, 4448, 5839,
423, 880, 1336, 1792, 2477, 3389, 4758,
1130, 1557, 1983, 2410, 3050, 3903, 5183,
2604, 3111, 3618, 4124, 4884, 5897, 7417,
3090, 3426, 3762, 4099, 4603, 5275, 6283,
41, 876, 1710, 2544, 3796, 5465, 7968,
};

static uint64_t linear_weight[784 * 10] =
{ // torch.Size([10, 784])
0x545435ded5cccbe4, 0x662d56cdd534654e, 0xc5dc4cd315b5d5dd, 0x5d45e4c54e65d45d, 0xcad5c3ed5eee2d54, 0xd26dea6dcdc4c5dd, 0x355d5d55554b3ddb, 0x6b544bddd956e6ed, 0x445d4dcdd544dd43, 0xc55db4dcdd422cbb,
0xc5a53255abdbd94e, 0x15423ddd5e55595d, 0xbdc55cddddb35132, 0x52ddc366dcdee555, 0xded25eed4a5d5de6, 0xcc3dd6301dcbc55c, 0x6365b646c353db1a, 0xecddc2dcc3ce3e6d, 0x45cddecddd3445d4, 0x34d4bc59bddd5a3d,
0x54c3dd15daae2d4d, 0xec55e46ddbd95d9d, 0x5b45cc4c543c4c44, 0xddcb54ae15d55b44, 0xedfbcec5cccbcddd, 0xede659c4cadd55db, 0x4c55335c1ad44426, 0xe3e5ec55541e45bd, 0xed2baa45c9a3ab45, 0xe4e1dc44d25455ea,
0xccb544ebecc3ec3d, 0xd65b4eded4add5a6, 0xc49d4c3604c1bb52, 0x13d5dd45535a6d5e, 0xe5ed2eccd0ebe01e, 0xcd2de51cceb1ddc4, 0x3229db6dcc1605d5, 0xe34ca5dded0cd3e4, 0x0db4de6d3b4d5d19, 0xdcd5dcd25c3d4dcd,
0xd5a54fc44c5adb4d, 0x5bc626cdb354605a, 0xd4ccdcd2344c3e3e, 0x3ddd5dcce35e5c4e, 0xebccdccdee46ebde, 0x51b5b6959355c536, 0x9344565502c6669b, 0x631d4c15c5d556cc, 0xecd42d34435babda, 0x3ad331b4de0c1ebe,
0x2b4dddac4354dd5e, 0xe595554c564e5560, 0x42b9cddb2053de42, 0xdec35cd5ddda55ce, 0xeca64e4dde55edd2, 0x3c536d6cd3462c06, 0x6b9da560942c0634, 0x65d54544d4e445de, 0x35dd443c41cbd954, 0x5ed5ca4cad324b3d,
0x0c155443ddda55e4, 0xd5ed4cb53d5e5ce4, 0x55d5b6ed54dd5d4e, 0x4de5d39ede4ceeab, 0xd365556ccc54d15b, 0xbc3b2dd54425bd55, 0xb4b5c234365ab345, 0xc356e53d4dcdceeb, 0x555c4ddd0c4edcc5, 0xa54dbabc43e4553e,
0x344dd36dd64c59ee, 0x534dcb604533dd35, 0xc5cbd5d5dd55ddd5, 0xd04ded5443436d3b, 0xbdeee5ddddd464ad, 0xd6565dd6d5d54c32, 0xd5db944d555555d4, 0x5bbcd6cdad52dcde, 0xc4d55d5dc5d25444, 0x5a554d1ddbee45dc,
0x5c36d5ddaadce53c, 0x3cdd5edce55ecc50, 0xb5bb2adcc50d4655, 0xcac5c5c6545a56d5, 0xd5dead54ecbb4e5e, 0xcccee5dd5db2ee54, 0xdd45c1bda5c9656a, 0xb34d1cbcd53505d4, 0xd59dd54d1dbdedd3, 0xd42addcc4eb2eddc,
0xdb4deeade4433c1e, 0x4db4e26b4ce45d54, 0xbc4abcc5da3b34cc, 0x555a64b6656eb4e4, 0xea45e66e4cb53c45, 0x42dadc5e45e5a5aa, 0x0c5ac35a54e95315, 0xc5de4966bb65512e, 0x4433ddc3439bc655, 0xcc5dcce5b50cd5de,
0xc2e3c444ea6b35ce, 0xd2dbecce4dd56566, 0x54535425a323b5bc, 0x6ddd6e645369ee9a, 0xbd44c66e6ae661e6, 0xe5dadccad4c5ccde, 0xd156d44d2bcd5905, 0xdbbecc56e4bfccef, 0x645d35d4acdcd51c, 0x3c405cd5d26fd3ee,
0x5c59cd504c4cbdce, 0x5dc7e4af43449c26, 0x345ddc4432b2d34c, 0x45de5e945cb45dc4, 0xd1d6e65fccd76ae6, 0xbdcc6c2de22d33dd, 0x1eb4d2e535ddb5e4, 0x06db51c15e0d25e5, 0xdcadcc51d145dcdd, 0x00bdce1bb2cdbd3e,
0xdbdc3d4bc54d9d5d, 0xeba1d5d040e546d4, 0xc443dd455dd93e6d, 0xddce3c545cdd5356, 0xc9db655d3246d655, 0xec4666ccb66ed4d3, 0xcd45bdd53d4dd4d4, 0xe554da5c4da5dc93, 0xcdada44bc454cd33, 0xd43bac434dcd4dcd,
0xe3cdbc5c43eb4d35, 0x0cdcdcde2ee52d55, 0xac442d2255ed5354, 0xdc35c5be54e64435, 0xcd4e660b566456e4, 0xc5d5355b2452d4aa, 0xd3d5d54b35c3c50a, 0xdb4433552eed4ec5, 0xa5d5dd44cd559c35, 0x1c4d5ebe9ee54c03,
0xcdb44dd53dc1bd6b, 0xdedccdbaeddddb5e, 0x5c594ddc4c4bdc05, 0xe555e64db1d352be, 0xe5d4be3253b5e56e, 0xd4e5d6dd5cc32e2c, 0xc50554343c3bc44a, 0x356daddd3d6565de, 0x5525c3dcdcccb4cc, 0xe5c4dc4d253143a2,
0xbec4c4dbab344dce, 0xd14b053695aede35, 0xd4c5c2dc626dd3cc, 0xa3565ed5444de5e6, 0xdde561b5cc5d2e45, 0x3ec3355de4d5bd6d, 0xbbd4b55134d15d59, 0x5cea5446ea63e5ef, 0x0d1d39c4cc3546d5, 0xcc0cd5dc55ecd56d,
0x5444d055cd2c52aa, 0xddd4d4eced40ecfe, 0xd4d55bd4c5ace9e4, 0xd6452edce34cebfd, 0x1cc5366d63556ba6, 0x5eaba5d5bcc55150, 0xdda9e43e25d14333, 0x55cd6e55e9bddedd, 0x2d5dc4e5d355653d, 0x4a43d3e4a4b36622,
0x4c5ae4a454ddcc44, 0x1ee52c6abed0de45, 0xdbd002654ec5c4dc, 0x41d36adcd46de3ea, 0x3dbbe66e5435645c, 0xb1d92dd33c5ca565, 0xd145d4de5c0da55b, 0x44ed4d655a14dde4, 0x4c0d44b50444503e, 0x5c5bb4e3c55966dd,
0x5eeed4551de94dce, 0xcd5de1dd5de5d964, 0x30ca526c5da5dbcc, 0xd35ba23d355bc694, 0x3ebbe6ce64ea53a5, 0x66e43ee1ed9edb4c, 0x24342deaac4e25bc, 0x643d5c56acdcddd5, 0x435d25dbcb254bdb, 0x524d4c534541b4ea,
0xde5d54acc2d61e44, 0x6e5ce4dd46dc4945, 0x0e9c355954db9d54, 0xdebeec35a4dd4cc4, 0x9b54e43e54d464dc, 0xb3d66e34ea5feedd, 0x45c35d30adcebded, 0xcbebd5cd54db4043, 0xc0c3a649435629dc, 0xccd954a54da54d43,
0xd45ec2455cb5d36c, 0xd2d2e36c64a453cc, 0x94ddd5cd5d35c55d, 0xe5ededdd6ec5dcdc, 0x654ece13e044c294, 0x76c66de6d65c333c, 0xe55d5bbb2d9cdeca, 0x445c494e34ddd6c6, 0x55332bacc5594554, 0xe3bbdc4d5cdbdc43,
0xde5d6cc5c545cc54, 0x5c15eb6e5dd555be, 0x0b4a5535cd5c53c5, 0xd62c5dd55c5dd554, 0xede355ee55524c5e, 0xd9aeedd554dd53ea, 0x533b549cc5d6bace, 0x1ab555d652c6b226, 0x595dcbdddbd9ac43, 0x34cdccdc45b3d05d,
0x0dd4b9d4539d4444, 0x553544ee52dd5dd5, 0xc4d249ceed5cd4ed, 0xf4c45e7ece9ee340, 0xddbacd453544555e, 0xcdaa436bdb41eb9d, 0xbcdad65dd5c5adcc, 0x56d4cd554e5ced5c, 0x4d2241434b512c2e, 0x5bddc4c35ad3615c,
0xce44d5cd65cb5135, 0xe40ce6e23aeedced, 0xd4d54dd9ed5eecfd, 0xc516d06d5da454e5, 0xce9eac3c365d46d5, 0xb3bccc65ee134abe, 0xcfd9cbccd6dcac56, 0xb4d634cddbceea46, 0xde5e3a96bd35ac39, 0x5dddb634db956c4d,
0xce35c56d65345543, 0x6d96bc6dd6c3ec1b, 0xd514cb6cd2bbb3da, 0x44551feae60be63d, 0xdeeed1b454d0244c, 0x5becba6534d9d963, 0x5d5cd5d0d5ad541c, 0x5c37a4ce5bb5eaa6, 0xde4e6d444d55444d, 0x453dcdd3dccbc4bc,
0xccc3665d3cc1cd9d, 0xcd559c5e4dc40135, 0x2c41554ec2c53ce3, 0x564d3ed6d6de462d, 0x6e5e55edd34745dc, 0x46eb6346cd2ddeae, 0x464d1d3cd25eccbd, 0xbee960c4dc53349d, 0xc364c9d3452e445c, 0x4c1903535cccd31b,
0x4e5a54d5cd55ca45, 0xedeeb5e56eed5e6c, 0x5c3d45ddb44c39db, 0x46dce3de5e3c35e1, 0x6c52db3bdb5e5469, 0xc5dd4d5cbdeedfcc, 0x35314934a4dd4ecd, 0x45d44cdc4595cab5, 0xc3125d1c352cd6db, 0x5dcd43bd5cd9acc4,
0x2eaed4431c3355bc, 0xa5addcdaee4dd56c, 0x551553c92a0d45ed, 0xca5cecbeac54929d, 0x42be51de54dbe35b, 0x35e66ca5d4245eed, 0xdd5ddd4d055d555a, 0xeb5d132443d4db5d, 0xc5ec1db4d3d2253b, 0xced3255ca4eecd62,
0xc52d44dd5cea13dc, 0xddd455d6dc3e6db6, 0x1b3c2d45255335cd, 0x6516d45d3e4d53da, 0x5593ee46dd545465, 0xcd4d9c1c456dd031, 0xab4d2d14ccc44ad5, 0xe6ed6ca5c54d465c, 0x2bdd5deb54edcd53, 0x2d3de552dae5de5d,
0x5ecdc5e9d4e64654, 0xfb466eeddc5debcc, 0x41cc33db45c55544, 0xcac2cc6d326bade5, 0x454914ebbbccbc6e, 0x53dc5a5be47bc34d, 0x5c5cc4b4dcd444bd, 0xdc46cceeedbec5c7, 0xdd4435d45ccd051d, 0x3d3434114d534d45,
0x5e4dcb4d4d556dcc, 0xcb34e65eed33eeba, 0x5954e2edb5dd459d, 0x55cccd6e0d34deee, 0xacd35dd5d94cd5d1, 0x55245d6ddb53abed, 0x6f5e3bbdccd52a55, 0xda564b5d651deda7, 0x5e55a5f532c35550, 0xd49dab36de4c0bed,
0xe22bf54e6d4d6da5, 0x6ee6d33d53d5dec6, 0x3b3cddcc54cd44b4, 0xd6ce5d6becc9ecde, 0x56bd4dd65de52e4d, 0xd5ccb45ad9c4cddb, 0x5ddce5c143435955, 0xdc36e4ceb4e5de95, 0x4ecd44e554dc6952, 0x45bd53c19cc5d1bc,
0x2c5dc3ddd335abd4, 0xe564eded3e044e35, 0xc41dccca254e0219, 0xc65b44655b222cdd, 0x6be25eeba359bcc5, 0x4454956a5d23deea, 0xc91e3523542445cb, 0x5c93edd6c4d5345d, 0x5c4b3b623d5b3c5d, 0x5dd454dacbb59943,
0x5b55ccdd4ce52515, 0x6a4ddeddc66d5d6e, 0x55a3c435253f151d, 0xcdcab35d559cb3a5, 0xc4ec4bcded055d24, 0xbc5ed35ccdb65d43, 0xdccd34a3344454da, 0x54526cd4466ed5ab, 0xc4dd5c34ddb53d45, 0x5edce0cccdd19355,
0x5cecdd46cdddd246, 0xc5c6d6bd1dd45d43, 0x43346bb6a53945cd, 0xc2dee52c55d12b50, 0x4565bc5e9ebec305, 0xed3d349535d4445a, 0xa5cbcddc51d23553, 0xde5d3cdd052dcd25, 0x343ab4cc46dcccb3, 0xd5b3e44dd4434e9d,
0xdc94e4dc5d413aab, 0xc9dd4665c46e55ed, 0x61cd56da4cd45c2c, 0x644e5da6ed65db35, 0x4ccaced5d5dd64dd, 0x44c4dd594c3dda43, 0x04bc5054514acd55, 0xd54bdc6ed45cdc2e, 0xab5ced4353cd4ba5, 0xd3cbeacc9cdd5cd4,
0x5ddbbc25ccda055b, 0x5646dbd6e64435eb, 0x4dc5cc9540e0c556, 0x5c042d5bd554ed5d, 0x42bed4dc549bd5ed, 0x3355c9dcde63d544, 0x5c55355442c52a5e, 0xd405d4dee54dde23, 0x3edc41d336da555d, 0xcd3bdc33433c2c2d,
0x5e6b4c555e4655ca, 0x64c6ebd44b55ca66, 0x5a44bdbc5ac45546, 0xd6cc2d4cda6ddddf, 0xd33646cb66e45bd4, 0xc2a65a346549dcdd, 0x5d5b53345db5c23d, 0xdd45c5ee5cca4ac6, 0x5dd145c459a66654, 0xd69b54432d5cc4e3,
0x55bc3edcd03e9deb, 0x43fdcd5c56e63c64, 0x5a55cdd6e2cb43dd, 0xb52d6bc5045cd4ee, 0xddd5c35c42d6b553, 0x6b54501d466ddcdd, 0x230e5dd44d4ea25c, 0xcda555c34ce66466, 0xbd4e25d0b442534d, 0xb9c6435ad45454d5,
0x943b4dede41d55d4, 0xdbbdcc16e4bddeca, 0xb4cc3435e5b430cd, 0x5d4c2cdb93cde4c3, 0x04cd3cdb5de65362, 0xdc4acb043cdc55e3, 0x24c22db3cd2454b2, 0xe4e5ecdd55e55d45, 0xdd6eb5cd5d4dd5dd, 0xddb9ddde4cc3b0bc,
0xd3e5cddcd6ee45ee, 0xd54d63b5454d6c55, 0xd5544d66d465dbeb, 0xde4ce6cbb54dc0d5, 0xbd2b5ed353cdef64, 0xc3599bcd64c6454c, 0x43c4b4c144be3cc4, 0x43dcede56dcd59b5, 0xdc4ab5db54155ada, 0xcda4ddbe4c104d5d,
0x15b5e244b53a4b53, 0x5642ad66dd45eced, 0xa4446042e55dddc5, 0xedbd42ae4e25ddb5, 0x5d7c15ccccaebecc, 0x64e5e54d24e4536d, 0x54ddac9d2435ba3d, 0xecb4cebeceebaddd, 0xed5be25d03c5b54d, 0x2564c232c91d4d13,
0xd55493d525b5cd55, 0x4cddd4dc5d655546, 0x53ccdccdcda3555d, 0xc3e2d55339cb6ac4, 0x45510d6b455b05e4, 0x5b6d55db62d5dcc2, 0x434d5425cdc5241c, 0x6454cac4e5d4d6d6, 0xd25d5c545dad2d59, 0x4d3c531cc5d5d5d5,
0x53d5cb595b443a59, 0xd05dc134b653ddc5, 0xcc05d3b35d05e554, 0x5aaeddc6651da53e, 0x4543ddde4cccee39, 0xcd55ddc54dc24294, 0xecededde5d2ecd5a, 0x5924c6e464525ceb, 0xc3dac4d96e05ed13, 0xb4cadcda46dc55a5,
0xe1cd5423ce3dfb5d, 0x4c46b2635dc41cb6, 0xbbd43d409e25fc1e, 0xcdbd55e4c65edc4d, 0xdd5d0dedc5462d44, 0xc9d45dc5d54cfbbe, 0xe5e4bd1d33c4dcbe, 0x3e45eb5e66565595, 0xe5dd2354dedbed33, 0x520dd34443455cc5,
0xddf5cd34cd9edb4d, 0xd544dedc0d5be463, 0xb4db3d95ee2bfd5d, 0x5566ada4d45e66dc, 0xee5dcc5e55c39de3, 0xab2555d5153dcccd, 0x43dc5e3cee2cb404, 0x6d92d5653c569bd2, 0xa513bbecdcdddce9, 0xcd0cd9cd35452245,
0xcde55505eddfdadd, 0xdcd64cc25e53ee55, 0xebdb2d14eea4ddd3, 0x5ccbe54ad4de423b, 0xc565a5025d94bd4b, 0xc5bc353d233e66ec, 0xe1540e50093bdc32, 0x1b123dcd4ec53cc6, 0xcdc49d45d5d963cd, 0x1b45c445ab45dd56,
0xdb40d2dc4230b45d, 0x4d455d454cceeee5, 0xccd553214ca1ecbd, 0x6cbde0dc41cdb6b2, 0x4c4a0dd5ed64ed5d, 0xdc9aed43c5dcb4a9, 0xbda4dd3eedced453, 0xae53ed63dedb4c6e, 0x5abcd5553b3e59bc, 0x4dbc1b549c55dc65,
0xd33adc5d45e4eeb9, 0x5665d55deddc2d3e, 0xdc5b15554d3d05dc, 0xdd35db2d5eed5ddd, 0x4b3ca4d34e45b4ed, 0xc4ddddd6642550d5, 0x44dbc5cedd555b23, 0x5c6524eeb126659d, 0xca23dedc5e259dc4, 0x553b5454594c5c55,
};
