static uint64_t conv1_weight[16 * 9] =
{ // torch.Size([16, 3, 3, 1])
0xd, 0xc, 0x4, 0x6, 0x7, 0x6, 0x6, 0xd, 0x5, 
0x6, 0x7, 0xd, 0x6, 0x6, 0xc, 0xe, 0xc, 0x3, 
0x5, 0xa, 0x1, 0xe, 0xd, 0x6, 0xe, 0x4, 0x7, 
0x4, 0x7, 0x6, 0xd, 0xd, 0xc, 0xe, 0xe, 0x2, 
0x6, 0x5, 0xc, 0x7, 0xa, 0xf, 0x6, 0xc, 0xe, 
0xd, 0xe, 0x3, 0xe, 0xe, 0xe, 0x6, 0x7, 0xe, 
0x5, 0xe, 0xf, 0x6, 0x4, 0xc, 0xd, 0x7, 0x4, 
0xf, 0x5, 0x5, 0xd, 0x6, 0x6, 0x4, 0x5, 0x4, 
0xd, 0xf, 0xd, 0xd, 0xe, 0x4, 0x6, 0x7, 0x7, 
0xe, 0x6, 0xd, 0x7, 0x6, 0x4, 0x5, 0x4, 0xb, 
0xd, 0x3, 0x6, 0xc, 0xa, 0x6, 0xe, 0x7, 0x3, 
0x6, 0x5, 0x7, 0x3, 0xb, 0x4, 0xe, 0xc, 0xe, 
0xe, 0x5, 0x6, 0xc, 0xa, 0x6, 0x5, 0xe, 0x7, 
0xf, 0xe, 0xe, 0x3, 0xd, 0xb, 0x5, 0x5, 0x4, 
0x7, 0x7, 0x4, 0x2, 0xd, 0xe, 0x6, 0xe, 0x5, 
0x7, 0x4, 0x1, 0x7, 0x6, 0xd, 0x7, 0xc, 0x4, 
};

static int relu1_threshold[16 * 7] =
{ // torch.Size([16, 7])
-508, -417, -326, -235, -99, 83, 355,
-194, -142, -90, -37, 41, 146, 303,
16, 72, 128, 183, 267, 379, 546,
123, 169, 215, 261, 330, 422, 560,
452, 517, 582, 647, 744, 875, 1070,
345, 416, 488, 559, 666, 809, 1023,
338, 389, 439, 490, 566, 667, 818,
-188, -142, -96, -51, 18, 110, 247,
34, 90, 146, 201, 285, 397, 565,
-416, -342, -268, -194, -83, 64, 286,
87, 142, 198, 253, 337, 448, 615,
154, 204, 254, 303, 378, 477, 626,
167, 226, 286, 346, 436, 555, 735,
189, 213, 237, 261, 297, 345, 418,
1297, 1681, 2064, 2448, 3024, 3792, 4943,
-817, -684, -552, -419, -220, 45, 442,
};

static uint64_t conv2_weight[16 * 1] =
{ // torch.Size([16, 1, 1, 16])
0x6eeebfecfd6f44df, 
0xfe57b3d66e5d6766, 
0x56cdcf605a6f7ec3, 
0xeed6ddfe495565eb, 
0x4d5dbfd7e5de65e2, 
0x5ee9e67f7e5bba69, 
0xdbdbd5d65754c6e6, 
0xeb5d46d6d9bf55bd, 
0xd66d4ddce66e7aec, 
0x6ee5f6554f77e766, 
0xa55d26d5dfd5ceee, 
0x53eef65d7c559ee6, 
0x6e715d37561ecee4, 
0xedc6f9f44ee5cb2e, 
0xf46ddcfdf5caccee, 
0x56dd6e7d66ab7d5e, 
};

static int quant2_threshold[16 * 14] =
{ // torch.Size([16, 14])
-1736, -1456, -1269, -1128, -1035, -941, -848, -754, -661, -567, -474, -333, -146, 134,
-861, -630, -475, -360, -282, -205, -128, -51, 26, 103, 180, 296, 451, 682,
-722, -493, -340, -225, -149, -72, 4, 81, 157, 233, 310, 425, 577, 807,
-1148, -893, -723, -596, -511, -427, -342, -257, -172, -87, -2, 125, 295, 549,
-705, -498, -360, -257, -188, -119, -50, 19, 88, 157, 226, 329, 467, 674,
-1222, -798, -516, -305, -164, -23, 118, 259, 400, 541, 682, 894, 1176, 1599,
-867, -661, -525, -422, -354, -285, -217, -149, -80, -12, 56, 159, 296, 501,
-576, -226, 7, 182, 298, 415, 531, 648, 764, 881, 997, 1172, 1405, 1755,
-2020, -1483, -1125, -857, -678, -499, -321, -142, 37, 216, 395, 663, 1021, 1557,
-804, -358, -62, 161, 309, 458, 606, 755, 903, 1051, 1200, 1422, 1719, 2165,
-1147, -946, -811, -710, -643, -576, -509, -442, -375, -307, -240, -140, -5, 196,
-1543, -1087, -783, -555, -403, -251, -99, 53, 205, 357, 509, 737, 1041, 1497,
-91, 148, 306, 426, 505, 584, 664, 743, 823, 902, 981, 1101, 1259, 1498,
-1078, -899, -779, -689, -630, -570, -510, -450, -391, -331, -271, -181, -62, 118,
-1695, -1370, -1153, -991, -882, -774, -665, -557, -449, -340, -232, -69, 148, 473,
-176, 86, 260, 390, 477, 564, 652, 739, 826, 913, 1000, 1131, 1305, 1566,
};

static uint64_t conv3_weight[16 * 9] =
{ // torch.Size([16, 3, 3, 16])
0xd93e6c6ddd4edc6d, 0xbcd23ed5bda6d5e9, 0xb56dd6eced355b3a, 0x665c4ece5c6dd5ee, 0xdcd1dbecdd0ddeed, 0xd6be543666b665d5, 0x6cea636eee7c4350, 0xc6ce65edef406ec3, 0xb670d6eddb065ded, 
0x4deec664ee5dd1e0, 0x65dd36eded05e5c4, 0x65e45556c554e74e, 0x545d4dbedc5edeec, 0x53dde35553d67acd, 0xd554e5da6d1453a7, 0x6cdd3f4ee65d4d0d, 0xbee5666ddde6c5be, 0xd556ecc9dd5536e5, 
0xb545d1e655eced66, 0x3e55545dc515b4ee, 0x62dd6e5e45dee59c, 0xcd46b65e4654e6eb, 0xce4f9edeeb6fd4d5, 0x925df6d956d65466, 0x5ebe5dddae60dce3, 0xe5c5e0eec6d566b5, 0x56365bed945dc6d5, 
0xc4665d5ce7d55e65, 0x643d327d4c5e45dd, 0x65dec5c66945cd5a, 0xcecf5d7ce7cc65ce, 0x4644bdc6dc35cef7, 0xded4566376b47d3b, 0xefec4ecbc46c6dca, 0x55e66d3d33dc4ce6, 0x6dd6ce55d6e555ed, 
0x545e4de50ee6e6bd, 0xecaedd66c5b66c2e, 0xdecec45ec52bcd0e, 0xe25664556dd5d7cb, 0xc66ec6e6d4ee5c59, 0x4c652eadd56ddd6e, 0x54e634c6155b4612, 0x26bdd6d13ce156ae, 0x4e6c5eb1574d1d59, 
0xeebdede3d6dded53, 0xeee3d6ec555dd6d4, 0x6b5d6ed6cb657be6, 0x5c3ee2e6603de465, 0xd3555ded65464356, 0x6b55b5e6c9e9c6a5, 0xdeead2ede606e35d, 0xdee4dc3e93c0e465, 0x5ed65eed34ebf56d, 
0x463707ed66e56064, 0xe15c74c576e65c4d, 0xeeee2c696c6ed6ef, 0x4dd4c4eb67304dbf, 0x6fee457af2bee55c, 0x34cc4d7c6ba5ebe5, 0xddcb7e6e1dafe9dd, 0x496ce45c3d57666a, 0x66c5d6ed5dd5e56d, 
0xdefc0dbe5365ede1, 0x4563db3561eb6644, 0x6c6565ed4d3e3adc, 0x5ae45cbdec5d505e, 0xead5c7edeced6ff5, 0xd62e6d5ce56bce54, 0xee442e6c51aeeb42, 0xe65e6d6eb3d563e6, 0xe55654ddcbbe5c4c, 
0x7eeedb3d455e55c5, 0xedee5e47e6e42595, 0x31e76527dc36a6d4, 0x54e9ed36d64d6c15, 0x64f5edcc5a63e796, 0x6cd56f5b65cea6cd, 0x6dd5e5e659e64eed, 0x545ee656d4556c46, 0x4e5c5e645d656c35, 
0xc5e7e456654b66c4, 0xe756e6d645e576bd, 0xe66d14e67eee7ec0, 0xd5d4ceceedd5e5b2, 0x6dee3cdecdebeeee, 0xd46dd7e5b6c65fd7, 0x3fce5e6de76c4fae, 0x6c636d5f525e5396, 0xc4665655d5456a46, 
0x66b6de3deee5cdee, 0x42e656444d3c6e5e, 0xcb64354c66a4cdd4, 0xe5644beb6bc31d64, 0xdded7b5bdc5ce5fb, 0xe37ce5c565ee5f5e, 0x5d255555557cbdee, 0xdc6f3355de22dccd, 0xf5754d6e66416cd6, 
0x6ccd53a66e5d656d, 0x7eebde5dce6466de, 0xd5e16edec3deeb55, 0xe566f5136ee56d65, 0x595edec56ba64546, 0x655ca3d3cd3d66ed, 0xe6c6d65dd6d1ed4a, 0xd5c53d5440c6de5d, 0xe4c5544d464cdbc5, 
0x6ddcbb5caccdeb34, 0x66eed55ede45ca3e, 0xd66456556ddb3ba6, 0x6d4ecdd6d0e6e6b6, 0xdc74e73c5b36ceb7, 0xcdbc54a463d55edc, 0xb554e651ded66fed, 0xe56e35c6d545bcb1, 0x50da43ebd5634d53, 
0x3d4564d1e2b49ee5, 0xddb4c155decbd665, 0xd56b6cced654eedd, 0xd6dd5deeece5cdd6, 0xe57756b6565c3ed4, 0xefde7deddeaf95ed, 0xcedc6e65e05cbc3d, 0xce6dcccefa5e46d6, 0xb56e46a645e55de6, 
0x5d5ed4ec6d602b4e, 0xddb9ced4ab64e6de, 0x6cb5dc26ef4ee055, 0x964446d7a6d75646, 0xd4dc4de76e374366, 0xe36ee6bd6ef6b654, 0xd5cc2475e2d0e66f, 0xe5912435e5eede2d, 0xd534cdd6e262d56d, 
0xd57656d36decded6, 0x5ec5c54e6ddeb40d, 0x43403ec2de644652, 0x5e65bc52d5d4c3d0, 0x6ed56d64563d5ebd, 0x5de5de4c4b24e5cc, 0xddbe4ec6e4ceea54, 0x965e436d46dd5e6c, 0x62ddcd54a75dd32c, 
};

static int relu3_threshold[16 * 7] =
{ // torch.Size([16, 7])
1786, 2206, 2625, 3045, 3675, 4515, 5774,
2103, 2524, 2945, 3366, 3998, 4841, 6104,
2391, 2820, 3249, 3679, 4323, 5181, 6469,
973, 1355, 1736, 2118, 2691, 3454, 4599,
2621, 2908, 3195, 3481, 3911, 4485, 5345,
1331, 1741, 2151, 2561, 3176, 3996, 5225,
738, 1713, 2688, 3663, 5125, 7075, 10000,
2296, 2685, 3075, 3465, 4050, 4830, 5999,
253, 711, 1169, 1626, 2313, 3228, 4601,
2879, 3289, 3699, 4110, 4725, 5545, 6776,
1435, 1899, 2362, 2826, 3521, 4448, 5839,
423, 880, 1336, 1792, 2477, 3389, 4758,
1130, 1557, 1983, 2410, 3050, 3903, 5183,
2604, 3111, 3618, 4124, 4884, 5897, 7417,
3090, 3426, 3762, 4099, 4603, 5275, 6283,
41, 876, 1710, 2544, 3796, 5465, 7968,
};

static uint64_t linear_weight[784 * 10] =
{ // torch.Size([10, 784])
0x4ebccc5ded534545, 0xe456435ddc65d266, 0xdd5d5b513dc4cd5c, 0xd54d56e45c4e54d5, 0x45d2eee5de3c5dac, 0xdd5c4cdcd6aed62d, 0xbdd3b45555d5d553, 0xde6e659dddb445b6, 0x34dd445ddcd4d544, 0xbbc224ddcd4bd55c,
0xe49dbdba55235a5c, 0xd59555e5ddd32451, 0x23153bddddc55cdb, 0x555eedcd663cdd25, 0x6ed5d5a4dee52ded, 0xc55cbcd1036dd3cc, 0xa1bd353c646b5636, 0xd6e3ec3ccd2cddce, 0x4d5443dddceddc54, 0xd3a5dddb95cb4d43,
0xd4d2eaad51dd3c45, 0xd9d59dbdd64e55ce, 0x44c4c345c4cc54b5, 0x44b55d51ea45bcdd, 0xdddcbccc5cecbfde, 0xbd55ddac4c956ede, 0x62444da1c53355c4, 0xdb54e14555ce5e3e, 0x54ba3a9c54aab2de, 0xae55452d44cd1e4e,
0xd3ce3ccebe445bcc, 0x6a5dda4dede4b56d, 0x25bb1c4063c4d94c, 0xe5d6a53554dd5d31, 0xe10ebe0dcce2de5e, 0x4cdd1becc15ed2dc, 0x5d5061ccd6bd9223, 0x4e3dc0dedd5ac43e, 0x91d5d4b3d6ed4bd0, 0xdcd4d3c52dcd5dcd,
0xd4bda5c44cf45a5d, 0xa506453bdc626cb5, 0xe3e3c4432dcdcc4d, 0xe4c5e53eccd5ddd3, 0xedbe64eedccdccbe, 0x635c5539596b5b15, 0xb9666c2055654439, 0xcc655d5c51c4d136, 0xadbab53443d24dce, 0xebe1c0ed4b133da3,
0xe5dd4534caddd4b2, 0x0655e465c455595e, 0x24ed3502bddc9b24, 0xec55addd5dc53ced, 0x2dde55edd4e46ace, 0x60c2643dc6d635c3, 0x4360c249065ad9b6, 0xed544e4d44545d56, 0x459dbc14c344dd53, 0xd3b423dac4ac5de5,
0x4e55addd344551c0, 0x4ec5e5d35bc4de5d, 0xe4d5dd45de6b5d55, 0xbaeec4ede93d5ed4, 0xb51d45ccc655563d, 0x55db52445dd2b3cb, 0x543ba563432c5b4b, 0xbeecdcd4d35e653c, 0x5ccde4c0ddd4c555, 0xe3554e34cbabd45a,
0xee95c46dd63dd443, 0x53dd335406bcd435, 0x5ddd55dd5d5dbc5c, 0xb3d6343445ded40d, 0xda464ddddd5eeedb, 0x23c45d5d6dd5656d, 0x4d555555d449bd5d, 0xedcd25dadc6dcbb5, 0x44452d5cd5d55d4c, 0xcd54eebdd1d455a5,
0xc35ecdaadd5d63c5, 0x05cce55ecde5ddc3, 0x5564d05ccda2bb5b, 0x5d65a5456c5c5cac, 0xe5e4bbce45daed5d, 0x45ee2bd5dd5eeccc, 0xa6569c5adb1c54dd, 0x4d50535dcbc1d43b, 0x3ddedbd1d45dd95d, 0xcdde2be4ccdda24d,
0xe1c3344edaeed4bd, 0x45d54ec4b62e4bd4, 0xcc43b3ad5ccba4cb, 0x4e4be6566b46a555, 0x54c35bc4e66e54ae, 0xaa5a5e54e5cdad24, 0x51359e45a53ca5c0, 0xe21556bb6694ed5c, 0x556cb9343cdd3344, 0xed5dc05b5eccd5cc,
0xec53b6ae444c3e2c, 0x66565dd4eccebd2d, 0xcb5b323a52453545, 0xa9ee963546e6ddd6, 0x6e166ea6e66c44db, 0xedcc5c4daccdad5e, 0x5095dcb2d44d651d, 0xfeccfb4e65ccebbd, 0xc15dcdca4d53d546, 0xee3df62d5dc504c3,
0xecdbc4c405dc95c5, 0x62c94434fa4e7cd5, 0xc43d2b2344cdd543, 0x4cd54bc549e5ed54, 0x6ea67dccf56e6d1d, 0xdd33d22ed2c6ccdb, 0x4e5bdd535e2d4be1, 0x5e52d0e51c15bd60, 0xddcd541d15ccdacd, 0xe3dbdc2bb1ecdb00,
0xd5d9d45cb4d3cdbd, 0x4d645e040d5d1abe, 0xd6e39dd554dd344c, 0x6535ddc545c3ecdd, 0x556d6423d556bd9c, 0x3d4de66bcc6664ce, 0x4d4dd4d35ddb54dc, 0x39cd5ad4c5ad455e, 0x33dc454cb44adadc, 0xdcd4dcd434cab34d,
0x53d4be34c5cbdc3e, 0x55d25ee2edcdcdc0, 0x4535de5522d244ca, 0x53446e45eb5c53cd, 0x4e654665b066e4dc, 0xaa4d2542b5535d5c, 0xa05c3c53b45d5d3d, 0x5ce4dee2553344bd, 0x53c955dc44dd5d5a, 0x30c45ee9ebe5d4c1,
0xb6db1cd35dd44bdc, 0xe5bddddeabdccded, 0x50cdb4c4cdd495c5, 0xeb253d1bd46e555e, 0xe65e5b3523eb4d5e, 0xc2e23cc5dd6d5e4d, 0xa44cb3c34345505c, 0xed5656d3dddad653, 0xcc4bcccdcd3c5255, 0x2a341352d4cd4c5e,
0xecd443babd4c4ceb, 0x53edea596350b41d, 0xcc3dd626cd2c5c4d, 0x6e5ed4445de5653a, 0x54e2d5cc5b165edd, 0xd6db5d4ed5533ce3, 0x95d51d43155b4dbb, 0xfe5e36ae6445aec5, 0x5d6453cc4c93d1d0, 0xd65dce55cd5dc0cc,
0xaa25c2dc550d4445, 0xefce04dece4d4ddd, 0x4e9eca5c4db55d4d, 0xdfbec43ecde2546d, 0x6ab65536d6635cc1, 0x05155ccb5d5abae5, 0x33341d52e34e9add, 0xddeddb9e55e6dc55, 0xd356553d5e4cd5d2, 0x22663b4a4e3d34a4,
0x44ccdd454a4ea5c4, 0x54ed0deba6c25ee1, 0xcd4c5ce456200dbd, 0xae3ed64dcda63d14, 0xc5465345e66ebbd3, 0x565ac5c33dd29d1b, 0xb55ad0c5ed4d541d, 0x4edd41a556d4de44, 0xe30544405b44d0c4, 0xdd66955c3e4bb5c5,
0xecd49ed1554deee5, 0x469d5ed5dd1ed5dc, 0xccbd5ad5c625ac03, 0x496cb553d32ab53d, 0x5a35ae46ec6ebbe3, 0xc4bde9de1ee34e66, 0xcb52e4caaed24342, 0x5dddcdca65c5d346, 0xbdb452bcbd52d534, 0xae4b145435c4d425,
0x44e16d2cca45d5ed, 0x5494cd64dd4ec5e6, 0x45d9bd459553c9e0, 0x4cc4dd4a53ceebed, 0xcd464d45e34e45b9, 0xddeef5ae43e66d3b, 0xdedbecda03d53c54, 0x3404bd45dc5dbebc, 0xcd926534946a3c0c, 0x34d45ad45a459dcc,
0xc63d5bc5542ce54d, 0xcc354a46c63e2d2d, 0xd55c53d5dc5ddd49, 0xcdcd5ce6dddede5e, 0x492c440e31ece456, 0xc333c56d6ed66c67, 0xacedc9d2bbb5d55e, 0x6c6ddd43e494c544, 0x4554955ccab23355, 0x34cdbdc5d4cdbb3e,
0x45cc545c5cc6d5ed, 0xeb555dd5e6be51c5, 0x5c35c5dc5355a4b0, 0x455dd5c55dd5c26d, 0xe5c42555ee553ede, 0xae35dd455ddeea9d, 0xecab6d5cc945b335, 0x622b6c256d555ba1, 0x34ca9dbdddbcd595, 0xd50d3b54cdccdc43,
0x4444d9354d9b4dd0, 0x5dd5dd25ee445355, 0xde4dc5deec942d4c, 0x043ee9ece7e54c4f, 0xe555445354dcabdd, 0xd9be14bdb634aadc, 0xccda5c5dd56dadcb, 0xc5dec5e455dc4d65, 0xe2c215b4341422d4, 0xc5163da53c4cddb5,
0x5315bc56dc5d44ec, 0xdecdeea32e6ec04e, 0xdfcee5de9dd45d4d, 0x5e454ad5d60d615c, 0x5d64d563c3cae9ec, 0xeba431ee56cccb3b, 0x65cacd6dccbc9dfc, 0x64aeecbddc436d4b, 0x93ca53db69a3e5ed, 0xd4c659bd436bddd5,
0x34554356d65c53ec, 0xb1ce3c6dd6cb69d6, 0xad3bbb2dc6bc415d, 0xd36eb06eaef15544, 0xc4420d454b1deeed, 0x369d9d4356abceb5, 0xc145da5d0d5dc5d5, 0x6aae5bb5ec4a73c5, 0xd44455d444d6e4ed, 0xcb4cbccd3ddcd354,
0xd9dc1cc3d5663ccc, 0x53104cd4e5c955dc, 0x3ec35c2ce45514c2, 0xd264ed6d6de3d465, 0xcd54743dde55e5e6, 0xeaedd2dc6436be64, 0xdbcce52dc3d1d464, 0xd94335cd4c069eeb, 0xc544e2543d9c463c, 0xb13dccc5353091c4,
0x54ac55dc5d45a5e4, 0xc6e5dee65e5beede, 0xbd93c44bdd54d3c5, 0x1e53c3e5ed3ecd64, 0x9645e5bdb3bd25c6, 0xccfdeedbc5d4dd5c, 0xdce4dd4a43941353, 0x5bac5954cdc44d54, 0xbd6dc253c1d5213c, 0x4cca9dc5db34dcd5,
0xcb5533c1344deae2, 0xc65dd4eeadcdda5a, 0xde54d0a29c355155, 0xd92945caebcec5ac, 0xb53ebd45ed15eb24, 0xdee5424d5ac66e53, 0xa555d550d4ddd5dd, 0xd5bd4d344231d5be, 0xb3522d3d4bd1ce5c, 0x26dcee4ac5523dec,
0xcd31aec5dd44d25c, 0x6bd6e3cd6d554ddd, 0xdc53355254d2c3b1, 0xad35d4e3d54d6156, 0x564545dd64ee3955, 0x130dd654c1c9d4dc, 0x5da44ccc41d2d4ba, 0xc564d45c5ac6de6e, 0x35dcde45bed5ddb2, 0xd5ed5ead255ed3d2,
0x45646e4d9e5cdce5, 0xccbed5cddee664bf, 0x44555c54bd33cc14, 0x5edab623d6cc2cac, 0xe6cbccbbbe419454, 0xd43cb74eb5a5cd35, 0xdb444dcd4b4cc5c5, 0x7c5cebdeeecc64cd, 0xd150dcc54d5344dd, 0x54d435d4114343d3,
0xccd655d4d4bcd4e5, 0xabee33dee56e43bc, 0xd954dd5bde2e4595, 0xeeed43d0e6dccc55, 0x1d5dc49d5dd53dca, 0xdeba35bdd6d54255, 0x55a25dccdbb3e5f6, 0x7aded156d5b465ad, 0x05553c235f5a55e5, 0xdeb0c4ed63bad94d,
0x5ad6d4d6e45fb22e, 0x6ced5d35d33d6ee6, 0x4b44dc45ccddc3b3, 0xedce9cceb6d5ec6d, 0xd4e25ed56dd4db65, 0xbddc4c9da54bcc5d, 0x559534341c5ecdd5, 0x59ed5e4bec4e63cd, 0x2596cd455e44dce4, 0xcb1d5cc91c35db54,
0x4dba533ddd3cd5c2, 0x53e440e3dede465e, 0x9120e452acccd14c, 0xddc222b55644b56c, 0x5ccb953abee52eb6, 0xaeed32d5a6594544, 0xbc5442453253e19c, 0xd5435d4c6dde39c5, 0xd5c3b5d326b3b4c5, 0x34995bbcad454dd5,
0x51525ec4ddcc55b5, 0xe6d5d66cddedd4a6, 0xd151f352534c3a55, 0x5a3bc955d53bacdc, 0x42d550dedcb4ce4c, 0x34d56bdcc53de5cb, 0xad4544433a43dccd, 0xba5de6644dc62545, 0x54d35bdd43c5dd4c, 0x55391ddccc0ecde5,
0x642ddddc64ddcec5, 0x34d54dd1db6d6c5c, 0xdc54935a6bb64334, 0x05b21d55c25eed2c, 0x503cebe9e5cb5654, 0xa5444d535943d3de, 0x35532d15cddcbc5a, 0x52dcd250ddc3d5ed, 0x3bcccd64cc4ba343, 0xd9e4344dd44e3b5d,
0xbaa314d5cd4e49cd, 0xde55e64c5664dd9c, 0xc2c54dc4ad65dc16, 0x53bd56de6ad5e446, 0xdd46dd5d5decacc4, 0x34add3c495dd4c44, 0x55dca4154505cb40, 0xe2cdc54de6cdb45d, 0x5ab4dc3534dec5ba, 0x4dc5ddc9ccaebc3d,
0xb550adcc52cbbdd5, 0xbe53446e6dbd6465, 0x655c0e0459cc5cd4, 0xd5de455db5d240c5, 0xde5db945cd4deb24, 0x445d36edcd9c5533, 0xe5a25c24455355c5, 0x32edd45eed4d504d, 0xd555ad633d14cde3, 0xd2c2c33433cdb3dc,
0xac5564e555c4b6e5, 0x66ac55b44dbe6c46, 0x64554ca5cbdb44a5, 0xfdddd6adc4d2cc6d, 0x4db54e66bc64633d, 0xddcd945643a56a2c, 0xd32c5bd54335b5d5, 0x6ca4acc5ee5c54dd, 0x45666a954c541dd5, 0x3e4cc5d23445b96d,
0xbed9e30dcde3cb55, 0x46c36e65c5dcdf34, 0xdd34bc2e6ddc55a5, 0xee4dc5405cb6d25b, 0x355b6d24c53c5ddd, 0xddcdd664d10545b6, 0xc52ae4d44dd5e032, 0x66466ec43c555adc, 0xd435244b0d52e4db, 0x5d45454da5346c9b,
0x4d55d14eded4b349, 0xaceddb4e61ccdbbd, 0xdc034b5e5343cc4b, 0x3c4edc39bdc2c4d5, 0x26356ed5bdc3dc40, 0x3e55cdc340bca4cd, 0x2b4542dc3bd22c42, 0x54d55e55ddce5e4e, 0xdd5dd4d5dc5be6dd, 0xcb0b3cc4eddd9bdd,
0xee54ee6dcddc5e3d, 0x55c6d4545b36d45d, 0xbebd564d66d4455d, 0x5d0cd45bbc6ec4ed, 0x46fedc353de5b2db, 0xc4546c46dcb9953c, 0x4cc3eb441c4b4c34, 0x5b95dcd65edecd34, 0xada55145bd5ba4cd, 0xd5d401c4ebdd4adc,
0x35b4a35b442e5b51, 0xdece54dd66da2465, 0x5cddd55e2406444a, 0x5bdd52e4ea24dbde, 0xccebeacccc51c7d5, 0xd6354e42d45e5e46, 0xd3ab5342d9cadd45, 0xdddabeecebec4bce, 0xd45b5c30d52eb5de, 0x31d4d19c232c4652,
0x55dc5b525d39455d, 0x645556d5cd4dddc4, 0xd5553adcdccdcc35, 0x4ca6bc93355d2e3c, 0x4e50b554b6d01554, 0x2ccd5d26bd55d6b5, 0xc1425cdc5245d434, 0x6d6d4d5e4cac4546, 0x95d2dad545c5d52d, 0x5d5d5d5cc135c3d4,
0x95a344b595bc5d35, 0x5cdd356b431cd50d, 0x455e50d53b3d50cc, 0xe35ad1566cddeaa5, 0x93eeccc4eddd3454, 0x49242cd45cdd55dc, 0xa5dce2d5eddedece, 0xbec525464e6c4295, 0x31de50e69d4cad3c, 0x5a55cd64adcdac4b,
0xd5bfd3ec3245dc1e, 0x6bc14cd5362b64c4, 0xe1cf52e904d34dbb, 0xd4cde56c4e55dbdc, 0x44d2645cded0d5dd, 0xebbfc45d5cd54d9c, 0xebcd4c33d1db4e5e, 0x59556566e5be54e3, 0x33debded4532dd5e, 0x5cc55434443dd025,
0xd4bde9dc43dc5fdd, 0x364eb5d0cded445d, 0xd5dfb2ee59d3bd4b, 0xcd66e54d4ada6655, 0x3ed93c55e5ccd5ee, 0xdcccd3515d5552ba, 0x404bc2eec3e5cd34, 0x2db965c3565d29d6, 0x9ecdddcdcebb315a, 0x54225453dc9dc0dc,
0xddadfdde50555edc, 0x55ee35e52cc46dcd, 0x3ddd4aee41d2bdbe, 0xb324ed4da45ebcc5, 0xb4db49d5205a565c, 0xce66e332d353cb5c, 0x23cdb39005e0451e, 0x6cc35ce4dcd321b1, 0xdc369d5d54d94cdc, 0x65dd54ba544c54b1,
0xd54b0324cd2d04bd, 0x5eeeecc454d554d4, 0xdbce1ac412355dcc, 0x2b6bdc14cd0edbc6, 0xd5de46de5dd0a4c4, 0x9a4bcd5c34dea9cd, 0x354decdee3dd4adb, 0xe6c4bded36de35ea, 0xcb95e3b3555dcba5, 0x56cd55c945b1cbd4,
0x9bee4e54d5cda33d, 0xe3d2cdded55d5665, 0xcd50d3d45551b5cd, 0xddd5dee5d2bd53dd, 0xde4b54e43d4ac3b4, 0x5d0552466ddddd4c, 0x32b555ddec5cbd44, 0xd956621bee4256c5, 0x4cd952e5cded32ac, 0x55c5c4954545b355,
};
