static uint64_t backbone_model0_conv1_weight[16 * 9] =
{ // torch.Size([16, 3, 3, 3])
0x15d, 0xc6d, 0x05e, 0x06d, 0xd6d, 0xd6d, 0xc5e, 0xd6d, 0xc6a, 
0x55b, 0xc5c, 0x49d, 0xd3c, 0xe3b, 0xa53, 0xe44, 0xe33, 0xc44, 
0xd34, 0xd45, 0xd25, 0xd45, 0xe55, 0xe55, 0xc45, 0xd55, 0xd45, 
0x31b, 0x443, 0xa43, 0x54a, 0xdcc, 0xfdd, 0x542, 0x343, 0xc09, 
0x243, 0x9cb, 0xded, 0x555, 0x441, 0xddd, 0x454, 0x244, 0xacb, 
0x4c4, 0x4db, 0x4c1, 0x5c2, 0x5c3, 0x5cb, 0x5c0, 0x4c3, 0x4c3, 
0x344, 0x345, 0x454, 0xc3b, 0xc1b, 0xc3a, 0xcbb, 0xcbc, 0xd9b, 
0x2c5, 0xae4, 0x3eb, 0x5d5, 0x1e4, 0xce1, 0xbd5, 0x5d5, 0x5d5, 
0xc33, 0x2b4, 0x4b1, 0x410, 0x4cc, 0x4dd, 0x4bb, 0x5dd, 0x4de, 
0x3c9, 0x544, 0x544, 0x334, 0x0b3, 0x334, 0xa33, 0xeed, 0xedd, 
0xccc, 0xeed, 0xddd, 0x440, 0xc9b, 0x933, 0x544, 0x555, 0x554, 
0x512, 0x555, 0x554, 0xb90, 0x144, 0xb43, 0x332, 0xedd, 0xdcd, 
0xddd, 0xbdc, 0x454, 0xdde, 0xccc, 0x555, 0x393, 0x435, 0x454, 
0x344, 0x334, 0x434, 0xdee, 0xcdc, 0x454, 0xcdd, 0xbac, 0x534, 
0x454, 0x556, 0x456, 0x42a, 0x14c, 0x422, 0xced, 0xdfd, 0x9dd, 
0x455, 0x555, 0x444, 0x555, 0xa33, 0xbdd, 0x013, 0xddd, 0xeee, 
};

static int backbone_model0_relu1_threshold[16 * 7] =
{ // torch.Size([16, 7])
55, 288, 522, 755, 1105, 1571, 2504,
-132, 87, 308, 528, 858, 1299, 2180,
7, 444, 881, 1319, 1975, 2849, 4599,
-150, 49, 248, 448, 747, 1146, 1945,
-67, 105, 278, 450, 709, 1055, 1746,
358, 722, 1086, 1450, 1996, 2724, 4180,
124, 300, 476, 651, 915, 1267, 1970,
-109, 160, 430, 700, 1106, 1646, 2726,
-149, 190, 529, 869, 1379, 2058, 3416,
-122, 87, 296, 505, 819, 1238, 2075,
-94, 94, 283, 472, 755, 1133, 1889,
79, 380, 680, 980, 1430, 2030, 3231,
-80, 103, 287, 471, 747, 1115, 1851,
-103, 69, 243, 416, 676, 1023, 1717,
-60, 107, 276, 445, 698, 1035, 1710,
-94, 76, 247, 418, 675, 1017, 1702,
};

static uint64_t backbone_model0_conv2_conv1_weight[16 * 1] =
{ // torch.Size([16, 1, 1, 16])
0xb2c30ad12562e2d4, 
0x9b4bbb97416b0ed0, 
0xc4544d43cccdd040, 
0xcd95c5dc55443344, 
0xbccb10cdf1ca4cc9, 
0xc9a9b9c6c45bddd5, 
0x1410bacd535bddde, 
0x44cc4c54cdb450b3, 
0xccdac4da533543b9, 
0x22c13acc3363a666, 
0x54dd3d549bc4401b, 
0xdcdcd5c035254bcb, 
0xc356c3ccc11cd232, 
0xc5565c5ac1acc31b, 
0x54dd5b42a44553c1, 
0x663d5c5ad04cc4b3, 
};

static int backbone_model0_conv2_quant1_threshold[16 * 14] =
{ // torch.Size([16, 14])
-645, -420, -308, -224, -168, -112, -56, 0, 56, 112, 168, 252, 364, 588,
-685, -435, -309, -216, -153, -90, -28, 34, 96, 159, 221, 315, 440, 691,
-271, -172, -123, -86, -61, -37, -12, 12, 36, 61, 86, 123, 172, 271,
-495, -318, -230, -163, -119, -75, -30, 13, 57, 101, 146, 212, 301, 478,
-690, -470, -360, -278, -223, -168, -113, -58, -4, 50, 105, 188, 297, 517,
-541, -349, -253, -181, -133, -85, -37, 10, 59, 107, 155, 227, 323, 515,
-562, -370, -274, -202, -154, -106, -59, -11, 36, 84, 132, 204, 300, 492,
-395, -245, -170, -113, -76, -38, -1, 36, 73, 111, 148, 205, 280, 430,
-522, -341, -251, -183, -138, -93, -48, -3, 41, 86, 132, 199, 290, 470,
-503, -302, -201, -126, -76, -25, 24, 74, 124, 175, 225, 300, 401, 602,
-512, -320, -224, -151, -103, -55, -7, 40, 88, 137, 185, 257, 353, 546,
-530, -342, -249, -179, -132, -85, -38, 8, 54, 101, 148, 218, 312, 499,
-485, -310, -223, -157, -113, -70, -26, 17, 60, 104, 148, 213, 301, 476,
-552, -344, -240, -162, -110, -58, -6, 45, 97, 149, 201, 279, 383, 591,
-337, -208, -143, -95, -62, -30, 1, 34, 66, 99, 131, 179, 244, 374,
-616, -385, -270, -184, -127, -69, -12, 45, 102, 160, 217, 304, 419, 649,
};

static uint64_t backbone_model0_conv2_conv2_weight[16 * 9] =
{ // torch.Size([16, 3, 3, 1])
0x4, 0x3, 0x5, 0x3, 0xc, 0xd, 0x4, 0xd, 0xf, 
0x5, 0x5, 0x5, 0x5, 0xd, 0xd, 0x5, 0xd, 0xf, 
0xb, 0x6, 0x9, 0xd, 0x4, 0x6, 0xd, 0xd, 0x6, 
0x4, 0x5, 0x4, 0xc, 0xf, 0xf, 0x9, 0x1, 0x5, 
0x4, 0xa, 0x4, 0x3, 0xd, 0xd, 0xa, 0xd, 0xe, 
0xc, 0xd, 0xd, 0xc, 0x4, 0x5, 0x1, 0x6, 0x6, 
0xb, 0xc, 0xb, 0xb, 0x5, 0x5, 0x0, 0x6, 0x6, 
0x9, 0x3, 0x5, 0x4, 0x6, 0xe, 0x3, 0xe, 0xf, 
0x4, 0x5, 0x3, 0xc, 0x3, 0x6, 0xc, 0xf, 0xf, 
0x4, 0x2, 0x9, 0x4, 0xd, 0xe, 0x4, 0xe, 0xf, 
0xc, 0xd, 0xc, 0xc, 0xd, 0x5, 0xc, 0x6, 0x7, 
0x3, 0xc, 0xa, 0x5, 0x5, 0xe, 0x1, 0x7, 0x6, 
0x3, 0xc, 0xc, 0x5, 0xe, 0xc, 0x6, 0xe, 0x3, 
0x3, 0xd, 0xb, 0x4, 0x9, 0xf, 0x4, 0x5, 0xe, 
0x4, 0x0, 0xd, 0x5, 0xd, 0xd, 0x5, 0xf, 0x4, 
0x4, 0x4, 0x0, 0xd, 0xf, 0xe, 0xc, 0xb, 0xb, 
};

static int backbone_model0_conv2_relu2_threshold[16 * 7] =
{ // torch.Size([16, 7])
-21, 62, 147, 231, 357, 525, 862,
-8, 51, 111, 171, 261, 381, 621,
40, 150, 260, 369, 534, 753, 1191,
24, 136, 248, 360, 528, 752, 1200,
0, 54, 108, 162, 244, 353, 570,
-3, 53, 110, 167, 252, 366, 594,
-13, 60, 134, 208, 319, 467, 763,
47, 138, 229, 320, 457, 639, 1003,
45, 155, 264, 374, 539, 759, 1199,
33, 149, 264, 379, 553, 783, 1245,
35, 114, 193, 271, 389, 547, 861,
44, 149, 255, 361, 520, 731, 1154,
49, 121, 193, 265, 372, 516, 803,
28, 98, 167, 236, 340, 479, 756,
38, 139, 240, 342, 493, 696, 1100,
-11, 98, 207, 317, 482, 702, 1141,
};

static uint64_t backbone_model1_conv1_conv1_weight[16 * 1] =
{ // torch.Size([16, 1, 1, 16])
0xce5545abd2bb4cb4, 
0xcb02aa6dc24322eb, 
0x7bbc44b5c04baa4b, 
0xd954bd1de334f51b, 
0x0babccb0b55d2d3e, 
0xd2d34c4adac346c5, 
0xba732d06d443a34a, 
0x34b13453265a4aec, 
0x23431ccba3eda353, 
0x9a3ab0bc05599a4e, 
0xcac2b4c34cd44b96, 
0x35a3b42f6031cdab, 
0xc4c3f63b444a0d42, 
0xb667c4ac4aa1b5ba, 
0x192a24b435d7a16c, 
0xab3b997c17d5b92c, 
};

static int backbone_model1_conv1_quant1_threshold[16 * 14] =
{ // torch.Size([16, 14])
-478, -307, -221, -157, -114, -72, -29, 13, 56, 98, 141, 205, 291, 462,
-636, -414, -303, -220, -164, -109, -53, 1, 57, 112, 168, 251, 362, 584,
-542, -329, -223, -143, -90, -37, 15, 68, 121, 175, 228, 307, 414, 626,
-918, -604, -446, -328, -250, -171, -92, -14, 64, 143, 221, 340, 497, 812,
-606, -396, -291, -212, -159, -107, -54, -2, 50, 102, 155, 234, 339, 549,
-452, -285, -202, -140, -98, -57, -15, 25, 67, 109, 150, 212, 296, 462,
-675, -411, -279, -180, -114, -48, 17, 83, 150, 216, 282, 381, 513, 777,
-601, -368, -252, -165, -106, -48, 9, 67, 125, 183, 242, 329, 445, 678,
-582, -378, -276, -199, -148, -97, -46, 5, 56, 107, 158, 234, 337, 541,
-559, -359, -259, -184, -134, -84, -34, 15, 65, 115, 165, 240, 340, 540,
-563, -351, -245, -165, -112, -59, -5, 47, 100, 153, 206, 286, 392, 605,
-531, -340, -244, -173, -125, -77, -30, 17, 65, 112, 160, 232, 327, 518,
-566, -363, -261, -185, -134, -83, -32, 18, 68, 119, 170, 246, 348, 551,
-765, -467, -318, -206, -131, -57, 17, 91, 166, 240, 315, 427, 576, 874,
-567, -336, -220, -134, -76, -18, 39, 97, 154, 212, 270, 357, 472, 704,
-719, -440, -300, -195, -125, -55, 13, 83, 153, 223, 293, 398, 537, 817,
};

static uint64_t backbone_model1_conv1_conv2_weight[16 * 9] =
{ // torch.Size([16, 3, 3, 1])
0xb, 0x3, 0xb, 0x4, 0xe, 0xb, 0xc, 0xe, 0x5, 
0xc, 0x3, 0x2, 0x0, 0xf, 0xa, 0x1, 0xc, 0x4, 
0x2, 0x1, 0x2, 0x3, 0x3, 0xa, 0x4, 0xd, 0xf, 
0x0, 0xc, 0x1, 0x2, 0xd, 0x2, 0x3, 0xf, 0xd, 
0xc, 0x1, 0x4, 0xd, 0x4, 0x6, 0xd, 0xb, 0x2, 
0x3, 0x9, 0x3, 0x4, 0x1, 0xb, 0xb, 0x7, 0x0, 
0x0, 0x9, 0xb, 0xc, 0x4, 0x1, 0xa, 0x3, 0x7, 
0x4, 0x3, 0xc, 0xc, 0x7, 0xb, 0xb, 0x0, 0xb, 
0x4, 0x5, 0x5, 0x4, 0xa, 0xb, 0xb, 0xd, 0xd, 
0x4, 0x6, 0x4, 0x4, 0xc, 0x1, 0xc, 0xd, 0xc, 
0x1, 0x2, 0x3, 0xb, 0x6, 0x4, 0x0, 0xc, 0xd, 
0x3, 0x9, 0x2, 0xc, 0x6, 0x6, 0xb, 0x4, 0x1, 
0xb, 0x1, 0xb, 0x3, 0xd, 0xf, 0xb, 0xb, 0xa, 
0x0, 0x9, 0xa, 0x9, 0x4, 0x7, 0xb, 0x1, 0x4, 
0xa, 0xa, 0xb, 0xb, 0x5, 0xa, 0xb, 0x6, 0x4, 
0x3, 0x3, 0x3, 0x0, 0xc, 0x3, 0x3, 0xf, 0xc, 
};

static int backbone_model1_conv1_relu2_threshold[16 * 7] =
{ // torch.Size([16, 7])
-22, 47, 116, 185, 290, 428, 706,
-23, 68, 160, 253, 391, 576, 945,
-25, 54, 134, 214, 334, 494, 814,
-16, 67, 151, 235, 362, 530, 866,
-5, 44, 95, 145, 221, 322, 525,
-30, 50, 131, 211, 332, 493, 815,
-8, 63, 134, 205, 312, 454, 739,
-14, 52, 119, 186, 286, 420, 688,
21, 43, 65, 87, 120, 165, 254,
2, 38, 75, 111, 166, 240, 386,
1, 33, 64, 96, 143, 206, 332,
-35, 39, 114, 189, 301, 451, 751,
-38, 56, 151, 245, 387, 576, 954,
-9, 70, 150, 231, 351, 511, 832,
-9, 39, 88, 137, 211, 309, 505,
-19, 60, 141, 222, 343, 504, 828,
};

static uint64_t backbone_model1_conv2_conv1_weight[64 * 1] =
{ // torch.Size([64, 1, 1, 16])
0x303236a3dcac3d93, 
0xccc1cc944a239cec, 
0x10f2c1cc4cc43343, 
0xab5d44cdcc30dcca, 
0x1b9d54ab9eec5abc, 
0x0b40a442bbdcde24, 
0x251142a45b2111e9, 
0x1329035a143b6dbb, 
0x56443d42a5314c5b, 
0xd0c5c4ad4d4d5cdc, 
0x6d9aa2aae223bcbb, 
0xa045c4c4c642d554, 
0x414b24bcecaa0369, 
0x544ace594451252d, 
0x30a66543c49c5c53, 
0x3254522199edbd13, 
0x6d42a23243b3cac9, 
0xb42d51355cdc54b4, 
0xcb0254d5c3a42eb5, 
0x925d4dc302cc1335, 
0xd55acac45c412ad9, 
0xce445ddd4b40a5d2, 
0x444226c4ec43535c, 
0xdc9bbd4c6445c3c4, 
0xd1a45acc43b4fcc3, 
0xccc541d0c4eddb4c, 
0xc2499b5c75ab33c0, 
0xcc3dc565a99d444d, 
0xccd1edba455ac5cd, 
0x4025b334012e432e, 
0x42503ab4b466a247, 
0x64dc50c4da91e542, 
0x327c54cbcbb0c334, 
0xa9a1b03ca44b23de, 
0xbad954db1ec3dbcc, 
0x44ec4a53d42dccc2, 
0x432d325b3c563945, 
0xa2adec9a9b2c32cb, 
0xdc5443cc4a4dbbcd, 
0x566bbc4145554b5c, 
0x20cd405c4303443c, 
0xbc0ceb3abbcbaf39, 
0x3da5d05235a46d42, 
0x41c4cc3dc355f3c3, 
0x65e3c3421ac44954, 
0x442c2034c33bf2bb, 
0x246d2e2c241cc9b4, 
0xdcb343dc44ecdeb5, 
0xddbaca4c66d33333, 
0xc605d4bcd44cccc4, 
0x3a556ce04b1c43b2, 
0x33999eb463bbc3e4, 
0x404e54043cd23643, 
0xdec333cb3c54bbd4, 
0xee44b54c54005e34, 
0xab3b333cbbdd132e, 
0xb130332532c46d55, 
0x9337ccccb61c1c33, 
0xabcdd365cc652c24, 
0x65425c5526dbd454, 
0x35b3b9454542d543, 
0x49e62bd545334b44, 
0x934dcd534d2e359d, 
0x13d35bc43de15c24, 
};

static int backbone_model1_conv2_quant1_threshold[64 * 14] =
{ // torch.Size([64, 14])
-663, -421, -300, -209, -149, -88, -27, 32, 93, 153, 214, 304, 426, 668,
-743, -494, -370, -277, -215, -153, -91, -29, 33, 95, 157, 250, 374, 623,
-1066, -692, -505, -364, -271, -177, -84, 9, 102, 196, 289, 430, 617, 991,
-586, -383, -281, -205, -155, -104, -53, -2, 47, 98, 149, 225, 326, 529,
-795, -525, -390, -289, -221, -154, -86, -19, 48, 115, 183, 284, 419, 689,
-616, -407, -302, -224, -172, -119, -67, -15, 36, 89, 141, 219, 324, 533,
-590, -372, -263, -181, -127, -72, -17, 36, 91, 145, 200, 281, 391, 609,
-641, -401, -282, -192, -132, -72, -13, 46, 106, 166, 226, 315, 435, 674,
-729, -444, -301, -194, -122, -51, 20, 91, 162, 234, 305, 412, 555, 841,
-945, -616, -451, -327, -245, -162, -80, 1, 84, 166, 248, 372, 537, 866,
-811, -522, -378, -270, -197, -125, -53, 18, 90, 163, 235, 343, 488, 776,
-642, -392, -267, -173, -110, -48, 14, 77, 139, 202, 265, 359, 484, 734,
-754, -476, -337, -233, -163, -94, -24, 44, 114, 183, 253, 357, 496, 774,
-1084, -696, -502, -356, -259, -162, -65, 31, 128, 225, 322, 468, 662, 1050,
-591, -351, -232, -142, -82, -22, 37, 97, 157, 217, 277, 367, 487, 726,
-687, -444, -322, -231, -170, -109, -48, 12, 73, 134, 195, 286, 408, 651,
-571, -359, -253, -173, -120, -67, -13, 39, 92, 145, 198, 278, 384, 597,
-630, -398, -283, -196, -138, -80, -23, 34, 92, 150, 208, 294, 410, 641,
-641, -408, -292, -205, -147, -88, -30, 27, 85, 143, 201, 289, 405, 637,
-547, -346, -245, -170, -119, -69, -19, 31, 81, 131, 182, 257, 358, 559,
-747, -479, -345, -245, -178, -111, -44, 22, 89, 156, 223, 323, 457, 725,
-736, -467, -333, -232, -165, -97, -30, 36, 103, 170, 237, 338, 472, 741,
-848, -524, -362, -241, -160, -79, 1, 82, 163, 243, 324, 446, 607, 931,
-887, -564, -402, -281, -200, -119, -38, 42, 123, 204, 284, 406, 568, 891,
-831, -534, -385, -273, -199, -124, -50, 24, 98, 173, 247, 359, 508, 805,
-801, -523, -384, -280, -211, -141, -72, -2, 66, 136, 205, 310, 449, 727,
-678, -423, -295, -199, -136, -72, -8, 55, 119, 183, 247, 342, 470, 725,
-638, -409, -295, -209, -152, -95, -38, 19, 76, 133, 190, 276, 390, 619,
-756, -492, -360, -261, -195, -129, -63, 2, 68, 134, 200, 299, 431, 696,
-772, -499, -363, -261, -193, -125, -57, 10, 78, 146, 214, 316, 452, 724,
-622, -363, -233, -136, -71, -6, 58, 123, 188, 252, 317, 415, 544, 804,
-722, -447, -309, -205, -136, -67, 1, 70, 139, 208, 276, 380, 518, 794,
-733, -455, -315, -211, -141, -72, -2, 67, 136, 206, 276, 380, 520, 798,
-615, -401, -295, -214, -161, -108, -54, -1, 51, 105, 158, 238, 345, 558,
-707, -462, -339, -247, -185, -124, -63, -1, 59, 120, 182, 274, 397, 642,
-698, -453, -330, -238, -176, -115, -53, 7, 68, 130, 191, 283, 406, 652,
-683, -413, -278, -177, -109, -42, 25, 92, 160, 227, 295, 396, 531, 801,
-527, -354, -267, -203, -159, -116, -73, -30, 12, 56, 99, 164, 250, 423,
-655, -425, -309, -222, -165, -107, -49, 8, 65, 123, 181, 267, 383, 614,
-827, -498, -334, -211, -129, -46, 35, 117, 199, 281, 363, 487, 651, 980,
-505, -316, -222, -151, -104, -56, -9, 37, 84, 132, 179, 250, 344, 533,
-793, -537, -409, -313, -249, -185, -121, -57, 7, 71, 135, 231, 359, 615,
-917, -574, -403, -274, -189, -103, -17, 67, 153, 239, 324, 453, 624, 967,
-830, -526, -374, -260, -183, -107, -31, 44, 120, 196, 272, 386, 539, 843,
-699, -430, -296, -195, -127, -60, 6, 74, 141, 208, 276, 376, 511, 780,
-1156, -748, -544, -391, -288, -186, -84, 17, 119, 221, 323, 476, 681, 1089,
-707, -454, -327, -232, -169, -105, -42, 20, 83, 147, 210, 305, 432, 685,
-810, -533, -395, -291, -222, -153, -84, -15, 53, 122, 191, 295, 433, 710,
-1120, -708, -502, -348, -245, -142, -38, 64, 167, 270, 373, 527, 733, 1145,
-795, -505, -360, -251, -178, -106, -33, 38, 111, 183, 256, 365, 510, 800,
-795, -496, -347, -235, -160, -85, -11, 63, 138, 212, 287, 399, 548, 847,
-917, -591, -429, -307, -226, -144, -63, 17, 98, 180, 261, 383, 546, 871,
-653, -407, -284, -192, -130, -69, -7, 53, 115, 176, 238, 330, 453, 699,
-922, -602, -442, -322, -242, -163, -83, -3, 76, 156, 236, 356, 516, 836,
-985, -627, -448, -314, -224, -134, -45, 44, 133, 223, 312, 447, 626, 984,
-596, -396, -296, -221, -171, -121, -71, -21, 28, 78, 128, 203, 304, 504,
-706, -442, -310, -211, -146, -80, -14, 51, 117, 183, 249, 348, 480, 743,
-896, -553, -381, -252, -167, -81, 4, 90, 175, 261, 347, 475, 647, 990,
-901, -568, -401, -276, -192, -109, -26, 57, 140, 223, 307, 432, 598, 932,
-716, -432, -290, -184, -113, -42, 28, 99, 170, 241, 312, 419, 561, 845,
-524, -314, -208, -129, -77, -24, 27, 80, 132, 185, 238, 317, 422, 632,
-625, -380, -258, -167, -106, -45, 15, 76, 137, 198, 259, 351, 473, 717,
-727, -471, -343, -248, -184, -120, -56, 7, 71, 135, 198, 294, 422, 677,
-639, -410, -295, -209, -152, -95, -37, 19, 76, 133, 191, 277, 391, 620,
};

static uint64_t backbone_model1_conv2_conv2_weight[64 * 9] =
{ // torch.Size([64, 3, 3, 1])
0xc, 0xa, 0x4, 0xd, 0xd, 0x6, 0xc, 0x4, 0x4, 
0x6, 0x5, 0x5, 0x5, 0xb, 0x9, 0xd, 0xd, 0xd, 
0x4, 0xd, 0x9, 0x4, 0xd, 0x2, 0x9, 0xe, 0x3, 
0x5, 0xb, 0xd, 0x6, 0xb, 0xd, 0x5, 0x1, 0xa, 
0xd, 0x4, 0x4, 0x9, 0xe, 0x5, 0x4, 0x0, 0xd, 
0x5, 0x6, 0x5, 0xd, 0xe, 0xd, 0x4, 0x4, 0x3, 
0xd, 0xb, 0x5, 0xe, 0x2, 0x5, 0xd, 0x3, 0x5, 
0xc, 0x0, 0xd, 0xc, 0x3, 0x5, 0xb, 0x5, 0x6, 
0x4, 0x2, 0xc, 0x5, 0x6, 0xc, 0xc, 0xb, 0xc, 
0x3, 0xc, 0xb, 0x1, 0xc, 0xa, 0xd, 0xd, 0xc, 
0xd, 0xe, 0xe, 0xc, 0xd, 0xc, 0x5, 0x6, 0x5, 
0xd, 0xc, 0xa, 0xb, 0xe, 0x4, 0x1, 0xd, 0xa, 
0x0, 0x5, 0x6, 0x9, 0xc, 0x5, 0xd, 0xe, 0xd, 
0xc, 0xe, 0x1, 0xc, 0x3, 0xc, 0xa, 0x5, 0x2, 
0x3, 0x4, 0x2, 0x2, 0x4, 0x3, 0xc, 0xf, 0x9, 
0xa, 0xa, 0x1, 0xa, 0xc, 0xe, 0x2, 0x5, 0x5, 
0x5, 0x6, 0x5, 0x1, 0x3, 0x2, 0xd, 0xd, 0xc, 
0x3, 0x2, 0x3, 0x9, 0xb, 0xd, 0x4, 0xd, 0xe, 
0x9, 0xa, 0x3, 0xb, 0xa, 0x5, 0x4, 0x7, 0xc, 
0xd, 0xc, 0x3, 0xd, 0x5, 0xb, 0x2, 0x6, 0xd, 
0x5, 0x6, 0x3, 0x4, 0x5, 0x1, 0xd, 0xc, 0xd, 
0x4, 0xc, 0x5, 0x4, 0x6, 0x3, 0xc, 0x3, 0xd, 
0x3, 0x3, 0x9, 0xa, 0x5, 0xc, 0x9, 0x6, 0x9, 
0xb, 0x4, 0x6, 0xd, 0x4, 0x6, 0xe, 0xd, 0x9, 
0xa, 0x5, 0x4, 0x9, 0x7, 0x4, 0x3, 0xc, 0xd, 
0x3, 0xb, 0xa, 0x4, 0x6, 0x5, 0xc, 0xb, 0x5, 
0xe, 0xd, 0xc, 0xd, 0xd, 0xc, 0xb, 0x6, 0x6, 
0xb, 0xc, 0x1, 0xc, 0xc, 0x5, 0x5, 0x6, 0xa, 
0xc, 0x2, 0x0, 0xc, 0xc, 0x5, 0xa, 0x5, 0x6, 
0xc, 0xd, 0x2, 0xc, 0xe, 0x4, 0xa, 0xc, 0x4, 
0x3, 0xa, 0xc, 0x9, 0xc, 0xf, 0xb, 0x3, 0xc, 
0xd, 0xc, 0x6, 0xd, 0xc, 0x5, 0xd, 0xc, 0x5, 
0xa, 0xb, 0x3, 0xc, 0xb, 0x3, 0xe, 0xe, 0x4, 
0xb, 0xb, 0x5, 0xd, 0x6, 0x1, 0xb, 0x5, 0xd, 
0xa, 0xc, 0xb, 0x1, 0x4, 0xc, 0x4, 0x7, 0x5, 
0xd, 0xc, 0xc, 0xd, 0xb, 0x4, 0xb, 0x5, 0x5, 
0xd, 0x2, 0x4, 0xd, 0xd, 0x5, 0x4, 0xd, 0xb, 
0xd, 0xc, 0x2, 0x6, 0x6, 0x3, 0xc, 0xd, 0x0, 
0x4, 0xc, 0x4, 0x3, 0x5, 0x5, 0xd, 0xc, 0x5, 
0x5, 0x6, 0x1, 0x3, 0xc, 0x5, 0xd, 0xe, 0xb, 
0xd, 0xc, 0xd, 0x4, 0x2, 0xa, 0x5, 0x4, 0x3, 
0xa, 0xd, 0x2, 0x5, 0x6, 0x2, 0xc, 0xc, 0xb, 
0xd, 0xd, 0xc, 0x4, 0xc, 0xc, 0x6, 0x5, 0x0, 
0x4, 0xb, 0xd, 0x5, 0x5, 0xd, 0x5, 0x6, 0xd, 
0x4, 0x5, 0x3, 0x2, 0x2, 0xc, 0xc, 0xe, 0xd, 
0x4, 0xe, 0xe, 0x3, 0xc, 0xb, 0x4, 0x3, 0xd, 
0xb, 0xc, 0xb, 0xd, 0xd, 0xa, 0x9, 0xd, 0x4, 
0xa, 0x4, 0xb, 0xa, 0xc, 0xb, 0x5, 0x7, 0x4, 
0xb, 0x5, 0x5, 0x3, 0x4, 0x3, 0x3, 0x4, 0x5, 
0x3, 0x9, 0xc, 0x4, 0x9, 0xd, 0x4, 0xd, 0xe, 
0xc, 0xd, 0xb, 0xd, 0xd, 0xc, 0x5, 0x5, 0x0, 
0x4, 0x3, 0xd, 0x5, 0xc, 0xd, 0x6, 0xa, 0xd, 
0x4, 0xa, 0xc, 0x4, 0xc, 0xc, 0xd, 0xe, 0x4, 
0xd, 0xa, 0x4, 0xc, 0x6, 0x5, 0xe, 0x6, 0x6, 
0x3, 0x4, 0xa, 0xa, 0x6, 0x3, 0x9, 0x5, 0x3, 
0x4, 0x4, 0xc, 0xb, 0x6, 0xe, 0x3, 0x5, 0xd, 
0x4, 0xc, 0xe, 0x3, 0xb, 0xe, 0x4, 0x5, 0xc, 
0x4, 0xa, 0x3, 0xd, 0x4, 0x5, 0xf, 0xd, 0x5, 
0x4, 0x3, 0x1, 0x4, 0x4, 0xb, 0xc, 0x5, 0x6, 
0xc, 0x3, 0xc, 0x2, 0xc, 0xc, 0x2, 0xe, 0x1, 
0xd, 0xe, 0xc, 0x9, 0x4, 0x4, 0x2, 0x5, 0x5, 
0xb, 0xc, 0xb, 0x4, 0xc, 0xc, 0x4, 0x6, 0x4, 
0x3, 0x6, 0x4, 0x6, 0x9, 0xc, 0x3, 0xd, 0xa, 
0xb, 0xa, 0x9, 0x6, 0x6, 0xd, 0x9, 0xb, 0x3, 
};

static int backbone_model1_conv2_relu2_threshold[64 * 7] =
{ // torch.Size([64, 7])
13, 44, 76, 107, 153, 215, 340,
24, 69, 114, 159, 227, 317, 496,
7, 49, 92, 135, 199, 285, 457,
20, 60, 100, 140, 200, 280, 441,
15, 47, 79, 110, 158, 222, 349,
27, 81, 136, 191, 274, 384, 603,
20, 46, 72, 98, 138, 190, 295,
18, 66, 114, 162, 234, 330, 522,
19, 59, 99, 139, 199, 279, 438,
12, 45, 77, 110, 159, 225, 355,
29, 100, 171, 242, 349, 491, 775,
12, 61, 110, 159, 233, 331, 527,
23, 63, 104, 145, 206, 287, 450,
-8, 19, 47, 75, 117, 173, 285,
11, 73, 134, 196, 288, 411, 657,
8, 46, 84, 122, 178, 254, 406,
31, 68, 106, 144, 200, 276, 427,
9, 61, 113, 165, 243, 347, 555,
22, 79, 137, 194, 280, 395, 626,
23, 56, 90, 124, 174, 241, 375,
27, 61, 95, 129, 180, 247, 383,
6, 55, 105, 155, 229, 329, 527,
9, 50, 90, 131, 191, 272, 435,
32, 89, 146, 203, 288, 402, 630,
-4, 67, 140, 213, 322, 467, 758,
12, 49, 85, 122, 177, 250, 397,
8, 85, 161, 238, 353, 507, 814,
28, 73, 117, 162, 228, 317, 495,
21, 77, 133, 190, 274, 387, 613,
12, 54, 96, 137, 200, 283, 450,
8, 80, 152, 224, 331, 475, 763,
17, 60, 103, 146, 211, 296, 468,
2, 64, 127, 189, 282, 406, 655,
16, 56, 95, 135, 194, 273, 431,
19, 84, 149, 215, 312, 443, 704,
16, 60, 105, 149, 216, 305, 484,
18, 54, 89, 124, 177, 247, 388,
28, 79, 129, 179, 255, 356, 557,
16, 54, 92, 129, 186, 261, 412,
26, 57, 88, 119, 165, 227, 351,
17, 48, 78, 109, 155, 216, 339,
18, 53, 89, 124, 178, 249, 391,
16, 48, 79, 110, 157, 220, 345,
13, 59, 104, 150, 219, 310, 493,
15, 62, 110, 157, 229, 324, 514,
29, 82, 135, 188, 267, 373, 585,
12, 48, 84, 120, 174, 246, 389,
11, 87, 163, 240, 354, 507, 811,
26, 69, 111, 154, 218, 304, 475,
9, 66, 123, 181, 266, 381, 610,
29, 70, 110, 150, 211, 292, 453,
18, 44, 70, 96, 135, 187, 291,
0, 60, 119, 179, 268, 387, 626,
53, 111, 169, 226, 313, 429, 660,
23, 66, 109, 153, 218, 304, 478,
27, 76, 125, 175, 249, 348, 545,
6, 51, 96, 142, 209, 300, 481,
10, 74, 137, 201, 296, 423, 677,
8, 41, 74, 107, 156, 222, 354,
10, 56, 102, 148, 217, 310, 494,
25, 68, 110, 153, 217, 302, 472,
14, 49, 85, 120, 173, 244, 386,
23, 64, 106, 147, 209, 292, 457,
15, 53, 91, 129, 186, 262, 414,
};

static uint64_t backbone_model2_conv1_conv1_weight[64 * 1*4] =
{ // torch.Size([64, 1, 1, 64])
0x4b43451bd2dcc53c,0x3330da55545143d4,0xbbdba94eec1ce5b5,0xa545bccbbd4cedbb, 
0x4a54dcb094dd34ad,0x35cbca2a5dc4c5cd,0x3d1c453c35d46454,0x6ce22d56aab4c59c, 
0xbc505c5dbd2ca444,0xedc22311344b4cc3,0xcdd5c9c5b40292c4,0xc5dac913c9b3dbac, 
0x5552c4b5c402a94d,0x620db5459cc425cc,0x2441446451cb5634,0x5b5331559c433a54, 
0xb5c341432ab2c3d3,0xc5491bcd9b44444b,0xdb9b4e1c053c4c5d,0x4caf54cccdd4045b, 
0xdc45442245daaedd,0xbc0ddbacda2d434c,0x6c5dcecedb53444c,0x4c5dc44e4ac4c535, 
0x42bd5cbad443c466,0xb25cc45c4a4e0c05,0xb43543aa4c949cc4,0xdbbc4455bc43bc4d, 
0x4c5beb493e9d2ccd,0xb0bd42211bbcdcb5,0xc02c454ac6e43494,0xc0dcbc544b2ac2b3, 
0xddead1a66c4c4442,0xccc5acdcdcaccc6e,0x4a5c4cd94a1d6cbc,0xc5cbb9c0c4c60693, 
0xb455d35ccd1d4c54,0xcdbe29a4eb4c0db4,0x2b540d1c63463c44,0x05cd265415533c59, 
0x4533aa4b215d4d51,0xdb5dbb3ac44c5abe,0x3b2c14dd1a44c9c2,0xd53351ba644d232a, 
0x6545cd4edd1bb595,0xb0c9cca53b549cb4,0xc5d5335512bbb140,0x4555d4ccdc5cbe5d, 
0x54bb3ca6bb4edc54,0xe4c5ecc443c34d23,0x44b45c90c434c9a4,0xc53c93b4c2bcddb5, 
0xc455c549b54c55c2,0xcdb45cbc53949d1c,0x45b4b55c3d4cbc21,0x1465d43b33344c3c, 
0xd3dc4eddd4531c29,0xdc543d6bc4cbc439,0xb444d3cdccccde90,0xd450ccc4cccd5dcd, 
0xdb214b533445bc3b,0x5c3a42ccac43a255,0xbbddaccd4cc2d5c9,0x4d5b0949db252994, 
0xc30b1cc465522c5c,0x5ab4534dd9144a4e,0x2c5d45d50cbb55da,0xcb3c4a33b52246c2, 
0xcc935dd4c4ca1444,0xcbb4b95a345bbabc,0x5c11dac34ce4b2ba,0x3901b334d9bbab4d, 
0xa43a4cce5bcc435c,0x4a509b5dc3534b9c,0x3bccc4de400424c3,0x53d2b5ddd550cc24, 
0xccbc4bd3d4339c54,0xdc465b4a351b4b1a,0x44bbddbcdd4ccedb,0xd51b34ba242b3dbb, 
0x5c03b53dddd4c9a4,0x243d9c5b334434b6,0xddd14c2d54c3b144,0x3cba54c44b520d41, 
0xa13c45a4eccad46a,0xc54b144b6c4c44d5,0x5ac44d3b4345dc25,0x15d3c6b3c30a4d1b, 
0xacd99de594b3c344,0xb1d3d402dd4c054c,0x544cdade1bdbcdbc,0x1e50acb45b1c95bb, 
0x43c3441b5393d4db,0xc595bbc05a14d535,0xdedc44db393bac31,0x9b49540c3c0cc902, 
0x5045b53bd90c24bc,0x45d4e6ac4d4cda44,0xd4d5665c2bdc45bb,0x5254230a2d542c5c, 
0xb3c5c55cc34d6535,0x44c49cc5bcc2c54b,0x35434453da4d443a,0xc5541eb3dc42ca55, 
0x544cd429bcdc4c4c,0xb1d3bb019d4d349d,0xddd253b4d5e435b4,0xadde62243bb3c595, 
0x4cca0b4444d404cc,0x49d3c4c34ab2db95,0x43ed4c4cddc23322,0x1d2442b4ccb4c533, 
0x552c544bb4ce332a,0xa43cccaddd3c4b43,0xbcc353edc1cb14cc,0x44c95bcd5b4db490, 
0xdebdc5c55526ccb1,0x413d4b5b33c4bbc4,0x9adc9d453442d5b4,0x0cdbbad25db3c4c0, 
0x4c52db433dcb4c4d,0x4cd5b6d3cc324b34,0x39a5b6ad49d555c4,0x4636c54c15443b32, 
0xbdbccdc50d02cd65,0x4a5335cbcbd9bdb3,0xc54accd6d254bbdb,0xd9dd514c14cdd3b2, 
0x5c43a3935a4b2c41,0xd353424aa3c4ddc9,0x3ba54995b4bcc4da,0xd44c3c34c9ca4c13, 
0x03d30959cc1d3c5a,0xc455aadbc4cccd95,0x35ac3123c409abc3,0xe54d425544444a05, 
0x3453d3cb1c44443d,0xd3bcd43b4d24233d,0x5c5a445d35eabc52,0x4c2bd4b5c4ba41c1, 
0x4441dd15b433bb23,0xbcd9d554c5a4cdb9,0x46d22a54cb1cddbd,0xca24cdd5bb5c9cb4, 
0x533c4d433434dcc5,0x4511bb45b30b3524,0xc50cb115d35329bd,0x3d5d4bab4c9e2c3d, 
0x26ccda64415db134,0xb4d5b4a2c54d956c,0xb43cb4bdbcc9b253,0xad4b439dd4bca434, 
0x442bc2613dccc21b,0xcdb3c6c4459a3cb9,0x16da3ba5d5434ba1,0xe634cb3bda44d245, 
0xc53c45b3c034dd9c,0x4c4b6b0bdc34c424,0xc0cdbcce49c1cd3c,0x5dda22cc55ca5bb4, 
0xaebb21db3d404d5d,0x4ddc4949c9d5dacd,0x5c3d30d0433144d4,0x94d49bc354cab543, 
0x0b51c4cccae5dd6d,0xa450c1432cad4cc2,0xd1dc324dd35ecb56,0xbd0cdccd3e2bc5da, 
0xcc454d4b0ca54d34,0x4c2452c354d455c4,0xbc95ea05a51cc35c,0xc543cd34ebd53bc9, 
0x5b559d3dd3d54cdc,0x5cadb549e4b42ae5,0x2bd2d04b4d34c495,0x04d414ba5b23dc45, 
0x4c5bd452dbb35492,0x04d351bc42d6bcd2,0x53d5dc6453cbbd5a,0x53464042c115bb05, 
0x55b4bc5b4c2e3bcb,0x3dd3dcd455d29dbc,0xb5534ac5db53a4a9,0xdc3c313c5bdd3494, 
0x35b4435edd5d3d4a,0x3403dd9dcdcd535d,0x2c5b45dddc3544d0,0xc04c5a2d44ce4ba1, 
0x41195a3ddcc0d5a2,0xabc1c455cc5ebb46,0xd5eb39bcab0bb2d0,0xb45a022c5c5ddd5c, 
0xa5bb3dcd25b5b0c4,0x5559cc523423d53b,0xcbed34add4c445d3,0x1cac42c56c4c152b, 
0x430456560cac413c,0xd6bb15d36dc544c4,0x4d25533535d51144,0x04c413453ac39bbc, 
0xe4b4552d9354cccc,0x454ac5beddcdb4cd,0xdd51c3c5c94cb41b,0xa49caceddc2c3ecc, 
0x4cc11cc6cccc64c4,0xcb3d4145a0445b45,0x60adde3c2cb54d1c,0xd14b5664cb4bac55, 
0xc403bd60c333b9c0,0xd3205cbac94dbd91,0xd51ba5529193a1a2,0xc351d3a01cb544a0, 
0xbdcb5ddce6c4dda5,0x496ddd6bd34d3cdc,0x2ce3d4dddc44da1c,0xccd92cdc5bbcdddd, 
0xbdc15dcd3ab3c554,0xccd2d454c2ad4c32,0xad35dc35dc4c1cdc,0xa53c3cc3dd5cdd2d, 
0xb922bb53c4a3932c,0x2dc932bbb329bdc4,0xc6523042d2b42142,0x4345dab2c3a23442, 
0x2434d4bdd31c0d4d,0x554c455c434b34d9,0xccbc4414d434d5d5,0xdb5464cc4b2d2c31, 
0x3335514d149dd69a,0xc45d1d554b74c533,0x03a54b5d1ddba104,0x4559cb4bd264cdcc, 
0xb49295a534344cb2,0x54332c4cbd55c952,0x366d3b3b2cdc434a,0x5d9b4c2c54cd5414, 
0x4c22d4c54dad5d5d,0x435b54cbd5d45cb3,0x4a3bdcb34544a443,0x9cccc9b1e5e434d4, 
0x5565d351cdcbbc4c,0x555d5ac95baa3635,0xda4b59b5b5d54526,0x4c4c5543ccb4bb64, 
0x5a34ed4c9eda3bdb,0xcbcd2a93bd242b2c,0xd39c4b43c6d444c1,0xc992b045353ac659, 
0x5e253cdac4d4dc54,0x5b4bd3543db163dc,0x2db4dac15c5ab5ac,0xaa5cccc4cdc4cdae, 
0x5ccacad4b9bec4cb,0x3bc53cc2b42b3dd3,0x9640c1d13423554b,0x54bcd2bc44abc4ab, 
};

static int backbone_model2_conv1_quant1_threshold[64 * 14] =
{ // torch.Size([64, 14])
-970, -628, -458, -330, -244, -159, -74, 11, 96, 182, 267, 395, 566, 907,
-1200, -774, -561, -401, -295, -189, -82, 23, 130, 236, 343, 502, 715, 1141,
-851, -551, -401, -289, -213, -138, -63, 11, 86, 161, 236, 348, 498, 799,
-903, -552, -376, -245, -157, -69, 18, 105, 193, 281, 369, 500, 676, 1027,
-996, -638, -459, -325, -236, -146, -57, 31, 121, 210, 300, 434, 613, 970,
-871, -567, -415, -301, -224, -148, -72, 3, 79, 155, 231, 345, 497, 802,
-1101, -701, -501, -351, -251, -151, -51, 48, 148, 247, 347, 497, 697, 1097,
-1057, -677, -487, -345, -250, -155, -60, 34, 129, 224, 319, 461, 651, 1031,
-1230, -792, -573, -408, -299, -189, -80, 29, 138, 248, 358, 522, 741, 1179,
-918, -586, -420, -295, -212, -129, -46, 36, 119, 202, 285, 410, 576, 908,
-1022, -661, -481, -346, -255, -165, -75, 14, 104, 195, 285, 420, 600, 961,
-953, -604, -429, -298, -210, -123, -35, 51, 138, 226, 313, 444, 619, 969,
-993, -634, -454, -319, -229, -139, -49, 40, 130, 220, 310, 444, 624, 984,
-654, -409, -286, -194, -132, -71, -10, 51, 112, 174, 235, 327, 450, 695,
-1013, -660, -484, -351, -263, -175, -87, 0, 89, 177, 265, 397, 574, 926,
-654, -413, -293, -202, -142, -82, -22, 37, 97, 157, 218, 308, 428, 669,
-967, -604, -422, -286, -195, -105, -14, 76, 167, 257, 348, 484, 666, 1029,
-747, -484, -352, -254, -188, -122, -57, 8, 74, 140, 205, 304, 436, 698,
-970, -627, -456, -327, -241, -156, -70, 15, 101, 187, 272, 401, 572, 916,
-1147, -739, -534, -381, -279, -177, -75, 26, 128, 230, 333, 486, 690, 1099,
-840, -534, -380, -266, -189, -112, -36, 40, 116, 193, 270, 384, 538, 844,
-1136, -712, -500, -341, -235, -129, -23, 82, 188, 294, 400, 559, 771, 1195,
-918, -604, -447, -329, -251, -173, -94, -16, 62, 140, 219, 336, 493, 807,
-849, -540, -385, -269, -192, -115, -37, 39, 116, 193, 271, 387, 541, 850,
-1042, -645, -446, -297, -197, -98, 1, 100, 199, 299, 398, 547, 746, 1144,
-953, -596, -417, -283, -194, -105, -16, 73, 162, 251, 341, 475, 653, 1010,
-961, -613, -438, -308, -220, -133, -46, 40, 127, 215, 302, 433, 607, 956,
-821, -528, -382, -272, -199, -126, -53, 19, 92, 165, 239, 348, 495, 787,
-968, -625, -454, -325, -240, -154, -68, 16, 102, 188, 273, 402, 573, 916,
-888, -565, -404, -282, -202, -121, -40, 39, 120, 201, 282, 403, 564, 887,
-1025, -637, -444, -298, -201, -105, -8, 88, 185, 282, 379, 524, 718, 1106,
-1026, -655, -469, -329, -236, -143, -50, 42, 135, 228, 321, 460, 646, 1018,
-616, -391, -278, -193, -137, -81, -24, 31, 87, 143, 200, 284, 397, 622,
-880, -556, -394, -272, -191, -110, -29, 51, 132, 213, 295, 416, 578, 903,
-977, -626, -450, -318, -231, -143, -55, 32, 120, 207, 295, 427, 602, 954,
-993, -630, -448, -312, -221, -130, -39, 50, 141, 232, 323, 459, 641, 1004,
-1016, -639, -450, -309, -215, -120, -26, 67, 161, 256, 350, 491, 680, 1057,
-806, -507, -357, -244, -170, -95, -20, 54, 129, 204, 279, 391, 541, 840,
-976, -612, -430, -293, -202, -111, -20, 70, 161, 252, 343, 480, 662, 1026,
-867, -556, -401, -284, -206, -129, -51, 26, 103, 181, 259, 375, 530, 841,
-860, -557, -405, -292, -216, -140, -64, 10, 86, 162, 238, 351, 503, 806,
-965, -623, -451, -323, -237, -151, -66, 19, 105, 190, 276, 404, 576, 918,
-881, -548, -381, -256, -173, -90, -6, 76, 159, 243, 326, 451, 618, 951,
-1066, -682, -490, -346, -250, -154, -58, 37, 133, 228, 324, 468, 660, 1044,
-1224, -760, -529, -355, -239, -123, -8, 107, 223, 339, 455, 628, 860, 1323,
-865, -554, -399, -283, -205, -127, -50, 27, 104, 182, 259, 376, 531, 841,
-984, -636, -462, -331, -244, -157, -70, 15, 102, 189, 276, 407, 581, 929,
-976, -629, -455, -325, -238, -152, -65, 21, 108, 194, 281, 411, 585, 932,
-1049, -667, -476, -333, -237, -142, -46, 48, 144, 239, 335, 478, 669, 1051,
-948, -583, -401, -264, -173, -82, 8, 99, 190, 281, 373, 509, 692, 1056,
-1119, -714, -512, -360, -258, -157, -56, 44, 146, 247, 348, 500, 702, 1107,
-995, -630, -448, -311, -220, -129, -38, 52, 143, 234, 325, 462, 644, 1009,
-793, -499, -353, -243, -169, -96, -23, 50, 123, 196, 270, 380, 526, 820,
-1324, -868, -641, -470, -356, -242, -128, -14, 99, 213, 327, 498, 726, 1181,
-847, -550, -401, -289, -215, -140, -66, 8, 82, 157, 231, 343, 492, 789,
-578, -358, -248, -166, -111, -56, -1, 53, 108, 163, 218, 300, 410, 630,
-854, -538, -381, -262, -183, -104, -25, 52, 131, 210, 289, 407, 565, 881,
-988, -625, -443, -307, -216, -125, -34, 55, 146, 237, 328, 464, 646, 1009,
-755, -467, -323, -215, -143, -71, 0, 72, 144, 217, 289, 397, 541, 829,
-901, -577, -414, -292, -211, -130, -49, 31, 112, 194, 275, 397, 559, 884,
-865, -526, -357, -229, -145, -60, 24, 108, 193, 278, 362, 490, 659, 998,
-1079, -691, -497, -351, -254, -157, -60, 36, 133, 230, 327, 473, 667, 1055,
-1016, -651, -468, -331, -240, -149, -57, 33, 124, 216, 307, 444, 626, 992,
-668, -426, -305, -214, -154, -93, -33, 27, 87, 148, 208, 299, 420, 662,
};

static uint64_t backbone_model2_conv1_conv2_weight[64 * 9] =
{ // torch.Size([64, 3, 3, 1])
0x5, 0xb, 0xc, 0x6, 0x3, 0x1, 0x6, 0x5, 0xb, 
0xc, 0x4, 0xc, 0xd, 0xe, 0x4, 0x4, 0xe, 0x5, 
0xd, 0xd, 0xd, 0x4, 0x4, 0x5, 0x4, 0x4, 0x5, 
0x3, 0xa, 0xb, 0xb, 0xe, 0xd, 0x4, 0xd, 0x1, 
0x3, 0x3, 0x4, 0x4, 0x5, 0x5, 0x4, 0x6, 0x4, 
0x9, 0x9, 0x1, 0x4, 0xd, 0x3, 0x2, 0x4, 0x7, 
0x5, 0xc, 0xd, 0x5, 0xc, 0xd, 0x5, 0xd, 0xd, 
0x5, 0x0, 0xd, 0x5, 0x4, 0xe, 0x6, 0x4, 0xd, 
0x1, 0xc, 0xb, 0x4, 0xe, 0xf, 0x3, 0x3, 0x2, 
0xb, 0x1, 0x2, 0x4, 0xa, 0xd, 0xd, 0xc, 0xf, 
0x3, 0xe, 0xd, 0x4, 0xd, 0xd, 0x6, 0x5, 0xb, 
0xc, 0x5, 0x6, 0xe, 0x4, 0x3, 0xd, 0xb, 0xc, 
0x3, 0x1, 0x4, 0x3, 0x5, 0x9, 0x6, 0x4, 0xd, 
0xc, 0x5, 0x0, 0xd, 0x4, 0x6, 0xc, 0xe, 0x5, 
0xa, 0x4, 0xd, 0x3, 0x7, 0x3, 0xd, 0x3, 0xd, 
0xd, 0x3, 0x1, 0x5, 0x6, 0xd, 0x5, 0xe, 0x0, 
0xe, 0xd, 0xc, 0xd, 0xd, 0x1, 0x5, 0x5, 0x5, 
0xc, 0x4, 0x5, 0xc, 0xd, 0xd, 0x2, 0x5, 0x6, 
0xc, 0xc, 0xc, 0xd, 0xd, 0xe, 0x2, 0x9, 0xa, 
0xd, 0x5, 0x5, 0xd, 0x4, 0x5, 0xd, 0xd, 0x2, 
0x3, 0xb, 0x6, 0x2, 0xc, 0x5, 0xe, 0xe, 0xa, 
0x1, 0x4, 0x4, 0xa, 0x5, 0x3, 0x5, 0x5, 0xa, 
0xc, 0xe, 0xa, 0x3, 0x6, 0x6, 0xc, 0xc, 0x3, 
0x5, 0xc, 0xd, 0x6, 0xc, 0xc, 0x5, 0x2, 0xd, 
0xd, 0xe, 0xe, 0xc, 0xa, 0x4, 0x5, 0x5, 0x5, 
0x3, 0xc, 0xa, 0x9, 0x9, 0xc, 0xb, 0x0, 0xe, 
0x3, 0x6, 0x4, 0x5, 0xc, 0xd, 0x5, 0xe, 0xc, 
0x4, 0x5, 0xd, 0xb, 0x5, 0xd, 0x3, 0x0, 0xe, 
0x4, 0x5, 0x6, 0x1, 0x0, 0x1, 0xd, 0xe, 0xc, 
0x5, 0x5, 0x2, 0x2, 0xd, 0xd, 0xe, 0xd, 0x3, 
0x4, 0x5, 0x4, 0x5, 0x5, 0x0, 0x3, 0x5, 0xb, 
0x4, 0x6, 0x5, 0xd, 0xc, 0x4, 0xd, 0xe, 0xc, 
0xc, 0xd, 0xd, 0x6, 0x2, 0x5, 0x0, 0xd, 0x0, 
0x3, 0x4, 0x0, 0xe, 0x1, 0x5, 0x2, 0xe, 0xd, 
0xe, 0xd, 0x5, 0xe, 0xc, 0x6, 0xc, 0x4, 0x5, 
0x5, 0xb, 0xd, 0x6, 0x5, 0xd, 0xb, 0x5, 0xb, 
0xb, 0xd, 0xd, 0x5, 0x2, 0xe, 0x6, 0xa, 0xc, 
0x9, 0x3, 0x3, 0xd, 0xc, 0x5, 0xd, 0x6, 0x6, 
0xd, 0x5, 0x5, 0xf, 0xa, 0x5, 0x5, 0x9, 0x4, 
0xc, 0xd, 0xd, 0x0, 0xc, 0xd, 0x5, 0x6, 0x5, 
0x4, 0x6, 0x4, 0x3, 0x4, 0xd, 0x4, 0xd, 0xd, 
0xc, 0x4, 0xb, 0x3, 0x4, 0x2, 0x5, 0x5, 0x5, 
0x3, 0x3, 0x1, 0x1, 0x4, 0x4, 0x4, 0x6, 0x5, 
0x5, 0x5, 0x5, 0x3, 0x5, 0x4, 0xb, 0xd, 0xc, 
0x4, 0xb, 0xb, 0x5, 0x1, 0x0, 0x5, 0x5, 0x5, 
0xd, 0xd, 0xb, 0xd, 0x2, 0x5, 0xc, 0x6, 0x6, 
0x6, 0x5, 0xb, 0x5, 0x5, 0xc, 0x3, 0x4, 0xd, 
0xd, 0x4, 0x5, 0xc, 0xa, 0x5, 0xc, 0x4, 0x6, 
0xd, 0xc, 0x6, 0xe, 0xd, 0x6, 0xd, 0xd, 0x5, 
0xa, 0xc, 0x2, 0x4, 0xe, 0xd, 0x3, 0xd, 0xc, 
0x6, 0x4, 0xd, 0x5, 0x4, 0xd, 0x5, 0x3, 0x4, 
0xb, 0x1, 0xe, 0x0, 0xd, 0xd, 0xc, 0xd, 0xc, 
0x5, 0xd, 0x5, 0x6, 0xc, 0xd, 0xa, 0x6, 0xe, 
0xc, 0x3, 0xc, 0xc, 0xc, 0xd, 0xd, 0xd, 0xd, 
0x9, 0x5, 0x2, 0x5, 0x5, 0x7, 0xe, 0xb, 0x5, 
0xb, 0xd, 0x5, 0x5, 0xe, 0x5, 0x2, 0xc, 0x2, 
0xd, 0xc, 0xc, 0xc, 0x5, 0x5, 0x5, 0x6, 0x9, 
0xb, 0xd, 0xc, 0x2, 0xe, 0xd, 0x9, 0xa, 0xd, 
0x3, 0x2, 0x4, 0x4, 0x5, 0x4, 0xc, 0xe, 0xf, 
0xa, 0xe, 0xa, 0x9, 0xe, 0xc, 0x4, 0xb, 0x5, 
0x1, 0x4, 0x2, 0x4, 0xd, 0xd, 0xc, 0xd, 0xe, 
0x3, 0xc, 0xe, 0x5, 0xc, 0xd, 0x4, 0x6, 0x6, 
0x3, 0x4, 0x5, 0x9, 0x5, 0xa, 0x5, 0x5, 0xc, 
0x3, 0x5, 0xe, 0x5, 0x4, 0xe, 0x4, 0xd, 0xc, 
};

static int backbone_model2_conv1_relu2_threshold[64 * 7] =
{ // torch.Size([64, 7])
27, 106, 184, 263, 381, 538, 852,
15, 66, 116, 166, 241, 341, 541,
24, 64, 105, 145, 205, 285, 446,
7, 57, 108, 158, 234, 335, 537,
20, 94, 169, 243, 355, 504, 802,
25, 83, 141, 199, 286, 402, 635,
19, 60, 100, 141, 202, 283, 445,
23, 57, 91, 125, 177, 245, 382,
22, 87, 152, 217, 315, 445, 706,
27, 102, 177, 252, 365, 515, 816,
8, 64, 121, 177, 262, 375, 601,
21, 63, 105, 146, 209, 293, 460,
20, 70, 121, 171, 247, 347, 549,
8, 68, 129, 190, 282, 404, 647,
31, 78, 125, 172, 243, 337, 525,
22, 64, 106, 147, 210, 294, 461,
21, 69, 118, 167, 239, 337, 531,
24, 60, 96, 133, 187, 260, 405,
25, 70, 116, 161, 229, 320, 501,
29, 62, 96, 129, 179, 246, 380,
15, 76, 136, 196, 287, 407, 649,
18, 64, 111, 157, 226, 319, 503,
27, 66, 106, 146, 205, 284, 443,
30, 75, 120, 165, 232, 323, 503,
14, 80, 146, 211, 310, 442, 705,
20, 54, 88, 122, 173, 241, 378,
15, 63, 111, 160, 232, 328, 521,
14, 77, 141, 205, 301, 428, 683,
18, 81, 143, 205, 299, 423, 673,
26, 67, 108, 149, 210, 292, 457,
35, 72, 109, 147, 202, 276, 424,
26, 70, 114, 158, 223, 311, 486,
20, 63, 106, 149, 213, 299, 470,
24, 71, 118, 166, 236, 330, 519,
29, 77, 126, 174, 247, 344, 538,
29, 75, 122, 169, 238, 332, 518,
23, 75, 127, 179, 256, 360, 568,
26, 75, 123, 172, 244, 341, 535,
31, 80, 129, 178, 252, 351, 548,
24, 75, 127, 178, 255, 357, 562,
26, 65, 105, 144, 203, 282, 440,
19, 67, 115, 163, 235, 332, 524,
18, 74, 130, 187, 271, 383, 607,
27, 69, 111, 152, 215, 299, 466,
24, 51, 77, 104, 144, 197, 303,
28, 87, 146, 205, 293, 411, 647,
17, 68, 119, 171, 248, 350, 556,
14, 68, 121, 175, 256, 363, 577,
28, 84, 140, 196, 280, 392, 616,
18, 73, 127, 181, 263, 371, 588,
3, 49, 96, 143, 213, 306, 493,
20, 82, 144, 206, 299, 422, 670,
28, 78, 128, 177, 252, 352, 550,
34, 76, 119, 161, 225, 309, 479,
35, 105, 175, 245, 350, 491, 771,
26, 67, 108, 149, 211, 293, 457,
15, 57, 99, 141, 204, 288, 457,
26, 90, 155, 219, 315, 444, 701,
37, 114, 192, 269, 385, 541, 851,
19, 77, 135, 192, 279, 394, 625,
24, 88, 152, 217, 313, 441, 698,
30, 77, 124, 171, 241, 336, 524,
13, 58, 104, 150, 219, 311, 494,
32, 82, 131, 181, 256, 355, 553,
};

static uint64_t backbone_model2_conv2_conv1_weight[64 * 1*4] =
{ // torch.Size([64, 1, 1, 64])
0x545dcd45a5525b44,0x55455bc55d63d595,0x553545555eb546dd,0x4c635dd6bd555adc, 
0x55dcbaeddccb2bcd,0x15bc0cc6435c06ac,0x457a453dacd33ddb,0x2cd459ad6dc544de, 
0xd2b23cad93c6bd20,0xc59103bc0e464ccb,0xdccbc54dccbda3bd,0x5de04521bd9bad5c, 
0xd553a13356b4bccd,0xce5b4b2ca6d55366,0x5cbd5b24415c3c50,0x094124cc454dc216, 
0xcdccccddddc42355,0xedbbabdb5c55d6b4,0xdccc69b455dc9255,0x3c5ecddda94dcb44, 
0xb4354ccd3c3b45c2,0x4cb32b42446a4343,0x4b0945564bb43152,0xe4a63493313d5a2a, 
0x52dd3556543c614a,0x645ded405c6ea5d6,0xe35b69d55541dc6c,0x60e65ebd995cc3bd, 
0xee5d4535e43cd3dc,0x5b4b2de04543ac66,0x50c5dd55d45b4d66,0xc4eed416b445d252, 
0xcb4454b54c55ad5d,0xc4dd6d545ce45595,0x65b5346d46d64564,0xc4cdc4650cd4c2e4, 
0x553dce5652465dd6,0xd36b44c55d46434c,0x554655666e4355d4,0x5d35d366cc43cc45, 
0x5eb66cda45c6c03a,0xa2d2ced463d3d5c6,0x9beb155e56ecd37c,0x5bedadcc5d5dbb4d, 
0xe55adc52cebcc5a2,0x465455b5e564543e,0x433550dce36d5195,0x66b56d0455550dda, 
0x3b3933549b433b04,0xa554ba34be9d23f5,0x4b2b43cb5444b4ca,0xb3db1c0539b9a254, 
0xcc6ad43d356add92,0x5cc55c6202c5461d,0x56355d65b5cc43cd,0xc2cc4ce96cd65cbd, 
0x2251ccb5b454ceb2,0xcb244dcc5d355d45,0x455bcc66dd5d65e3,0xa4c5b5d5c1566456, 
0x2dedbd3a2ac54bdd,0xdabb5b43cc15cc3c,0x24bbc0541c55d5a3,0x3dd33964ddeddce1, 
0x43cdcdccddd44c56,0xdd52cebc245cd29d,0xdded3cd4cbbe9ecb,0x4b95acd4a3635d5b, 
0xcde0d4ddabea3c05,0x5c54de9c556cde44,0x91cdddd6ed5e1cad,0xc135c2dc34b45564, 
0xcbc64d5d555ed254,0xd564a25ceccccceb,0x30b55d1dbdd65dd4,0xe52c63dc45935d0d, 
0xeb4b335bdeb54346,0x4dd26555ddd4425e,0x45555253b02555c6,0xd5d5de46b22b4c44, 
0x3e5c5bdd01e0b42c,0xc5dbddcc5ed33c03,0x5ba2d4cdd1532c05,0xb254da54bc555ccd, 
0x0c2ad6ea1b25c4c3,0x5cbdc594cd4c2c3a,0xbdd354dc4cd5cdbd,0xc6c9db35bd9ed65d, 
0x6d3db64d2ca6dc64,0x35b4db29cdddc933,0x50d5b4cc4cea43cc,0xb4d0dd44bacce44d, 
0x1de3a6664d6d4a34,0xd6566366d354d5d3,0xc5dc55b5db25e545,0x444c3c44dc3a35c6, 
0x3de6ec2b51a55c55,0xe6b5d4cbd3445b1b,0xecd4bb345dda4ddc,0x2c15d43e964b5d9b, 
0xdc54355c0ecd362c,0x55b315bdc54d302d,0x0cc325ddc533ed5d,0xbc555cc4cbdbeedb, 
0xbbb49c52ce5440cd,0xa5a355445444335d,0x432524d45c46d551,0x4e436b45bdd4eed1, 
0x554b6524355d535b,0x65b64643cc51e5cc,0x15b6c646c6b4b24e,0xd66c5c255d3535dd, 
0x3c02e2cc44d5bb05,0xeedc5ec234944b43,0x4aab5d4c5b4c3a05,0xac4ceddd554db4b6, 
0xbdc45c3c3c2bd344,0x5345242b3ab5ccd1,0xbadbd30db555dc33,0xd6ccb442d2525461, 
0xc145cb4ddde3de5d,0xda4d3cd4cd3b5b45,0xed35d3ddcdd4bd3d,0x4be42564352eed5c, 
0xbabc2dbdcc4cc42d,0x39cb0b91dcb2ccdd,0xd1c9bca3ccdcd5d0,0xdc02d332ccb04dc2, 
0xbd295dccad4ceec5,0x4dc94d6db44549c4,0xb55cdb4a454c455b,0xd6c24455c3266c65, 
0x56d25dbc264345ed,0x43b61121e516e553,0x65ca59555245a53a,0xb4cc3dc4ed345cdc, 
0xc653dc34b45d5c6c,0xcc5c154c2abdad45,0xddc3bdc4dbdb5ebd,0x4ccc34531bced4a5, 
0xa65aa2ca55d5dbdd,0x1c6bc52d465cad3c,0xdc4dcdbd4b2dadcc,0x55cb653d352ce4d4, 
0xa5d66c4c94415ad6,0x5343cc5cb14c4dbc,0x4b1d164dc4655544,0xc6e5244b6c6a4c6b, 
0xc39e54d4dcd4e35e,0xec0acdde35639695,0xbdc4bcecb6bebd5d,0x6c2dddcbd555d354, 
0xe44beaaddbdcb156,0x5dc3db5d33c3ee54,0x9dc3ed34f35b4ebd,0xc3cd5df5ce4cc454, 
0xb555b6bd9c4ec01e,0xb5b494c3d6544d35,0x54ba5cd54c65d542,0xc355355c45cbd5d4, 
0x2cdee4c24cd3ddc9,0xb35dbdd24345434b,0xc2cb5e534dd3ddcc,0xadd2b9c1d5e542c4, 
0x1ed2b43424524d06,0x52c654445c534594,0x3546cd46d453c596,0x5e445d654ce543cb, 
0x5ecc25ddc0b4ed54,0xdefe14bd5e04ca5c,0x4b2641dbd5b54345,0xdc9c1a55c514b44c, 
0xbc95d24d33d46914,0x1124dce50535651a,0xcb1343cc53045d4c,0x31a3cdcd654d2aed, 
0x549c45d26cd2de63,0xdd4e555cd54cea94,0x2555cc5c52b5ad94,0x53d3ca5ecd05d5db, 
0x4d9c55e4dddc54db,0x59cbac2564543a64,0x6453c4dad352c535,0x4bbbc4b2dda555a4, 
0xd5ed4193e54ecdbc,0x533355554bd2eceb,0xc46dc2bde5d41ea3,0x05d45de639dc3555, 
0x55d2aced34bb3dcd,0xd45de4d4cb4b54b9,0xc55d36cd4bd49dc2,0x3ca6c5be45440bb1, 
0x53abdd65a45dc5d5,0x6553bd45dbb143ed,0x5abcc446bcc45bc2,0xb5cb46d4d55bdd3d, 
0x2c2c45446ca5ce64,0xddcd2445d65b4d4d,0x56453a55555c3a56,0x59c5e25cd9c644c6, 
0x5c5cd43d6556d5a5,0xddd45c4db5d55c76,0x53e42d5a63255442,0xd55d55a5c5dc140c, 
0x5d4e35dd0dd5d456,0x4cddd50e0bdbbd5b,0xbdc5d99d55da5c9d,0xbabbdcb4acabd45e, 
0xe1adad55e44a4cc5,0xd4d55c456e45634c,0x45435664d3514515,0xd4435dd6cc555da5, 
0x5c5eb3bc5423cc6b,0x4cbc55bba5bc9b51,0x31544e2423ccae53,0x4d4cadcc41e6d3fc, 
0xc1d45bcdb5ebc594,0x53dbe3dcbbcd3ce2,0xeddec4dec5ccbd4d,0xe54d5aeeac9d556e, 
0xbdd445bd54cce55b,0xc3cadc5dd5dce5e5,0xededdd42c5dd2edd,0xd6ddccdd235d55cc, 
0x15065bebc5d5dd3e,0xdddccebc3ac5b5c3,0xbddc24ce45340c5e,0xc4de453d425d2c3e, 
0x543d42504c33bc62,0x521652cddc5e56d4,0xd3544324b5c4166e,0x5bd5c4455bbde5cd, 
0xb9d364d33d4b533b,0xc6b553549d05d5da,0xeb5d9602db4cd434,0xb5640a6bd445320b, 
0xc354442bdc4c566c,0x4ac6ccbd3c4ca5e3,0xecdad6dcc3cdc25c,0xc56dcd3c6d6c423e, 
0xa5cddc2dd53ceabc,0x4c54c55c54d43da3,0xcabd4d1344b944cc,0xd4cc45e3d4c4335d, 
0xd4d464dd5b2c6ccc,0xc4dac3553305de51,0xd46e5954a544335b,0xb4d5bd456d5464c4, 
0xb3434ae3dbdda49d,0x47dc5ec15cddc3b5,0xcd93e53de344dd5e,0x54c26355ee44b5bd, 
0x435eeddc43c4453c,0x4ccedddeca3c5d5d,0xedcd41455ddc6d9d,0xc042eddd65c5cecd, 
};

static int backbone_model2_conv2_quant1_threshold[64 * 14] =
{ // torch.Size([64, 14])
-1114, -682, -466, -305, -197, -89, 18, 126, 234, 342, 450, 612, 828, 1260,
-1233, -791, -570, -404, -293, -182, -72, 38, 148, 259, 370, 536, 757, 1199,
-972, -630, -458, -330, -244, -159, -73, 12, 97, 183, 268, 397, 568, 911,
-1383, -870, -613, -420, -292, -164, -36, 92, 220, 348, 477, 669, 926, 1439,
-1156, -749, -546, -393, -291, -190, -88, 13, 115, 216, 318, 471, 674, 1081,
-807, -497, -342, -225, -148, -70, 6, 84, 162, 239, 317, 433, 588, 898,
-1372, -871, -620, -432, -307, -181, -56, 68, 194, 319, 444, 632, 883, 1385,
-1416, -894, -634, -438, -308, -177, -47, 83, 213, 344, 474, 670, 930, 1452,
-1302, -816, -574, -392, -271, -149, -28, 92, 214, 335, 456, 638, 881, 1366,
-1386, -857, -592, -394, -262, -130, 2, 134, 266, 399, 531, 729, 994, 1523,
-1806, -1139, -805, -555, -388, -222, -55, 111, 278, 445, 611, 862, 1195, 1862,
-1023, -642, -451, -308, -213, -117, -22, 72, 168, 263, 358, 501, 692, 1073,
-1184, -751, -535, -373, -264, -156, -48, 59, 167, 275, 383, 546, 762, 1194,
-1423, -910, -653, -461, -333, -205, -76, 51, 179, 307, 435, 628, 884, 1397,
-1122, -702, -492, -334, -229, -124, -19, 85, 190, 295, 400, 558, 768, 1188,
-1936, -1214, -853, -582, -401, -221, -40, 140, 320, 501, 681, 952, 1313, 2036,
-1174, -761, -554, -399, -295, -192, -88, 14, 118, 221, 325, 480, 687, 1100,
-1388, -881, -627, -437, -310, -183, -56, 70, 197, 324, 450, 641, 894, 1402,
-1522, -968, -690, -482, -344, -205, -67, 71, 209, 348, 487, 695, 972, 1526,
-1276, -806, -571, -394, -277, -159, -42, 75, 193, 310, 428, 604, 839, 1309,
-1139, -728, -522, -368, -265, -162, -60, 42, 145, 248, 350, 504, 710, 1121,
-1299, -836, -604, -431, -315, -199, -84, 31, 147, 262, 378, 552, 783, 1246,
-1253, -804, -580, -411, -299, -187, -75, 36, 149, 261, 373, 541, 766, 1214,
-1259, -782, -544, -365, -246, -126, -7, 111, 230, 350, 469, 648, 886, 1363,
-1557, -987, -703, -489, -347, -205, -62, 79, 221, 363, 506, 719, 1004, 1573,
-1028, -657, -471, -332, -239, -146, -54, 38, 131, 224, 317, 456, 641, 1013,
-1222, -765, -536, -364, -250, -135, -21, 92, 207, 321, 436, 607, 836, 1294,
-1042, -638, -437, -285, -184, -84, 16, 117, 218, 319, 420, 571, 773, 1176,
-1166, -753, -547, -393, -290, -187, -84, 19, 122, 225, 328, 482, 688, 1101,
-1176, -747, -532, -372, -264, -157, -50, 56, 163, 271, 378, 539, 753, 1182,
-1371, -889, -648, -467, -347, -226, -106, 14, 134, 255, 375, 556, 797, 1279,
-1291, -836, -609, -438, -325, -211, -97, 15, 129, 243, 357, 527, 754, 1209,
-1160, -737, -526, -368, -262, -156, -51, 54, 160, 265, 371, 530, 741, 1164,
-1523, -969, -692, -485, -346, -208, -70, 68, 206, 345, 483, 691, 967, 1521,
-1294, -825, -591, -416, -299, -182, -65, 51, 168, 285, 402, 578, 812, 1280,
-1611, -1022, -727, -506, -359, -212, -65, 82, 229, 376, 524, 745, 1039, 1628,
-1110, -689, -478, -320, -215, -109, -4, 100, 205, 311, 416, 574, 785, 1206,
-1425, -919, -666, -476, -350, -223, -97, 29, 156, 282, 409, 598, 851, 1357,
-1457, -945, -689, -496, -368, -240, -112, 15, 143, 271, 399, 591, 848, 1360,
-1040, -650, -455, -309, -211, -114, -16, 80, 178, 275, 373, 519, 714, 1104,
-959, -626, -460, -335, -252, -169, -86, -3, 80, 163, 246, 371, 537, 870,
-1083, -662, -451, -293, -188, -82, 22, 128, 233, 338, 444, 602, 813, 1234,
-1197, -769, -556, -395, -288, -182, -75, 31, 138, 245, 352, 512, 726, 1153,
-1207, -768, -548, -383, -273, -164, -54, 55, 165, 275, 385, 549, 769, 1208,
-1211, -777, -560, -397, -288, -180, -71, 36, 145, 254, 362, 525, 742, 1177,
-1276, -794, -553, -372, -252, -131, -11, 109, 229, 350, 470, 651, 892, 1374,
-1476, -944, -678, -479, -346, -213, -80, 52, 185, 318, 451, 650, 916, 1448,
-1186, -761, -549, -390, -284, -178, -72, 33, 139, 245, 351, 510, 722, 1147,
-1321, -828, -581, -396, -273, -150, -26, 96, 219, 343, 466, 651, 898, 1391,
-1196, -751, -528, -362, -250, -139, -28, 82, 193, 305, 416, 583, 805, 1250,
-1394, -873, -613, -418, -288, -158, -28, 101, 231, 361, 492, 687, 947, 1467,
-1109, -720, -526, -380, -283, -186, -89, 7, 105, 202, 299, 445, 639, 1028,
-1246, -781, -548, -373, -257, -141, -24, 91, 208, 324, 440, 615, 848, 1313,
-1126, -723, -522, -370, -270, -169, -68, 32, 132, 233, 334, 485, 687, 1090,
-1613, -1041, -754, -540, -396, -253, -110, 32, 175, 318, 461, 676, 962, 1535,
-1483, -964, -705, -511, -381, -252, -122, 7, 136, 266, 395, 590, 849, 1367,
-1317, -861, -633, -462, -348, -234, -120, -6, 107, 221, 335, 506, 734, 1190,
-1455, -927, -663, -465, -333, -201, -69, 62, 194, 326, 458, 656, 920, 1448,
-1111, -693, -485, -328, -224, -119, -15, 89, 193, 297, 402, 558, 767, 1185,
-1156, -735, -524, -366, -261, -156, -50, 54, 159, 265, 370, 528, 738, 1160,
-1292, -830, -599, -426, -311, -196, -80, 34, 149, 265, 380, 553, 784, 1245,
-1081, -680, -480, -329, -229, -129, -29, 70, 171, 271, 371, 521, 722, 1122,
-1377, -882, -634, -448, -325, -201, -77, 46, 170, 294, 417, 603, 851, 1346,
-1289, -840, -616, -448, -336, -224, -111, 0, 112, 224, 336, 504, 729, 1177,
};

static uint64_t backbone_model2_conv2_conv2_weight[64 * 9] =
{ // torch.Size([64, 3, 3, 1])
0x4, 0x2, 0xd, 0x5, 0x5, 0xe, 0xd, 0xd, 0xe, 
0xe, 0x5, 0x5, 0xc, 0x6, 0x0, 0x6, 0x4, 0xd, 
0x9, 0x6, 0xd, 0xa, 0x3, 0x6, 0x5, 0xd, 0x5, 
0xd, 0xd, 0xd, 0xd, 0xd, 0xc, 0xd, 0x4, 0xa, 
0x5, 0x5, 0xe, 0x5, 0x4, 0xd, 0x6, 0xc, 0xd, 
0xd, 0x5, 0x5, 0x6, 0x4, 0xe, 0xd, 0xe, 0x2, 
0xd, 0xc, 0xd, 0x1, 0xd, 0xe, 0x5, 0xa, 0xe, 
0x5, 0x4, 0xb, 0x6, 0x5, 0x3, 0x5, 0x5, 0x4, 
0xd, 0xd, 0xb, 0xd, 0xd, 0x4, 0xe, 0xd, 0x4, 
0x9, 0xd, 0xc, 0x3, 0xe, 0xf, 0xb, 0x5, 0xc, 
0x5, 0x5, 0x5, 0x5, 0x6, 0x4, 0x5, 0x6, 0x3, 
0x3, 0x5, 0xd, 0x4, 0xd, 0xe, 0xd, 0xe, 0xc, 
0xc, 0xb, 0x6, 0x5, 0xc, 0xe, 0xb, 0x1, 0x4, 
0xa, 0xd, 0xd, 0xb, 0xd, 0xd, 0x4, 0xc, 0xe, 
0xc, 0xc, 0x3, 0xd, 0x0, 0x4, 0xf, 0xe, 0xd, 
0x5, 0x6, 0x6, 0x4, 0x3, 0x5, 0x4, 0xe, 0xe, 
0xb, 0xc, 0x5, 0x4, 0x6, 0x6, 0x3, 0x6, 0x5, 
0x2, 0xb, 0xb, 0x9, 0xa, 0x5, 0x5, 0x6, 0x7, 
0xb, 0x1, 0x3, 0x5, 0x4, 0x4, 0x6, 0x5, 0x6, 
0xe, 0xd, 0xa, 0x2, 0xe, 0xb, 0x3, 0xd, 0xe, 
0x6, 0x5, 0x5, 0x6, 0x4, 0xc, 0xa, 0xd, 0xd, 
0x2, 0x4, 0xb, 0x5, 0x5, 0x0, 0x6, 0x6, 0x4, 
0x4, 0x6, 0x5, 0xd, 0x5, 0x6, 0xb, 0xe, 0xe, 
0xa, 0xb, 0xd, 0xe, 0xc, 0x4, 0xe, 0xc, 0x3, 
0x5, 0x5, 0x5, 0x5, 0x5, 0x3, 0x5, 0x5, 0x2, 
0x5, 0x4, 0xd, 0x5, 0x6, 0x3, 0xc, 0xd, 0xd, 
0x2, 0x6, 0x2, 0xc, 0xe, 0xe, 0xc, 0xe, 0x2, 
0xa, 0xe, 0xd, 0x3, 0xe, 0xc, 0x6, 0xe, 0xc, 
0x5, 0x5, 0xd, 0x3, 0x5, 0xd, 0xb, 0x7, 0x4, 
0xc, 0x2, 0x5, 0xd, 0x4, 0x6, 0xe, 0xd, 0x4, 
0x5, 0x5, 0xd, 0x5, 0x6, 0x3, 0xa, 0x4, 0x5, 
0x4, 0x4, 0x4, 0x3, 0x3, 0x3, 0x4, 0x4, 0x4, 
0x5, 0xc, 0xd, 0x1, 0xd, 0xc, 0xd, 0xe, 0x5, 
0xd, 0xd, 0xd, 0x2, 0xd, 0xe, 0x1, 0xc, 0xd, 
0x4, 0x4, 0x4, 0x4, 0x5, 0x5, 0x5, 0x5, 0x5, 
0x5, 0x6, 0x3, 0x5, 0x5, 0x4, 0x5, 0x9, 0xb, 
0x4, 0x6, 0xc, 0x4, 0xc, 0xe, 0xd, 0xe, 0xd, 
0x4, 0x6, 0x5, 0x5, 0x6, 0x3, 0x5, 0x5, 0x5, 
0x5, 0x4, 0x4, 0x5, 0x5, 0x3, 0x0, 0x6, 0x6, 
0xd, 0x6, 0x2, 0xd, 0xe, 0x0, 0xe, 0xe, 0xa, 
0xe, 0x6, 0x5, 0xe, 0x6, 0xc, 0x5, 0x5, 0xc, 
0x4, 0x2, 0xd, 0x5, 0xd, 0xe, 0xc, 0xe, 0xc, 
0xd, 0x5, 0x6, 0xd, 0x4, 0x6, 0xe, 0xd, 0x5, 
0xd, 0x5, 0x6, 0xd, 0x4, 0x5, 0xc, 0x5, 0x5, 
0xe, 0xd, 0xd, 0xc, 0x4, 0x4, 0x5, 0x5, 0x6, 
0xd, 0xd, 0xd, 0xd, 0x2, 0x5, 0x4, 0x6, 0x6, 
0x4, 0x4, 0x5, 0x5, 0x5, 0x4, 0x5, 0x4, 0x4, 
0x6, 0x5, 0xc, 0x5, 0x3, 0xe, 0x5, 0xc, 0xd, 
0x4, 0x5, 0x4, 0x4, 0x5, 0x3, 0x4, 0x5, 0x5, 
0xd, 0xe, 0xe, 0xd, 0xd, 0xc, 0xc, 0x2, 0x5, 
0xc, 0xc, 0xd, 0xd, 0xc, 0xd, 0xd, 0xd, 0xc, 
0xb, 0x4, 0x3, 0xb, 0x6, 0x5, 0x4, 0x6, 0x4, 
0x9, 0x3, 0x2, 0xe, 0xe, 0xe, 0xb, 0xd, 0xc, 
0xb, 0xd, 0xc, 0x3, 0xe, 0xd, 0x5, 0x6, 0x5, 
0x4, 0x2, 0x2, 0x3, 0x6, 0x5, 0x3, 0x7, 0x5, 
0x5, 0x7, 0x6, 0x2, 0x4, 0x3, 0xc, 0x4, 0x3, 
0xb, 0x1, 0x3, 0xd, 0x5, 0x6, 0xd, 0x4, 0x6, 
0xd, 0xd, 0xa, 0xc, 0xd, 0xd, 0xb, 0xd, 0xd, 
0x0, 0xe, 0x3, 0x6, 0x3, 0xe, 0x5, 0x5, 0xe, 
0xc, 0xa, 0xc, 0x6, 0x5, 0xe, 0x4, 0x6, 0xd, 
0x2, 0x3, 0xc, 0x9, 0xd, 0xe, 0x2, 0xe, 0xd, 
0x0, 0xc, 0xc, 0xd, 0xd, 0xc, 0xd, 0xd, 0xd, 
0x5, 0x6, 0x6, 0x4, 0x5, 0x4, 0x3, 0x5, 0xc, 
0x5, 0x6, 0x5, 0x2, 0x6, 0x5, 0xb, 0x0, 0x4, 
};

static int backbone_model2_conv2_relu2_threshold[64 * 7] =
{ // torch.Size([64, 7])
53, 116, 178, 241, 335, 460, 711,
54, 121, 187, 254, 354, 487, 753,
29, 92, 155, 218, 313, 439, 691,
25, 74, 124, 173, 247, 346, 543,
54, 118, 181, 245, 340, 467, 721,
51, 126, 202, 278, 391, 543, 845,
24, 100, 177, 253, 368, 521, 828,
39, 109, 179, 249, 354, 494, 774,
23, 92, 162, 231, 335, 474, 752,
46, 105, 165, 225, 314, 433, 672,
-11, 67, 147, 226, 346, 505, 823,
46, 102, 159, 215, 300, 413, 638,
37, 94, 152, 209, 296, 411, 641,
16, 80, 144, 207, 303, 430, 685,
34, 111, 187, 264, 379, 532, 839,
19, 60, 100, 140, 201, 282, 444,
40, 109, 179, 249, 353, 493, 771,
49, 114, 179, 244, 342, 473, 734,
35, 93, 151, 210, 297, 413, 646,
40, 112, 184, 256, 364, 508, 795,
41, 112, 182, 252, 357, 497, 777,
39, 96, 153, 210, 295, 410, 638,
59, 123, 186, 250, 345, 473, 727,
16, 71, 126, 181, 263, 374, 594,
14, 80, 146, 212, 311, 443, 708,
51, 93, 135, 177, 241, 325, 494,
59, 121, 184, 247, 341, 467, 718,
40, 120, 199, 278, 397, 556, 873,
48, 118, 188, 259, 364, 505, 786,
43, 92, 142, 192, 266, 366, 564,
22, 75, 127, 179, 258, 362, 571,
11, 35, 59, 83, 120, 168, 264,
26, 75, 123, 172, 245, 343, 538,
12, 67, 122, 177, 259, 369, 589,
37, 98, 159, 221, 313, 435, 681,
23, 71, 120, 168, 240, 337, 530,
55, 113, 171, 229, 316, 432, 665,
33, 114, 195, 276, 397, 559, 884,
33, 111, 190, 268, 386, 543, 856,
62, 125, 189, 253, 348, 476, 731,
52, 107, 163, 218, 302, 413, 635,
37, 100, 162, 225, 318, 444, 694,
67, 118, 170, 221, 298, 401, 606,
36, 103, 170, 238, 339, 473, 743,
48, 105, 161, 218, 303, 416, 642,
45, 102, 159, 215, 300, 414, 640,
36, 87, 138, 189, 265, 367, 570,
31, 85, 138, 192, 272, 378, 592,
30, 75, 121, 166, 234, 324, 506,
38, 101, 163, 226, 320, 446, 697,
19, 79, 140, 200, 290, 410, 651,
35, 95, 156, 216, 307, 428, 669,
38, 108, 178, 248, 354, 494, 775,
51, 114, 178, 241, 337, 464, 718,
29, 119, 209, 300, 435, 615, 976,
36, 107, 178, 249, 355, 497, 781,
47, 111, 175, 239, 335, 464, 720,
25, 73, 121, 169, 241, 338, 530,
46, 104, 161, 219, 305, 421, 651,
52, 121, 190, 259, 363, 501, 777,
48, 131, 214, 296, 420, 585, 915,
25, 83, 141, 200, 287, 404, 637,
29, 117, 206, 294, 427, 603, 957,
30, 113, 196, 280, 405, 571, 905,
};

static uint64_t backbone_model3_conv1_conv1_weight[64 * 1*4] =
{ // torch.Size([64, 1, 1, 64])
0xc4c00d4a40cba245,0x3ddc5c34b9dbccc5,0xcb445b26aedc45c4,0xd5ac2544d2d465d4, 
0x36a02490464a9a5b,0xd5c1bcdd44aada2c,0xc44cc56d424dc420,0x45c0045a55c31422, 
0xcdce3ab4d5541b6d,0x5dc555dbc33d1d55,0x412b4d3624dc5d9d,0xe5d0b5b6d436b425, 
0x2babc124442b5a3c,0xbdd2ac4d0cb516d6,0xcc5c24434154ccc4,0x3659cc39cbbdcbdc, 
0xcd6db665d93c3ec3,0xda3a5adda34c9a5a,0xa3b54c1aa55ab1bc,0x0139b0a29605d333, 
0xc4ccce3d34554d5d,0xcc35d3dd35cb3ccd,0xdb0ddb4d545d454b,0x64433c4b4bdadcea, 
0x523bc32b44cad2da,0xd51b19cc93c314bd,0x5c24dbb4c30b15b9,0xadbd1c1c54e93ddc, 
0xb59d524ad34ecbbb,0x9c2d3154a4195510,0x45c45ed903bbc09b,0x9434daec4ccb49d5, 
0xe5ca53b5262dda24,0xbd4c1c5033e9ab33,0x955b45504bccb344,0x5c3cc4533bd3a5cc, 
0x5d43c35c59c3c3db,0x443dc552d5a16c22,0xbd4243c40ba0e164,0x4d4cdec5b1bc599a, 
0xad24a5b3bcc5dad4,0x4bbb55535ddc65d4,0xacb2ccb40ee562ce,0x9c50514d94bcd9ab, 
0x5dc4ba344d3d05b4,0xd544614bcc54c233,0xddcb3ccceb34cbd4,0xcbc10ccc4b2dbcab, 
0x0350d1bb9dcc3c55,0x5659ccc433d243d4,0x5d552dd2a35ccdbc,0xd4dbbacc5dc54c0c, 
0xc515bcc414cc4756,0x35cccc3b55434ba5,0xdd1eb4c22dcd45b3,0x423d9401c55d4444, 
0x2cc54bcab4b4d540,0x55239b56ca5554d6,0x4d04c3cddb5332a5,0x5a0dbcb4de55cd6d, 
0xd5004442d5db3d13,0xbd3c0ccbcbbd3bac,0x450a525dd442a33d,0x46a5c45b26b3c506, 
0x44e44530dcda9392,0x923c50344e5a4cb4,0x3d354bc4c444644c,0x142d36d4d45452ad, 
0x5dac3b455cdbd0db,0x44dd6e04c3a4d336,0x5ac4b335da9dcda4,0xd4d3ca41dda5b4b5, 
0x2caecdbd44c24441,0x5942b3dc34cd2dcc,0x2ccd4c043c2c544b,0xd4cb3c45cb040143, 
0xce431cbc4db4b625,0xb553a5c13d54443c,0x1bddadb4d32243c5,0xbcbc29e4ab3dcb5c, 
0xcb54cdd403dd4635,0x6359d6dd455c3bb4,0x3b4dedc5c3cdd6c3,0x244b3d1545c55c5d, 
0xadc53cc9bbd6559b,0x5dc4465cddcc4544,0x54034b45e3544acc,0x144b4939d1bb53b3, 
0xc430ed5debcbe255,0xc5662dcd2ccda4dd,0xc4c54dddb144c44b,0xc3b224cd6b39ddba, 
0x4903bbe44a4143cc,0x4c4456b04dc1cd52,0x5ad51a261cccbccc,0x44bc54144e155933, 
0x33ddc46959bc51b4,0x034c323c45c0bde4,0xdea43abbd546c335,0xd2e23abb02bc3b4b, 
0xdcbccdb6b4d534bb,0x0ed3d44e25ada5cd,0x0cbdd39dc3db5ddd,0x5059455cad4cddc4, 
0xacb4445c33cc94c4,0xd5dcbda0d2e5b41c,0x2b304bc5d403e4cb,0x94d3dcb2e5cdacbb, 
0xd5553c4c3cc3e455,0xe4405325cd44d9a5,0x4dd9bcc5e5042434,0xc4bd3424a4d55d3a, 
0x6943cbbc3dbb3345,0xc5435db32455ce9c,0x5eb4c4515cedd3a4,0xdce4b45c4344c44c, 
0x5b34ddad2e53445b,0x555025e4b9054354,0x4badedd5455acc40,0xab403ee5224c424d, 
0x3c13ab5dc44495cb,0x4c4dd5d452ec9343,0xc3cecb9223d343cd,0x4c2c5d45d43d00c0, 
0x5e4aa544bda35ddd,0x352344cc4b1c045c,0xd334dcd33b1cbcdd,0xcddb2c2cdd34b0ab, 
0xa414acacca33e545,0xdad04353c3456b51,0x4c0d5b3a2d4c5315,0x3c41eea55b5dbbb1, 
0xbdba3444cd54dddc,0x4b9bcd35bdb33534,0xc6d424a524bc3bad,0x4cd635bc333cd5c5, 
0x4d5224b42bc45dc3,0x5bbb6645a6c45441,0x44440cc545bd5346,0x2ddd9dc5ec23b451, 
0xcbba544db254433e,0xbd49d4c5adb6dd5d,0xd5dd642d52d50e4a,0xac5c44adcc2db4d5, 
0x1ac4ddbc4dd435d9,0xc2cedd9cd463d545,0xe4eedb35d3dd4d05,0xda96142dd36ed6c4, 
0x3c6db45b9ed3c041,0x2b5dd434bc53ddc4,0xc41dcddbc64c5cec,0xdad5cdd5b644ca9d, 
0xc4d5addc192c439d,0x1353dedd954cd54c,0xd5cbe54dd46bdc49,0x5214143d943d23ca, 
0x5ecc355d2e345dd4,0xc04155dca4cd4b5c,0xc5ca0cd5354c552d,0xdb253aed553c92cb, 
0x4bbd4d6c5c6c9b2d,0xdcd4b4b5cd360c33,0xad5cd1dc5dc25dc5,0x4cb1ccb9d43901cc, 
0xb43cccd054352222,0xa3bacd4d5534a4ad,0xbeac145c3dcb5544,0x5d5d654c3d23ecd5, 
0x0a4d45c443cc1ed4,0x55ce33c54cc3b43b,0xa554d1b514acc5d5,0x3cb5ca44e4c5324c, 
0xd42bbb43cb45cb4c,0xcc95e6b23ccccbdd,0xdcd0ebddb53c5cdb,0x4dc163bcdbcdcbbc, 
0x5c2d54adddc54403,0x5ab3c953bd51442c,0x45dd5dcd523494dc,0xd3d42bedad3bb954, 
0x5ba50352bc5c4bcb,0x3d5335d03dd3ce31,0x5a401c9555d3bc4d,0x22d535c4b4ba534b, 
0xdac4cd9493d46d5b,0x2ed505256bac4e4b,0xdccc3b0bd6554e46,0xb41555b6dd494293, 
0x0ac454a3cb553bc5,0x5d659392bd534cc4,0x5b45534d34c24551,0x553435bc2255cb52, 
0x3dad34b5350ad5bd,0xe4cd4dad15dc6c3d,0x22455cc34ddd5c64,0xac14d4c5d44cc5ec, 
0xe35d553bb333ddc4,0x02c3cab24dbcc23c,0xc514430d4bc496ed,0x4c23454d154ad42a, 
0xb5dd3c4cd3add134,0x1cbb1dd35dccedec,0xdd132c41cbda35d5,0x3cda5511414a54cb, 
0xcdb4aa0ceb363b2c,0x4d45c54bd91b5c4c,0x34913563d550c34d,0x4b433d5d4a043bc4, 
0x5bd0344443aca244,0xdb14524ca53ad9f4,0x4d22eccdb23c53dc,0xd3da453cdca43c1d, 
0x529a4c4cc5bd4c5c,0x431dbc51eceb53c6,0xdb51c3bb95549b4c,0x5553de23943d4add, 
0x412213504d545242,0xd455b2cd45e205d2,0xab5cd40e404acc40,0x3da24bac322bda3d, 
0xcab2d75cd41c3632,0xdcdbddd340004c06,0x65bdbb4c56c95e44,0x3d46bc55d76d667c, 
0x5dab342d45cc4c44,0x5d2dc53b35eddd4c,0x44543cb44b2e94dc,0x454c1d23d6d340eb, 
0x4d6433c0dc443c24,0x33d44231dd54c435,0x42bbcdca4c3205ed,0xa419ccdc3c3bccad, 
0x5ec4c54bbcdaabd3,0x4eed44429cc1b440,0x55c43cc9cddc4cd4,0xcdc34c25d32c4252, 
0x29b4b45cdb4c4133,0x5442a324e2555934,0x02cb4db0b043db63,0x3545eee635035b94, 
0x1b25db39ec4a5363,0xca45354be1ccca14,0x34355c24cd43cc4d,0x36b9db4d434244a6, 
0xd5d54095c422125c,0xac434cc14cd34445,0x4b01b53d03c4c945,0x444506c4e35c5360, 
0x4d424b4c1c42beb2,0xdd54a0c9b5d9c31d,0x45b91b3454439d3c,0x1ba5113c42dcc3d9, 
0x315cfc4e5cdcc524,0x45bc3ced95cdc1cc,0x4d2cad2bdc0c03ac,0xe0bc3e6244da4b24, 
};

static int backbone_model3_conv1_quant1_threshold[64 * 14] =
{ // torch.Size([64, 14])
-912, -575, -407, -281, -196, -112, -28, 55, 139, 223, 307, 434, 602, 939,
-1002, -631, -446, -307, -214, -122, -29, 63, 155, 248, 341, 480, 665, 1036,
-875, -549, -386, -263, -182, -100, -19, 62, 143, 225, 307, 429, 592, 918,
-889, -566, -404, -283, -202, -121, -41, 39, 120, 201, 282, 403, 565, 888,
-656, -417, -297, -208, -148, -88, -29, 30, 90, 149, 209, 299, 418, 657,
-1008, -654, -477, -345, -256, -168, -79, 8, 96, 185, 273, 406, 583, 937,
-986, -632, -455, -323, -234, -146, -57, 30, 119, 208, 296, 429, 606, 960,
-724, -462, -331, -233, -168, -102, -37, 27, 93, 158, 224, 322, 453, 714,
-901, -568, -401, -276, -193, -110, -27, 56, 139, 222, 305, 430, 597, 930,
-829, -523, -371, -256, -180, -104, -27, 48, 124, 201, 277, 391, 544, 849,
-858, -554, -402, -288, -212, -136, -60, 15, 91, 167, 243, 357, 509, 814,
-848, -541, -387, -272, -196, -119, -42, 34, 110, 187, 264, 379, 532, 839,
-903, -575, -411, -288, -206, -124, -42, 39, 121, 203, 285, 408, 572, 900,
-1204, -756, -532, -364, -252, -140, -28, 83, 195, 307, 419, 587, 811, 1259,
-1081, -683, -484, -335, -236, -136, -37, 61, 161, 260, 360, 509, 708, 1105,
-1057, -665, -470, -323, -225, -127, -29, 68, 166, 263, 361, 508, 704, 1095,
-731, -458, -321, -218, -149, -81, -12, 55, 124, 192, 261, 363, 500, 774,
-1130, -723, -520, -368, -266, -164, -63, 38, 140, 241, 343, 495, 699, 1105,
-977, -624, -448, -316, -228, -140, -52, 35, 123, 211, 299, 431, 608, 960,
-980, -625, -448, -315, -226, -137, -49, 39, 128, 216, 305, 438, 615, 970,
-1027, -647, -458, -315, -220, -126, -31, 63, 158, 253, 348, 490, 680, 1060,
-941, -589, -413, -281, -194, -106, -18, 69, 157, 245, 333, 465, 641, 993,
-1048, -673, -485, -344, -251, -157, -63, 30, 123, 217, 311, 451, 639, 1014,
-775, -488, -344, -236, -165, -93, -21, 50, 122, 194, 265, 373, 517, 804,
-814, -517, -368, -257, -183, -108, -34, 39, 113, 188, 262, 373, 522, 819,
-987, -646, -475, -346, -261, -176, -90, -5, 80, 165, 251, 379, 550, 892,
-979, -632, -459, -329, -242, -156, -69, 17, 104, 190, 277, 407, 580, 927,
-888, -561, -398, -275, -194, -112, -30, 51, 132, 214, 296, 418, 582, 908,
-1091, -700, -504, -357, -259, -161, -64, 33, 131, 229, 327, 474, 669, 1061,
-1008, -638, -453, -314, -222, -129, -37, 55, 147, 240, 333, 471, 656, 1027,
-952, -611, -440, -312, -227, -142, -57, 27, 113, 198, 283, 411, 581, 922,
-873, -567, -414, -299, -222, -146, -69, 6, 83, 160, 236, 351, 504, 811,
-876, -552, -390, -269, -188, -107, -26, 55, 136, 217, 298, 419, 581, 905,
-1058, -674, -482, -338, -242, -146, -50, 45, 141, 237, 333, 478, 670, 1054,
-1193, -749, -526, -360, -248, -137, -26, 84, 195, 306, 417, 584, 806, 1251,
-845, -544, -394, -281, -206, -130, -55, 19, 94, 170, 245, 358, 508, 810,
-1339, -862, -623, -444, -325, -205, -86, 32, 151, 271, 390, 569, 808, 1285,
-897, -571, -408, -286, -205, -124, -42, 38, 119, 201, 282, 404, 567, 892,
-1145, -737, -533, -380, -278, -176, -75, 26, 128, 230, 332, 485, 689, 1096,
-937, -598, -429, -302, -217, -132, -47, 36, 121, 206, 290, 418, 587, 926,
-848, -543, -391, -277, -201, -125, -49, 26, 102, 179, 255, 369, 521, 825,
-983, -632, -457, -325, -237, -149, -62, 25, 113, 201, 289, 420, 596, 947,
-932, -595, -426, -300, -216, -132, -48, 36, 120, 204, 288, 415, 583, 920,
-875, -575, -425, -313, -238, -163, -88, -13, 61, 136, 211, 323, 473, 773,
-813, -519, -372, -262, -188, -115, -42, 31, 104, 178, 251, 361, 508, 802,
-934, -587, -413, -283, -196, -109, -22, 64, 150, 237, 324, 454, 628, 976,
-911, -577, -410, -285, -202, -118, -35, 47, 131, 214, 298, 423, 590, 923,
-893, -553, -383, -255, -170, -85, 0, 84, 169, 255, 340, 467, 638, 978,
-1026, -655, -470, -332, -239, -146, -54, 38, 130, 223, 315, 454, 639, 1009,
-895, -576, -416, -297, -217, -137, -58, 21, 101, 181, 260, 380, 539, 858,
-719, -468, -343, -249, -186, -124, -61, 1, 63, 126, 189, 283, 408, 659,
-727, -466, -336, -239, -173, -108, -43, 21, 86, 151, 216, 314, 444, 704,
-944, -607, -439, -313, -228, -144, -60, 23, 107, 191, 276, 402, 570, 907,
-882, -558, -396, -274, -193, -112, -31, 49, 130, 211, 292, 413, 576, 900,
-898, -574, -412, -291, -210, -129, -49, 31, 112, 193, 274, 395, 557, 880,
-1193, -730, -499, -325, -210, -94, 21, 136, 252, 368, 484, 657, 888, 1351,
-1065, -679, -485, -340, -244, -147, -50, 46, 142, 239, 336, 481, 674, 1061,
-782, -499, -358, -252, -182, -111, -41, 29, 100, 170, 241, 347, 488, 770,
-1013, -648, -465, -328, -237, -146, -55, 36, 127, 218, 309, 446, 629, 994,
-895, -560, -393, -267, -183, -100, -16, 67, 151, 234, 318, 444, 611, 946,
-757, -473, -331, -225, -154, -83, -12, 58, 129, 200, 271, 377, 519, 803,
-879, -547, -380, -256, -173, -90, -7, 75, 158, 242, 325, 449, 615, 948,
-479, -308, -223, -158, -116, -73, -30, 12, 54, 97, 140, 204, 290, 461,
-1468, -959, -705, -514, -387, -260, -133, -6, 120, 248, 375, 565, 820, 1328,
};

static uint64_t backbone_model3_conv1_conv2_weight[64 * 9] =
{ // torch.Size([64, 3, 3, 1])
0xc, 0xd, 0xb, 0x5, 0x5, 0x5, 0x4, 0x5, 0x5, 
0x4, 0xa, 0x5, 0x4, 0x3, 0x6, 0x4, 0x9, 0x1, 
0x5, 0x6, 0x3, 0x3, 0x3, 0x3, 0x1, 0x4, 0xb, 
0xc, 0xb, 0x2, 0xc, 0x5, 0x3, 0x0, 0x6, 0x4, 
0xd, 0x5, 0x6, 0xd, 0x2, 0x5, 0x9, 0xd, 0x0, 
0x4, 0x6, 0xc, 0x9, 0x6, 0xb, 0xc, 0x3, 0xa, 
0x5, 0x3, 0x2, 0x5, 0x5, 0x4, 0x0, 0x4, 0xa, 
0x2, 0x9, 0xc, 0x4, 0x6, 0xb, 0xe, 0xc, 0x4, 
0x9, 0x7, 0x0, 0xa, 0xe, 0xa, 0x3, 0x3, 0x2, 
0xc, 0xa, 0x4, 0xe, 0xa, 0x5, 0x0, 0x4, 0x4, 
0xe, 0x4, 0x4, 0xd, 0x4, 0x4, 0xc, 0xd, 0xd, 
0x4, 0xd, 0xc, 0x5, 0xe, 0xc, 0x5, 0xb, 0xa, 
0xc, 0x5, 0x4, 0xd, 0x6, 0x4, 0xc, 0x3, 0x2, 
0x4, 0x5, 0x4, 0x4, 0x5, 0x2, 0x4, 0x4, 0xb, 
0x5, 0x0, 0xd, 0x0, 0xd, 0xc, 0xc, 0xd, 0x3, 
0x6, 0xb, 0xb, 0xd, 0xc, 0xb, 0xc, 0x4, 0x4, 
0x4, 0x4, 0x5, 0xb, 0xd, 0x4, 0xd, 0xe, 0x0, 
0xe, 0xe, 0x9, 0xd, 0xc, 0xa, 0xc, 0x2, 0x0, 
0x5, 0x5, 0xb, 0xc, 0xd, 0x3, 0xd, 0xb, 0xc, 
0x4, 0xc, 0xd, 0x4, 0xd, 0x3, 0x6, 0x4, 0x0, 
0xa, 0x3, 0xe, 0xa, 0xc, 0xe, 0x2, 0xd, 0xa, 
0x1, 0xc, 0xb, 0x9, 0xd, 0x4, 0x5, 0x6, 0x5, 
0xb, 0xf, 0x1, 0x3, 0xc, 0xb, 0xc, 0x4, 0xa, 
0xb, 0xe, 0xc, 0xd, 0xc, 0x5, 0xc, 0x3, 0x5, 
0x0, 0x6, 0x4, 0xd, 0x4, 0x5, 0xd, 0xe, 0x3, 
0xc, 0x2, 0xb, 0xc, 0x4, 0xd, 0xc, 0xd, 0xc, 
0x4, 0xd, 0xd, 0x5, 0xb, 0xc, 0x4, 0x1, 0xd, 
0xa, 0xd, 0xb, 0xe, 0x4, 0xb, 0xd, 0x4, 0x3, 
0xc, 0xb, 0xd, 0xc, 0xe, 0x2, 0x1, 0x4, 0x0, 
0x9, 0xe, 0x3, 0x3, 0x5, 0xa, 0x0, 0xb, 0xc, 
0x4, 0x5, 0xc, 0x4, 0x2, 0xd, 0x3, 0xc, 0xe, 
0x6, 0xc, 0xd, 0x3, 0x5, 0xc, 0xd, 0x5, 0x2, 
0xd, 0x4, 0x4, 0xc, 0x6, 0x2, 0xb, 0x5, 0x4, 
0x6, 0x4, 0xc, 0x4, 0x5, 0x9, 0x1, 0x0, 0xa, 
0xc, 0xc, 0x9, 0xe, 0xc, 0x2, 0xd, 0xa, 0x2, 
0xa, 0x4, 0x4, 0xc, 0x7, 0x9, 0x2, 0xb, 0x2, 
0x4, 0x4, 0x4, 0x4, 0x4, 0x4, 0x2, 0x4, 0x4, 
0xd, 0x1, 0x4, 0xd, 0x4, 0xb, 0x4, 0x6, 0x4, 
0x0, 0x3, 0x4, 0xc, 0x5, 0x5, 0xb, 0x4, 0x5, 
0xd, 0x4, 0xc, 0xe, 0xc, 0xa, 0x4, 0xc, 0x0, 
0x1, 0xd, 0xb, 0x9, 0x7, 0x2, 0xb, 0xb, 0x2, 
0x5, 0x3, 0x9, 0x6, 0xb, 0x3, 0x4, 0xb, 0xa, 
0x4, 0x5, 0x3, 0xa, 0x0, 0x2, 0xc, 0xf, 0xc, 
0x4, 0x4, 0xe, 0x4, 0x6, 0xd, 0x3, 0x5, 0x0, 
0xc, 0xe, 0x2, 0x5, 0xe, 0x3, 0xa, 0x6, 0x5, 
0x5, 0x5, 0x9, 0xb, 0xd, 0xb, 0xe, 0xd, 0xa, 
0x3, 0x0, 0x9, 0x4, 0x6, 0x0, 0x4, 0x5, 0x5, 
0x4, 0xd, 0xe, 0x5, 0xd, 0xd, 0x5, 0x4, 0x1, 
0xb, 0xc, 0x4, 0x1, 0xb, 0x4, 0x4, 0x6, 0x3, 
0x3, 0xe, 0xe, 0x4, 0xd, 0xc, 0x3, 0x5, 0x5, 
0xc, 0xd, 0xd, 0x3, 0x0, 0x9, 0x6, 0x5, 0x5, 
0xb, 0xc, 0x3, 0x5, 0x5, 0x3, 0xc, 0xe, 0x4, 
0x4, 0xd, 0xd, 0x5, 0xb, 0xd, 0xa, 0x4, 0x3, 
0x6, 0x1, 0xc, 0x4, 0xd, 0xc, 0x3, 0xc, 0x2, 
0xd, 0xd, 0x3, 0x4, 0xc, 0x5, 0xb, 0xa, 0x5, 
0xc, 0xd, 0xc, 0x0, 0xd, 0xd, 0xa, 0xd, 0xc, 
0x5, 0xc, 0xc, 0x6, 0x4, 0xb, 0x5, 0x5, 0xc, 
0xb, 0xd, 0xa, 0xd, 0xc, 0x4, 0x5, 0x5, 0x3, 
0xb, 0x5, 0x5, 0xd, 0x5, 0x4, 0xd, 0x4, 0x4, 
0x9, 0x4, 0x4, 0xc, 0xe, 0x4, 0xb, 0x9, 0x5, 
0x5, 0x5, 0x4, 0xc, 0xe, 0x2, 0x1, 0x0, 0xb, 
0xe, 0xd, 0x4, 0xc, 0xb, 0x2, 0x4, 0x4, 0x4, 
0x5, 0xc, 0xc, 0xe, 0xc, 0x5, 0xd, 0x3, 0x5, 
0xb, 0xb, 0x4, 0x1, 0xf, 0x3, 0xb, 0x3, 0x3, 
};

static int backbone_model3_conv1_relu2_threshold[64 * 7] =
{ // torch.Size([64, 7])
17, 73, 128, 184, 268, 379, 602,
24, 64, 104, 143, 203, 282, 441,
22, 73, 124, 175, 251, 353, 557,
22, 54, 86, 118, 166, 230, 359,
23, 106, 189, 272, 396, 562, 894,
16, 68, 120, 172, 250, 354, 563,
14, 42, 71, 99, 142, 198, 312,
25, 55, 86, 117, 162, 223, 346,
19, 64, 110, 156, 224, 315, 497,
30, 67, 103, 139, 194, 267, 412,
20, 60, 101, 141, 202, 283, 446,
25, 62, 99, 136, 191, 265, 412,
11, 54, 98, 141, 206, 293, 466,
28, 63, 99, 134, 188, 259, 402,
8, 54, 100, 145, 214, 305, 488,
13, 37, 60, 84, 120, 168, 264,
17, 66, 114, 163, 236, 333, 528,
29, 79, 129, 180, 255, 356, 557,
17, 50, 84, 117, 167, 233, 366,
16, 48, 80, 112, 160, 224, 352,
17, 87, 156, 226, 331, 471, 751,
7, 58, 108, 159, 235, 337, 540,
20, 82, 143, 205, 298, 421, 667,
6, 62, 118, 174, 258, 370, 595,
26, 79, 133, 187, 267, 374, 589,
14, 50, 85, 120, 173, 244, 385,
14, 50, 85, 121, 174, 245, 387,
18, 64, 110, 156, 225, 317, 501,
7, 57, 107, 156, 231, 331, 530,
9, 34, 58, 82, 118, 167, 264,
24, 74, 123, 173, 247, 347, 546,
19, 53, 87, 121, 172, 240, 376,
23, 62, 102, 141, 200, 279, 437,
16, 67, 119, 170, 247, 351, 557,
20, 70, 119, 169, 243, 342, 541,
6, 71, 137, 203, 301, 432, 695,
22, 52, 81, 111, 155, 215, 334,
21, 54, 87, 121, 171, 237, 371,
12, 54, 95, 137, 200, 284, 451,
8, 58, 108, 158, 232, 332, 530,
22, 72, 121, 171, 246, 345, 544,
17, 54, 91, 128, 184, 258, 407,
14, 61, 107, 154, 224, 317, 503,
23, 57, 92, 126, 178, 247, 385,
17, 77, 136, 196, 285, 404, 642,
26, 69, 112, 155, 219, 305, 477,
43, 105, 167, 229, 323, 447, 696,
17, 60, 102, 144, 207, 291, 460,
14, 45, 76, 107, 154, 216, 341,
9, 70, 131, 192, 284, 406, 650,
18, 71, 124, 177, 256, 361, 572,
21, 58, 95, 132, 188, 261, 409,
23, 52, 80, 109, 152, 210, 325,
18, 52, 85, 119, 169, 236, 370,
10, 47, 84, 122, 178, 252, 401,
30, 71, 112, 153, 215, 297, 462,
18, 76, 134, 192, 278, 394, 625,
17, 49, 82, 114, 163, 228, 358,
10, 55, 101, 146, 214, 304, 485,
20, 48, 75, 103, 145, 200, 311,
22, 56, 90, 124, 175, 243, 378,
4, 44, 84, 124, 184, 265, 425,
30, 97, 164, 231, 332, 466, 734,
13, 73, 134, 195, 286, 407, 650,
};

static uint64_t backbone_model3_conv2_conv1_weight[64 * 1*4] =
{ // torch.Size([64, 1, 1, 64])
0x69dcdc4ddb24a5cd,0xccb4c205dc4d2453,0xb5d5355502d4b65e,0x4b4cc344dcbb05bc, 
0x1c34543abc4940b5,0xd434439bd0d3d5cc,0x51dbd34c3c4552a4,0xd42d533e49352034, 
0xd3cc91c2445494a3,0x5d9b433c52bb4bdd,0xdba4cd3c95edad9c,0x944c1cda3d40344c, 
0x441cbd26455dcc4c,0xdcaaddc2b5c3a34d,0x334cd63bc34a44d5,0x344455ac563b4b54, 
0xcc31443c1bc343c5,0xc5c056c240ea52d3,0x04c543945b54db44,0xd4be94bba5554ca4, 
0x5914c4c454a21a51,0x54993dcb35313344,0x3db24432e23b135b,0x4b44945344cedc5d, 
0x315cc3d4c5ccdb94,0x349c326c4b43cb44,0xa3d519912dbbc5bc,0x5c33a43ea0da4b53, 
0x4a2652c5c5bb5455,0xb45b3b32c415dd44,0x5da9445db6cc5c34,0x5d2d32c9c42ca54b, 
0x4b4c41c4b9c4c03a,0xd3b3cc3bd2cad3cc,0x539ce43d22b25ceb,0xccda5dc4d34c440b, 
0x4ec44d4e4dcd3240,0xb4c95dc4239342cb,0xb044a3db5e44d52b,0xcec4db43354e3dbb, 
0x4d4c33d543cd52c6,0x469d4a4d54c5d44b,0xcbb5bc2494a50443,0xb555b45c25d3bc55, 
0x4c460c5b403b5549,0xb51a9c534c551d93,0xd5bc416c44bbd13b,0x4d45d3bcdc2c44c4, 
0x3cbc5b9d9aa3bdcc,0x5aca45c346033c4b,0x45cb4b3ae4b5cb3b,0xe533bebcb1b5344c, 
0xbb25bba44445d55c,0x04d12535d3490c3b,0x2c5a33cab45ccd52,0x5c50dcb4e04cb6cb, 
0xc353db5555552b45,0x6444454c455ad5d5,0x54d5a405aeada354,0x5196543c4643554b, 
0x5dcb2bc445541c3c,0xd5cc0b3b44cb4de3,0x44c3c55dd42ceab3,0x3eb5332bc4de451c, 
0x44bde4511599dc1c,0x3d54e5c52544c555,0x4d3cc4334a6d51b4,0x91491bc253d00c6a, 
0xb9355bc2a2ed3645,0xb24d53c0c4c2cd52,0xad5502c5b6d3b3d5,0x4dd4c6cc5ada4dd3, 
0xccd2bc35b4333c33,0xb3dc9daac6334ed3,0x59c4dc33d0ac3444,0xb32204d2c1accc5b, 
0x5bc493a3a5444bac,0x5299dd4bd4bdcc54,0x5dbac5d4edc03cdd,0x3bc55c514dbdc41c, 
0x135cc03bb4bde35c,0x4c24d546b54b92ba,0xb3454cc44b6cb5a1,0x23a4e3c354db3d5b, 
0xd2429c25c0b3cb44,0x4b43bbb42149b3c4,0x5cbccd6c4ccdcca4,0xb54554a3a543bc45, 
0x33cee4dac9cba42d,0x0c4c95a335c32444,0x190bd3b24b33ccd1,0xc3e3c4955ad43e45, 
0x5c4ca635559dcc5c,0x3c20a992ddb4cb6a,0x5a4a4433a6bc49c3,0x4dd25acd462d34c2, 
0xb4956dd3215c90c6,0xa44c51d954ccb65d,0xc4d9cb431cc641bb,0x3650346cb53cc4d6, 
0x9b4c314de42db35c,0x449b1b0334025333,0xc1cc35a123b3c5d2,0xdc14c30950cda3ce, 
0x43943c434aa04945,0xb22d34d15a456c43,0xda343ba54a3de344,0x94553b2b5b42b2d4, 
0x4961444cb4229c3b,0xbd45cc44cd2ddcc1,0x54324dcbc5d254c3,0x5edc3ad4c45c4dbe, 
0xfa44454344434044,0x3549234d43b2b4b3,0x433c53d32431cd4b,0x3145b935c5493552, 
0xd4d3c4b54a562513,0xcc342595acada2d5,0x521b455e4bbdae54,0x53aa0544c544d53b, 
0xd35da355d5bb106d,0xcd49a4d0e43b31ba,0x34ddc544bb1d44d5,0xcac30acbbc3a2c9d, 
0xc344cc5dd4546652,0x54445ab5bd4c2c3d,0xcdd6cec4445d4533,0x9c542dd0a52a5b93, 
0x5dc543ccc15353c9,0x25dc5dca5e1d5acb,0xdbb44dcd1cd4ccbd,0xd9ca0b434b43c4b1, 
0x3549b50b0b55bc54,0x55e9b3bc4d2d45b4,0x440d556bc43c425e,0x40355c4cc34bb5a0, 
0x429cb135cd54d443,0x45eaddcb3d444dc4,0x5cc03cc5315c433d,0x445c5a2cc2b152c5, 
0x94925c141dac433d,0x1be44a4c45c35cae,0x55c41392d924b153,0x452b24ca430cccc2, 
0xb1e32c4b19cc5ad1,0x5cb214d3342152a4,0x9cb51a259d2454b3,0xd54d43b452a55cc5, 
0xcd5035c453523254,0xab3c44a4dd354453,0xca5d5311353d2c44,0x4453cc32a55dd69d, 
0x54b21d4cd11c14ce,0x04c49cc2cc4b4d2d,0xb523b554d49a32c0,0x0add45301cc9acbd, 
0xda4244d26bb4db50,0x54c4c4ccd5e4cc25,0x39da143dc5a9c439,0xcb5cbb31ca5dd259, 
0x96d9444c255cbd4c,0x9144b24c545504e5,0x00c0d3c3c54e3cb0,0x245b2da4cdec3c55, 
0xada555cd4a0bcbd5,0x46cc34635c34c1cc,0xbd3be35d2c45443d,0x5c53cb5bc5d5cc14, 
0x45544ac55b445b43,0xb524ab4444b452cd,0xcb4e444d32d21a54,0xc54bb424335ce4cc, 
0xc152bdad519aa39c,0x9a4c2a4104b3b52c,0xbcbccc404ac99bb3,0x2b45bbcba421cb42, 
0x45dbbdcb19d53414,0x2d6492c4cdadc545,0xbd0454cb5c22bb2d,0xad4b5d5bc03333cc, 
0x4ecb46c554144db5,0x44b04bcccc45d654,0x3b453c5b65145945,0xd1595dcc455aac5b, 
0x34ccd52dccadbc30,0xbc4cdb9d3c504c3d,0x02c50b354dc424c2,0x65d5434d5cd9dd52, 
0xb54d559435e6a433,0x4c5953639a341c56,0x6dccbc95cd555ccd,0xc0ba5d3956bccc34, 
0x01c4a911b55442db,0x1c3e13254c1b6453,0x395c1bd1bb4bacb1,0xa0024b0243b2a3ab, 
0xcacdc53dcc44e1dc,0x3c1a55da5d2139ca,0x4542dcb95d444cd4,0xb5dbc4cc5c35bdc2, 
0x4144444bbccdadcd,0x53b2d634b234915c,0xa40b25d4d234c44d,0x14c3ad4a94d4c5bd, 
0x4b94425b523cbe4b,0x3bc10cbb5354b592,0xc44c23954d54944b,0x45454c4db43c2232, 
0x325cd5bc02c45a3d,0x62cb40ab3c9b544d,0xbd45edc5ac54a5cd,0x24b4cdb934d350dc, 
0x5da544a5c4cc3a3d,0x95c443c3d1541444,0x43aac534d345a392,0x32c305431303d0dc, 
0xd5cc4cc3eaaac5bd,0x2dcd9ccacbbcad4c,0x39ddb24c4cddc9db,0xb42bdc5daedccc05, 
0xcc34545cdd04aa2c,0xdd94cce5dd9c312d,0x495b934544b559e5,0x24cc4dc5d504bd44, 
0x4dc95d3cd0e5c245,0x4cd295c4caddbd44,0x2cd53cc3d0e3dc1c,0xbddd4d6c1e5dd52b, 
0xd251b23a643b125c,0x6d3c5c4c10dcd9c2,0xc540cd6a4c4035c4,0x0b3034abbd50cba4, 
0x4a5ccb9a923cb1bc,0xdd45cac5ddcb21d9,0x4451bcc3c5445cc3,0xd90dbbb4c4ba530c, 
0x5ddabcc442a34c9c,0xb5c359c4b3bc43bb,0x95ce44ccdd54b34b,0x9244dc54c33bc5cd, 
0xbccbcdc54c1a43dd,0xcbdc4ecdccdd5dec,0xcc54b4dc2dcb2252,0x51acb6d29d4999dd, 
0xec3cbad333dccb3d,0x424c9ccdcb4cc95d,0x35ded4542c4a3dc3,0x5ca4924dcb40b4c3, 
0xcd5b1551cdbb346d,0xbd4b46450aec55a3,0xc33ccbba5dccb424,0x3d4da2d59d4e3cbc, 
0x5cc5c35cc54c0ccc,0xccbdcc446b5c4c90,0xbd5d5ddccbbadccc,0x3dc49bcc2bdbc352, 
};

static int backbone_model3_conv2_quant1_threshold[64 * 14] =
{ // torch.Size([64, 14])
-1176, -746, -531, -370, -263, -155, -48, 59, 166, 274, 381, 542, 757, 1187,
-799, -507, -360, -250, -177, -104, -31, 41, 115, 188, 261, 371, 517, 810,
-827, -528, -379, -267, -193, -118, -44, 30, 105, 179, 254, 366, 515, 813,
-955, -600, -423, -290, -201, -113, -24, 64, 152, 241, 329, 462, 640, 994,
-988, -613, -425, -284, -190, -96, -3, 90, 184, 278, 372, 513, 700, 1076,
-815, -518, -369, -257, -183, -109, -34, 39, 113, 188, 262, 374, 522, 820,
-927, -593, -427, -301, -218, -135, -51, 31, 114, 198, 281, 406, 573, 907,
-1086, -686, -486, -335, -235, -135, -35, 64, 164, 264, 364, 515, 715, 1115,
-865, -560, -407, -293, -216, -140, -64, 12, 88, 164, 241, 355, 508, 813,
-1318, -859, -630, -458, -343, -228, -114, 0, 115, 230, 344, 516, 746, 1205,
-843, -524, -364, -245, -165, -85, -6, 73, 153, 232, 312, 432, 591, 910,
-936, -595, -425, -297, -212, -127, -41, 43, 128, 213, 298, 426, 597, 938,
-832, -536, -389, -278, -204, -130, -56, 16, 90, 164, 238, 349, 496, 792,
-849, -535, -378, -260, -181, -103, -24, 54, 132, 211, 289, 407, 564, 878,
-913, -557, -378, -245, -156, -66, 22, 111, 200, 289, 378, 512, 690, 1047,
-1082, -703, -514, -372, -277, -183, -88, 5, 100, 195, 289, 431, 620, 999,
-1036, -652, -460, -317, -221, -125, -29, 66, 162, 258, 354, 498, 689, 1073,
-1038, -662, -474, -332, -238, -144, -50, 43, 137, 231, 325, 466, 654, 1031,
-788, -510, -372, -268, -198, -129, -59, 9, 78, 148, 217, 321, 460, 738,
-895, -583, -428, -311, -233, -155, -77, 0, 77, 155, 233, 350, 505, 817,
-963, -604, -424, -290, -200, -110, -20, 68, 158, 248, 338, 472, 652, 1011,
-867, -539, -375, -252, -170, -88, -6, 75, 158, 240, 322, 445, 609, 937,
-1132, -732, -532, -382, -282, -183, -83, 16, 116, 216, 316, 466, 666, 1066,
-1026, -642, -450, -306, -210, -114, -18, 77, 173, 269, 365, 509, 701, 1085,
-956, -597, -418, -283, -194, -104, -14, 74, 164, 254, 343, 478, 657, 1016,
-863, -553, -398, -281, -204, -126, -49, 28, 105, 183, 260, 376, 531, 841,
-716, -443, -306, -203, -134, -66, 1, 70, 138, 207, 275, 378, 515, 789,
-973, -618, -441, -308, -220, -131, -43, 45, 133, 222, 311, 443, 621, 975,
-872, -546, -384, -262, -181, -99, -18, 62, 144, 225, 306, 428, 591, 916,
-949, -597, -422, -290, -202, -114, -26, 61, 149, 236, 324, 456, 632, 983,
-984, -625, -446, -311, -221, -131, -42, 47, 137, 227, 317, 451, 631, 990,
-800, -501, -352, -240, -166, -91, -17, 57, 131, 206, 280, 392, 541, 839,
-1104, -708, -510, -362, -263, -163, -64, 34, 133, 232, 331, 479, 677, 1074,
-1150, -718, -503, -341, -233, -125, -17, 90, 197, 305, 413, 575, 791, 1222,
-1025, -650, -462, -321, -227, -134, -40, 53, 147, 241, 335, 475, 663, 1038,
-811, -512, -363, -251, -176, -102, -27, 47, 121, 196, 271, 383, 532, 830,
-884, -565, -406, -286, -206, -126, -47, 32, 112, 192, 271, 391, 551, 870,
-850, -532, -374, -255, -175, -96, -17, 62, 141, 221, 300, 419, 578, 895,
-1024, -667, -488, -354, -265, -175, -86, 3, 92, 181, 271, 405, 584, 941,
-836, -531, -378, -264, -188, -111, -35, 40, 116, 193, 269, 383, 536, 841,
-1269, -807, -575, -402, -286, -171, -55, 60, 176, 291, 407, 580, 812, 1274,
-997, -639, -460, -325, -236, -146, -56, 32, 122, 212, 301, 436, 615, 973,
-739, -457, -316, -210, -140, -69, 0, 71, 141, 212, 282, 388, 529, 811,
-929, -590, -420, -293, -208, -124, -39, 45, 130, 214, 299, 426, 596, 934,
-812, -519, -372, -262, -189, -115, -42, 30, 104, 177, 250, 360, 507, 800,
-897, -558, -389, -262, -177, -92, -7, 76, 161, 246, 331, 458, 627, 966,
-892, -567, -404, -282, -201, -119, -38, 42, 123, 205, 286, 408, 570, 896,
-1022, -645, -456, -314, -219, -125, -30, 63, 158, 252, 347, 488, 677, 1055,
-669, -423, -301, -209, -148, -86, -25, 35, 96, 158, 219, 311, 433, 679,
-855, -541, -385, -267, -188, -110, -31, 46, 125, 203, 281, 399, 556, 870,
-862, -548, -391, -274, -195, -117, -38, 39, 118, 196, 274, 392, 549, 863,
-766, -475, -329, -220, -148, -75, -2, 69, 142, 215, 288, 397, 542, 833,
-1084, -685, -486, -336, -236, -136, -37, 62, 162, 262, 361, 511, 711, 1110,
-847, -533, -376, -258, -180, -101, -23, 55, 133, 212, 290, 408, 565, 879,
-1034, -679, -502, -368, -280, -191, -102, -14, 74, 163, 252, 385, 562, 917,
-1088, -688, -489, -339, -239, -139, -39, 60, 159, 259, 359, 509, 709, 1108,
-1045, -678, -495, -357, -266, -174, -82, 8, 100, 191, 283, 421, 604, 971,
-876, -545, -380, -256, -174, -91, -9, 73, 155, 238, 320, 444, 609, 939,
-683, -435, -311, -218, -156, -94, -32, 29, 91, 153, 215, 308, 432, 679,
-730, -472, -343, -246, -181, -117, -52, 11, 76, 140, 205, 302, 431, 689,
-945, -621, -460, -339, -258, -177, -96, -15, 64, 145, 226, 347, 509, 832,
-1037, -671, -488, -351, -259, -168, -76, 14, 106, 197, 289, 426, 609, 975,
-1142, -721, -510, -353, -247, -142, -37, 68, 173, 278, 383, 541, 752, 1173,
-999, -644, -467, -334, -245, -156, -68, 20, 109, 197, 286, 419, 597, 951,
};

static uint64_t backbone_model3_conv2_conv2_weight[64 * 9] =
{ // torch.Size([64, 3, 3, 1])
0x3, 0x5, 0x5, 0x3, 0x5, 0x5, 0xc, 0x5, 0x4, 
0x6, 0xb, 0xe, 0xc, 0xe, 0x1, 0xc, 0x5, 0x5, 
0x5, 0x5, 0x5, 0x4, 0x4, 0x5, 0xc, 0xd, 0xd, 
0xd, 0xd, 0xc, 0xd, 0x9, 0xc, 0xe, 0xc, 0xa, 
0x5, 0x5, 0xd, 0x4, 0x5, 0xd, 0x4, 0x1, 0xe, 
0xd, 0xd, 0x2, 0xb, 0xd, 0xe, 0x3, 0x3, 0xc, 
0x3, 0x4, 0xc, 0x5, 0xb, 0x5, 0x3, 0xf, 0x3, 
0xd, 0xc, 0xb, 0xd, 0xe, 0xc, 0x5, 0x4, 0x1, 
0x5, 0x6, 0xc, 0x0, 0x5, 0xe, 0x3, 0x6, 0xc, 
0xb, 0xd, 0xd, 0x2, 0xd, 0xc, 0x2, 0xc, 0xc, 
0x1, 0x4, 0x1, 0xc, 0xe, 0xd, 0xb, 0xc, 0x1, 
0xc, 0xd, 0xd, 0xd, 0x5, 0x5, 0xe, 0x3, 0x4, 
0xc, 0xd, 0x0, 0xd, 0xd, 0x5, 0xd, 0x4, 0x5, 
0x3, 0xc, 0xc, 0x0, 0xe, 0xd, 0xc, 0x5, 0x5, 
0x4, 0x2, 0x3, 0xc, 0xe, 0xb, 0xc, 0xd, 0xd, 
0xd, 0xc, 0xc, 0xd, 0xd, 0xc, 0xb, 0xc, 0xd, 
0x4, 0x4, 0x3, 0x3, 0xd, 0xf, 0x4, 0xd, 0xc, 
0xd, 0xd, 0xd, 0xc, 0xd, 0xc, 0x4, 0x5, 0x5, 
0x5, 0xc, 0xd, 0x6, 0x5, 0xd, 0x9, 0x5, 0x0, 
0xd, 0x6, 0x5, 0xc, 0x5, 0xa, 0xd, 0x5, 0x5, 
0xc, 0xf, 0xa, 0xc, 0x1, 0x4, 0x0, 0x1, 0x2, 
0x4, 0x3, 0x4, 0x5, 0x4, 0x3, 0x4, 0x5, 0x3, 
0xb, 0x5, 0x5, 0x4, 0x4, 0x5, 0x3, 0xe, 0xe, 
0xc, 0xe, 0xe, 0x0, 0xc, 0xc, 0x4, 0xb, 0x1, 
0x3, 0x5, 0xa, 0x5, 0x4, 0xc, 0xd, 0xf, 0xd, 
0x4, 0x5, 0x5, 0xb, 0xb, 0xc, 0xd, 0xd, 0xd, 
0x9, 0xd, 0x5, 0x4, 0xe, 0x4, 0xb, 0xb, 0x0, 
0x5, 0x5, 0x5, 0x3, 0x3, 0x3, 0xd, 0xd, 0xc, 
0x3, 0x3, 0xb, 0x1, 0xf, 0x1, 0xa, 0x3, 0x0, 
0xc, 0xc, 0xd, 0xc, 0xb, 0xb, 0xd, 0xe, 0xc, 
0x4, 0x5, 0x3, 0x5, 0x6, 0x5, 0x0, 0x4, 0x4, 
0xa, 0x3, 0x4, 0x9, 0xd, 0xd, 0xd, 0xe, 0xe, 
0x0, 0x7, 0x4, 0xc, 0x4, 0xc, 0xc, 0xc, 0xa, 
0xa, 0xc, 0xa, 0xa, 0xc, 0xc, 0xd, 0xd, 0xd, 
0xb, 0xc, 0x4, 0xd, 0xd, 0xb, 0xd, 0xd, 0xb, 
0x4, 0x4, 0xc, 0x5, 0xd, 0xd, 0x5, 0xe, 0xc, 
0xd, 0xd, 0xa, 0xd, 0x5, 0x5, 0xd, 0x6, 0x2, 
0xe, 0xd, 0xa, 0xd, 0x5, 0x3, 0xc, 0x4, 0xa, 
0xd, 0x2, 0x4, 0xd, 0x3, 0x6, 0xb, 0x5, 0x5, 
0xc, 0x5, 0x5, 0xd, 0xc, 0x5, 0x9, 0xe, 0x5, 
0xc, 0x5, 0x4, 0x3, 0x4, 0x5, 0x4, 0x5, 0x3, 
0xa, 0x4, 0x5, 0xd, 0xb, 0x4, 0xe, 0xe, 0xc, 
0xd, 0xd, 0x3, 0xd, 0xd, 0x4, 0xd, 0x3, 0x5, 
0x3, 0x1, 0x4, 0x4, 0x4, 0x5, 0x0, 0x1, 0xb, 
0x5, 0x5, 0xb, 0x4, 0x5, 0xd, 0x5, 0x5, 0xc, 
0xd, 0xe, 0xd, 0xe, 0xc, 0x2, 0xb, 0x3, 0x4, 
0x3, 0x6, 0x5, 0x0, 0xd, 0x6, 0x0, 0xd, 0x4, 
0xd, 0xd, 0x1, 0x9, 0xe, 0xc, 0xc, 0xe, 0xc, 
0x4, 0xd, 0xc, 0xd, 0x5, 0xd, 0xa, 0x6, 0xc, 
0xc, 0x6, 0x6, 0xd, 0xb, 0xc, 0xb, 0x0, 0x0, 
0x3, 0xd, 0xc, 0x5, 0xc, 0xd, 0x5, 0x5, 0xd, 
0xb, 0x5, 0x4, 0xb, 0xd, 0x4, 0xb, 0xe, 0xc, 
0xd, 0xe, 0xe, 0x2, 0xb, 0xb, 0x3, 0xb, 0xb, 
0x2, 0xb, 0xd, 0xc, 0xb, 0xb, 0xc, 0xb, 0xc, 
0x5, 0x4, 0xc, 0x5, 0x5, 0xa, 0x4, 0x2, 0x4, 
0x2, 0x5, 0x6, 0xc, 0xa, 0x6, 0x1, 0xd, 0x4, 
0x4, 0xa, 0x1, 0x5, 0x6, 0xb, 0x2, 0x5, 0x3, 
0x1, 0x4, 0xb, 0x4, 0x6, 0x3, 0x4, 0x5, 0x3, 
0x5, 0xa, 0xd, 0x4, 0x6, 0xc, 0xc, 0xc, 0x4, 
0xc, 0xd, 0xd, 0xa, 0x4, 0x4, 0x4, 0x6, 0x5, 
0x5, 0x5, 0x5, 0x6, 0xc, 0xc, 0x5, 0x5, 0xd, 
0xd, 0x5, 0x4, 0xd, 0x6, 0x3, 0xa, 0x5, 0x3, 
0xc, 0x3, 0x2, 0x2, 0x4, 0x5, 0x5, 0x5, 0x6, 
0xc, 0x3, 0x0, 0xc, 0x6, 0x3, 0x3, 0x4, 0xa, 
};

static int backbone_model3_conv2_relu2_threshold[64 * 7] =
{ // torch.Size([64, 7])
11, 66, 122, 177, 260, 371, 592,
25, 76, 128, 179, 256, 359, 565,
28, 63, 98, 133, 186, 256, 397,
27, 77, 127, 177, 253, 353, 553,
35, 79, 122, 166, 231, 318, 492,
25, 63, 101, 139, 196, 272, 423,
23, 90, 157, 224, 324, 457, 725,
11, 54, 96, 139, 203, 289, 460,
22, 80, 137, 195, 282, 398, 630,
18, 58, 98, 138, 198, 278, 438,
20, 58, 95, 133, 189, 265, 415,
13, 63, 112, 161, 235, 334, 531,
33, 70, 108, 145, 201, 276, 425,
19, 56, 93, 131, 186, 261, 410,
16, 58, 100, 143, 206, 291, 461,
19, 66, 113, 160, 230, 324, 511,
61, 118, 175, 232, 318, 432, 661,
31, 71, 111, 151, 211, 291, 451,
43, 85, 127, 170, 233, 318, 487,
30, 74, 119, 163, 230, 318, 496,
17, 60, 104, 147, 212, 298, 471,
15, 55, 95, 134, 194, 273, 431,
35, 71, 106, 142, 195, 266, 408,
27, 86, 145, 204, 293, 411, 647,
32, 89, 146, 202, 287, 400, 627,
26, 60, 95, 129, 180, 249, 387,
25, 61, 98, 135, 190, 264, 411,
17, 48, 79, 110, 157, 219, 344,
17, 68, 119, 170, 246, 348, 552,
10, 62, 113, 165, 243, 346, 553,
-5, 77, 160, 242, 367, 532, 864,
29, 82, 136, 189, 269, 376, 589,
31, 72, 112, 153, 214, 295, 458,
18, 63, 108, 153, 220, 310, 489,
16, 61, 106, 151, 218, 308, 487,
31, 61, 91, 121, 166, 226, 347,
39, 80, 122, 163, 225, 308, 473,
5, 49, 93, 137, 202, 290, 466,
32, 82, 132, 181, 256, 355, 554,
29, 68, 107, 146, 205, 284, 441,
18, 57, 95, 134, 192, 269, 423,
26, 73, 120, 167, 237, 331, 519,
20, 65, 110, 155, 223, 313, 493,
24, 51, 79, 106, 147, 202, 311,
23, 61, 100, 138, 196, 273, 427,
19, 68, 116, 165, 237, 334, 528,
22, 80, 137, 195, 281, 397, 627,
17, 66, 115, 164, 237, 335, 531,
2, 49, 95, 142, 211, 304, 489,
23, 60, 96, 132, 186, 258, 402,
26, 55, 85, 114, 158, 216, 334,
34, 72, 110, 148, 205, 281, 432,
32, 82, 133, 183, 258, 359, 561,
15, 51, 87, 123, 177, 249, 393,
10, 45, 81, 116, 169, 239, 380,
25, 69, 113, 157, 223, 311, 487,
5, 37, 69, 101, 148, 212, 339,
14, 72, 129, 187, 273, 388, 618,
14, 54, 95, 136, 196, 278, 440,
53, 106, 159, 212, 291, 397, 609,
37, 80, 123, 166, 231, 317, 489,
9, 59, 109, 159, 234, 334, 534,
37, 89, 142, 194, 272, 377, 586,
16, 45, 74, 103, 147, 205, 322,
};

static uint64_t backbone_model4_conv1_conv1_weight[64 * 1*4] =
{ // torch.Size([64, 1, 1, 64])
0xb4b5cccbd4abc502,0xc324be42243352d2,0x5cd3c0455ddce62c,0x425634bd243c24bc, 
0xbcb1cbd443b5b34c,0x03c5a355c33ccbb0,0x5bcaca5ac1c45cc6,0x49ab4b62cc095ec5, 
0x34cb92c333b64c49,0x435db545d54cd424,0xb13acc126325dc1c,0xc92db4db0c54dc24, 
0x264bc9ddcdcdad0b,0xc2a1c93543ca4c2d,0xe653aa55d9dcb4dd,0xca94a53b3c445c2d, 
0xa43b204344ebb12c,0x4c4d4bda24200de3,0x53d5b35359402393,0x55bcb5d354039b35, 
0x3d5d45c451da2333,0x55bcc6bc535ccdd9,0xd03ab42cdaa25d34,0xcabda343aa55cdb4, 
0x24b49cc53045cd4c,0x53341b45343b3c45,0xba125bd534c54a95,0x9d0b44c45ad64dc3, 
0x0bbddcbcd64bd2cb,0x904c254544542ddc,0x5b3c6cbb245cdcd0,0x55444b5ad903cdcd, 
0xc5e33452d245193a,0x34454d35d3525553,0x4ccad5cb4b24c254,0xd14b1333d9dc29c4, 
0xd2ec5e3acddcd55d,0xcdb4c444e59d5cc5,0x2545dd4ab34464a5,0x4de31a3d4d253cf5, 
0xc5cc1bc19dcdcbc3,0x31ba3c54abccb5b1,0x2545cc3c103cdbcd,0x4dad5c4d49ddc435, 
0xcba3d4d44bd4a439,0x9abc9cbe5adbd550,0x55c2444cdb3444cc,0x5a2413a2a354ba93, 
0xbbb59352cc420a10,0xc3db5d3accdd045c,0x5c9ab9424cda4393,0x0c01b3092a543cce, 
0x2c4334c344db4342,0x432bd03b34334dd1,0x2134b4c292144404,0x150b40a5a333330b, 
0xad4d445b45ab45bb,0xdbcc92e43db3d25d,0xdd4aaa2e0953a249,0x04c5bd5cbb5cd5a4, 
0x253d303c4cca45c4,0xd3039d5c4d02a55d,0xd544356bbc0d433e,0x5a44a41c34cca445, 
0x4d4341c50ddca045,0xd5acbdbd4d245535,0x42b59ca4b5ca3a34,0x0c9d53c051b4a4a6, 
0x3e55d943bdcdaacb,0x5cc2b544c5bb5c35,0xa453cc339cd05345,0xedc4cdba4cd59cbb, 
0xd5bb1c50c0b954d5,0xccd5c1b4d4ae5cbc,0x4c46dc5cdf5dcd5e,0x2cd4e45becbdd5b6, 
0xdbccb34bb5234cc1,0xd1d02d4d4bcd1b5a,0x553434cb4c4ab43c,0x64cdcac40a4dd324, 
0x4a61d554d355c634,0xbb4b14cb6bd64cdd,0x54d1c5ccdc4465cd,0xecc54c65d3c6dc4d, 
0x2b93cc5c4a5db9c3,0xccb154e5ccc4a540,0xcd534345235b4cb5,0xc434c9d3bb431dbc, 
0xc3c43c44db61c511,0x2b359ddc5bcc9543,0x4bdc4bac5a4b9344,0x4d15c4b0c1ba55b3, 
0x4d4ac90caaaa05da,0x09a53cb455b54ebd,0x1db3c3cbdc4d05ce,0x3135ac5cd4a0cc4c, 
0x4d43d4ba234dca31,0x52215305dda39532,0x4a6123abb0345cc9,0x943e4ec4cbd35e3d, 
0x34abd5453245d62a,0xccd5b54c3eb9b2d0,0xdd20344b5aca4d4c,0x443d434ab31a54cc, 
0x0baa09a31ca3c3bc,0xbcdb4dbd1ddab44b,0xbcbc9c4bca3bdd2b,0x1bc9b95cba4bd2ca, 
0x34463bcdc2d321c2,0x525c0d09b3b3455d,0x59c4b2a04ca04459,0x3e2434ab4ab3db46, 
0xd5c42d5454a3c243,0xad31a4cb45e394ce,0x1513ca04913b3a35,0x4d40cd30442b52d3, 
0x9bcca3cdc4343dc4,0x4b95434533b45d03,0x952052445cb0c35b,0x300db4d449d41436, 
0xa415c339cc90534b,0x4ae15dc105ed44c4,0x29c393c2dc33393c,0x1494d44bc3155d34, 
0x3e4a235e5cc2c201,0xc4c335a52b3044cb,0xb223534c425d3333,0x3aba3b3c4b05d335, 
0xc5bc3c5da4ba3e2c,0x91b43cd6cd34955b,0xd4ac2b6544ca54aa,0x5c3a10b35c4524ac, 
0xdc4dda6e5429ca2a,0xdb4c2dd315c0c65d,0x241b54c1c2323193,0xc52bbc5cbb51ddbc, 
0x34124c35cc33bcb3,0x5b0c35a5c593bd0b,0x4332b044e5904aa5,0xe0bccc43d3012a3e, 
0x932334934125b34c,0x3334c344dd2b4b2a,0x34ee4c5b34db432c,0x3f244442a9444b5e, 
0x9c5545656a3c5432,0xb3dc555e54baacba,0xd5b4406ebc4a63c4,0xddc33c445304c5cd, 
0x5c4cd435b4434700,0xccd4a313ccabcd3c,0xecba39c93b31bb44,0x04d2444cb3b351bd, 
0xbc2cc3dd3ced1acb,0xcc4b334cb4235c45,0xb5533bb4ecc43502,0xd4a432c002ba1dc5, 
0x3b12ccac42ddbc3a,0x426cdcbdbc553b2b,0x4b533ab46bb0359d,0x42c9cbe04963accd, 
0xa4339c3d4cc5c59c,0xcddbcd3333dda30d,0x34bcbd5bdc5c52c9,0x44c49c6ccd344dd5, 
0x3d2b44cdba6dcca2,0xcd2644d214b4cde5,0x323c5a4adadc0ec5,0x35c4a49aa44b55ad, 
0xc4add42bacdd5da3,0xb1c4c443cc2b504b,0xd243ca5059dc356a,0xad234d345b3bdc2d, 
0x2440204acecb21c2,0xacc5521333d15ced,0x2241c4d0c9c15353,0xccc03b5454e43c25, 
0x4bb43043dc45dcb3,0xbd43dbecd5bcc454,0x3d53c3dad4d54e03,0xe5bcd4ebc3e409bd, 
0xc5cd10bdcac1c4d3,0xcd5a13b6cb35451d,0xc54a4bbcacc13c5e,0xdddbb36b0c24d5b5, 
0xcccb3b45c5543bc2,0xda3baa41d3bcd44c,0x5cb3c44a4aab93cb,0xd392dd44d4cecacc, 
0x35553d53ed0db243,0x4049b9c5cbc4a2ab,0x5c41ed44434ab5b4,0x3d443dbab4d464cb, 
0xadcbb4d543ac454b,0xb46522ad44265cb5,0xdb4d62c255d3162c,0x4d4454b35b54354c, 
0xcdd354d544db3dd3,0x5c436ccb44d24d33,0xc953cce4d4dadc25,0x15acc5dcccae5a06, 
0x3019244454c45994,0xa422ca5944101a34,0xb445341bd3244413,0x555222242453aa34, 
0x2cc4d2443f504cbb,0x0ccb595a450c9c45,0xda6213c5d53443d4,0xde4444c34ad53d2b, 
0x4d4acba4d55bc1b2,0xa36b2ac62326b3dc,0xb2b35bc35b0b21cb,0xdca4944b43eb234a, 
0x4544c32c4d15ccd4,0xccbc5c54bccbd55c,0xb5625259343abdc4,0xa34bdded3cdbae3d, 
0x3c545d5d9cddca20,0xd95b4edc44c595bc,0x51b334309b335453,0x9502c5c544c50ab5, 
0x4513c3bdcc541033,0x43035d31cc4c3b43,0x1d9b3db3431cebcd,0x02232a3d4a5dc2bc, 
0x459deb433254b532,0xccc3b9353c3a45cc,0xcc4c13c53023b2bd,0x554e0c1bcbc354cd, 
0x2cd55bd9cccd4435,0x5c31bccd46135dcc,0xdcb5c1dc3dcc105b,0xe395c4c35434e4d5, 
0xbcc9d5aa5cd5c3b3,0x55eccc552cbdc4c3,0x5d5ce4dd52d440db,0x52ce4e63d44c3ccd, 
0xc6a3c4144344bca9,0xb4ccdc6e23ccca4c,0xe53cb2ad44ccc4d3,0xccbc35dbb4c2a4ad, 
0x444ca93cdd2444d1,0x4da3b4b3c4ca152d,0x4ca42bc9dcc3b93e,0xeb23d35cc1edc055, 
0x3cb6eac5c39453d4,0x3bc4a9bb03a05c5c,0xcac4933baa9bc515,0xd0350b4bc2cb4eb2, 
0xb44350c1ccb5d4c1,0xbcd3cd4999be4c44,0x5d3cde4cdd449c55,0x5ce3cb5dddcd49a5, 
0x555dccc2b22d5d15,0x25353dd53934ddd5,0xcdd4cdc5dac2acbd,0xb33c4451c3b36152, 
};

static int backbone_model4_conv1_quant1_threshold[64 * 14] =
{ // torch.Size([64, 14])
-1174, -746, -533, -372, -265, -158, -51, 54, 161, 268, 375, 536, 749, 1177,
-1180, -757, -545, -386, -280, -174, -68, 37, 143, 249, 354, 513, 725, 1149,
-1055, -666, -471, -325, -228, -131, -34, 63, 160, 257, 354, 500, 695, 1083,
-1124, -714, -508, -355, -252, -149, -47, 55, 157, 260, 362, 516, 721, 1132,
-1097, -689, -485, -332, -230, -128, -26, 75, 177, 279, 381, 534, 737, 1145,
-1270, -791, -552, -372, -253, -133, -13, 106, 225, 345, 465, 644, 883, 1362,
-1275, -793, -552, -372, -251, -131, -10, 109, 230, 350, 471, 652, 893, 1374,
-1428, -912, -654, -460, -331, -202, -73, 55, 184, 313, 442, 636, 894, 1410,
-1338, -864, -627, -450, -331, -213, -94, 23, 142, 260, 378, 556, 793, 1267,
-2020, -1330, -985, -726, -554, -381, -209, -36, 135, 307, 480, 739, 1084, 1773,
-1378, -884, -637, -452, -328, -205, -81, 41, 165, 288, 412, 597, 844, 1338,
-1034, -651, -459, -315, -220, -124, -28, 67, 162, 258, 354, 498, 689, 1073,
-1145, -729, -520, -364, -260, -156, -52, 52, 156, 260, 364, 520, 729, 1145,
-1293, -811, -570, -389, -269, -148, -28, 92, 212, 332, 453, 634, 875, 1357,
-1359, -875, -633, -451, -330, -209, -88, 32, 153, 274, 395, 576, 818, 1302,
-1127, -709, -500, -343, -238, -134, -29, 74, 179, 283, 388, 544, 753, 1171,
-1143, -710, -494, -332, -223, -115, -7, 100, 208, 316, 424, 586, 803, 1235,
-1230, -780, -555, -386, -273, -161, -48, 63, 176, 288, 401, 570, 795, 1245,
-1927, -1256, -921, -669, -501, -333, -166, 1, 169, 337, 504, 756, 1092, 1763,
-1003, -639, -457, -321, -230, -139, -48, 42, 133, 224, 315, 452, 634, 998,
-1423, -884, -614, -412, -277, -142, -7, 126, 261, 396, 531, 733, 1003, 1542,
-1046, -667, -478, -336, -241, -147, -52, 41, 136, 231, 325, 467, 657, 1035,
-1198, -774, -561, -402, -296, -190, -83, 22, 128, 234, 340, 500, 712, 1137,
-1295, -843, -617, -447, -334, -221, -108, 4, 118, 231, 344, 514, 740, 1192,
-1061, -670, -475, -328, -230, -132, -35, 62, 160, 258, 356, 502, 698, 1089,
-932, -591, -420, -292, -207, -122, -36, 48, 133, 219, 304, 432, 603, 944,
-1335, -871, -640, -466, -350, -234, -118, -3, 112, 228, 344, 518, 749, 1212,
-1056, -661, -464, -316, -217, -118, -20, 78, 177, 276, 374, 523, 720, 1115,
-1151, -743, -538, -385, -283, -180, -78, 23, 125, 228, 330, 483, 688, 1097,
-934, -577, -399, -265, -176, -87, 1, 90, 179, 268, 357, 491, 669, 1026,
-1028, -657, -471, -332, -239, -146, -53, 39, 131, 224, 317, 456, 642, 1014,
-1161, -726, -509, -346, -237, -128, -20, 88, 197, 306, 414, 577, 795, 1230,
-1225, -774, -548, -379, -267, -154, -41, 70, 183, 296, 408, 577, 803, 1253,
-1070, -673, -475, -326, -227, -128, -28, 70, 169, 268, 367, 516, 714, 1111,
-980, -630, -455, -324, -236, -149, -61, 25, 113, 200, 288, 419, 594, 944,
-1417, -908, -653, -461, -334, -207, -79, 47, 175, 302, 430, 621, 876, 1386,
-1413, -875, -605, -403, -269, -134, 0, 134, 269, 404, 538, 740, 1010, 1548,
-1113, -710, -509, -358, -257, -157, -56, 44, 144, 245, 346, 497, 698, 1101,
-1235, -788, -565, -397, -285, -174, -62, 49, 160, 272, 384, 551, 775, 1222,
-1277, -795, -554, -373, -252, -132, -11, 108, 229, 349, 470, 650, 891, 1373,
-1366, -885, -644, -464, -343, -223, -103, 16, 137, 257, 377, 558, 798, 1280,
-1115, -716, -517, -368, -268, -168, -69, 30, 130, 229, 329, 478, 678, 1076,
-985, -623, -442, -307, -216, -126, -35, 54, 144, 235, 325, 461, 642, 1003,
-1046, -662, -470, -326, -230, -134, -38, 57, 153, 249, 345, 489, 680, 1064,
-1596, -1044, -769, -562, -424, -286, -149, -11, 126, 264, 402, 608, 884, 1435,
-1086, -691, -494, -346, -248, -149, -50, 47, 146, 244, 343, 491, 688, 1082,
-1212, -788, -576, -417, -311, -205, -99, 7, 113, 219, 325, 484, 696, 1120,
-1221, -784, -565, -400, -291, -182, -72, 36, 146, 255, 365, 529, 748, 1186,
-1801, -1105, -756, -495, -321, -147, 27, 201, 375, 549, 723, 985, 1333, 2030,
-1319, -859, -629, -456, -341, -226, -111, 3, 118, 233, 348, 520, 750, 1210,
-1291, -792, -543, -356, -231, -106, 17, 142, 267, 391, 516, 703, 952, 1451,
-1132, -716, -508, -353, -249, -145, -41, 62, 166, 270, 373, 529, 737, 1152,
-1079, -673, -469, -317, -215, -113, -12, 89, 191, 292, 394, 546, 750, 1157,
-1271, -812, -583, -411, -296, -182, -67, 47, 161, 276, 391, 563, 792, 1251,
-1283, -804, -564, -384, -264, -144, -24, 94, 214, 334, 454, 634, 873, 1353,
-1201, -775, -561, -401, -294, -188, -81, 25, 131, 238, 345, 505, 718, 1145,
-982, -623, -444, -309, -219, -130, -40, 49, 139, 228, 318, 453, 632, 991,
-1376, -871, -619, -430, -304, -178, -52, 74, 200, 326, 452, 641, 893, 1398,
-1284, -828, -599, -428, -314, -200, -86, 28, 142, 256, 370, 541, 770, 1226,
-1165, -741, -529, -370, -264, -158, -52, 53, 159, 265, 371, 530, 742, 1166,
-1451, -936, -678, -485, -356, -227, -99, 29, 158, 287, 416, 609, 866, 1381,
-889, -568, -407, -286, -206, -125, -45, 35, 115, 195, 276, 396, 557, 879,
-1505, -988, -729, -535, -406, -276, -147, -17, 111, 240, 370, 564, 822, 1340,
-1163, -731, -514, -352, -244, -136, -28, 79, 188, 296, 404, 566, 782, 1215,
};

static uint64_t backbone_model4_conv1_conv2_weight[64 * 9] =
{ // torch.Size([64, 3, 3, 1])
0x4, 0x5, 0x4, 0x5, 0x5, 0x4, 0x4, 0x5, 0xb, 
0x5, 0x6, 0x4, 0x1, 0xa, 0xb, 0xc, 0xd, 0xb, 
0x4, 0x6, 0x3, 0xc, 0x5, 0x4, 0xc, 0x4, 0x4, 
0xd, 0xd, 0xb, 0xc, 0x5, 0x5, 0x4, 0x5, 0x5, 
0x5, 0x5, 0x5, 0x0, 0xc, 0xc, 0xd, 0xd, 0xd, 
0x6, 0x4, 0xd, 0x4, 0xd, 0xc, 0x4, 0x4, 0xb, 
0x6, 0x5, 0xd, 0x5, 0xd, 0xc, 0xc, 0xb, 0xc, 
0x2, 0x5, 0x5, 0x5, 0xa, 0x1, 0x6, 0x3, 0x3, 
0x4, 0xd, 0xd, 0x2, 0x5, 0xe, 0x4, 0x4, 0xd, 
0xb, 0xc, 0xc, 0x9, 0xe, 0xe, 0x3, 0xc, 0x1, 
0xc, 0xc, 0xb, 0x3, 0x3, 0x4, 0x4, 0x5, 0x5, 
0xe, 0x6, 0x5, 0xd, 0xc, 0x4, 0xb, 0xd, 0x2, 
0x5, 0x5, 0x5, 0xb, 0x3, 0x5, 0xd, 0xd, 0x4, 
0x3, 0x2, 0x4, 0xc, 0xc, 0xc, 0xd, 0xc, 0xc, 
0xa, 0xd, 0xb, 0xb, 0xf, 0xc, 0x4, 0x3, 0x5, 
0xb, 0x4, 0xc, 0xd, 0xc, 0x1, 0x3, 0xe, 0xd, 
0x1, 0xb, 0x0, 0xc, 0x7, 0xb, 0x2, 0x4, 0x0, 
0xb, 0x9, 0xd, 0x4, 0x2, 0xd, 0x6, 0x6, 0xb, 
0x4, 0x4, 0xc, 0xe, 0xc, 0x5, 0xd, 0xb, 0xa, 
0x3, 0xd, 0xe, 0x4, 0x5, 0xd, 0xb, 0xb, 0xb, 
0xd, 0xe, 0x1, 0xc, 0xe, 0xa, 0x0, 0xb, 0x4, 
0x4, 0x2, 0xc, 0xd, 0xc, 0x3, 0xe, 0xc, 0x2, 
0x4, 0xc, 0xe, 0x5, 0x4, 0xd, 0x5, 0x4, 0xd, 
0x5, 0x3, 0x2, 0x3, 0xd, 0xc, 0x0, 0xe, 0xc, 
0xe, 0xe, 0xa, 0x3, 0x4, 0x9, 0x2, 0x4, 0x1, 
0x4, 0x2, 0xc, 0x5, 0xc, 0xd, 0x6, 0xd, 0xd, 
0x5, 0x4, 0xd, 0x4, 0x4, 0x4, 0x9, 0x3, 0x4, 
0xd, 0x4, 0x5, 0xd, 0x1, 0x6, 0xc, 0x1, 0x3, 
0xa, 0x4, 0xa, 0x4, 0xf, 0x3, 0x0, 0x3, 0x1, 
0x6, 0x5, 0x3, 0xb, 0xd, 0xd, 0xc, 0xb, 0xb, 
0x5, 0x9, 0xe, 0x5, 0xe, 0x3, 0x4, 0x9, 0x4, 
0xc, 0xc, 0x9, 0xb, 0x2, 0xc, 0xe, 0xd, 0xb, 
0xb, 0x5, 0x4, 0xc, 0xb, 0xc, 0xe, 0xe, 0xb, 
0x6, 0xc, 0xd, 0x6, 0xd, 0xd, 0x5, 0x5, 0xc, 
0xe, 0xd, 0x4, 0xb, 0xb, 0x5, 0x2, 0x5, 0x5, 
0x5, 0x4, 0x6, 0xd, 0xc, 0xc, 0xe, 0xd, 0xe, 
0x4, 0x4, 0x3, 0xd, 0xc, 0xc, 0xc, 0xd, 0xd, 
0x3, 0xc, 0xc, 0xb, 0x6, 0x5, 0xe, 0xc, 0x5, 
0xd, 0xd, 0xd, 0xb, 0xc, 0xc, 0xa, 0x3, 0xc, 
0x5, 0x6, 0x5, 0xb, 0xc, 0xa, 0x0, 0xc, 0x4, 
0xd, 0xb, 0x1, 0xe, 0x4, 0x1, 0xc, 0xc, 0xc, 
0xd, 0x3, 0x5, 0xe, 0xb, 0x6, 0x2, 0x3, 0x3, 
0x3, 0xa, 0x4, 0x5, 0x6, 0x3, 0xa, 0xd, 0xc, 
0xd, 0xd, 0xd, 0x2, 0xc, 0x4, 0x5, 0x3, 0x5, 
0x4, 0x5, 0x6, 0x3, 0x4, 0x5, 0xb, 0x1, 0x9, 
0x4, 0xe, 0xe, 0xb, 0x4, 0x2, 0xc, 0xa, 0xb, 
0x2, 0x4, 0x4, 0xe, 0x4, 0x4, 0xe, 0x4, 0x2, 
0xb, 0x4, 0x3, 0xc, 0xb, 0x5, 0x3, 0xf, 0xc, 
0x3, 0x6, 0x6, 0xc, 0x5, 0x4, 0x4, 0xb, 0x4, 
0xc, 0xc, 0xd, 0xb, 0xc, 0xc, 0xb, 0xd, 0xc, 
0x3, 0xd, 0xd, 0xd, 0xd, 0xc, 0xc, 0x4, 0x5, 
0x6, 0x5, 0x5, 0xc, 0xd, 0x0, 0xd, 0xd, 0xd, 
0x6, 0x5, 0xc, 0x5, 0xd, 0xd, 0x3, 0xc, 0x3, 
0xa, 0xf, 0x3, 0x3, 0xc, 0x3, 0x2, 0xd, 0x0, 
0xd, 0xd, 0xd, 0xb, 0xc, 0x1, 0xd, 0xb, 0xb, 
0x1, 0xd, 0x1, 0x5, 0xe, 0x4, 0x4, 0xe, 0xa, 
0xc, 0xa, 0x4, 0xe, 0x4, 0x2, 0xb, 0x5, 0x4, 
0xa, 0x7, 0x5, 0x9, 0x4, 0x2, 0xb, 0x2, 0xb, 
0x4, 0x4, 0x0, 0x4, 0x4, 0x5, 0x3, 0x4, 0x5, 
0xc, 0xb, 0xc, 0x4, 0xc, 0xd, 0x7, 0x5, 0xa, 
0xc, 0x5, 0x5, 0x5, 0xc, 0xd, 0x3, 0xd, 0xd, 
0xa, 0xc, 0xb, 0xb, 0xd, 0xd, 0x5, 0x5, 0x5, 
0x3, 0x4, 0x2, 0x4, 0xf, 0xb, 0xc, 0xa, 0x9, 
0xa, 0xc, 0xb, 0xc, 0x7, 0xa, 0x4, 0x5, 0x2, 
};

static int backbone_model4_conv1_relu2_threshold[64 * 7] =
{ // torch.Size([64, 7])
27, 77, 127, 177, 251, 351, 551,
12, 66, 119, 172, 252, 358, 570,
23, 75, 127, 180, 258, 362, 570,
17, 57, 98, 138, 198, 279, 440,
20, 53, 86, 119, 169, 235, 366,
12, 48, 85, 121, 176, 249, 394,
20, 51, 82, 113, 160, 223, 348,
18, 79, 139, 200, 291, 412, 654,
4, 41, 78, 114, 170, 243, 390,
19, 51, 83, 115, 164, 228, 357,
12, 45, 78, 110, 160, 225, 357,
18, 67, 116, 165, 239, 338, 535,
9, 39, 68, 98, 142, 200, 318,
13, 40, 67, 94, 135, 189, 298,
44, 100, 156, 212, 297, 409, 634,
11, 53, 95, 137, 201, 285, 454,
21, 83, 146, 208, 302, 427, 676,
12, 66, 121, 175, 256, 365, 582,
16, 42, 67, 92, 130, 181, 282,
13, 55, 97, 139, 202, 287, 456,
14, 86, 158, 230, 338, 482, 771,
19, 74, 129, 184, 266, 376, 596,
13, 50, 86, 122, 176, 248, 393,
10, 43, 75, 108, 156, 221, 350,
29, 78, 128, 177, 252, 351, 549,
24, 67, 110, 153, 217, 303, 474,
9, 30, 52, 74, 106, 149, 236,
24, 65, 106, 147, 209, 291, 455,
20, 75, 129, 183, 264, 372, 589,
15, 63, 111, 159, 231, 328, 520,
26, 72, 118, 164, 233, 325, 509,
23, 57, 90, 124, 175, 242, 377,
16, 64, 112, 160, 232, 329, 521,
28, 74, 120, 166, 234, 326, 509,
19, 64, 110, 156, 224, 316, 499,
36, 82, 127, 173, 241, 333, 515,
15, 55, 96, 137, 198, 280, 443,
35, 75, 116, 156, 217, 298, 460,
28, 68, 108, 148, 208, 288, 448,
-2, 44, 91, 138, 208, 302, 489,
13, 55, 96, 137, 199, 282, 447,
33, 70, 107, 144, 200, 274, 422,
15, 52, 89, 127, 183, 257, 407,
16, 54, 91, 129, 185, 259, 409,
31, 94, 157, 220, 314, 440, 692,
11, 65, 120, 175, 257, 367, 586,
19, 61, 104, 146, 209, 293, 462,
19, 80, 140, 201, 292, 413, 655,
1, 50, 99, 148, 222, 320, 516,
23, 60, 98, 136, 193, 268, 420,
14, 48, 82, 116, 167, 234, 370,
31, 76, 122, 167, 235, 325, 506,
20, 63, 106, 150, 215, 302, 476,
40, 105, 171, 236, 335, 466, 728,
28, 70, 112, 154, 216, 300, 467,
27, 80, 133, 185, 264, 369, 580,
23, 54, 85, 115, 162, 223, 347,
6, 72, 139, 206, 307, 440, 708,
21, 68, 115, 162, 233, 328, 517,
28, 90, 151, 213, 306, 430, 678,
15, 46, 78, 109, 156, 219, 344,
25, 66, 108, 149, 212, 295, 461,
26, 75, 124, 173, 246, 344, 539,
20, 80, 140, 201, 291, 411, 651,
};

static uint64_t backbone_model4_conv2_conv1_weight[64 * 1*4] =
{ // torch.Size([64, 1, 1, 64])
0x594ccbdad3d4bca3,0xcd4d24a34dadc0bc,0x59ca3d5db5559dda,0xbaca4ba6edcc01c3, 
0x49e436ec4c3acc5c,0x3b2c2d4d95443954,0x924b3ca45a3ba53c,0x45b04445353bc55b, 
0x44c94219cc0ccb0c,0xc4453335c319c4ec,0xbb34aa033344a251,0x0cb3ac24cbcac4c4, 
0xa594ab436d3c94c5,0x34dbc99cb2bddd4c,0xb5dc3a2d25ddbb43,0x5bcddd45cb5dabcc, 
0xd6accd4c540543d2,0x644d11bb4bbdcc2a,0xb1454dcc094ca3de,0xd4abc4564252a5dc, 
0xde113244235ba43c,0xd35c140ccc3bc221,0x321245444444594d,0x4d4a32bdb14c4455, 
0x9b5cca430d453d2b,0xcaedc0d20d2b3c3e,0x23c35ac4616d91c5,0xe2d0443ddcccb45d, 
0x5ccd154b495dd434,0x52419c491b3cd202,0x1bba44acc54b5dc0,0xd4bcd3b0cc434344, 
0x01033acd44d54cb3,0xab4d5d345bdb24bc,0xb553dbeb5dccda4c,0xbe1c55abc4c2355d, 
0x3c55b4d33cd34cac,0xb45c53d5321b44a2,0xcdccac2c44b6d065,0x5c0451d6a3d23ac2, 
0xb13d5392c492c415,0xcc3cd45340b42521,0xbb43d2e3bd05cb13,0xac4d24339ab63c43, 
0x5d4b455b25dd443d,0xc2343d9c433a35c5,0x2c45455cd5a2be3e,0xbdb40c3c51532355, 
0xcbbb2c26ad5bcb44,0x2cdb5acbaa69bd4a,0xdc5cbcc5cd3a4ba5,0xccb4cdc2cabb9dd2, 
0x0133154c5cb9331d,0x43cd3d405ddd4943,0xd9035c9db5399153,0x43b254155253c44d, 
0x34432acc4d9544c3,0x5edd20555bb30b44,0x4533abb25aa5dc1b,0x545d5535a52b4434, 
0x5cd322ddbb31bccc,0xca54b9513cc3c62b,0x5c2ccc5dc4cbdade,0xd4dc5ddb44cb5d4a, 
0x5c4a3144255dcca3,0xb55c03442449b4c1,0x4c3444d54b454255,0x443c3b33dadb9553, 
0xdd534c12233e4bd5,0x616db433334e3da4,0x4dc195c4ac55d4c5,0xc154cbc5dc32ccbc, 
0x34b19ad5144446d5,0xc5de334c305de55b,0xa343574bc94ea3cb,0xa454545553304ab4, 
0x4ace3422435cb2ba,0xb454cd93c3b43b33,0x4da44333d4454a23,0xc53b133c4d123c65, 
0xa3d9c44b435414b4,0x449240cb2b5d3da5,0xd0c14444dc4acb64,0x54d13d1453adb9b9, 
0x39393c355c5cd433,0x95dbdb6dc54d5424,0xc4cb4555523d5ac4,0x933ac4baca5bdc3c, 
0x4c3c314bc132ab43,0xcab39cad543ca902,0x9cc7c22b4a0bab13,0xb4ac11a34ddc02a3, 
0x33234c432b4dd544,0x133642a6c5bb14c5,0x5bba25045bcb5a54,0x4345c349e3524544, 
0x4db9c3b4943cb45b,0xc345a1bcbba4db52,0x423bb5adc2d34a3b,0x544041a3b4aa4d4d, 
0x41bbcbc63b2243b4,0xc43bdbc4c25b35ce,0xccbcebd544b2b945,0x9c4b4324a9c4cd43, 
0x55430203932044b5,0x544c03553b236935,0xc3b5c3bbc43cb5b4,0x053d455545394d2a, 
0x6525cb1ad45465d6,0x3bdc2ba424c452c4,0x32cbc6c4bc54cbd1,0x5b55b54a54cf54da, 
0x3dc423cbcbdddddc,0xd15adda6ccddddaa,0x32c4cccdc33e57bd,0x4c24cd6d43acdc3b, 
0xcdc51c1ca35a643c,0xdd533dddd41b99c3,0xb254ad0b1c4d4ecd,0x1cdbb12d164cb94c, 
0xc4c1ab44ccc390b4,0xac1cd55d5e6445d5,0x5453b4343dcdb4dc,0x4bc3bb2c93c3caa3, 
0x3bdabc440d2cbdc4,0xbdbed2535c54b333,0xb96a0c5cd3cbd9bc,0x4cc4bdd3d4c0dcc4, 
0x3e44b4ccb42234bb,0xc53d303435044344,0x4c49224a9d34c19b,0xa31c45edb451a43a, 
0xb0b00d4a5d2c33c4,0x32cbbc9bbdcd3a64,0xdccabbbab5ad5544,0xd3c3cc3dbb5cb01d, 
0xdc1433553cc9d540,0x5546db35c03002c5,0xc31b30ca5e9a3344,0x3b4cccac4c5324d3, 
0x60bac34cbcd2aab1,0x49c3bc9d2cba3251,0xd3a6b2bcb3b9c915,0xb4290b4b2b4ccdac, 
0xd25d6b53dc91dd5d,0x2ddcb3d3baeacde4,0xbb146d951c52abc4,0xd4dc1ccc0dc4a60b, 
0x909acb19ab3a9403,0x90b2a12920939b3a,0x1a399510cc22b939,0x304ab30a40a1bb2a, 
0xb0513c55ddd255dc,0x93ccc1b4bd05ac1c,0xcdc34d245434c444,0x32d2253d4a243bcc, 
0x30039babcdbc545c,0x3a1b9bcb53c26cb2,0xa9ccb5cdb9c2cbc9,0x1c24bc9c4dcaaccb, 
0x93b5dcc42cb443ad,0x2525dd4dc3c43dab,0xd655cbcc2dcdb04b,0xd304c90d3464ac4d, 
0xedb1a3d33abad45d,0xd5d55c3bb5b44b41,0xa40d25121c43cc54,0xdc4445de1cb44bb3, 
0xc0c3b43bc56eb554,0xc595cc0ce4324bba,0xbdc43443353c54db,0x3435ec6e4a5ddd43, 
0x4cdd54454b22accb,0x51c9dd2ddda53b53,0xa4bc49a5054d5a9c,0x35caccd4c54b5954, 
0x4b04a02bc40c4436,0xbc53dcac4435bc4a,0x4cd5450cd23452db,0xa4d4cc5555130a3c, 
0xacacc424d55cdca4,0xcb3cc644dd5ccc46,0x4c244d4dd442cc00,0x5dcbbbcbb245ddd4, 
0x3a4c45b93c5ddd3d,0xd130456cac44b5cd,0xcdcbdda2c4a45bd5,0xcbcc9cd5cce35dc4, 
0xdd3b44435d312a46,0xddcdc43d5ea3d43d,0x124a34ca45a5394c,0x2a2d5bd35444255b, 
0xc3cb6c43dab4cbb3,0xd3432c53b9c593d4,0x64bb4c443c5b93dc,0x23dcabcacddd5ab5, 
0x1d52c2ed3542344b,0x32bb25b444d46925,0x33cc4b1cac3b42cc,0x9bb43ada2940c24d, 
0xd45c2d43bdbcb415,0xaaddc3503ad1553b,0xcac144b4ccc53b44,0xc2cdba3ac903c4c4, 
