static uint64_t backbone_model0_conv1_weight[16 * 9] =
{ // torch.Size([16, 3, 3, 3])
0x15d, 0xc6d, 0x05e, 0x06d, 0xd6d, 0xd6d, 0xc5e, 0xd6d, 0xc6a,
0x55b, 0xc5c, 0x49d, 0xd3c, 0xe3b, 0xa53, 0xe44, 0xe33, 0xc44,
0xd34, 0xd45, 0xd25, 0xd45, 0xe55, 0xe55, 0xc45, 0xd55, 0xd45,
0x31b, 0x443, 0xa43, 0x54a, 0xdcc, 0xfdd, 0x542, 0x343, 0xc09,
0x243, 0x9cb, 0xded, 0x555, 0x441, 0xddd, 0x454, 0x244, 0xacb,
0x4c4, 0x4db, 0x4c1, 0x5c2, 0x5c3, 0x5cb, 0x5c0, 0x4c3, 0x4c3,
0x344, 0x345, 0x454, 0xc3b, 0xc1b, 0xc3a, 0xcbb, 0xcbc, 0xd9b,
0x2c5, 0xae4, 0x3eb, 0x5d5, 0x1e4, 0xce1, 0xbd5, 0x5d5, 0x5d5,
0xc33, 0x2b4, 0x4b1, 0x410, 0x4cc, 0x4dd, 0x4bb, 0x5dd, 0x4de,
0x3c9, 0x544, 0x544, 0x334, 0x0b3, 0x334, 0xa33, 0xeed, 0xedd,
0xccc, 0xeed, 0xddd, 0x440, 0xc9b, 0x933, 0x544, 0x555, 0x554,
0x512, 0x555, 0x554, 0xb90, 0x144, 0xb43, 0x332, 0xedd, 0xdcd,
0xddd, 0xbdc, 0x454, 0xdde, 0xccc, 0x555, 0x393, 0x435, 0x454,
0x344, 0x334, 0x434, 0xdee, 0xcdc, 0x454, 0xcdd, 0xbac, 0x534,
0x454, 0x556, 0x456, 0x42a, 0x14c, 0x422, 0xced, 0xdfd, 0x9dd,
0x455, 0x555, 0x444, 0x555, 0xa33, 0xbdd, 0x013, 0xddd, 0xeee,
};

static int backbone_model0_relu1_threshold[16 * 7] =
{ // torch.Size([16, 7])
-124, 108, 340, 576, 924, 1392, 2092,
-860, -640, -416, -196, 132, 572, 1236,
-624, -188, 248, 688, 1344, 2216, 3528,
-900, -700, -500, -300, 0, 396, 996,
-528, -356, -180, -8, 252, 596, 1116,
892, 1256, 1620, 1984, 2528, 3256, 4348,
236, 412, 588, 764, 1028, 1380, 1908,
-840, -572, -300, -32, 376, 916, 1724,
-1104, -764, -424, -84, 424, 1104, 2120,
-800, -592, -384, -172, 140, 560, 1188,
-660, -472, -284, -92, 192, 568, 1136,
-128, 172, 472, 772, 1224, 1824, 2724,
-596, -412, -228, -44, 232, 600, 1152,
-672, -500, -324, -152, 108, 456, 976,
-496, -324, -156, 12, 264, 600, 1108,
-632, -460, -288, -120, 140, 480, 992,
};

static uint64_t backbone_model0_conv2_conv1_weight[16 * 1] =
{ // torch.Size([16, 1, 1, 16])
0xb2c30ad12562e2d4,
0x9b4bbb97416b0ed0,
0xc4544d43cccdd040,
0xcd95c5dc55443344,
0xbccb10cdf1ca4cc9,
0xc9a9b9c6c45bddd5,
0x1410bacd535bddde,
0x44cc4c54cdb450b3,
0xccdac4da533543b9,
0x22c13acc3363a666,
0x54dd3d549bc4401b,
0xdcdcd5c035254bcb,
0xc356c3ccc11cd232,
0xc5565c5ac1acc31b,
0x54dd5b42a44553c1,
0x663d5c5ad04cc4b3,
};

static int backbone_model0_conv2_quant1_threshold[16 * 14] =
{ // torch.Size([16, 14])
-672, -504, -392, -308, -252, -196, -140, -84, -28, 32, 88, 172, 284, 452,
-612, -424, -300, -204, -144, -80, -16, 44, 108, 172, 232, 328, 452, 640,
-244, -172, -124, -84, -60, -36, -12, 12, 40, 64, 88, 124, 172, 248,
-476, -344, -256, -188, -144, -100, -56, -12, 32, 76, 120, 188, 276, 408,
-892, -728, -620, -536, -480, -424, -372, -316, -260, -208, -152, -68, 40, 204,
-532, -388, -292, -220, -172, -124, -76, -28, 20, 68, 116, 188, 288, 432,
-616, -472, -376, -308, -260, -212, -164, -116, -68, -20, 28, 100, 196, 340,
-304, -192, -116, -60, -20, 16, 52, 92, 128, 164, 204, 260, 336, 448,
-552, -416, -328, -260, -216, -168, -124, -80, -36, 12, 56, 124, 216, 348,
-304, -152, -52, 24, 72, 124, 176, 224, 276, 324, 376, 452, 552, 704,
-412, -268, -172, -100, -52, -4, 44, 92, 140, 188, 236, 308, 408, 552,
-528, -388, -292, -224, -176, -128, -84, -36, 12, 56, 104, 176, 268, 408,
-452, -324, -236, -168, -124, -80, -40, 4, 48, 92, 136, 204, 288, 420,
-440, -284, -180, -104, -52, 0, 52, 104, 156, 208, 260, 340, 444, 600,
-248, -152, -88, -40, -8, 28, 60, 92, 124, 156, 188, 236, 300, 400,
-508, -332, -220, -132, -76, -16, 40, 96, 156, 212, 268, 356, 472, 644,
};

static uint64_t backbone_model0_conv2_conv2_weight[16 * 9] =
{ // torch.Size([16, 3, 3, 1])
0x4, 0x3, 0x5, 0x3, 0xc, 0xd, 0x4, 0xd, 0xf,
0x5, 0x5, 0x5, 0x5, 0xd, 0xd, 0x5, 0xd, 0xf,
0xb, 0x6, 0x9, 0xd, 0x4, 0x6, 0xd, 0xd, 0x6,
0x4, 0x5, 0x4, 0xc, 0xf, 0xf, 0x9, 0x1, 0x5,
0x4, 0xa, 0x4, 0x3, 0xd, 0xd, 0xa, 0xd, 0xe,
0xc, 0xd, 0xd, 0xc, 0x4, 0x5, 0x1, 0x6, 0x6,
0xb, 0xc, 0xb, 0xb, 0x5, 0x5, 0x0, 0x6, 0x6,
0x9, 0x3, 0x5, 0x4, 0x6, 0xe, 0x3, 0xe, 0xf,
0x4, 0x5, 0x3, 0xc, 0x3, 0x6, 0xc, 0xf, 0xf,
0x4, 0x2, 0x9, 0x4, 0xd, 0xe, 0x4, 0xe, 0xf,
0xc, 0xd, 0xc, 0xc, 0xd, 0x5, 0xc, 0x6, 0x7,
0x3, 0xc, 0xa, 0x5, 0x5, 0xe, 0x1, 0x7, 0x6,
0x3, 0xc, 0xc, 0x5, 0xe, 0xc, 0x6, 0xe, 0x3,
0x3, 0xd, 0xb, 0x4, 0x9, 0xf, 0x4, 0x5, 0xe,
0x4, 0x0, 0xd, 0x5, 0xd, 0xd, 0x5, 0xf, 0x4,
0x4, 0x4, 0x0, 0xd, 0xf, 0xe, 0xc, 0xb, 0xb,
};

static int backbone_model0_conv2_relu2_threshold[16 * 7] =
{ // torch.Size([16, 7])
-208, -124, -40, 44, 168, 340, 592,
-120, -60, 0, 60, 148, 268, 448,
0, 112, 220, 328, 496, 712, 1044,
-68, 44, 156, 268, 436, 660, 996,
-80, -24, 28, 84, 164, 272, 436,
-96, -40, 16, 72, 160, 272, 444,
-160, -88, -16, 60, 172, 320, 540,
56, 148, 240, 328, 468, 648, 920,
16, 128, 236, 348, 512, 732, 1060,
-36, 80, 196, 308, 484, 712, 1060,
28, 104, 184, 264, 380, 540, 776,
20, 124, 232, 336, 496, 708, 1024,
92, 164, 236, 308, 416, 560, 776,
12, 84, 152, 220, 324, 464, 672,
4, 104, 208, 308, 460, 664, 964,
-212, -100, 8, 120, 284, 504, 832,
};

static uint64_t backbone_model1_conv1_conv1_weight[16 * 1] =
{ // torch.Size([16, 1, 1, 16])
0xce5545abd2bb4cb4,
0xcb02aa6dc24322eb,
0x7bbc44b5c04baa4b,
0xd954bd1de334f51b,
0x0babccb0b55d2d3e,
0xd2d34c4adac346c5,
0xba732d06d443a34a,
0x34b13453265a4aec,
0x23431ccba3eda353,
0x9a3ab0bc05599a4e,
0xcac2b4c34cd44b96,
0x35a3b42f6031cdab,
0xc4c3f63b444a0d42,
0xb667c4ac4aa1b5ba,
0x192a24b435d7a16c,
0xab3b997c17d5b92c,
};

static int backbone_model1_conv1_quant1_threshold[16 * 14] =
{ // torch.Size([16, 14])
-456, -328, -244, -180, -136, -96, -52, -8, 36, 76, 120, 184, 268, 396,
-656, -492, -380, -296, -240, -184, -132, -76, -20, 36, 92, 176, 284, 452,
-360, -200, -96, -16, 36, 92, 144, 196, 252, 304, 356, 436, 544, 704,
-1000, -764, -604, -488, -408, -328, -252, -172, -92, -16, 64, 180, 340, 576,
-636, -480, -376, -296, -244, -192, -136, -84, -32, 20, 72, 152, 256, 412,
-392, -268, -184, -124, -80, -40, 0, 44, 84, 128, 168, 232, 312, 440,
-456, -256, -124, -24, 40, 108, 172, 240, 304, 372, 436, 536, 668, 868,
-424, -252, -136, -48, 12, 68, 128, 184, 244, 300, 360, 448, 564, 736,
-592, -436, -336, -260, -208, -156, -104, -56, -4, 48, 100, 176, 276, 432,
-536, -384, -284, -212, -160, -112, -60, -12, 40, 88, 140, 216, 316, 464,
-448, -288, -180, -100, -48, 4, 60, 112, 164, 216, 272, 352, 456, 616,
-500, -356, -264, -192, -144, -96, -48, 0, 48, 96, 144, 216, 312, 452,
-536, -384, -280, -204, -156, -104, -52, -4, 48, 100, 152, 228, 328, 480,
-524, -300, -152, -40, 36, 108, 184, 256, 332, 408, 480, 592, 744, 964,
-304, -132, -16, 72, 132, 188, 244, 304, 360, 420, 476, 564, 680, 852,
-500, -292, -152, -48, 24, 92, 164, 232, 304, 372, 444, 548, 688, 896,
};

static uint64_t backbone_model1_conv1_conv2_weight[16 * 9] =
{ // torch.Size([16, 3, 3, 1])
0xb, 0x3, 0xb, 0x4, 0xe, 0xb, 0xc, 0xe, 0x5,
0xc, 0x3, 0x2, 0x0, 0xf, 0xa, 0x1, 0xc, 0x4,
0x2, 0x1, 0x2, 0x3, 0x3, 0xa, 0x4, 0xd, 0xf,
0x0, 0xc, 0x1, 0x2, 0xd, 0x2, 0x3, 0xf, 0xd,
0xc, 0x1, 0x4, 0xd, 0x4, 0x6, 0xd, 0xb, 0x2,
0x3, 0x9, 0x3, 0x4, 0x1, 0xb, 0xb, 0x7, 0x0,
0x0, 0x9, 0xb, 0xc, 0x4, 0x1, 0xa, 0x3, 0x7,
0x4, 0x3, 0xc, 0xc, 0x7, 0xb, 0xb, 0x0, 0xb,
0x4, 0x5, 0x5, 0x4, 0xa, 0xb, 0xb, 0xd, 0xd,
0x4, 0x6, 0x4, 0x4, 0xc, 0x1, 0xc, 0xd, 0xc,
0x1, 0x2, 0x3, 0xb, 0x6, 0x4, 0x0, 0xc, 0xd,
0x3, 0x9, 0x2, 0xc, 0x6, 0x6, 0xb, 0x4, 0x1,
0xb, 0x1, 0xb, 0x3, 0xd, 0xf, 0xb, 0xb, 0xa,
0x0, 0x9, 0xa, 0x9, 0x4, 0x7, 0xb, 0x1, 0x4,
0xa, 0xa, 0xb, 0xb, 0x5, 0xa, 0xb, 0x6, 0x4,
0x3, 0x3, 0x3, 0x0, 0xc, 0x3, 0x3, 0xf, 0xc,
};

static int backbone_model1_conv1_relu2_threshold[16 * 7] =
{ // torch.Size([16, 7])
-192, -120, -52, 16, 120, 260, 468,
-232, -140, -48, 44, 184, 368, 644,
-220, -140, -60, 20, 140, 300, 540,
-188, -104, -20, 64, 188, 356, 608,
-96, -48, 4, 52, 128, 232, 384,
-240, -160, -76, 4, 124, 284, 528,
-136, -64, 4, 76, 184, 324, 540,
-156, -88, -24, 44, 144, 280, 480,
52, 76, 96, 120, 152, 196, 264,
-44, -8, 28, 64, 120, 192, 304,
-36, -8, 24, 56, 104, 168, 260,
-252, -176, -104, -28, 84, 236, 460,
-292, -196, -104, -8, 132, 324, 608,
-156, -76, 4, 84, 204, 364, 604,
-108, -60, -12, 36, 112, 208, 356,
-200, -120, -36, 44, 164, 324, 568,
};

static uint64_t backbone_model1_conv2_conv1_weight[64 * 1] =
{ // torch.Size([64, 1, 1, 16])
0x303236a3dcac3d93,
0xccc1cc944a239cec,
0x10f2c1cc4cc43343,
0xab5d44cdcc30dcca,
0x1b9d54ab9eec5abc,
0x0b40a442bbdcde24,
0x251142a45b2111e9,
0x1329035a143b6dbb,
0x56443d42a5314c5b,
0xd0c5c4ad4d4d5cdc,
0x6d9aa2aae223bcbb,
0xa045c4c4c642d554,
0x414b24bcecaa0369,
0x544ace594451252d,
0x30a66543c49c5c53,
0x3254522199edbd13,
0x6d42a23243b3cac9,
0xb42d51355cdc54b4,
0xcb0254d5c3a42eb5,
0x925d4dc302cc1335,
0xd55acac45c412ad9,
0xce445ddd4b40a5d2,
0x444226c4ec43535c,
0xdc9bbd4c6445c3c4,
0xd1a45acc43b4fcc3,
0xccc541d0c4eddb4c,
0xc2499b5c75ab33c0,
0xcc3dc565a99d444d,
0xccd1edba455ac5cd,
0x4025b334012e432e,
0x42503ab4b466a247,
0x64dc50c4da91e542,
0x327c54cbcbb0c334,
0xa9a1b03ca44b23de,
0xbad954db1ec3dbcc,
0x44ec4a53d42dccc2,
0x432d325b3c563945,
0xa2adec9a9b2c32cb,
0xdc5443cc4a4dbbcd,
0x566bbc4145554b5c,
0x20cd405c4303443c,
0xbc0ceb3abbcbaf39,
0x3da5d05235a46d42,
0x41c4cc3dc355f3c3,
0x65e3c3421ac44954,
0x442c2034c33bf2bb,
0x246d2e2c241cc9b4,
0xdcb343dc44ecdeb5,
0xddbaca4c66d33333,
0xc605d4bcd44cccc4,
0x3a556ce04b1c43b2,
0x33999eb463bbc3e4,
0x404e54043cd23643,
0xdec333cb3c54bbd4,
0xee44b54c54005e34,
0xab3b333cbbdd132e,
0xb130332532c46d55,
0x9337ccccb61c1c33,
0xabcdd365cc652c24,
0x65425c5526dbd454,
0x35b3b9454542d543,
0x49e62bd545334b44,
0x934dcd534d2e359d,
0x13d35bc43de15c24,
};

static int backbone_model1_conv2_quant1_threshold[64 * 14] =
{ // torch.Size([64, 14])
-596, -412, -292, -200, -140, -80, -20, 40, 100, 164, 224, 312, 436, 616,
-860, -672, -548, -456, -392, -332, -268, -208, -144, -84, -20, 72, 196, 384,
-1084, -804, -616, -476, -380, -288, -196, -100, -8, 84, 180, 320, 508, 788,
-620, -468, -364, -288, -236, -188, -136, -84, -36, 16, 68, 144, 244, 396,
-884, -684, -548, -448, -380, -312, -244, -176, -108, -40, 24, 128, 264, 464,
-688, -532, -424, -348, -296, -244, -192, -140, -84, -32, 20, 96, 200, 360,
-508, -344, -232, -152, -96, -44, 12, 68, 120, 176, 232, 312, 420, 584,
-528, -348, -232, -140, -80, -20, 40, 100, 160, 220, 280, 368, 488, 668,
-488, -276, -132, -24, 48, 116, 188, 260, 332, 404, 476, 584, 724, 940,
-980, -732, -568, -444, -360, -280, -196, -116, -32, 52, 132, 256, 420, 668,
-788, -572, -428, -320, -248, -176, -104, -32, 40, 112, 184, 292, 436, 656,
-440, -252, -128, -32, 28, 92, 156, 216, 280, 344, 404, 500, 624, 812,
-652, -444, -304, -200, -132, -60, 8, 76, 148, 216, 284, 388, 528, 736,
-1036, -744, -552, -404, -308, -212, -116, -16, 80, 176, 272, 420, 612, 904,
-328, -148, -28, 64, 124, 184, 244, 304, 364, 424, 484, 572, 692, 872,
-680, -496, -376, -284, -220, -160, -100, -40, 20, 84, 144, 236, 356, 540,
-480, -320, -212, -132, -80, -28, 28, 80, 132, 184, 240, 320, 424, 584,
-552, -380, -264, -176, -120, -60, -4, 56, 112, 172, 228, 316, 432, 604,
-588, -412, -296, -208, -152, -92, -32, 24, 84, 140, 200, 284, 404, 576,
-476, -324, -224, -148, -100, -48, 0, 52, 104, 152, 204, 280, 380, 528,
-712, -512, -376, -276, -208, -144, -76, -8, 60, 124, 192, 292, 428, 628,
-660, -456, -324, -224, -156, -88, -20, 48, 112, 180, 248, 348, 484, 684,
-640, -396, -236, -116, -32, 48, 128, 208, 292, 372, 452, 572, 736, 976,
-800, -556, -396, -272, -192, -112, -32, 48, 132, 212, 292, 412, 576, 820,
-796, -572, -420, -312, -236, -160, -88, -12, 60, 136, 212, 324, 472, 696,
-844, -632, -496, -392, -320, -252, -180, -112, -44, 28, 96, 200, 340, 548,
-544, -352, -224, -128, -64, 0, 64, 128, 192, 256, 320, 416, 544, 736,
-608, -436, -324, -236, -180, -124, -64, -8, 48, 108, 164, 248, 364, 536,
-780, -580, -448, -348, -284, -216, -152, -84, -20, 48, 112, 212, 344, 540,
-772, -568, -432, -332, -264, -196, -128, -60, 8, 76, 144, 248, 384, 588,
-284, -88, 40, 140, 204, 268, 332, 396, 464, 528, 592, 688, 820, 1012,
-544, -340, -200, -96, -28, 40, 112, 180, 248, 316, 384, 488, 628, 836,
-564, -356, -216, -112, -44, 28, 96, 168, 236, 308, 376, 480, 620, 828,
-644, -484, -376, -296, -244, -192, -136, -84, -32, 24, 76, 156, 264, 424,
-740, -556, -436, -344, -280, -220, -160, -96, -36, 24, 88, 180, 300, 484,
-704, -520, -396, -304, -244, -184, -120, -60, 0, 64, 124, 216, 340, 524,
-436, -236, -100, 0, 68, 136, 204, 272, 340, 408, 472, 576, 712, 912,
-636, -508, -420, -356, -312, -272, -228, -184, -140, -96, -56, 12, 96, 228,
-660, -484, -368, -284, -224, -168, -112, -52, 4, 64, 120, 208, 324, 496,
-516, -268, -104, 20, 104, 184, 268, 348, 432, 512, 596, 720, 884, 1128,
-416, -272, -180, -108, -60, -12, 36, 80, 128, 176, 224, 296, 388, 532,
-996, -804, -676, -580, -516, -452, -388, -324, -260, -196, -132, -32, 96, 288,
-756, -496, -328, -196, -112, -28, 60, 144, 232, 316, 400, 532, 700, 960,
-732, -504, -352, -240, -164, -88, -12, 64, 140, 216, 292, 408, 560, 788,
-508, -308, -172, -72, -4, 64, 132, 196, 264, 332, 400, 500, 636, 836,
-1152, -848, -644, -492, -388, -284, -184, -80, 20, 124, 224, 376, 584, 888,
-676, -484, -360, -264, -200, -136, -72, -12, 52, 116, 180, 276, 400, 592,
-888, -680, -544, -440, -372, -300, -232, -164, -96, -24, 44, 148, 284, 492,
-980, -668, -464, -308, -204, -104, 0, 104, 208, 308, 412, 568, 772, 1084,
-712, -496, -352, -244, -168, -96, -24, 48, 120, 192, 264, 376, 520, 736,
-640, -416, -268, -156, -80, -4, 68, 144, 220, 292, 368, 480, 628, 852,
-904, -660, -496, -376, -292, -212, -132, -48, 32, 112, 196, 316, 480, 724,
-520, -336, -212, -120, -60, 0, 64, 124, 188, 248, 308, 400, 524, 708,
-968, -732, -572, -452, -372, -292, -212, -132, -52, 28, 108, 228, 388, 628,
-896, -628, -448, -316, -224, -136, -44, 44, 132, 224, 312, 448, 628, 896,
-684, -532, -432, -360, -308, -260, -208, -160, -108, -60, -8, 68, 168, 316,
-584, -384, -252, -152, -88, -20, 44, 108, 176, 240, 308, 408, 540, 736,
-668, -408, -240, -108, -24, 64, 148, 232, 320, 404, 492, 620, 792, 1048,
-768, -520, -352, -228, -144, -60, 24, 104, 188, 272, 356, 480, 648, 896,
-452, -240, -96, 12, 80, 152, 224, 296, 364, 436, 508, 612, 756, 968,
-308, -148, -44, 36, 88, 140, 192, 244, 296, 348, 404, 480, 588, 744,
-424, -240, -116, -28, 36, 96, 156, 216, 280, 340, 400, 492, 616, 796,
-736, -544, -416, -320, -256, -192, -128, -64, 0, 64, 128, 224, 352, 544,
-608, -436, -320, -236, -180, -120, -64, -8, 52, 108, 164, 252, 364, 536,
};

static uint64_t backbone_model1_conv2_conv2_weight[64 * 9] =
{ // torch.Size([64, 3, 3, 1])
0xc, 0xa, 0x4, 0xd, 0xd, 0x6, 0xc, 0x4, 0x4,
0x6, 0x5, 0x5, 0x5, 0xb, 0x9, 0xd, 0xd, 0xd,
0x4, 0xd, 0x9, 0x4, 0xd, 0x2, 0x9, 0xe, 0x3,
0x5, 0xb, 0xd, 0x6, 0xb, 0xd, 0x5, 0x1, 0xa,
0xd, 0x4, 0x4, 0x9, 0xe, 0x5, 0x4, 0x0, 0xd,
0x5, 0x6, 0x5, 0xd, 0xe, 0xd, 0x4, 0x4, 0x3,
0xd, 0xb, 0x5, 0xe, 0x2, 0x5, 0xd, 0x3, 0x5,
0xc, 0x0, 0xd, 0xc, 0x3, 0x5, 0xb, 0x5, 0x6,
0x4, 0x2, 0xc, 0x5, 0x6, 0xc, 0xc, 0xb, 0xc,
0x3, 0xc, 0xb, 0x1, 0xc, 0xa, 0xd, 0xd, 0xc,
0xd, 0xe, 0xe, 0xc, 0xd, 0xc, 0x5, 0x6, 0x5,
0xd, 0xc, 0xa, 0xb, 0xe, 0x4, 0x1, 0xd, 0xa,
0x0, 0x5, 0x6, 0x9, 0xc, 0x5, 0xd, 0xe, 0xd,
0xc, 0xe, 0x1, 0xc, 0x3, 0xc, 0xa, 0x5, 0x2,
0x3, 0x4, 0x2, 0x2, 0x4, 0x3, 0xc, 0xf, 0x9,
0xa, 0xa, 0x1, 0xa, 0xc, 0xe, 0x2, 0x5, 0x5,
0x5, 0x6, 0x5, 0x1, 0x3, 0x2, 0xd, 0xd, 0xc,
0x3, 0x2, 0x3, 0x9, 0xb, 0xd, 0x4, 0xd, 0xe,
0x9, 0xa, 0x3, 0xb, 0xa, 0x5, 0x4, 0x7, 0xc,
0xd, 0xc, 0x3, 0xd, 0x5, 0xb, 0x2, 0x6, 0xd,
0x5, 0x6, 0x3, 0x4, 0x5, 0x1, 0xd, 0xc, 0xd,
0x4, 0xc, 0x5, 0x4, 0x6, 0x3, 0xc, 0x3, 0xd,
0x3, 0x3, 0x9, 0xa, 0x5, 0xc, 0x9, 0x6, 0x9,
0xb, 0x4, 0x6, 0xd, 0x4, 0x6, 0xe, 0xd, 0x9,
0xa, 0x5, 0x4, 0x9, 0x7, 0x4, 0x3, 0xc, 0xd,
0x3, 0xb, 0xa, 0x4, 0x6, 0x5, 0xc, 0xb, 0x5,
0xe, 0xd, 0xc, 0xd, 0xd, 0xc, 0xb, 0x6, 0x6,
0xb, 0xc, 0x1, 0xc, 0xc, 0x5, 0x5, 0x6, 0xa,
0xc, 0x2, 0x0, 0xc, 0xc, 0x5, 0xa, 0x5, 0x6,
0xc, 0xd, 0x2, 0xc, 0xe, 0x4, 0xa, 0xc, 0x4,
0x3, 0xa, 0xc, 0x9, 0xc, 0xf, 0xb, 0x3, 0xc,
0xd, 0xc, 0x6, 0xd, 0xc, 0x5, 0xd, 0xc, 0x5,
0xa, 0xb, 0x3, 0xc, 0xb, 0x3, 0xe, 0xe, 0x4,
0xb, 0xb, 0x5, 0xd, 0x6, 0x1, 0xb, 0x5, 0xd,
0xa, 0xc, 0xb, 0x1, 0x4, 0xc, 0x4, 0x7, 0x5,
0xd, 0xc, 0xc, 0xd, 0xb, 0x4, 0xb, 0x5, 0x5,
0xd, 0x2, 0x4, 0xd, 0xd, 0x5, 0x4, 0xd, 0xb,
0xd, 0xc, 0x2, 0x6, 0x6, 0x3, 0xc, 0xd, 0x0,
0x4, 0xc, 0x4, 0x3, 0x5, 0x5, 0xd, 0xc, 0x5,
0x5, 0x6, 0x1, 0x3, 0xc, 0x5, 0xd, 0xe, 0xb,
0xd, 0xc, 0xd, 0x4, 0x2, 0xa, 0x5, 0x4, 0x3,
0xa, 0xd, 0x2, 0x5, 0x6, 0x2, 0xc, 0xc, 0xb,
0xd, 0xd, 0xc, 0x4, 0xc, 0xc, 0x6, 0x5, 0x0,
0x4, 0xb, 0xd, 0x5, 0x5, 0xd, 0x5, 0x6, 0xd,
0x4, 0x5, 0x3, 0x2, 0x2, 0xc, 0xc, 0xe, 0xd,
0x4, 0xe, 0xe, 0x3, 0xc, 0xb, 0x4, 0x3, 0xd,
0xb, 0xc, 0xb, 0xd, 0xd, 0xa, 0x9, 0xd, 0x4,
0xa, 0x4, 0xb, 0xa, 0xc, 0xb, 0x5, 0x7, 0x4,
0xb, 0x5, 0x5, 0x3, 0x4, 0x3, 0x3, 0x4, 0x5,
0x3, 0x9, 0xc, 0x4, 0x9, 0xd, 0x4, 0xd, 0xe,
0xc, 0xd, 0xb, 0xd, 0xd, 0xc, 0x5, 0x5, 0x0,
0x4, 0x3, 0xd, 0x5, 0xc, 0xd, 0x6, 0xa, 0xd,
0x4, 0xa, 0xc, 0x4, 0xc, 0xc, 0xd, 0xe, 0x4,
0xd, 0xa, 0x4, 0xc, 0x6, 0x5, 0xe, 0x6, 0x6,
0x3, 0x4, 0xa, 0xa, 0x6, 0x3, 0x9, 0x5, 0x3,
0x4, 0x4, 0xc, 0xb, 0x6, 0xe, 0x3, 0x5, 0xd,
0x4, 0xc, 0xe, 0x3, 0xb, 0xe, 0x4, 0x5, 0xc,
0x4, 0xa, 0x3, 0xd, 0x4, 0x5, 0xf, 0xd, 0x5,
0x4, 0x3, 0x1, 0x4, 0x4, 0xb, 0xc, 0x5, 0x6,
0xc, 0x3, 0xc, 0x2, 0xc, 0xc, 0x2, 0xe, 0x1,
0xd, 0xe, 0xc, 0x9, 0x4, 0x4, 0x2, 0x5, 0x5,
0xb, 0xc, 0xb, 0x4, 0xc, 0xc, 0x4, 0x6, 0x4,
0x3, 0x6, 0x4, 0x6, 0x9, 0xc, 0x3, 0xd, 0xa,
0xb, 0xa, 0x9, 0x6, 0x6, 0xd, 0x9, 0xb, 0x3,
};

static int backbone_model1_conv2_relu2_threshold[64 * 7] =
{ // torch.Size([64, 7])
12, 40, 72, 104, 152, 212, 308,
36, 80, 124, 168, 236, 328, 460,
-36, 8, 52, 96, 160, 244, 372,
24, 64, 104, 144, 204, 284, 404,
16, 48, 80, 112, 160, 224, 320,
28, 84, 136, 192, 276, 384, 548,
44, 72, 96, 124, 160, 216, 292,
4, 52, 100, 148, 220, 316, 460,
20, 60, 100, 140, 200, 280, 400,
4, 36, 68, 100, 148, 216, 312,
12, 84, 156, 228, 332, 476, 688,
-24, 24, 76, 124, 196, 296, 444,
32, 72, 116, 156, 216, 296, 420,
-72, -44, -16, 12, 52, 108, 192,
-44, 20, 80, 144, 236, 356, 540,
-20, 16, 56, 92, 148, 224, 340,
72, 108, 144, 184, 240, 316, 428,
-36, 16, 68, 120, 196, 300, 456,
4, 60, 120, 176, 264, 376, 552,
44, 80, 112, 144, 196, 264, 364,
60, 96, 128, 164, 212, 280, 384,
-48, 0, 52, 100, 176, 276, 424,
-20, 20, 60, 100, 164, 244, 364,
44, 100, 160, 216, 300, 416, 588,
-128, -52, 20, 92, 200, 348, 564,
-4, 32, 68, 108, 160, 236, 344,
-80, -4, 72, 152, 264, 420, 648,
52, 96, 140, 184, 252, 340, 472,
4, 60, 116, 172, 256, 368, 536,
-8, 32, 72, 116, 180, 260, 388,
-72, 0, 72, 144, 252, 396, 612,
8, 52, 96, 136, 200, 288, 416,
-80, -20, 44, 104, 200, 324, 512,
8, 48, 88, 128, 188, 268, 384,
-20, 48, 112, 176, 276, 404, 600,
0, 44, 88, 136, 200, 288, 424,
24, 60, 96, 132, 184, 252, 360,
40, 92, 144, 192, 268, 368, 520,
12, 52, 88, 128, 184, 256, 372,
60, 92, 124, 152, 200, 260, 356,
28, 56, 88, 120, 164, 228, 316,
24, 56, 92, 128, 180, 252, 360,
24, 52, 84, 116, 164, 224, 320,
-12, 32, 80, 124, 192, 284, 420,
-8, 40, 88, 136, 208, 300, 444,
40, 92, 148, 200, 280, 384, 544,
0, 36, 72, 108, 160, 232, 340,
-68, 8, 88, 164, 276, 428, 656,
44, 88, 128, 172, 236, 320, 448,
-48, 12, 68, 124, 212, 324, 496,
60, 100, 140, 180, 244, 324, 444,
40, 64, 92, 116, 156, 208, 284,
-84, -24, 32, 92, 184, 300, 480,
128, 188, 244, 304, 388, 504, 680,
28, 72, 116, 160, 224, 312, 440,
36, 84, 136, 184, 260, 356, 504,
-40, 4, 48, 96, 164, 252, 388,
-48, 12, 76, 140, 236, 364, 552,
-12, 20, 52, 84, 136, 200, 300,
-28, 20, 64, 112, 180, 272, 412,
40, 84, 124, 168, 232, 316, 444,
8, 40, 76, 112, 164, 236, 344,
32, 76, 116, 156, 220, 304, 428,
8, 44, 84, 120, 180, 256, 368,
};

static uint64_t backbone_model2_conv1_conv1_weight[64 * 1*4] =
{ // torch.Size([64, 1, 1, 64])
0x4b43451bd2dcc53c,0x3330da55545143d4,0xbbdba94eec1ce5b5,0xa545bccbbd4cedbb,
0x4a54dcb094dd34ad,0x35cbca2a5dc4c5cd,0x3d1c453c35d46454,0x6ce22d56aab4c59c,
0xbc505c5dbd2ca444,0xedc22311344b4cc3,0xcdd5c9c5b40292c4,0xc5dac913c9b3dbac,
0x5552c4b5c402a94d,0x620db5459cc425cc,0x2441446451cb5634,0x5b5331559c433a54,
0xb5c341432ab2c3d3,0xc5491bcd9b44444b,0xdb9b4e1c053c4c5d,0x4caf54cccdd4045b,
0xdc45442245daaedd,0xbc0ddbacda2d434c,0x6c5dcecedb53444c,0x4c5dc44e4ac4c535,
0x42bd5cbad443c466,0xb25cc45c4a4e0c05,0xb43543aa4c949cc4,0xdbbc4455bc43bc4d,
0x4c5beb493e9d2ccd,0xb0bd42211bbcdcb5,0xc02c454ac6e43494,0xc0dcbc544b2ac2b3,
0xddead1a66c4c4442,0xccc5acdcdcaccc6e,0x4a5c4cd94a1d6cbc,0xc5cbb9c0c4c60693,
0xb455d35ccd1d4c54,0xcdbe29a4eb4c0db4,0x2b540d1c63463c44,0x05cd265415533c59,
0x4533aa4b215d4d51,0xdb5dbb3ac44c5abe,0x3b2c14dd1a44c9c2,0xd53351ba644d232a,
0x6545cd4edd1bb595,0xb0c9cca53b549cb4,0xc5d5335512bbb140,0x4555d4ccdc5cbe5d,
0x54bb3ca6bb4edc54,0xe4c5ecc443c34d23,0x44b45c90c434c9a4,0xc53c93b4c2bcddb5,
0xc455c549b54c55c2,0xcdb45cbc53949d1c,0x45b4b55c3d4cbc21,0x1465d43b33344c3c,
0xd3dc4eddd4531c29,0xdc543d6bc4cbc439,0xb444d3cdccccde90,0xd450ccc4cccd5dcd,
0xdb214b533445bc3b,0x5c3a42ccac43a255,0xbbddaccd4cc2d5c9,0x4d5b0949db252994,
0xc30b1cc465522c5c,0x5ab4534dd9144a4e,0x2c5d45d50cbb55da,0xcb3c4a33b52246c2,
0xcc935dd4c4ca1444,0xcbb4b95a345bbabc,0x5c11dac34ce4b2ba,0x3901b334d9bbab4d,
0xa43a4cce5bcc435c,0x4a509b5dc3534b9c,0x3bccc4de400424c3,0x53d2b5ddd550cc24,
0xccbc4bd3d4339c54,0xdc465b4a351b4b1a,0x44bbddbcdd4ccedb,0xd51b34ba242b3dbb,
0x5c03b53dddd4c9a4,0x243d9c5b334434b6,0xddd14c2d54c3b144,0x3cba54c44b520d41,
0xa13c45a4eccad46a,0xc54b144b6c4c44d5,0x5ac44d3b4345dc25,0x15d3c6b3c30a4d1b,
0xacd99de594b3c344,0xb1d3d402dd4c054c,0x544cdade1bdbcdbc,0x1e50acb45b1c95bb,
0x43c3441b5393d4db,0xc595bbc05a14d535,0xdedc44db393bac31,0x9b49540c3c0cc902,
0x5045b53bd90c24bc,0x45d4e6ac4d4cda44,0xd4d5665c2bdc45bb,0x5254230a2d542c5c,
0xb3c5c55cc34d6535,0x44c49cc5bcc2c54b,0x35434453da4d443a,0xc5541eb3dc42ca55,
0x544cd429bcdc4c4c,0xb1d3bb019d4d349d,0xddd253b4d5e435b4,0xadde62243bb3c595,
0x4cca0b4444d404cc,0x49d3c4c34ab2db95,0x43ed4c4cddc23322,0x1d2442b4ccb4c533,
0x552c544bb4ce332a,0xa43cccaddd3c4b43,0xbcc353edc1cb14cc,0x44c95bcd5b4db490,
0xdebdc5c55526ccb1,0x413d4b5b33c4bbc4,0x9adc9d453442d5b4,0x0cdbbad25db3c4c0,
0x4c52db433dcb4c4d,0x4cd5b6d3cc324b34,0x39a5b6ad49d555c4,0x4636c54c15443b32,
0xbdbccdc50d02cd65,0x4a5335cbcbd9bdb3,0xc54accd6d254bbdb,0xd9dd514c14cdd3b2,
0x5c43a3935a4b2c41,0xd353424aa3c4ddc9,0x3ba54995b4bcc4da,0xd44c3c34c9ca4c13,
0x03d30959cc1d3c5a,0xc455aadbc4cccd95,0x35ac3123c409abc3,0xe54d425544444a05,
0x3453d3cb1c44443d,0xd3bcd43b4d24233d,0x5c5a445d35eabc52,0x4c2bd4b5c4ba41c1,
0x4441dd15b433bb23,0xbcd9d554c5a4cdb9,0x46d22a54cb1cddbd,0xca24cdd5bb5c9cb4,
0x533c4d433434dcc5,0x4511bb45b30b3524,0xc50cb115d35329bd,0x3d5d4bab4c9e2c3d,
0x26ccda64415db134,0xb4d5b4a2c54d956c,0xb43cb4bdbcc9b253,0xad4b439dd4bca434,
0x442bc2613dccc21b,0xcdb3c6c4459a3cb9,0x16da3ba5d5434ba1,0xe634cb3bda44d245,
0xc53c45b3c034dd9c,0x4c4b6b0bdc34c424,0xc0cdbcce49c1cd3c,0x5dda22cc55ca5bb4,
0xaebb21db3d404d5d,0x4ddc4949c9d5dacd,0x5c3d30d0433144d4,0x94d49bc354cab543,
0x0b51c4cccae5dd6d,0xa450c1432cad4cc2,0xd1dc324dd35ecb56,0xbd0cdccd3e2bc5da,
0xcc454d4b0ca54d34,0x4c2452c354d455c4,0xbc95ea05a51cc35c,0xc543cd34ebd53bc9,
0x5b559d3dd3d54cdc,0x5cadb549e4b42ae5,0x2bd2d04b4d34c495,0x04d414ba5b23dc45,
0x4c5bd452dbb35492,0x04d351bc42d6bcd2,0x53d5dc6453cbbd5a,0x53464042c115bb05,
0x55b4bc5b4c2e3bcb,0x3dd3dcd455d29dbc,0xb5534ac5db53a4a9,0xdc3c313c5bdd3494,
0x35b4435edd5d3d4a,0x3403dd9dcdcd535d,0x2c5b45dddc3544d0,0xc04c5a2d44ce4ba1,
0x41195a3ddcc0d5a2,0xabc1c455cc5ebb46,0xd5eb39bcab0bb2d0,0xb45a022c5c5ddd5c,
0xa5bb3dcd25b5b0c4,0x5559cc523423d53b,0xcbed34add4c445d3,0x1cac42c56c4c152b,
0x430456560cac413c,0xd6bb15d36dc544c4,0x4d25533535d51144,0x04c413453ac39bbc,
0xe4b4552d9354cccc,0x454ac5beddcdb4cd,0xdd51c3c5c94cb41b,0xa49caceddc2c3ecc,
0x4cc11cc6cccc64c4,0xcb3d4145a0445b45,0x60adde3c2cb54d1c,0xd14b5664cb4bac55,
0xc403bd60c333b9c0,0xd3205cbac94dbd91,0xd51ba5529193a1a2,0xc351d3a01cb544a0,
0xbdcb5ddce6c4dda5,0x496ddd6bd34d3cdc,0x2ce3d4dddc44da1c,0xccd92cdc5bbcdddd,
0xbdc15dcd3ab3c554,0xccd2d454c2ad4c32,0xad35dc35dc4c1cdc,0xa53c3cc3dd5cdd2d,
0xb922bb53c4a3932c,0x2dc932bbb329bdc4,0xc6523042d2b42142,0x4345dab2c3a23442,
0x2434d4bdd31c0d4d,0x554c455c434b34d9,0xccbc4414d434d5d5,0xdb5464cc4b2d2c31,
0x3335514d149dd69a,0xc45d1d554b74c533,0x03a54b5d1ddba104,0x4559cb4bd264cdcc,
0xb49295a534344cb2,0x54332c4cbd55c952,0x366d3b3b2cdc434a,0x5d9b4c2c54cd5414,
0x4c22d4c54dad5d5d,0x435b54cbd5d45cb3,0x4a3bdcb34544a443,0x9cccc9b1e5e434d4,
0x5565d351cdcbbc4c,0x555d5ac95baa3635,0xda4b59b5b5d54526,0x4c4c5543ccb4bb64,
0x5a34ed4c9eda3bdb,0xcbcd2a93bd242b2c,0xd39c4b43c6d444c1,0xc992b045353ac659,
0x5e253cdac4d4dc54,0x5b4bd3543db163dc,0x2db4dac15c5ab5ac,0xaa5cccc4cdc4cdae,
0x5ccacad4b9bec4cb,0x3bc53cc2b42b3dd3,0x9640c1d13423554b,0x54bcd2bc44abc4ab,
};

static int backbone_model2_conv1_quant1_threshold[64 * 14] =
{ // torch.Size([64, 14])
-976, -720, -552, -424, -336, -252, -168, -80, 4, 92, 176, 304, 476, 732,
-1180, -860, -648, -488, -380, -276, -168, -64, 44, 152, 256, 416, 628, 948,
-852, -628, -480, -368, -292, -216, -140, -64, 8, 84, 160, 272, 420, 648,
-628, -364, -188, -56, 32, 120, 208, 292, 380, 468, 556, 688, 864, 1128,
-944, -676, -496, -364, -272, -184, -96, -4, 84, 176, 264, 396, 576, 844,
-896, -668, -516, -404, -328, -252, -176, -100, -24, 52, 128, 244, 396, 624,
-1004, -704, -504, -356, -256, -156, -56, 44, 144, 244, 344, 496, 696, 992,
-1000, -716, -524, -384, -288, -192, -96, -4, 92, 188, 284, 424, 616, 900,
-1196, -868, -648, -484, -372, -264, -156, -44, 64, 176, 284, 448, 668, 996,
-848, -600, -432, -308, -224, -144, -60, 24, 108, 188, 272, 396, 564, 812,
-1020, -752, -572, -436, -344, -256, -164, -76, 16, 104, 196, 332, 512, 784,
-840, -580, -404, -272, -184, -100, -12, 76, 164, 252, 340, 468, 644, 908,
-916, -644, -468, -332, -240, -152, -60, 28, 120, 208, 300, 432, 612, 884,
-528, -344, -224, -132, -68, -8, 52, 116, 176, 236, 300, 392, 516, 700,
-1052, -788, -612, -480, -392, -304, -216, -128, -40, 52, 140, 272, 448, 712,
-568, -388, -268, -180, -120, -56, 4, 64, 124, 184, 244, 332, 452, 632,
-780, -508, -328, -192, -100, -12, 80, 172, 260, 352, 444, 580, 760, 1032,
-752, -556, -424, -324, -260, -192, -128, -60, 4, 68, 136, 232, 364, 564,
-964, -708, -536, -408, -320, -236, -152, -64, 20, 108, 192, 320, 492, 752,
-1116, -812, -604, -452, -352, -248, -148, -44, 56, 160, 264, 416, 620, 924,
-756, -524, -372, -256, -180, -104, -28, 48, 124, 200, 280, 392, 548, 776,
-940, -624, -412, -252, -144, -40, 68, 172, 280, 384, 492, 648, 860, 1180,
-1004, -768, -612, -496, -416, -336, -260, -180, -104, -24, 56, 172, 328, 564,
-768, -536, -380, -264, -188, -112, -32, 44, 120, 200, 276, 392, 548, 776,
-788, -492, -292, -144, -44, 56, 156, 256, 356, 452, 552, 704, 900, 1200,
-776, -508, -332, -196, -108, -16, 72, 160, 252, 340, 428, 564, 740, 1008,
-880, -620, -444, -316, -228, -140, -52, 36, 120, 208, 296, 428, 600, 864,
-796, -576, -432, -320, -248, -176, -104, -28, 44, 116, 192, 300, 448, 664,
-960, -700, -532, -400, -316, -232, -144, -60, 28, 112, 196, 328, 496, 756,
-808, -564, -404, -284, -200, -120, -40, 40, 120, 204, 284, 404, 564, 808,
-804, -516, -320, -176, -80, 16, 116, 212, 308, 404, 504, 648, 840, 1132,
-944, -664, -480, -340, -248, -156, -60, 32, 124, 216, 312, 448, 636, 916,
-548, -380, -268, -184, -128, -68, -12, 44, 100, 156, 212, 296, 408, 576,
-764, -520, -360, -236, -156, -76, 8, 88, 168, 248, 332, 452, 616, 856,
-924, -660, -484, -352, -264, -176, -88, 0, 88, 176, 264, 396, 572, 832,
-884, -612, -432, -296, -204, -112, -20, 68, 160, 252, 340, 476, 660, 932,
-860, -576, -388, -244, -152, -56, 36, 132, 224, 320, 416, 556, 744, 1028,
-680, -452, -304, -192, -116, -40, 32, 108, 184, 256, 332, 444, 596, 820,
-808, -536, -352, -216, -124, -36, 56, 148, 240, 328, 420, 556, 740, 1012,
-824, -592, -436, -320, -244, -164, -88, -12, 68, 144, 224, 340, 496, 728,
-864, -636, -484, -372, -296, -220, -144, -68, 8, 84, 160, 272, 424, 652,
-948, -692, -520, -392, -304, -220, -136, -48, 36, 124, 208, 336, 508, 764,
-692, -440, -276, -152, -68, 16, 100, 184, 268, 348, 432, 560, 724, 976,
-1000, -712, -520, -376, -280, -184, -88, 8, 104, 200, 296, 440, 632, 916,
-956, -608, -376, -204, -88, 28, 144, 260, 376, 492, 608, 780, 1012, 1360,
-820, -588, -432, -316, -240, -160, -84, -4, 72, 148, 228, 344, 500, 732,
-976, -716, -544, -412, -324, -240, -152, -64, 24, 108, 196, 328, 500, 760,
-952, -692, -520, -388, -304, -216, -128, -44, 44, 132, 216, 348, 520, 780,
-948, -664, -472, -328, -232, -136, -44, 52, 148, 244, 340, 484, 672, 960,
-692, -420, -236, -100, -8, 80, 172, 264, 356, 448, 536, 672, 856, 1128,
-1032, -728, -528, -376, -276, -172, -72, 28, 132, 232, 332, 484, 688, 992,
-880, -608, -424, -288, -196, -108, -16, 76, 168, 256, 348, 484, 668, 940,
-676, -456, -312, -200, -128, -52, 20, 92, 168, 240, 312, 424, 568, 788,
-1424, -1080, -852, -684, -568, -456, -340, -228, -112, 0, 116, 284, 512, 856,
-860, -636, -488, -376, -300, -224, -152, -76, -4, 72, 148, 260, 408, 632,
-444, -280, -168, -88, -32, 24, 80, 132, 188, 244, 296, 380, 492, 656,
-732, -496, -340, -220, -140, -64, 16, 96, 176, 252, 332, 452, 608, 844,
-864, -592, -412, -272, -184, -92, 0, 88, 180, 272, 360, 496, 680, 952,
-572, -356, -212, -104, -32, 40, 112, 184, 256, 328, 400, 508, 652, 872,
-844, -600, -440, -316, -236, -156, -72, 8, 88, 168, 252, 372, 536, 780,
-580, -324, -156, -28, 56, 140, 224, 312, 396, 480, 564, 692, 860, 1116,
-1016, -724, -532, -384, -288, -192, -96, 4, 100, 196, 292, 440, 632, 924,
-960, -684, -504, -368, -276, -184, -92, 0, 92, 180, 272, 408, 592, 868,
-616, -432, -312, -220, -160, -100, -40, 20, 80, 140, 200, 292, 412, 596,
};

static uint64_t backbone_model2_conv1_conv2_weight[64 * 9] =
{ // torch.Size([64, 3, 3, 1])
0x5, 0xb, 0xc, 0x6, 0x3, 0x1, 0x6, 0x5, 0xb,
0xc, 0x4, 0xc, 0xd, 0xe, 0x4, 0x4, 0xe, 0x5,
0xd, 0xd, 0xd, 0x4, 0x4, 0x5, 0x4, 0x4, 0x5,
0x3, 0xa, 0xb, 0xb, 0xe, 0xd, 0x4, 0xd, 0x1,
0x3, 0x3, 0x4, 0x4, 0x5, 0x5, 0x4, 0x6, 0x4,
0x9, 0x9, 0x1, 0x4, 0xd, 0x3, 0x2, 0x4, 0x7,
0x5, 0xc, 0xd, 0x5, 0xc, 0xd, 0x5, 0xd, 0xd,
0x5, 0x0, 0xd, 0x5, 0x4, 0xe, 0x6, 0x4, 0xd,
0x1, 0xc, 0xb, 0x4, 0xe, 0xf, 0x3, 0x3, 0x2,
0xb, 0x1, 0x2, 0x4, 0xa, 0xd, 0xd, 0xc, 0xf,
0x3, 0xe, 0xd, 0x4, 0xd, 0xd, 0x6, 0x5, 0xb,
0xc, 0x5, 0x6, 0xe, 0x4, 0x3, 0xd, 0xb, 0xc,
0x3, 0x1, 0x4, 0x3, 0x5, 0x9, 0x6, 0x4, 0xd,
0xc, 0x5, 0x0, 0xd, 0x4, 0x6, 0xc, 0xe, 0x5,
0xa, 0x4, 0xd, 0x3, 0x7, 0x3, 0xd, 0x3, 0xd,
0xd, 0x3, 0x1, 0x5, 0x6, 0xd, 0x5, 0xe, 0x0,
0xe, 0xd, 0xc, 0xd, 0xd, 0x1, 0x5, 0x5, 0x5,
0xc, 0x4, 0x5, 0xc, 0xd, 0xd, 0x2, 0x5, 0x6,
0xc, 0xc, 0xc, 0xd, 0xd, 0xe, 0x2, 0x9, 0xa,
0xd, 0x5, 0x5, 0xd, 0x4, 0x5, 0xd, 0xd, 0x2,
0x3, 0xb, 0x6, 0x2, 0xc, 0x5, 0xe, 0xe, 0xa,
0x1, 0x4, 0x4, 0xa, 0x5, 0x3, 0x5, 0x5, 0xa,
0xc, 0xe, 0xa, 0x3, 0x6, 0x6, 0xc, 0xc, 0x3,
0x5, 0xc, 0xd, 0x6, 0xc, 0xc, 0x5, 0x2, 0xd,
0xd, 0xe, 0xe, 0xc, 0xa, 0x4, 0x5, 0x5, 0x5,
0x3, 0xc, 0xa, 0x9, 0x9, 0xc, 0xb, 0x0, 0xe,
0x3, 0x6, 0x4, 0x5, 0xc, 0xd, 0x5, 0xe, 0xc,
0x4, 0x5, 0xd, 0xb, 0x5, 0xd, 0x3, 0x0, 0xe,
0x4, 0x5, 0x6, 0x1, 0x0, 0x1, 0xd, 0xe, 0xc,
0x5, 0x5, 0x2, 0x2, 0xd, 0xd, 0xe, 0xd, 0x3,
0x4, 0x5, 0x4, 0x5, 0x5, 0x0, 0x3, 0x5, 0xb,
0x4, 0x6, 0x5, 0xd, 0xc, 0x4, 0xd, 0xe, 0xc,
0xc, 0xd, 0xd, 0x6, 0x2, 0x5, 0x0, 0xd, 0x0,
0x3, 0x4, 0x0, 0xe, 0x1, 0x5, 0x2, 0xe, 0xd,
0xe, 0xd, 0x5, 0xe, 0xc, 0x6, 0xc, 0x4, 0x5,
0x5, 0xb, 0xd, 0x6, 0x5, 0xd, 0xb, 0x5, 0xb,
0xb, 0xd, 0xd, 0x5, 0x2, 0xe, 0x6, 0xa, 0xc,
0x9, 0x3, 0x3, 0xd, 0xc, 0x5, 0xd, 0x6, 0x6,
0xd, 0x5, 0x5, 0xf, 0xa, 0x5, 0x5, 0x9, 0x4,
0xc, 0xd, 0xd, 0x0, 0xc, 0xd, 0x5, 0x6, 0x5,
0x4, 0x6, 0x4, 0x3, 0x4, 0xd, 0x4, 0xd, 0xd,
0xc, 0x4, 0xb, 0x3, 0x4, 0x2, 0x5, 0x5, 0x5,
0x3, 0x3, 0x1, 0x1, 0x4, 0x4, 0x4, 0x6, 0x5,
0x5, 0x5, 0x5, 0x3, 0x5, 0x4, 0xb, 0xd, 0xc,
0x4, 0xb, 0xb, 0x5, 0x1, 0x0, 0x5, 0x5, 0x5,
0xd, 0xd, 0xb, 0xd, 0x2, 0x5, 0xc, 0x6, 0x6,
0x6, 0x5, 0xb, 0x5, 0x5, 0xc, 0x3, 0x4, 0xd,
0xd, 0x4, 0x5, 0xc, 0xa, 0x5, 0xc, 0x4, 0x6,
0xd, 0xc, 0x6, 0xe, 0xd, 0x6, 0xd, 0xd, 0x5,
0xa, 0xc, 0x2, 0x4, 0xe, 0xd, 0x3, 0xd, 0xc,
0x6, 0x4, 0xd, 0x5, 0x4, 0xd, 0x5, 0x3, 0x4,
0xb, 0x1, 0xe, 0x0, 0xd, 0xd, 0xc, 0xd, 0xc,
0x5, 0xd, 0x5, 0x6, 0xc, 0xd, 0xa, 0x6, 0xe,
0xc, 0x3, 0xc, 0xc, 0xc, 0xd, 0xd, 0xd, 0xd,
0x9, 0x5, 0x2, 0x5, 0x5, 0x7, 0xe, 0xb, 0x5,
0xb, 0xd, 0x5, 0x5, 0xe, 0x5, 0x2, 0xc, 0x2,
0xd, 0xc, 0xc, 0xc, 0x5, 0x5, 0x5, 0x6, 0x9,
0xb, 0xd, 0xc, 0x2, 0xe, 0xd, 0x9, 0xa, 0xd,
0x3, 0x2, 0x4, 0x4, 0x5, 0x4, 0xc, 0xe, 0xf,
0xa, 0xe, 0xa, 0x9, 0xe, 0xc, 0x4, 0xb, 0x5,
0x1, 0x4, 0x2, 0x4, 0xd, 0xd, 0xc, 0xd, 0xe,
0x3, 0xc, 0xe, 0x5, 0xc, 0xd, 0x4, 0x6, 0x6,
0x3, 0x4, 0x5, 0x9, 0x5, 0xa, 0x5, 0x5, 0xc,
0x3, 0x5, 0xe, 0x5, 0x4, 0xe, 0x4, 0xd, 0xc,
};

static int backbone_model2_conv1_relu2_threshold[64 * 7] =
{ // torch.Size([64, 7])
-4, 76, 152, 232, 348, 508, 740,
-8, 40, 92, 140, 216, 316, 468,
40, 80, 120, 160, 220, 304, 424,
-44, 8, 56, 108, 184, 284, 436,
-28, 48, 120, 196, 308, 456, 680,
16, 72, 132, 188, 276, 392, 568,
20, 60, 100, 140, 204, 284, 404,
44, 80, 112, 148, 200, 268, 368,
-4, 60, 124, 188, 288, 416, 612,
0, 72, 148, 224, 336, 488, 712,
-48, 8, 64, 120, 204, 320, 488,
24, 68, 108, 152, 212, 296, 424,
8, 60, 108, 160, 236, 336, 488,
-56, 4, 64, 124, 216, 340, 520,
56, 104, 152, 196, 268, 364, 504,
28, 72, 112, 156, 216, 300, 428,
16, 64, 112, 160, 232, 332, 476,
44, 80, 116, 156, 208, 280, 388,
36, 80, 124, 172, 240, 332, 468,
68, 104, 136, 168, 220, 288, 388,
-24, 36, 96, 156, 248, 368, 548,
8, 52, 100, 144, 216, 308, 448,
52, 92, 132, 168, 228, 308, 428,
56, 100, 144, 192, 256, 348, 484,
-40, 28, 92, 160, 256, 388, 588,
32, 64, 100, 132, 184, 252, 356,
-8, 40, 88, 136, 208, 304, 448,
-36, 28, 92, 156, 252, 376, 568,
-16, 48, 108, 172, 264, 388, 576,
44, 84, 128, 168, 228, 312, 436,
88, 128, 164, 200, 256, 332, 440,
44, 88, 132, 176, 240, 328, 460,
20, 64, 104, 148, 212, 300, 428,
32, 76, 124, 172, 244, 336, 476,
44, 96, 144, 192, 264, 360, 508,
48, 96, 140, 188, 260, 352, 492,
16, 68, 120, 172, 252, 356, 512,
36, 84, 132, 180, 252, 352, 496,
52, 100, 152, 200, 276, 372, 520,
24, 76, 128, 176, 256, 356, 512,
48, 88, 128, 168, 224, 304, 424,
8, 56, 104, 152, 224, 320, 464,
-8, 48, 104, 160, 244, 356, 524,
48, 92, 132, 176, 236, 320, 448,
60, 88, 116, 140, 180, 236, 312,
24, 84, 144, 204, 292, 408, 588,
-4, 44, 96, 148, 224, 328, 480,
-20, 36, 88, 140, 220, 328, 488,
32, 88, 144, 200, 284, 396, 564,
-4, 48, 104, 160, 240, 348, 512,
-56, -8, 36, 84, 156, 248, 388,
-8, 52, 116, 176, 272, 396, 580,
44, 92, 144, 192, 268, 364, 516,
76, 120, 160, 204, 268, 352, 480,
36, 108, 176, 248, 352, 492, 704,
48, 88, 132, 172, 232, 316, 436,
0, 40, 84, 124, 188, 272, 400,
12, 76, 140, 204, 300, 428, 624,
32, 112, 188, 268, 384, 536, 772,
-4, 52, 112, 168, 256, 368, 544,
4, 68, 132, 196, 292, 420, 612,
52, 100, 144, 192, 264, 356, 500,
-16, 32, 76, 124, 192, 284, 420,
60, 108, 156, 208, 280, 380, 528,
};

static uint64_t backbone_model2_conv2_conv1_weight[64 * 1*4] =
{ // torch.Size([64, 1, 1, 64])
0x545dcd45a5525b44,0x55455bc55d63d595,0x553545555eb546dd,0x4c635dd6bd555adc,
0x55dcbaeddccb2bcd,0x15bc0cc6435c06ac,0x457a453dacd33ddb,0x2cd459ad6dc544de,
0xd2b23cad93c6bd20,0xc59103bc0e464ccb,0xdccbc54dccbda3bd,0x5de04521bd9bad5c,
0xd553a13356b4bccd,0xce5b4b2ca6d55366,0x5cbd5b24415c3c50,0x094124cc454dc216,
0xcdccccddddc42355,0xedbbabdb5c55d6b4,0xdccc69b455dc9255,0x3c5ecddda94dcb44,
0xb4354ccd3c3b45c2,0x4cb32b42446a4343,0x4b0945564bb43152,0xe4a63493313d5a2a,
0x52dd3556543c614a,0x645ded405c6ea5d6,0xe35b69d55541dc6c,0x60e65ebd995cc3bd,
0xee5d4535e43cd3dc,0x5b4b2de04543ac66,0x50c5dd55d45b4d66,0xc4eed416b445d252,
0xcb4454b54c55ad5d,0xc4dd6d545ce45595,0x65b5346d46d64564,0xc4cdc4650cd4c2e4,
0x553dce5652465dd6,0xd36b44c55d46434c,0x554655666e4355d4,0x5d35d366cc43cc45,
0x5eb66cda45c6c03a,0xa2d2ced463d3d5c6,0x9beb155e56ecd37c,0x5bedadcc5d5dbb4d,
0xe55adc52cebcc5a2,0x465455b5e564543e,0x433550dce36d5195,0x66b56d0455550dda,
0x3b3933549b433b04,0xa554ba34be9d23f5,0x4b2b43cb5444b4ca,0xb3db1c0539b9a254,
0xcc6ad43d356add92,0x5cc55c6202c5461d,0x56355d65b5cc43cd,0xc2cc4ce96cd65cbd,
0x2251ccb5b454ceb2,0xcb244dcc5d355d45,0x455bcc66dd5d65e3,0xa4c5b5d5c1566456,
0x2dedbd3a2ac54bdd,0xdabb5b43cc15cc3c,0x24bbc0541c55d5a3,0x3dd33964ddeddce1,
0x43cdcdccddd44c56,0xdd52cebc245cd29d,0xdded3cd4cbbe9ecb,0x4b95acd4a3635d5b,
0xcde0d4ddabea3c05,0x5c54de9c556cde44,0x91cdddd6ed5e1cad,0xc135c2dc34b45564,
0xcbc64d5d555ed254,0xd564a25ceccccceb,0x30b55d1dbdd65dd4,0xe52c63dc45935d0d,
0xeb4b335bdeb54346,0x4dd26555ddd4425e,0x45555253b02555c6,0xd5d5de46b22b4c44,
0x3e5c5bdd01e0b42c,0xc5dbddcc5ed33c03,0x5ba2d4cdd1532c05,0xb254da54bc555ccd,
0x0c2ad6ea1b25c4c3,0x5cbdc594cd4c2c3a,0xbdd354dc4cd5cdbd,0xc6c9db35bd9ed65d,
0x6d3db64d2ca6dc64,0x35b4db29cdddc933,0x50d5b4cc4cea43cc,0xb4d0dd44bacce44d,
0x1de3a6664d6d4a34,0xd6566366d354d5d3,0xc5dc55b5db25e545,0x444c3c44dc3a35c6,
0x3de6ec2b51a55c55,0xe6b5d4cbd3445b1b,0xecd4bb345dda4ddc,0x2c15d43e964b5d9b,
0xdc54355c0ecd362c,0x55b315bdc54d302d,0x0cc325ddc533ed5d,0xbc555cc4cbdbeedb,
0xbbb49c52ce5440cd,0xa5a355445444335d,0x432524d45c46d551,0x4e436b45bdd4eed1,
0x554b6524355d535b,0x65b64643cc51e5cc,0x15b6c646c6b4b24e,0xd66c5c255d3535dd,
0x3c02e2cc44d5bb05,0xeedc5ec234944b43,0x4aab5d4c5b4c3a05,0xac4ceddd554db4b6,
0xbdc45c3c3c2bd344,0x5345242b3ab5ccd1,0xbadbd30db555dc33,0xd6ccb442d2525461,
0xc145cb4ddde3de5d,0xda4d3cd4cd3b5b45,0xed35d3ddcdd4bd3d,0x4be42564352eed5c,
0xbabc2dbdcc4cc42d,0x39cb0b91dcb2ccdd,0xd1c9bca3ccdcd5d0,0xdc02d332ccb04dc2,
0xbd295dccad4ceec5,0x4dc94d6db44549c4,0xb55cdb4a454c455b,0xd6c24455c3266c65,
0x56d25dbc264345ed,0x43b61121e516e553,0x65ca59555245a53a,0xb4cc3dc4ed345cdc,
0xc653dc34b45d5c6c,0xcc5c154c2abdad45,0xddc3bdc4dbdb5ebd,0x4ccc34531bced4a5,
0xa65aa2ca55d5dbdd,0x1c6bc52d465cad3c,0xdc4dcdbd4b2dadcc,0x55cb653d352ce4d4,
0xa5d66c4c94415ad6,0x5343cc5cb14c4dbc,0x4b1d164dc4655544,0xc6e5244b6c6a4c6b,
0xc39e54d4dcd4e35e,0xec0acdde35639695,0xbdc4bcecb6bebd5d,0x6c2dddcbd555d354,
0xe44beaaddbdcb156,0x5dc3db5d33c3ee54,0x9dc3ed34f35b4ebd,0xc3cd5df5ce4cc454,
0xb555b6bd9c4ec01e,0xb5b494c3d6544d35,0x54ba5cd54c65d542,0xc355355c45cbd5d4,
0x2cdee4c24cd3ddc9,0xb35dbdd24345434b,0xc2cb5e534dd3ddcc,0xadd2b9c1d5e542c4,
0x1ed2b43424524d06,0x52c654445c534594,0x3546cd46d453c596,0x5e445d654ce543cb,
0x5ecc25ddc0b4ed54,0xdefe14bd5e04ca5c,0x4b2641dbd5b54345,0xdc9c1a55c514b44c,
0xbc95d24d33d46914,0x1124dce50535651a,0xcb1343cc53045d4c,0x31a3cdcd654d2aed,
0x549c45d26cd2de63,0xdd4e555cd54cea94,0x2555cc5c52b5ad94,0x53d3ca5ecd05d5db,
0x4d9c55e4dddc54db,0x59cbac2564543a64,0x6453c4dad352c535,0x4bbbc4b2dda555a4,
0xd5ed4193e54ecdbc,0x533355554bd2eceb,0xc46dc2bde5d41ea3,0x05d45de639dc3555,
0x55d2aced34bb3dcd,0xd45de4d4cb4b54b9,0xc55d36cd4bd49dc2,0x3ca6c5be45440bb1,
0x53abdd65a45dc5d5,0x6553bd45dbb143ed,0x5abcc446bcc45bc2,0xb5cb46d4d55bdd3d,
0x2c2c45446ca5ce64,0xddcd2445d65b4d4d,0x56453a55555c3a56,0x59c5e25cd9c644c6,
0x5c5cd43d6556d5a5,0xddd45c4db5d55c76,0x53e42d5a63255442,0xd55d55a5c5dc140c,
0x5d4e35dd0dd5d456,0x4cddd50e0bdbbd5b,0xbdc5d99d55da5c9d,0xbabbdcb4acabd45e,
0xe1adad55e44a4cc5,0xd4d55c456e45634c,0x45435664d3514515,0xd4435dd6cc555da5,
0x5c5eb3bc5423cc6b,0x4cbc55bba5bc9b51,0x31544e2423ccae53,0x4d4cadcc41e6d3fc,
0xc1d45bcdb5ebc594,0x53dbe3dcbbcd3ce2,0xeddec4dec5ccbd4d,0xe54d5aeeac9d556e,
0xbdd445bd54cce55b,0xc3cadc5dd5dce5e5,0xededdd42c5dd2edd,0xd6ddccdd235d55cc,
0x15065bebc5d5dd3e,0xdddccebc3ac5b5c3,0xbddc24ce45340c5e,0xc4de453d425d2c3e,
0x543d42504c33bc62,0x521652cddc5e56d4,0xd3544324b5c4166e,0x5bd5c4455bbde5cd,
0xb9d364d33d4b533b,0xc6b553549d05d5da,0xeb5d9602db4cd434,0xb5640a6bd445320b,
0xc354442bdc4c566c,0x4ac6ccbd3c4ca5e3,0xecdad6dcc3cdc25c,0xc56dcd3c6d6c423e,
0xa5cddc2dd53ceabc,0x4c54c55c54d43da3,0xcabd4d1344b944cc,0xd4cc45e3d4c4335d,
0xd4d464dd5b2c6ccc,0xc4dac3553305de51,0xd46e5954a544335b,0xb4d5bd456d5464c4,
0xb3434ae3dbdda49d,0x47dc5ec15cddc3b5,0xcd93e53de344dd5e,0x54c26355ee44b5bd,
0x435eeddc43c4453c,0x4ccedddeca3c5d5d,0xedcd41455ddc6d9d,0xc042eddd65c5cecd,
};

static int backbone_model2_conv2_quant1_threshold[64 * 14] =
{ // torch.Size([64, 14])
-788, -464, -248, -84, 24, 132, 240, 348, 456, 564, 672, 832, 1048, 1372,
-1172, -840, -620, -452, -344, -232, -120, -12, 100, 212, 320, 488, 708, 1040,
-976, -720, -548, -420, -336, -248, -164, -80, 8, 92, 180, 308, 480, 736,
-1168, -784, -528, -336, -208, -80, 52, 180, 308, 436, 564, 756, 1012, 1396,
-1164, -860, -656, -504, -404, -300, -200, -96, 4, 108, 208, 360, 564, 868,
-592, -360, -204, -88, -8, 68, 144, 224, 300, 380, 456, 572, 728, 960,
-1228, -852, -600, -412, -288, -160, -36, 88, 216, 340, 464, 652, 904, 1280,
-1232, -840, -580, -384, -252, -120, 8, 140, 268, 400, 532, 728, 988, 1380,
-1084, -720, -476, -296, -172, -52, 68, 192, 312, 432, 556, 736, 980, 1344,
-1048, -652, -384, -188, -56, 76, 208, 340, 472, 608, 740, 936, 1200, 1600,
-1552, -1052, -720, -468, -304, -136, 32, 196, 364, 532, 700, 948, 1280, 1784,
-852, -564, -376, -232, -136, -40, 56, 148, 244, 340, 436, 580, 768, 1056,
-1056, -732, -516, -356, -248, -140, -32, 76, 184, 292, 404, 564, 780, 1104,
-1332, -948, -692, -500, -368, -240, -112, 16, 144, 272, 400, 592, 848, 1232,
-916, -600, -392, -232, -128, -24, 80, 188, 292, 396, 500, 660, 868, 1184,
-1604, -1064, -700, -432, -252, -68, 112, 292, 472, 652, 832, 1104, 1464, 2008,
-1180, -868, -664, -508, -404, -300, -196, -96, 8, 112, 216, 372, 580, 888,
-1240, -860, -604, -416, -288, -160, -32, 92, 220, 348, 472, 664, 916, 1300,
-1376, -960, -684, -476, -336, -196, -60, 80, 220, 356, 496, 704, 980, 1396,
-1108, -756, -520, -344, -224, -108, 12, 128, 244, 364, 480, 656, 892, 1244,
-1060, -752, -548, -392, -292, -188, -84, 20, 120, 224, 328, 480, 684, 996,
-1260, -912, -680, -508, -392, -276, -160, -44, 72, 188, 300, 476, 708, 1052,
-1196, -860, -636, -468, -356, -244, -132, -20, 92, 204, 320, 488, 712, 1048,
-984, -624, -384, -208, -88, 32, 152, 268, 388, 508, 628, 808, 1044, 1404,
-1388, -960, -676, -464, -320, -180, -36, 108, 248, 392, 532, 748, 1032, 1456,
-956, -680, -492, -352, -260, -168, -76, 16, 112, 204, 296, 436, 620, 900,
-1000, -656, -428, -256, -140, -28, 88, 204, 316, 432, 544, 716, 944, 1288,
-736, -436, -232, -80, 20, 120, 220, 320, 424, 524, 624, 776, 976, 1280,
-1160, -848, -644, -488, -384, -284, -180, -76, 28, 128, 232, 388, 592, 904,
-1056, -736, -520, -360, -252, -148, -40, 68, 176, 284, 388, 552, 764, 1088,
-1388, -1028, -784, -604, -484, -364, -244, -124, 0, 120, 240, 420, 660, 1024,
-1300, -956, -728, -560, -444, -332, -220, -104, 8, 124, 236, 408, 636, 976,
-1048, -732, -520, -360, -256, -148, -44, 64, 168, 272, 380, 536, 748, 1064,
-1384, -972, -692, -488, -348, -208, -72, 68, 204, 344, 484, 692, 968, 1384,
-1196, -844, -608, -436, -316, -200, -84, 32, 152, 268, 384, 560, 796, 1144,
-1436, -996, -700, -480, -332, -184, -36, 108, 256, 404, 552, 772, 1068, 1508,
-860, -544, -332, -176, -68, 36, 140, 248, 352, 456, 564, 720, 932, 1248,
-1400, -1020, -764, -576, -448, -324, -196, -68, 56, 184, 308, 500, 752, 1132,
-1472, -1088, -832, -640, -512, -384, -256, -128, 0, 128, 256, 448, 704, 1088,
-844, -552, -356, -212, -112, -16, 80, 180, 276, 372, 472, 616, 812, 1104,
-1008, -760, -592, -468, -384, -300, -220, -136, -52, 32, 116, 240, 404, 656,
-752, -436, -224, -64, 40, 144, 252, 356, 460, 568, 672, 832, 1040, 1356,
-1152, -832, -620, -460, -352, -244, -140, -32, 76, 180, 288, 448, 664, 984,
-1092, -764, -544, -380, -268, -160, -52, 60, 168, 280, 388, 552, 772, 1104,
-1152, -828, -612, -448, -340, -232, -120, -12, 96, 204, 312, 476, 692, 1020,
-1008, -644, -404, -224, -104, 16, 140, 260, 380, 500, 620, 800, 1044, 1404,
-1384, -984, -720, -520, -388, -252, -120, 12, 144, 280, 412, 612, 876, 1276,
-1136, -820, -608, -448, -340, -236, -128, -24, 84, 188, 296, 456, 668, 984,
-1092, -724, -476, -292, -168, -44, 80, 204, 328, 448, 572, 756, 1004, 1376,
-1000, -668, -444, -280, -168, -56, 56, 164, 276, 388, 500, 668, 888, 1224,
-1152, -760, -500, -308, -176, -48, 84, 216, 344, 476, 604, 800, 1060, 1448,
-1132, -840, -648, -500, -404, -308, -208, -112, -16, 84, 180, 324, 520, 812,
-1028, -680, -444, -272, -156, -40, 76, 196, 312, 428, 544, 716, 952, 1300,
-1080, -776, -576, -424, -324, -224, -120, -20, 80, 180, 280, 432, 636, 936,
-1584, -1156, -872, -656, -512, -368, -228, -84, 60, 204, 348, 560, 848, 1276,
-1524, -1136, -876, -684, -552, -424, -292, -164, -36, 96, 224, 420, 680, 1068,
-1392, -1052, -824, -652, -540, -424, -312, -196, -84, 32, 144, 316, 544, 888,
-1332, -936, -672, -476, -344, -212, -80, 52, 184, 316, 448, 648, 912, 1308,
-896, -580, -372, -216, -112, -8, 96, 200, 308, 412, 516, 672, 880, 1192,
-1044, -728, -516, -360, -256, -148, -44, 60, 168, 272, 376, 536, 748, 1064,
-1244, -900, -668, -496, -380, -264, -148, -32, 80, 196, 312, 484, 716, 1064,
-916, -616, -416, -264, -164, -64, 36, 136, 236, 336, 436, 588, 788, 1088,
-1300, -928, -680, -492, -368, -244, -120, 0, 124, 248, 372, 560, 808, 1180,
-1344, -1008, -784, -612, -500, -388, -276, -164, -52, 60, 172, 340, 564, 900,
};

static uint64_t backbone_model2_conv2_conv2_weight[64 * 9] =
{ // torch.Size([64, 3, 3, 1])
0x4, 0x2, 0xd, 0x5, 0x5, 0xe, 0xd, 0xd, 0xe,
0xe, 0x5, 0x5, 0xc, 0x6, 0x0, 0x6, 0x4, 0xd,
0x9, 0x6, 0xd, 0xa, 0x3, 0x6, 0x5, 0xd, 0x5,
0xd, 0xd, 0xd, 0xd, 0xd, 0xc, 0xd, 0x4, 0xa,
0x5, 0x5, 0xe, 0x5, 0x4, 0xd, 0x6, 0xc, 0xd,
0xd, 0x5, 0x5, 0x6, 0x4, 0xe, 0xd, 0xe, 0x2,
0xd, 0xc, 0xd, 0x1, 0xd, 0xe, 0x5, 0xa, 0xe,
0x5, 0x4, 0xb, 0x6, 0x5, 0x3, 0x5, 0x5, 0x4,
0xd, 0xd, 0xb, 0xd, 0xd, 0x4, 0xe, 0xd, 0x4,
0x9, 0xd, 0xc, 0x3, 0xe, 0xf, 0xb, 0x5, 0xc,
0x5, 0x5, 0x5, 0x5, 0x6, 0x4, 0x5, 0x6, 0x3,
0x3, 0x5, 0xd, 0x4, 0xd, 0xe, 0xd, 0xe, 0xc,
0xc, 0xb, 0x6, 0x5, 0xc, 0xe, 0xb, 0x1, 0x4,
0xa, 0xd, 0xd, 0xb, 0xd, 0xd, 0x4, 0xc, 0xe,
0xc, 0xc, 0x3, 0xd, 0x0, 0x4, 0xf, 0xe, 0xd,
0x5, 0x6, 0x6, 0x4, 0x3, 0x5, 0x4, 0xe, 0xe,
0xb, 0xc, 0x5, 0x4, 0x6, 0x6, 0x3, 0x6, 0x5,
0x2, 0xb, 0xb, 0x9, 0xa, 0x5, 0x5, 0x6, 0x7,
0xb, 0x1, 0x3, 0x5, 0x4, 0x4, 0x6, 0x5, 0x6,
0xe, 0xd, 0xa, 0x2, 0xe, 0xb, 0x3, 0xd, 0xe,
0x6, 0x5, 0x5, 0x6, 0x4, 0xc, 0xa, 0xd, 0xd,
0x2, 0x4, 0xb, 0x5, 0x5, 0x0, 0x6, 0x6, 0x4,
0x4, 0x6, 0x5, 0xd, 0x5, 0x6, 0xb, 0xe, 0xe,
0xa, 0xb, 0xd, 0xe, 0xc, 0x4, 0xe, 0xc, 0x3,
0x5, 0x5, 0x5, 0x5, 0x5, 0x3, 0x5, 0x5, 0x2,
0x5, 0x4, 0xd, 0x5, 0x6, 0x3, 0xc, 0xd, 0xd,
0x2, 0x6, 0x2, 0xc, 0xe, 0xe, 0xc, 0xe, 0x2,
0xa, 0xe, 0xd, 0x3, 0xe, 0xc, 0x6, 0xe, 0xc,
0x5, 0x5, 0xd, 0x3, 0x5, 0xd, 0xb, 0x7, 0x4,
0xc, 0x2, 0x5, 0xd, 0x4, 0x6, 0xe, 0xd, 0x4,
0x5, 0x5, 0xd, 0x5, 0x6, 0x3, 0xa, 0x4, 0x5,
0x4, 0x4, 0x4, 0x3, 0x3, 0x3, 0x4, 0x4, 0x4,
0x5, 0xc, 0xd, 0x1, 0xd, 0xc, 0xd, 0xe, 0x5,
0xd, 0xd, 0xd, 0x2, 0xd, 0xe, 0x1, 0xc, 0xd,
0x4, 0x4, 0x4, 0x4, 0x5, 0x5, 0x5, 0x5, 0x5,
0x5, 0x6, 0x3, 0x5, 0x5, 0x4, 0x5, 0x9, 0xb,
0x4, 0x6, 0xc, 0x4, 0xc, 0xe, 0xd, 0xe, 0xd,
0x4, 0x6, 0x5, 0x5, 0x6, 0x3, 0x5, 0x5, 0x5,
0x5, 0x4, 0x4, 0x5, 0x5, 0x3, 0x0, 0x6, 0x6,
0xd, 0x6, 0x2, 0xd, 0xe, 0x0, 0xe, 0xe, 0xa,
0xe, 0x6, 0x5, 0xe, 0x6, 0xc, 0x5, 0x5, 0xc,
0x4, 0x2, 0xd, 0x5, 0xd, 0xe, 0xc, 0xe, 0xc,
0xd, 0x5, 0x6, 0xd, 0x4, 0x6, 0xe, 0xd, 0x5,
0xd, 0x5, 0x6, 0xd, 0x4, 0x5, 0xc, 0x5, 0x5,
0xe, 0xd, 0xd, 0xc, 0x4, 0x4, 0x5, 0x5, 0x6,
0xd, 0xd, 0xd, 0xd, 0x2, 0x5, 0x4, 0x6, 0x6,
0x4, 0x4, 0x5, 0x5, 0x5, 0x4, 0x5, 0x4, 0x4,
0x6, 0x5, 0xc, 0x5, 0x3, 0xe, 0x5, 0xc, 0xd,
0x4, 0x5, 0x4, 0x4, 0x5, 0x3, 0x4, 0x5, 0x5,
0xd, 0xe, 0xe, 0xd, 0xd, 0xc, 0xc, 0x2, 0x5,
0xc, 0xc, 0xd, 0xd, 0xc, 0xd, 0xd, 0xd, 0xc,
0xb, 0x4, 0x3, 0xb, 0x6, 0x5, 0x4, 0x6, 0x4,
0x9, 0x3, 0x2, 0xe, 0xe, 0xe, 0xb, 0xd, 0xc,
0xb, 0xd, 0xc, 0x3, 0xe, 0xd, 0x5, 0x6, 0x5,
0x4, 0x2, 0x2, 0x3, 0x6, 0x5, 0x3, 0x7, 0x5,
0x5, 0x7, 0x6, 0x2, 0x4, 0x3, 0xc, 0x4, 0x3,
0xb, 0x1, 0x3, 0xd, 0x5, 0x6, 0xd, 0x4, 0x6,
0xd, 0xd, 0xa, 0xc, 0xd, 0xd, 0xb, 0xd, 0xd,
0x0, 0xe, 0x3, 0x6, 0x3, 0xe, 0x5, 0x5, 0xe,
0xc, 0xa, 0xc, 0x6, 0x5, 0xe, 0x4, 0x6, 0xd,
0x2, 0x3, 0xc, 0x9, 0xd, 0xe, 0x2, 0xe, 0xd,
0x0, 0xc, 0xc, 0xd, 0xd, 0xc, 0xd, 0xd, 0xd,
0x5, 0x6, 0x6, 0x4, 0x5, 0x4, 0x3, 0x5, 0xc,
0x5, 0x6, 0x5, 0x2, 0x6, 0x5, 0xb, 0x0, 0x4,
};

static int backbone_model2_conv2_relu2_threshold[64 * 7] =
{ // torch.Size([64, 7])
124, 184, 248, 312, 404, 528, 716,
120, 188, 252, 320, 420, 552, 752,
28, 88, 152, 216, 312, 436, 624,
28, 80, 128, 176, 252, 352, 500,
128, 192, 252, 316, 412, 540, 728,
92, 168, 244, 320, 432, 584, 812,
-16, 60, 136, 212, 328, 480, 712,
56, 128, 196, 268, 372, 512, 720,
-8, 60, 128, 200, 304, 440, 652,
96, 156, 216, 276, 364, 484, 664,
-164, -84, -4, 76, 192, 352, 592,
100, 160, 216, 272, 356, 468, 640,
64, 120, 180, 236, 324, 440, 612,
-24, 40, 100, 164, 260, 388, 580,
24, 104, 180, 256, 372, 524, 752,
20, 60, 100, 140, 200, 284, 404,
60, 128, 196, 268, 372, 512, 720,
100, 164, 232, 296, 392, 524, 720,
56, 116, 172, 232, 320, 436, 608,
56, 128, 200, 272, 380, 524, 740,
64, 136, 204, 276, 380, 520, 732,
72, 132, 188, 244, 328, 444, 616,
144, 208, 272, 336, 432, 556, 748,
-16, 40, 96, 148, 232, 340, 508,
-40, 28, 92, 160, 260, 392, 588,
144, 188, 228, 272, 336, 420, 544,
144, 208, 272, 332, 428, 552, 740,
48, 124, 204, 284, 404, 560, 800,
88, 160, 228, 300, 404, 544, 756,
100, 152, 200, 248, 324, 424, 572,
16, 68, 120, 172, 248, 356, 512,
12, 36, 60, 84, 120, 168, 240,
32, 84, 132, 180, 252, 352, 496,
-28, 24, 80, 136, 216, 328, 492,
60, 120, 180, 244, 336, 456, 640,
24, 72, 120, 168, 240, 336, 484,
136, 196, 252, 312, 400, 516, 688,
12, 92, 176, 256, 376, 540, 784,
20, 96, 176, 252, 372, 528, 764,
156, 220, 284, 348, 440, 568, 760,
128, 184, 240, 292, 376, 488, 656,
60, 120, 184, 244, 340, 464, 652,
196, 244, 296, 348, 424, 528, 684,
44, 112, 180, 248, 348, 484, 684,
112, 168, 224, 280, 364, 480, 648,
100, 156, 212, 268, 356, 468, 640,
72, 124, 176, 224, 300, 404, 556,
48, 104, 156, 208, 292, 396, 556,
56, 100, 148, 192, 260, 352, 488,
60, 124, 188, 248, 344, 468, 656,
-8, 52, 112, 172, 260, 380, 564,
52, 116, 176, 236, 324, 448, 628,
48, 120, 188, 260, 364, 504, 716,
112, 176, 240, 304, 400, 524, 716,
-16, 72, 164, 256, 388, 572, 840,
44, 116, 184, 256, 364, 504, 716,
96, 160, 224, 288, 384, 512, 704,
28, 80, 128, 176, 248, 344, 488,
104, 160, 216, 276, 360, 476, 648,
108, 180, 248, 316, 420, 556, 764,
72, 156, 240, 320, 444, 612, 860,
16, 72, 132, 188, 276, 392, 568,
-12, 76, 164, 252, 384, 560, 828,
-4, 80, 164, 248, 372, 540, 788,
};

static uint64_t backbone_model3_conv1_conv1_weight[64 * 1*4] =
{ // torch.Size([64, 1, 1, 64])
0xc4c00d4a40cba245,0x3ddc5c34b9dbccc5,0xcb445b26aedc45c4,0xd5ac2544d2d465d4,
0x36a02490464a9a5b,0xd5c1bcdd44aada2c,0xc44cc56d424dc420,0x45c0045a55c31422,
0xcdce3ab4d5541b6d,0x5dc555dbc33d1d55,0x412b4d3624dc5d9d,0xe5d0b5b6d436b425,
0x2babc124442b5a3c,0xbdd2ac4d0cb516d6,0xcc5c24434154ccc4,0x3659cc39cbbdcbdc,
0xcd6db665d93c3ec3,0xda3a5adda34c9a5a,0xa3b54c1aa55ab1bc,0x0139b0a29605d333,
0xc4ccce3d34554d5d,0xcc35d3dd35cb3ccd,0xdb0ddb4d545d454b,0x64433c4b4bdadcea,
0x523bc32b44cad2da,0xd51b19cc93c314bd,0x5c24dbb4c30b15b9,0xadbd1c1c54e93ddc,
0xb59d524ad34ecbbb,0x9c2d3154a4195510,0x45c45ed903bbc09b,0x9434daec4ccb49d5,
0xe5ca53b5262dda24,0xbd4c1c5033e9ab33,0x955b45504bccb344,0x5c3cc4533bd3a5cc,
0x5d43c35c59c3c3db,0x443dc552d5a16c22,0xbd4243c40ba0e164,0x4d4cdec5b1bc599a,
0xad24a5b3bcc5dad4,0x4bbb55535ddc65d4,0xacb2ccb40ee562ce,0x9c50514d94bcd9ab,
0x5dc4ba344d3d05b4,0xd544614bcc54c233,0xddcb3ccceb34cbd4,0xcbc10ccc4b2dbcab,
0x0350d1bb9dcc3c55,0x5659ccc433d243d4,0x5d552dd2a35ccdbc,0xd4dbbacc5dc54c0c,
0xc515bcc414cc4756,0x35cccc3b55434ba5,0xdd1eb4c22dcd45b3,0x423d9401c55d4444,
0x2cc54bcab4b4d540,0x55239b56ca5554d6,0x4d04c3cddb5332a5,0x5a0dbcb4de55cd6d,
0xd5004442d5db3d13,0xbd3c0ccbcbbd3bac,0x450a525dd442a33d,0x46a5c45b26b3c506,
0x44e44530dcda9392,0x923c50344e5a4cb4,0x3d354bc4c444644c,0x142d36d4d45452ad,
0x5dac3b455cdbd0db,0x44dd6e04c3a4d336,0x5ac4b335da9dcda4,0xd4d3ca41dda5b4b5,
0x2caecdbd44c24441,0x5942b3dc34cd2dcc,0x2ccd4c043c2c544b,0xd4cb3c45cb040143,
0xce431cbc4db4b625,0xb553a5c13d54443c,0x1bddadb4d32243c5,0xbcbc29e4ab3dcb5c,
0xcb54cdd403dd4635,0x6359d6dd455c3bb4,0x3b4dedc5c3cdd6c3,0x244b3d1545c55c5d,
0xadc53cc9bbd6559b,0x5dc4465cddcc4544,0x54034b45e3544acc,0x144b4939d1bb53b3,
0xc430ed5debcbe255,0xc5662dcd2ccda4dd,0xc4c54dddb144c44b,0xc3b224cd6b39ddba,
0x4903bbe44a4143cc,0x4c4456b04dc1cd52,0x5ad51a261cccbccc,0x44bc54144e155933,
0x33ddc46959bc51b4,0x034c323c45c0bde4,0xdea43abbd546c335,0xd2e23abb02bc3b4b,
0xdcbccdb6b4d534bb,0x0ed3d44e25ada5cd,0x0cbdd39dc3db5ddd,0x5059455cad4cddc4,
0xacb4445c33cc94c4,0xd5dcbda0d2e5b41c,0x2b304bc5d403e4cb,0x94d3dcb2e5cdacbb,
0xd5553c4c3cc3e455,0xe4405325cd44d9a5,0x4dd9bcc5e5042434,0xc4bd3424a4d55d3a,
0x6943cbbc3dbb3345,0xc5435db32455ce9c,0x5eb4c4515cedd3a4,0xdce4b45c4344c44c,
0x5b34ddad2e53445b,0x555025e4b9054354,0x4badedd5455acc40,0xab403ee5224c424d,
0x3c13ab5dc44495cb,0x4c4dd5d452ec9343,0xc3cecb9223d343cd,0x4c2c5d45d43d00c0,
0x5e4aa544bda35ddd,0x352344cc4b1c045c,0xd334dcd33b1cbcdd,0xcddb2c2cdd34b0ab,
0xa414acacca33e545,0xdad04353c3456b51,0x4c0d5b3a2d4c5315,0x3c41eea55b5dbbb1,
0xbdba3444cd54dddc,0x4b9bcd35bdb33534,0xc6d424a524bc3bad,0x4cd635bc333cd5c5,
0x4d5224b42bc45dc3,0x5bbb6645a6c45441,0x44440cc545bd5346,0x2ddd9dc5ec23b451,
0xcbba544db254433e,0xbd49d4c5adb6dd5d,0xd5dd642d52d50e4a,0xac5c44adcc2db4d5,
0x1ac4ddbc4dd435d9,0xc2cedd9cd463d545,0xe4eedb35d3dd4d05,0xda96142dd36ed6c4,
0x3c6db45b9ed3c041,0x2b5dd434bc53ddc4,0xc41dcddbc64c5cec,0xdad5cdd5b644ca9d,
0xc4d5addc192c439d,0x1353dedd954cd54c,0xd5cbe54dd46bdc49,0x5214143d943d23ca,
0x5ecc355d2e345dd4,0xc04155dca4cd4b5c,0xc5ca0cd5354c552d,0xdb253aed553c92cb,
0x4bbd4d6c5c6c9b2d,0xdcd4b4b5cd360c33,0xad5cd1dc5dc25dc5,0x4cb1ccb9d43901cc,
0xb43cccd054352222,0xa3bacd4d5534a4ad,0xbeac145c3dcb5544,0x5d5d654c3d23ecd5,
0x0a4d45c443cc1ed4,0x55ce33c54cc3b43b,0xa554d1b514acc5d5,0x3cb5ca44e4c5324c,
0xd42bbb43cb45cb4c,0xcc95e6b23ccccbdd,0xdcd0ebddb53c5cdb,0x4dc163bcdbcdcbbc,
0x5c2d54adddc54403,0x5ab3c953bd51442c,0x45dd5dcd523494dc,0xd3d42bedad3bb954,
0x5ba50352bc5c4bcb,0x3d5335d03dd3ce31,0x5a401c9555d3bc4d,0x22d535c4b4ba534b,
0xdac4cd9493d46d5b,0x2ed505256bac4e4b,0xdccc3b0bd6554e46,0xb41555b6dd494293,
0x0ac454a3cb553bc5,0x5d659392bd534cc4,0x5b45534d34c24551,0x553435bc2255cb52,
0x3dad34b5350ad5bd,0xe4cd4dad15dc6c3d,0x22455cc34ddd5c64,0xac14d4c5d44cc5ec,
0xe35d553bb333ddc4,0x02c3cab24dbcc23c,0xc514430d4bc496ed,0x4c23454d154ad42a,
0xb5dd3c4cd3add134,0x1cbb1dd35dccedec,0xdd132c41cbda35d5,0x3cda5511414a54cb,
0xcdb4aa0ceb363b2c,0x4d45c54bd91b5c4c,0x34913563d550c34d,0x4b433d5d4a043bc4,
0x5bd0344443aca244,0xdb14524ca53ad9f4,0x4d22eccdb23c53dc,0xd3da453cdca43c1d,
0x529a4c4cc5bd4c5c,0x431dbc51eceb53c6,0xdb51c3bb95549b4c,0x5553de23943d4add,
0x412213504d545242,0xd455b2cd45e205d2,0xab5cd40e404acc40,0x3da24bac322bda3d,
0xcab2d75cd41c3632,0xdcdbddd340004c06,0x65bdbb4c56c95e44,0x3d46bc55d76d667c,
0x5dab342d45cc4c44,0x5d2dc53b35eddd4c,0x44543cb44b2e94dc,0x454c1d23d6d340eb,
0x4d6433c0dc443c24,0x33d44231dd54c435,0x42bbcdca4c3205ed,0xa419ccdc3c3bccad,
0x5ec4c54bbcdaabd3,0x4eed44429cc1b440,0x55c43cc9cddc4cd4,0xcdc34c25d32c4252,
0x29b4b45cdb4c4133,0x5442a324e2555934,0x02cb4db0b043db63,0x3545eee635035b94,
0x1b25db39ec4a5363,0xca45354be1ccca14,0x34355c24cd43cc4d,0x36b9db4d434244a6,
0xd5d54095c422125c,0xac434cc14cd34445,0x4b01b53d03c4c945,0x444506c4e35c5360,
0x4d424b4c1c42beb2,0xdd54a0c9b5d9c31d,0x45b91b3454439d3c,0x1ba5113c42dcc3d9,
0x315cfc4e5cdcc524,0x45bc3ced95cdc1cc,0x4d2cad2bdc0c03ac,0xe0bc3e6244da4b24,
};

static int backbone_model3_conv1_quant1_threshold[64 * 14] =
{ // torch.Size([64, 14])
-784, -532, -364, -240, -156, -72, 12, 96, 184, 268, 352, 476, 644, 896,
-856, -580, -392, -256, -164, -68, 24, 116, 208, 300, 392, 532, 720, 996,
-728, -484, -320, -196, -116, -32, 48, 128, 212, 292, 372, 496, 660, 904,
-808, -568, -404, -284, -204, -120, -40, 40, 120, 200, 284, 404, 564, 808,
-592, -412, -292, -204, -144, -84, -24, 36, 96, 156, 212, 304, 424, 600,
-1024, -760, -584, -452, -360, -272, -184, -96, -8, 80, 168, 300, 480, 744,
-936, -672, -492, -360, -272, -184, -96, -8, 80, 172, 260, 392, 568, 836,
-672, -476, -344, -248, -180, -116, -48, 16, 80, 148, 212, 308, 440, 636,
-772, -524, -356, -232, -148, -64, 20, 100, 184, 268, 352, 476, 644, 892,
-720, -492, -340, -224, -148, -72, 4, 80, 156, 232, 312, 424, 576, 808,
-848, -620, -468, -352, -276, -200, -124, -48, 28, 104, 180, 292, 444, 672,
-784, -552, -400, -284, -208, -132, -52, 24, 100, 176, 252, 368, 524, 752,
-824, -580, -416, -292, -208, -128, -44, 36, 120, 200, 284, 408, 572, 816,
-1008, -672, -448, -280, -168, -56, 56, 168, 280, 392, 504, 672, 896, 1232,
-944, -644, -444, -296, -196, -96, 0, 100, 200, 300, 400, 548, 748, 1044,
-900, -608, -412, -264, -164, -68, 28, 128, 224, 324, 420, 568, 764, 1056,
-596, -392, -256, -152, -84, -16, 52, 120, 192, 260, 328, 428, 568, 772,
-1064, -760, -556, -404, -300, -200, -100, 4, 104, 208, 308, 460, 664, 968,
-912, -648, -472, -340, -252, -164, -76, 12, 100, 188, 276, 408, 584, 848,
-904, -640, -460, -328, -240, -152, -64, 28, 116, 204, 292, 424, 604, 868,
-880, -596, -408, -264, -168, -76, 20, 116, 208, 304, 400, 540, 732, 1016,
-776, -512, -336, -204, -116, -28, 60, 148, 236, 324, 412, 544, 720, 984,
-1004, -720, -536, -392, -300, -204, -112, -20, 76, 168, 264, 404, 592, 872,
-660, -444, -300, -192, -120, -48, 24, 96, 168, 240, 312, 420, 564, 780,
-732, -508, -360, -248, -172, -100, -24, 48, 124, 196, 272, 384, 532, 756,
-1044, -788, -616, -488, -404, -316, -232, -148, -60, 24, 108, 240, 408, 664,
-968, -708, -536, -404, -320, -232, -144, -60, 28, 116, 200, 332, 504, 764,
-776, -528, -364, -244, -160, -80, 0, 84, 164, 248, 328, 452, 616, 860,
-1036, -744, -548, -400, -304, -204, -108, -8, 88, 184, 284, 432, 628, 920,
-888, -608, -424, -284, -192, -100, -8, 84, 176, 268, 364, 500, 688, 964,
-908, -652, -484, -356, -268, -184, -100, -12, 72, 156, 240, 368, 540, 796,
-888, -660, -508, -392, -316, -240, -160, -84, -8, 68, 144, 260, 412, 644,
-752, -508, -344, -224, -144, -60, 20, 100, 180, 264, 344, 464, 628, 872,
-968, -680, -488, -344, -248, -152, -56, 40, 136, 232, 328, 472, 664, 952,
-992, -660, -440, -272, -160, -48, 60, 172, 284, 396, 508, 672, 896, 1228,
-824, -596, -448, -332, -260, -184, -108, -32, 44, 120, 192, 308, 456, 684,
-1300, -940, -704, -524, -404, -284, -164, -48, 72, 192, 312, 492, 728, 1088,
-820, -576, -412, -292, -212, -128, -48, 32, 116, 196, 276, 400, 564, 808,
-1112, -808, -604, -452, -348, -248, -144, -44, 60, 160, 264, 416, 620, 924,
-868, -612, -444, -316, -232, -148, -64, 24, 108, 192, 276, 404, 572, 828,
-804, -576, -424, -308, -232, -156, -80, -4, 72, 148, 224, 336, 488, 720,
-948, -684, -508, -376, -292, -204, -116, -28, 60, 148, 236, 368, 544, 808,
-864, -612, -444, -316, -232, -148, -64, 20, 104, 188, 272, 400, 568, 820,
-952, -728, -576, -464, -388, -316, -240, -164, -88, -16, 60, 172, 324, 548,
-752, -532, -388, -276, -204, -128, -56, 16, 92, 164, 236, 348, 496, 716,
-784, -524, -348, -220, -132, -44, 40, 128, 216, 300, 388, 520, 692, 952,
-808, -556, -392, -264, -180, -100, -16, 68, 152, 236, 320, 444, 612, 860,
-680, -424, -256, -128, -40, 44, 128, 212, 300, 384, 468, 596, 768, 1024,
-956, -680, -492, -356, -260, -168, -76, 16, 108, 200, 292, 432, 616, 896,
-868, -628, -468, -352, -272, -192, -112, -32, 48, 128, 208, 328, 488, 728,
-744, -556, -432, -336, -276, -212, -148, -88, -24, 40, 100, 196, 320, 508,
-692, -500, -368, -272, -204, -140, -76, -12, 56, 120, 184, 284, 412, 608,
-912, -660, -492, -368, -284, -200, -116, -28, 56, 140, 224, 348, 516, 768,
-772, -528, -368, -248, -164, -84, -4, 76, 160, 240, 320, 444, 604, 848,
-840, -600, -436, -316, -236, -156, -72, 8, 88, 168, 252, 372, 532, 776,
-840, -492, -260, -88, 28, 144, 260, 376, 492, 608, 724, 896, 1128, 1476,
-976, -684, -492, -344, -248, -152, -56, 40, 136, 236, 332, 476, 668, 960,
-728, -516, -376, -268, -196, -128, -56, 16, 84, 156, 228, 332, 472, 684,
-948, -676, -492, -356, -264, -172, -80, 8, 100, 192, 284, 420, 604, 876,
-732, -484, -316, -188, -104, -20, 64, 144, 228, 312, 396, 524, 692, 940,
-616, -404, -260, -156, -84, -12, 56, 128, 200, 272, 340, 448, 588, 804,
-692, -440, -276, -152, -68, 16, 96, 180, 264, 348, 432, 556, 720, 972,
-464, -336, -248, -184, -140, -100, -56, -12, 28, 72, 116, 180, 264, 392,
-1548, -1168, -912, -724, -596, -468, -340, -212, -88, 40, 168, 360, 612, 996,
};

static uint64_t backbone_model3_conv1_conv2_weight[64 * 9] =
{ // torch.Size([64, 3, 3, 1])
0xc, 0xd, 0xb, 0x5, 0x5, 0x5, 0x4, 0x5, 0x5,
0x4, 0xa, 0x5, 0x4, 0x3, 0x6, 0x4, 0x9, 0x1,
0x5, 0x6, 0x3, 0x3, 0x3, 0x3, 0x1, 0x4, 0xb,
0xc, 0xb, 0x2, 0xc, 0x5, 0x3, 0x0, 0x6, 0x4,
0xd, 0x5, 0x6, 0xd, 0x2, 0x5, 0x9, 0xd, 0x0,
0x4, 0x6, 0xc, 0x9, 0x6, 0xb, 0xc, 0x3, 0xa,
0x5, 0x3, 0x2, 0x5, 0x5, 0x4, 0x0, 0x4, 0xa,
0x2, 0x9, 0xc, 0x4, 0x6, 0xb, 0xe, 0xc, 0x4,
0x9, 0x7, 0x0, 0xa, 0xe, 0xa, 0x3, 0x3, 0x2,
0xc, 0xa, 0x4, 0xe, 0xa, 0x5, 0x0, 0x4, 0x4,
0xe, 0x4, 0x4, 0xd, 0x4, 0x4, 0xc, 0xd, 0xd,
0x4, 0xd, 0xc, 0x5, 0xe, 0xc, 0x5, 0xb, 0xa,
0xc, 0x5, 0x4, 0xd, 0x6, 0x4, 0xc, 0x3, 0x2,
0x4, 0x5, 0x4, 0x4, 0x5, 0x2, 0x4, 0x4, 0xb,
0x5, 0x0, 0xd, 0x0, 0xd, 0xc, 0xc, 0xd, 0x3,
0x6, 0xb, 0xb, 0xd, 0xc, 0xb, 0xc, 0x4, 0x4,
0x4, 0x4, 0x5, 0xb, 0xd, 0x4, 0xd, 0xe, 0x0,
0xe, 0xe, 0x9, 0xd, 0xc, 0xa, 0xc, 0x2, 0x0,
0x5, 0x5, 0xb, 0xc, 0xd, 0x3, 0xd, 0xb, 0xc,
0x4, 0xc, 0xd, 0x4, 0xd, 0x3, 0x6, 0x4, 0x0,
0xa, 0x3, 0xe, 0xa, 0xc, 0xe, 0x2, 0xd, 0xa,
0x1, 0xc, 0xb, 0x9, 0xd, 0x4, 0x5, 0x6, 0x5,
0xb, 0xf, 0x1, 0x3, 0xc, 0xb, 0xc, 0x4, 0xa,
0xb, 0xe, 0xc, 0xd, 0xc, 0x5, 0xc, 0x3, 0x5,
0x0, 0x6, 0x4, 0xd, 0x4, 0x5, 0xd, 0xe, 0x3,
0xc, 0x2, 0xb, 0xc, 0x4, 0xd, 0xc, 0xd, 0xc,
0x4, 0xd, 0xd, 0x5, 0xb, 0xc, 0x4, 0x1, 0xd,
0xa, 0xd, 0xb, 0xe, 0x4, 0xb, 0xd, 0x4, 0x3,
0xc, 0xb, 0xd, 0xc, 0xe, 0x2, 0x1, 0x4, 0x0,
0x9, 0xe, 0x3, 0x3, 0x5, 0xa, 0x0, 0xb, 0xc,
0x4, 0x5, 0xc, 0x4, 0x2, 0xd, 0x3, 0xc, 0xe,
0x6, 0xc, 0xd, 0x3, 0x5, 0xc, 0xd, 0x5, 0x2,
0xd, 0x4, 0x4, 0xc, 0x6, 0x2, 0xb, 0x5, 0x4,
0x6, 0x4, 0xc, 0x4, 0x5, 0x9, 0x1, 0x0, 0xa,
0xc, 0xc, 0x9, 0xe, 0xc, 0x2, 0xd, 0xa, 0x2,
0xa, 0x4, 0x4, 0xc, 0x7, 0x9, 0x2, 0xb, 0x2,
0x4, 0x4, 0x4, 0x4, 0x4, 0x4, 0x2, 0x4, 0x4,
0xd, 0x1, 0x4, 0xd, 0x4, 0xb, 0x4, 0x6, 0x4,
0x0, 0x3, 0x4, 0xc, 0x5, 0x5, 0xb, 0x4, 0x5,
0xd, 0x4, 0xc, 0xe, 0xc, 0xa, 0x4, 0xc, 0x0,
0x1, 0xd, 0xb, 0x9, 0x7, 0x2, 0xb, 0xb, 0x2,
0x5, 0x3, 0x9, 0x6, 0xb, 0x3, 0x4, 0xb, 0xa,
0x4, 0x5, 0x3, 0xa, 0x0, 0x2, 0xc, 0xf, 0xc,
0x4, 0x4, 0xe, 0x4, 0x6, 0xd, 0x3, 0x5, 0x0,
0xc, 0xe, 0x2, 0x5, 0xe, 0x3, 0xa, 0x6, 0x5,
0x5, 0x5, 0x9, 0xb, 0xd, 0xb, 0xe, 0xd, 0xa,
0x3, 0x0, 0x9, 0x4, 0x6, 0x0, 0x4, 0x5, 0x5,
0x4, 0xd, 0xe, 0x5, 0xd, 0xd, 0x5, 0x4, 0x1,
0xb, 0xc, 0x4, 0x1, 0xb, 0x4, 0x4, 0x6, 0x3,
0x3, 0xe, 0xe, 0x4, 0xd, 0xc, 0x3, 0x5, 0x5,
0xc, 0xd, 0xd, 0x3, 0x0, 0x9, 0x6, 0x5, 0x5,
0xb, 0xc, 0x3, 0x5, 0x5, 0x3, 0xc, 0xe, 0x4,
0x4, 0xd, 0xd, 0x5, 0xb, 0xd, 0xa, 0x4, 0x3,
0x6, 0x1, 0xc, 0x4, 0xd, 0xc, 0x3, 0xc, 0x2,
0xd, 0xd, 0x3, 0x4, 0xc, 0x5, 0xb, 0xa, 0x5,
0xc, 0xd, 0xc, 0x0, 0xd, 0xd, 0xa, 0xd, 0xc,
0x5, 0xc, 0xc, 0x6, 0x4, 0xb, 0x5, 0x5, 0xc,
0xb, 0xd, 0xa, 0xd, 0xc, 0x4, 0x5, 0x5, 0x3,
0xb, 0x5, 0x5, 0xd, 0x5, 0x4, 0xd, 0x4, 0x4,
0x9, 0x4, 0x4, 0xc, 0xe, 0x4, 0xb, 0x9, 0x5,
0x5, 0x5, 0x4, 0xc, 0xe, 0x2, 0x1, 0x0, 0xb,
0xe, 0xd, 0x4, 0xc, 0xb, 0x2, 0x4, 0x4, 0x4,
0x5, 0xc, 0xc, 0xe, 0xc, 0x5, 0xd, 0x3, 0x5,
0xb, 0xb, 0x4, 0x1, 0xf, 0x3, 0xb, 0x3, 0x3,
};

static int backbone_model3_conv1_relu2_threshold[64 * 7] =
{ // torch.Size([64, 7])
-12, 44, 100, 156, 240, 352, 516,
40, 80, 120, 160, 220, 300, 420,
16, 64, 116, 168, 244, 344, 500,
44, 76, 108, 140, 188, 252, 348,
-28, 56, 136, 220, 344, 512, 760,
-12, 40, 92, 144, 224, 328, 484,
16, 44, 72, 100, 144, 200, 288,
56, 88, 120, 148, 196, 256, 348,
12, 56, 104, 148, 216, 308, 444,
68, 108, 144, 180, 232, 308, 416,
20, 64, 104, 144, 204, 284, 408,
48, 88, 124, 160, 216, 288, 400,
-16, 24, 68, 112, 176, 264, 396,
60, 96, 132, 168, 220, 292, 400,
-32, 16, 60, 108, 176, 264, 404,
20, 44, 68, 92, 128, 176, 244,
0, 48, 96, 144, 220, 316, 460,
44, 92, 144, 192, 268, 368, 520,
24, 56, 88, 124, 172, 240, 340,
20, 52, 84, 116, 164, 228, 324,
-36, 36, 104, 176, 280, 420, 628,
-44, 4, 56, 108, 184, 284, 436,
-8, 52, 116, 176, 268, 392, 576,
-56, 0, 56, 112, 196, 308, 476,
28, 80, 132, 188, 268, 376, 536,
8, 44, 80, 116, 168, 240, 344,
8, 44, 80, 116, 168, 240, 344,
8, 52, 100, 144, 212, 304, 444,
-40, 8, 56, 108, 184, 280, 432,
4, 28, 52, 76, 116, 164, 236,
24, 76, 124, 176, 248, 348, 496,
28, 64, 96, 132, 184, 252, 352,
36, 76, 116, 156, 212, 292, 412,
-12, 40, 92, 144, 220, 324, 480,
12, 60, 108, 160, 232, 332, 480,
-72, -4, 60, 124, 224, 356, 552,
48, 76, 108, 136, 180, 240, 328,
36, 68, 104, 136, 188, 252, 352,
-12, 32, 72, 112, 176, 260, 384,
-36, 12, 64, 112, 188, 288, 436,
16, 68, 116, 164, 240, 340, 488,
16, 52, 88, 128, 184, 256, 368,
-8, 36, 84, 132, 200, 292, 432,
44, 80, 112, 148, 200, 268, 372,
-16, 44, 104, 160, 252, 372, 548,
44, 88, 128, 172, 236, 324, 452,
80, 144, 208, 268, 360, 488, 672,
12, 52, 96, 136, 200, 284, 412,
16, 44, 76, 108, 156, 216, 308,
-52, 8, 68, 132, 224, 344, 528,
0, 52, 104, 156, 236, 340, 500,
36, 72, 108, 144, 200, 276, 384,
52, 80, 108, 140, 180, 240, 324,
28, 60, 96, 128, 180, 244, 344,
-12, 24, 60, 100, 156, 228, 340,
60, 104, 144, 184, 248, 328, 452,
-12, 48, 104, 164, 248, 364, 540,
20, 52, 88, 120, 168, 232, 332,
-24, 24, 68, 112, 180, 272, 408,
44, 72, 100, 124, 168, 224, 304,
44, 76, 108, 144, 196, 264, 364,
-40, 0, 40, 80, 140, 220, 340,
24, 92, 160, 224, 328, 460, 660,
-36, 24, 84, 148, 236, 360, 540,
};

static uint64_t backbone_model3_conv2_conv1_weight[64 * 1*4] =
{ // torch.Size([64, 1, 1, 64])
0x69dcdc4ddb24a5cd,0xccb4c205dc4d2453,0xb5d5355502d4b65e,0x4b4cc344dcbb05bc,
0x1c34543abc4940b5,0xd434439bd0d3d5cc,0x51dbd34c3c4552a4,0xd42d533e49352034,
0xd3cc91c2445494a3,0x5d9b433c52bb4bdd,0xdba4cd3c95edad9c,0x944c1cda3d40344c,
0x441cbd26455dcc4c,0xdcaaddc2b5c3a34d,0x334cd63bc34a44d5,0x344455ac563b4b54,
0xcc31443c1bc343c5,0xc5c056c240ea52d3,0x04c543945b54db44,0xd4be94bba5554ca4,
0x5914c4c454a21a51,0x54993dcb35313344,0x3db24432e23b135b,0x4b44945344cedc5d,
0x315cc3d4c5ccdb94,0x349c326c4b43cb44,0xa3d519912dbbc5bc,0x5c33a43ea0da4b53,
0x4a2652c5c5bb5455,0xb45b3b32c415dd44,0x5da9445db6cc5c34,0x5d2d32c9c42ca54b,
0x4b4c41c4b9c4c03a,0xd3b3cc3bd2cad3cc,0x539ce43d22b25ceb,0xccda5dc4d34c440b,
0x4ec44d4e4dcd3240,0xb4c95dc4239342cb,0xb044a3db5e44d52b,0xcec4db43354e3dbb,
0x4d4c33d543cd52c6,0x469d4a4d54c5d44b,0xcbb5bc2494a50443,0xb555b45c25d3bc55,
0x4c460c5b403b5549,0xb51a9c534c551d93,0xd5bc416c44bbd13b,0x4d45d3bcdc2c44c4,
0x3cbc5b9d9aa3bdcc,0x5aca45c346033c4b,0x45cb4b3ae4b5cb3b,0xe533bebcb1b5344c,
0xbb25bba44445d55c,0x04d12535d3490c3b,0x2c5a33cab45ccd52,0x5c50dcb4e04cb6cb,
0xc353db5555552b45,0x6444454c455ad5d5,0x54d5a405aeada354,0x5196543c4643554b,
0x5dcb2bc445541c3c,0xd5cc0b3b44cb4de3,0x44c3c55dd42ceab3,0x3eb5332bc4de451c,
0x44bde4511599dc1c,0x3d54e5c52544c555,0x4d3cc4334a6d51b4,0x91491bc253d00c6a,
0xb9355bc2a2ed3645,0xb24d53c0c4c2cd52,0xad5502c5b6d3b3d5,0x4dd4c6cc5ada4dd3,
0xccd2bc35b4333c33,0xb3dc9daac6334ed3,0x59c4dc33d0ac3444,0xb32204d2c1accc5b,
0x5bc493a3a5444bac,0x5299dd4bd4bdcc54,0x5dbac5d4edc03cdd,0x3bc55c514dbdc41c,
0x135cc03bb4bde35c,0x4c24d546b54b92ba,0xb3454cc44b6cb5a1,0x23a4e3c354db3d5b,
0xd2429c25c0b3cb44,0x4b43bbb42149b3c4,0x5cbccd6c4ccdcca4,0xb54554a3a543bc45,
0x33cee4dac9cba42d,0x0c4c95a335c32444,0x190bd3b24b33ccd1,0xc3e3c4955ad43e45,
0x5c4ca635559dcc5c,0x3c20a992ddb4cb6a,0x5a4a4433a6bc49c3,0x4dd25acd462d34c2,
0xb4956dd3215c90c6,0xa44c51d954ccb65d,0xc4d9cb431cc641bb,0x3650346cb53cc4d6,
0x9b4c314de42db35c,0x449b1b0334025333,0xc1cc35a123b3c5d2,0xdc14c30950cda3ce,
0x43943c434aa04945,0xb22d34d15a456c43,0xda343ba54a3de344,0x94553b2b5b42b2d4,
0x4961444cb4229c3b,0xbd45cc44cd2ddcc1,0x54324dcbc5d254c3,0x5edc3ad4c45c4dbe,
0xfa44454344434044,0x3549234d43b2b4b3,0x433c53d32431cd4b,0x3145b935c5493552,
0xd4d3c4b54a562513,0xcc342595acada2d5,0x521b455e4bbdae54,0x53aa0544c544d53b,
0xd35da355d5bb106d,0xcd49a4d0e43b31ba,0x34ddc544bb1d44d5,0xcac30acbbc3a2c9d,
0xc344cc5dd4546652,0x54445ab5bd4c2c3d,0xcdd6cec4445d4533,0x9c542dd0a52a5b93,
0x5dc543ccc15353c9,0x25dc5dca5e1d5acb,0xdbb44dcd1cd4ccbd,0xd9ca0b434b43c4b1,
0x3549b50b0b55bc54,0x55e9b3bc4d2d45b4,0x440d556bc43c425e,0x40355c4cc34bb5a0,
0x429cb135cd54d443,0x45eaddcb3d444dc4,0x5cc03cc5315c433d,0x445c5a2cc2b152c5,
0x94925c141dac433d,0x1be44a4c45c35cae,0x55c41392d924b153,0x452b24ca430cccc2,
0xb1e32c4b19cc5ad1,0x5cb214d3342152a4,0x9cb51a259d2454b3,0xd54d43b452a55cc5,
0xcd5035c453523254,0xab3c44a4dd354453,0xca5d5311353d2c44,0x4453cc32a55dd69d,
0x54b21d4cd11c14ce,0x04c49cc2cc4b4d2d,0xb523b554d49a32c0,0x0add45301cc9acbd,
0xda4244d26bb4db50,0x54c4c4ccd5e4cc25,0x39da143dc5a9c439,0xcb5cbb31ca5dd259,
0x96d9444c255cbd4c,0x9144b24c545504e5,0x00c0d3c3c54e3cb0,0x245b2da4cdec3c55,
0xada555cd4a0bcbd5,0x46cc34635c34c1cc,0xbd3be35d2c45443d,0x5c53cb5bc5d5cc14,
0x45544ac55b445b43,0xb524ab4444b452cd,0xcb4e444d32d21a54,0xc54bb424335ce4cc,
0xc152bdad519aa39c,0x9a4c2a4104b3b52c,0xbcbccc404ac99bb3,0x2b45bbcba421cb42,
0x45dbbdcb19d53414,0x2d6492c4cdadc545,0xbd0454cb5c22bb2d,0xad4b5d5bc03333cc,
0x4ecb46c554144db5,0x44b04bcccc45d654,0x3b453c5b65145945,0xd1595dcc455aac5b,
0x34ccd52dccadbc30,0xbc4cdb9d3c504c3d,0x02c50b354dc424c2,0x65d5434d5cd9dd52,
0xb54d559435e6a433,0x4c5953639a341c56,0x6dccbc95cd555ccd,0xc0ba5d3956bccc34,
0x01c4a911b55442db,0x1c3e13254c1b6453,0x395c1bd1bb4bacb1,0xa0024b0243b2a3ab,
0xcacdc53dcc44e1dc,0x3c1a55da5d2139ca,0x4542dcb95d444cd4,0xb5dbc4cc5c35bdc2,
0x4144444bbccdadcd,0x53b2d634b234915c,0xa40b25d4d234c44d,0x14c3ad4a94d4c5bd,
0x4b94425b523cbe4b,0x3bc10cbb5354b592,0xc44c23954d54944b,0x45454c4db43c2232,
0x325cd5bc02c45a3d,0x62cb40ab3c9b544d,0xbd45edc5ac54a5cd,0x24b4cdb934d350dc,
0x5da544a5c4cc3a3d,0x95c443c3d1541444,0x43aac534d345a392,0x32c305431303d0dc,
0xd5cc4cc3eaaac5bd,0x2dcd9ccacbbcad4c,0x39ddb24c4cddc9db,0xb42bdc5daedccc05,
0xcc34545cdd04aa2c,0xdd94cce5dd9c312d,0x495b934544b559e5,0x24cc4dc5d504bd44,
0x4dc95d3cd0e5c245,0x4cd295c4caddbd44,0x2cd53cc3d0e3dc1c,0xbddd4d6c1e5dd52b,
0xd251b23a643b125c,0x6d3c5c4c10dcd9c2,0xc540cd6a4c4035c4,0x0b3034abbd50cba4,
0x4a5ccb9a923cb1bc,0xdd45cac5ddcb21d9,0x4451bcc3c5445cc3,0xd90dbbb4c4ba530c,
0x5ddabcc442a34c9c,0xb5c359c4b3bc43bb,0x95ce44ccdd54b34b,0x9244dc54c33bc5cd,
0xbccbcdc54c1a43dd,0xcbdc4ecdccdd5dec,0xcc54b4dc2dcb2252,0x51acb6d29d4999dd,
0xec3cbad333dccb3d,0x424c9ccdcb4cc95d,0x35ded4542c4a3dc3,0x5ca4924dcb40b4c3,
0xcd5b1551cdbb346d,0xbd4b46450aec55a3,0xc33ccbba5dccb424,0x3d4da2d59d4e3cbc,
0x5cc5c35cc54c0ccc,0xccbdcc446b5c4c90,0xbd5d5ddccbbadccc,0x3dc49bcc2bdbc352,
};

static int backbone_model3_conv2_quant1_threshold[64 * 14] =
{ // torch.Size([64, 14])
-1052, -728, -512, -352, -244, -136, -28, 76, 184, 292, 400, 560, 776, 1100,
-708, -488, -344, -232, -160, -88, -12, 60, 132, 208, 280, 388, 536, 756,
-772, -548, -396, -284, -212, -136, -64, 12, 88, 160, 236, 348, 496, 720,
-804, -540, -360, -228, -140, -52, 36, 124, 216, 304, 392, 524, 700, 968,
-760, -480, -292, -152, -56, 36, 132, 224, 320, 412, 504, 648, 836, 1116,
-732, -508, -360, -248, -176, -100, -24, 48, 124, 196, 272, 384, 532, 756,
-872, -624, -456, -332, -248, -164, -80, 4, 88, 168, 252, 380, 544, 796,
-940, -640, -440, -292, -192, -92, 12, 112, 212, 312, 412, 560, 760, 1060,
-864, -636, -484, -368, -292, -216, -140, -64, 12, 88, 164, 280, 432, 660,
-1372, -1028, -800, -628, -512, -396, -284, -168, -52, 60, 176, 348, 576, 924,
-660, -420, -264, -144, -64, 16, 96, 176, 256, 336, 416, 536, 696, 932,
-848, -592, -420, -292, -208, -124, -36, 48, 132, 216, 304, 432, 600, 856,
-816, -596, -448, -336, -264, -188, -116, -40, 32, 108, 180, 292, 440, 660,
-724, -488, -332, -212, -136, -56, 20, 100, 180, 256, 336, 452, 612, 848,
-624, -356, -176, -44, 48, 136, 224, 316, 404, 492, 580, 716, 892, 1160,
-1108, -824, -636, -496, -400, -304, -212, -116, -20, 72, 168, 308, 500, 784,
-884, -596, -404, -260, -164, -68, 28, 124, 220, 316, 412, 556, 748, 1036,
-952, -672, -484, -340, -248, -152, -60, 36, 128, 224, 316, 456, 648, 928,
-792, -584, -444, -340, -272, -204, -132, -64, 4, 76, 144, 248, 388, 596,
-932, -700, -544, -428, -348, -272, -192, -116, -36, 40, 120, 236, 392, 624,
-800, -532, -352, -216, -128, -36, 52, 144, 232, 324, 412, 548, 728, 996,
-680, -432, -268, -144, -64, 20, 100, 184, 264, 348, 428, 552, 716, 964,
-1128, -832, -632, -480, -380, -280, -180, -80, 20, 120, 220, 368, 568, 868,
-840, -552, -360, -216, -120, -24, 72, 168, 264, 360, 456, 600, 792, 1080,
-776, -504, -328, -192, -104, -12, 76, 168, 256, 344, 436, 572, 748, 1020,
-816, -584, -428, -312, -236, -156, -80, 0, 76, 152, 232, 348, 504, 736,
-536, -332, -196, -92, -24, 44, 112, 180, 248, 316, 388, 488, 628, 832,
-880, -612, -436, -304, -216, -128, -36, 52, 140, 228, 316, 448, 628, 892,
-724, -480, -316, -196, -112, -32, 48, 132, 212, 292, 376, 496, 660, 904,
-808, -544, -368, -236, -148, -60, 28, 116, 204, 292, 380, 512, 688, 948,
-884, -616, -436, -300, -212, -120, -32, 60, 148, 236, 328, 464, 640, 912,
-664, -440, -292, -180, -104, -32, 44, 120, 192, 268, 344, 456, 604, 828,
-1052, -752, -556, -408, -308, -208, -108, -12, 88, 188, 288, 436, 632, 932,
-932, -608, -392, -232, -124, -16, 92, 200, 308, 416, 524, 684, 900, 1224,
-908, -628, -440, -300, -204, -112, -20, 76, 168, 264, 356, 496, 684, 968,
-704, -480, -332, -220, -144, -72, 4, 80, 152, 228, 304, 416, 564, 788,
-824, -584, -424, -308, -228, -148, -68, 12, 92, 172, 252, 372, 532, 772,
-700, -464, -304, -184, -104, -28, 52, 132, 212, 292, 372, 488, 648, 888,
-1060, -792, -612, -476, -388, -300, -208, -120, -32, 60, 148, 284, 460, 728,
-752, -520, -368, -256, -180, -100, -24, 52, 128, 204, 280, 392, 548, 776,
-1144, -796, -568, -392, -276, -160, -44, 68, 184, 300, 416, 592, 820, 1168,
-944, -672, -496, -360, -272, -180, -92, 0, 88, 176, 268, 400, 580, 852,
-560, -348, -208, -100, -28, 40, 112, 180, 252, 324, 392, 500, 640, 852,
-832, -580, -408, -284, -200, -112, -28, 56, 140, 224, 312, 436, 608, 860,
-756, -536, -388, -280, -204, -132, -60, 16, 88, 160, 236, 344, 492, 712,
-708, -452, -284, -156, -72, 12, 96, 180, 268, 352, 436, 564, 732, 988,
-804, -560, -396, -276, -192, -112, -32, 52, 132, 212, 296, 416, 580, 824,
-876, -596, -404, -264, -168, -76, 20, 116, 208, 304, 400, 540, 728, 1012,
-592, -408, -284, -192, -132, -68, -8, 52, 112, 176, 236, 328, 452, 636,
-752, -520, -360, -244, -164, -88, -8, 72, 148, 228, 304, 424, 580, 816,
-780, -544, -388, -272, -192, -116, -36, 44, 120, 200, 280, 396, 552, 788,
-592, -372, -228, -120, -44, 28, 100, 172, 244, 320, 392, 500, 644, 864,
-944, -644, -444, -296, -196, -96, 4, 104, 204, 304, 404, 552, 752, 1052,
-720, -484, -328, -208, -132, -52, 28, 104, 184, 264, 340, 460, 616, 852,
-1120, -852, -676, -544, -452, -364, -276, -188, -100, -8, 80, 212, 388, 656,
-956, -656, -456, -308, -208, -108, -8, 92, 192, 292, 392, 540, 740, 1040,
-1064, -788, -604, -468, -376, -284, -192, -100, -8, 84, 176, 312, 496, 768,
-696, -448, -284, -160, -76, 8, 88, 172, 252, 336, 420, 544, 708, 956,
-624, -440, -316, -220, -160, -100, -36, 24, 88, 148, 212, 304, 428, 616,
-724, -532, -404, -308, -240, -176, -112, -48, 16, 80, 148, 244, 372, 564,
-1032, -788, -628, -504, -424, -344, -264, -184, -100, -20, 60, 180, 344, 584,
-1036, -764, -580, -444, -352, -260, -168, -76, 16, 108, 200, 336, 520, 792,
-988, -672, -464, -304, -200, -96, 12, 116, 220, 328, 432, 592, 800, 1116,
-980, -716, -536, -404, -316, -228, -136, -48, 40, 128, 216, 352, 528, 792,
};

static uint64_t backbone_model3_conv2_conv2_weight[64 * 9] =
{ // torch.Size([64, 3, 3, 1])
0x3, 0x5, 0x5, 0x3, 0x5, 0x5, 0xc, 0x5, 0x4,
0x6, 0xb, 0xe, 0xc, 0xe, 0x1, 0xc, 0x5, 0x5,
0x5, 0x5, 0x5, 0x4, 0x4, 0x5, 0xc, 0xd, 0xd,
0xd, 0xd, 0xc, 0xd, 0x9, 0xc, 0xe, 0xc, 0xa,
0x5, 0x5, 0xd, 0x4, 0x5, 0xd, 0x4, 0x1, 0xe,
0xd, 0xd, 0x2, 0xb, 0xd, 0xe, 0x3, 0x3, 0xc,
0x3, 0x4, 0xc, 0x5, 0xb, 0x5, 0x3, 0xf, 0x3,
0xd, 0xc, 0xb, 0xd, 0xe, 0xc, 0x5, 0x4, 0x1,
0x5, 0x6, 0xc, 0x0, 0x5, 0xe, 0x3, 0x6, 0xc,
0xb, 0xd, 0xd, 0x2, 0xd, 0xc, 0x2, 0xc, 0xc,
0x1, 0x4, 0x1, 0xc, 0xe, 0xd, 0xb, 0xc, 0x1,
0xc, 0xd, 0xd, 0xd, 0x5, 0x5, 0xe, 0x3, 0x4,
0xc, 0xd, 0x0, 0xd, 0xd, 0x5, 0xd, 0x4, 0x5,
0x3, 0xc, 0xc, 0x0, 0xe, 0xd, 0xc, 0x5, 0x5,
0x4, 0x2, 0x3, 0xc, 0xe, 0xb, 0xc, 0xd, 0xd,
0xd, 0xc, 0xc, 0xd, 0xd, 0xc, 0xb, 0xc, 0xd,
0x4, 0x4, 0x3, 0x3, 0xd, 0xf, 0x4, 0xd, 0xc,
0xd, 0xd, 0xd, 0xc, 0xd, 0xc, 0x4, 0x5, 0x5,
0x5, 0xc, 0xd, 0x6, 0x5, 0xd, 0x9, 0x5, 0x0,
0xd, 0x6, 0x5, 0xc, 0x5, 0xa, 0xd, 0x5, 0x5,
0xc, 0xf, 0xa, 0xc, 0x1, 0x4, 0x0, 0x1, 0x2,
0x4, 0x3, 0x4, 0x5, 0x4, 0x3, 0x4, 0x5, 0x3,
0xb, 0x5, 0x5, 0x4, 0x4, 0x5, 0x3, 0xe, 0xe,
0xc, 0xe, 0xe, 0x0, 0xc, 0xc, 0x4, 0xb, 0x1,
0x3, 0x5, 0xa, 0x5, 0x4, 0xc, 0xd, 0xf, 0xd,
0x4, 0x5, 0x5, 0xb, 0xb, 0xc, 0xd, 0xd, 0xd,
0x9, 0xd, 0x5, 0x4, 0xe, 0x4, 0xb, 0xb, 0x0,
0x5, 0x5, 0x5, 0x3, 0x3, 0x3, 0xd, 0xd, 0xc,
0x3, 0x3, 0xb, 0x1, 0xf, 0x1, 0xa, 0x3, 0x0,
0xc, 0xc, 0xd, 0xc, 0xb, 0xb, 0xd, 0xe, 0xc,
0x4, 0x5, 0x3, 0x5, 0x6, 0x5, 0x0, 0x4, 0x4,
0xa, 0x3, 0x4, 0x9, 0xd, 0xd, 0xd, 0xe, 0xe,
0x0, 0x7, 0x4, 0xc, 0x4, 0xc, 0xc, 0xc, 0xa,
0xa, 0xc, 0xa, 0xa, 0xc, 0xc, 0xd, 0xd, 0xd,
0xb, 0xc, 0x4, 0xd, 0xd, 0xb, 0xd, 0xd, 0xb,
0x4, 0x4, 0xc, 0x5, 0xd, 0xd, 0x5, 0xe, 0xc,
0xd, 0xd, 0xa, 0xd, 0x5, 0x5, 0xd, 0x6, 0x2,
0xe, 0xd, 0xa, 0xd, 0x5, 0x3, 0xc, 0x4, 0xa,
0xd, 0x2, 0x4, 0xd, 0x3, 0x6, 0xb, 0x5, 0x5,
0xc, 0x5, 0x5, 0xd, 0xc, 0x5, 0x9, 0xe, 0x5,
0xc, 0x5, 0x4, 0x3, 0x4, 0x5, 0x4, 0x5, 0x3,
0xa, 0x4, 0x5, 0xd, 0xb, 0x4, 0xe, 0xe, 0xc,
0xd, 0xd, 0x3, 0xd, 0xd, 0x4, 0xd, 0x3, 0x5,
0x3, 0x1, 0x4, 0x4, 0x4, 0x5, 0x0, 0x1, 0xb,
0x5, 0x5, 0xb, 0x4, 0x5, 0xd, 0x5, 0x5, 0xc,
0xd, 0xe, 0xd, 0xe, 0xc, 0x2, 0xb, 0x3, 0x4,
0x3, 0x6, 0x5, 0x0, 0xd, 0x6, 0x0, 0xd, 0x4,
0xd, 0xd, 0x1, 0x9, 0xe, 0xc, 0xc, 0xe, 0xc,
0x4, 0xd, 0xc, 0xd, 0x5, 0xd, 0xa, 0x6, 0xc,
0xc, 0x6, 0x6, 0xd, 0xb, 0xc, 0xb, 0x0, 0x0,
0x3, 0xd, 0xc, 0x5, 0xc, 0xd, 0x5, 0x5, 0xd,
0xb, 0x5, 0x4, 0xb, 0xd, 0x4, 0xb, 0xe, 0xc,
0xd, 0xe, 0xe, 0x2, 0xb, 0xb, 0x3, 0xb, 0xb,
0x2, 0xb, 0xd, 0xc, 0xb, 0xb, 0xc, 0xb, 0xc,
0x5, 0x4, 0xc, 0x5, 0x5, 0xa, 0x4, 0x2, 0x4,
0x2, 0x5, 0x6, 0xc, 0xa, 0x6, 0x1, 0xd, 0x4,
0x4, 0xa, 0x1, 0x5, 0x6, 0xb, 0x2, 0x5, 0x3,
0x1, 0x4, 0xb, 0x4, 0x6, 0x3, 0x4, 0x5, 0x3,
0x5, 0xa, 0xd, 0x4, 0x6, 0xc, 0xc, 0xc, 0x4,
0xc, 0xd, 0xd, 0xa, 0x4, 0x4, 0x4, 0x6, 0x5,
0x5, 0x5, 0x5, 0x6, 0xc, 0xc, 0x5, 0x5, 0xd,
0xd, 0x5, 0x4, 0xd, 0x6, 0x3, 0xa, 0x5, 0x3,
0xc, 0x3, 0x2, 0x2, 0x4, 0x5, 0x5, 0x5, 0x6,
0xc, 0x3, 0x0, 0xc, 0x6, 0x3, 0x3, 0x4, 0xa,
};

static int backbone_model3_conv2_relu2_threshold[64 * 7] =
{ // torch.Size([64, 7])
-36, 20, 76, 132, 212, 324, 492,
24, 76, 128, 180, 256, 360, 516,
64, 100, 136, 168, 224, 292, 396,
36, 88, 136, 188, 264, 364, 512,
80, 124, 168, 208, 276, 364, 492,
48, 88, 124, 164, 220, 296, 408,
-4, 64, 132, 196, 296, 432, 632,
-16, 24, 68, 112, 176, 260, 388,
4, 60, 120, 176, 264, 380, 552,
16, 56, 96, 136, 196, 276, 396,
28, 64, 104, 140, 196, 272, 384,
-16, 32, 80, 132, 204, 304, 452,
80, 116, 152, 192, 248, 324, 436,
24, 60, 100, 136, 192, 264, 376,
4, 44, 88, 128, 192, 280, 404,
8, 56, 104, 148, 220, 312, 456,
160, 220, 276, 332, 420, 532, 704,
68, 108, 148, 188, 248, 328, 448,
112, 152, 196, 236, 300, 388, 512,
56, 100, 144, 192, 256, 344, 480,
8, 52, 96, 136, 204, 288, 420,
8, 44, 84, 124, 184, 264, 384,
92, 128, 164, 200, 252, 324, 428,
24, 84, 144, 200, 288, 408, 584,
48, 104, 160, 220, 304, 416, 588,
56, 92, 124, 160, 212, 280, 384,
48, 84, 120, 156, 212, 284, 396,
24, 56, 88, 116, 164, 228, 320,
-4, 48, 100, 148, 224, 328, 480,
-32, 20, 68, 120, 200, 304, 456,
-144, -60, 20, 104, 228, 392, 644,
40, 92, 148, 200, 280, 388, 548,
68, 108, 148, 188, 248, 332, 452,
8, 56, 100, 144, 212, 300, 436,
0, 48, 92, 136, 204, 292, 428,
84, 112, 144, 172, 216, 280, 368,
96, 140, 180, 220, 284, 368, 492,
-40, 4, 48, 88, 156, 244, 376,
60, 108, 160, 208, 284, 380, 532,
60, 100, 140, 176, 236, 316, 432,
20, 56, 96, 136, 192, 268, 384,
36, 84, 128, 176, 248, 340, 484,
16, 64, 108, 152, 220, 312, 444,
60, 88, 116, 140, 184, 236, 320,
36, 76, 112, 152, 208, 288, 404,
8, 56, 104, 152, 224, 324, 468,
4, 64, 120, 180, 264, 380, 552,
-4, 48, 96, 144, 220, 316, 464,
-56, -8, 36, 84, 152, 244, 384,
44, 80, 116, 152, 208, 280, 388,
64, 92, 124, 152, 196, 256, 344,
84, 120, 160, 196, 252, 328, 444,
56, 104, 156, 208, 284, 384, 536,
12, 48, 84, 120, 172, 244, 352,
-8, 28, 64, 96, 152, 220, 328,
36, 80, 124, 168, 236, 324, 456,
-24, 8, 40, 72, 120, 184, 280,
-24, 32, 88, 148, 232, 348, 520,
0, 40, 80, 120, 180, 260, 384,
136, 188, 240, 296, 372, 480, 640,
88, 132, 176, 216, 280, 368, 496,
-36, 16, 64, 116, 192, 292, 440,
72, 128, 180, 232, 308, 412, 572,
24, 52, 80, 112, 156, 212, 300,
};

static uint64_t backbone_model4_conv1_conv1_weight[64 * 1*4] =
{ // torch.Size([64, 1, 1, 64])
0xb4b5cccbd4abc502,0xc324be42243352d2,0x5cd3c0455ddce62c,0x425634bd243c24bc,
0xbcb1cbd443b5b34c,0x03c5a355c33ccbb0,0x5bcaca5ac1c45cc6,0x49ab4b62cc095ec5,
0x34cb92c333b64c49,0x435db545d54cd424,0xb13acc126325dc1c,0xc92db4db0c54dc24,
0x264bc9ddcdcdad0b,0xc2a1c93543ca4c2d,0xe653aa55d9dcb4dd,0xca94a53b3c445c2d,
0xa43b204344ebb12c,0x4c4d4bda24200de3,0x53d5b35359402393,0x55bcb5d354039b35,
0x3d5d45c451da2333,0x55bcc6bc535ccdd9,0xd03ab42cdaa25d34,0xcabda343aa55cdb4,
0x24b49cc53045cd4c,0x53341b45343b3c45,0xba125bd534c54a95,0x9d0b44c45ad64dc3,
0x0bbddcbcd64bd2cb,0x904c254544542ddc,0x5b3c6cbb245cdcd0,0x55444b5ad903cdcd,
0xc5e33452d245193a,0x34454d35d3525553,0x4ccad5cb4b24c254,0xd14b1333d9dc29c4,
0xd2ec5e3acddcd55d,0xcdb4c444e59d5cc5,0x2545dd4ab34464a5,0x4de31a3d4d253cf5,
0xc5cc1bc19dcdcbc3,0x31ba3c54abccb5b1,0x2545cc3c103cdbcd,0x4dad5c4d49ddc435,
0xcba3d4d44bd4a439,0x9abc9cbe5adbd550,0x55c2444cdb3444cc,0x5a2413a2a354ba93,
0xbbb59352cc420a10,0xc3db5d3accdd045c,0x5c9ab9424cda4393,0x0c01b3092a543cce,
0x2c4334c344db4342,0x432bd03b34334dd1,0x2134b4c292144404,0x150b40a5a333330b,
0xad4d445b45ab45bb,0xdbcc92e43db3d25d,0xdd4aaa2e0953a249,0x04c5bd5cbb5cd5a4,
0x253d303c4cca45c4,0xd3039d5c4d02a55d,0xd544356bbc0d433e,0x5a44a41c34cca445,
0x4d4341c50ddca045,0xd5acbdbd4d245535,0x42b59ca4b5ca3a34,0x0c9d53c051b4a4a6,
0x3e55d943bdcdaacb,0x5cc2b544c5bb5c35,0xa453cc339cd05345,0xedc4cdba4cd59cbb,
0xd5bb1c50c0b954d5,0xccd5c1b4d4ae5cbc,0x4c46dc5cdf5dcd5e,0x2cd4e45becbdd5b6,
0xdbccb34bb5234cc1,0xd1d02d4d4bcd1b5a,0x553434cb4c4ab43c,0x64cdcac40a4dd324,
0x4a61d554d355c634,0xbb4b14cb6bd64cdd,0x54d1c5ccdc4465cd,0xecc54c65d3c6dc4d,
0x2b93cc5c4a5db9c3,0xccb154e5ccc4a540,0xcd534345235b4cb5,0xc434c9d3bb431dbc,
0xc3c43c44db61c511,0x2b359ddc5bcc9543,0x4bdc4bac5a4b9344,0x4d15c4b0c1ba55b3,
0x4d4ac90caaaa05da,0x09a53cb455b54ebd,0x1db3c3cbdc4d05ce,0x3135ac5cd4a0cc4c,
0x4d43d4ba234dca31,0x52215305dda39532,0x4a6123abb0345cc9,0x943e4ec4cbd35e3d,
0x34abd5453245d62a,0xccd5b54c3eb9b2d0,0xdd20344b5aca4d4c,0x443d434ab31a54cc,
0x0baa09a31ca3c3bc,0xbcdb4dbd1ddab44b,0xbcbc9c4bca3bdd2b,0x1bc9b95cba4bd2ca,
0x34463bcdc2d321c2,0x525c0d09b3b3455d,0x59c4b2a04ca04459,0x3e2434ab4ab3db46,
0xd5c42d5454a3c243,0xad31a4cb45e394ce,0x1513ca04913b3a35,0x4d40cd30442b52d3,
0x9bcca3cdc4343dc4,0x4b95434533b45d03,0x952052445cb0c35b,0x300db4d449d41436,
0xa415c339cc90534b,0x4ae15dc105ed44c4,0x29c393c2dc33393c,0x1494d44bc3155d34,
0x3e4a235e5cc2c201,0xc4c335a52b3044cb,0xb223534c425d3333,0x3aba3b3c4b05d335,
0xc5bc3c5da4ba3e2c,0x91b43cd6cd34955b,0xd4ac2b6544ca54aa,0x5c3a10b35c4524ac,
0xdc4dda6e5429ca2a,0xdb4c2dd315c0c65d,0x241b54c1c2323193,0xc52bbc5cbb51ddbc,
0x34124c35cc33bcb3,0x5b0c35a5c593bd0b,0x4332b044e5904aa5,0xe0bccc43d3012a3e,
0x932334934125b34c,0x3334c344dd2b4b2a,0x34ee4c5b34db432c,0x3f244442a9444b5e,
0x9c5545656a3c5432,0xb3dc555e54baacba,0xd5b4406ebc4a63c4,0xddc33c445304c5cd,
0x5c4cd435b4434700,0xccd4a313ccabcd3c,0xecba39c93b31bb44,0x04d2444cb3b351bd,
0xbc2cc3dd3ced1acb,0xcc4b334cb4235c45,0xb5533bb4ecc43502,0xd4a432c002ba1dc5,
0x3b12ccac42ddbc3a,0x426cdcbdbc553b2b,0x4b533ab46bb0359d,0x42c9cbe04963accd,
0xa4339c3d4cc5c59c,0xcddbcd3333dda30d,0x34bcbd5bdc5c52c9,0x44c49c6ccd344dd5,
0x3d2b44cdba6dcca2,0xcd2644d214b4cde5,0x323c5a4adadc0ec5,0x35c4a49aa44b55ad,
0xc4add42bacdd5da3,0xb1c4c443cc2b504b,0xd243ca5059dc356a,0xad234d345b3bdc2d,
0x2440204acecb21c2,0xacc5521333d15ced,0x2241c4d0c9c15353,0xccc03b5454e43c25,
0x4bb43043dc45dcb3,0xbd43dbecd5bcc454,0x3d53c3dad4d54e03,0xe5bcd4ebc3e409bd,
0xc5cd10bdcac1c4d3,0xcd5a13b6cb35451d,0xc54a4bbcacc13c5e,0xdddbb36b0c24d5b5,
0xcccb3b45c5543bc2,0xda3baa41d3bcd44c,0x5cb3c44a4aab93cb,0xd392dd44d4cecacc,
0x35553d53ed0db243,0x4049b9c5cbc4a2ab,0x5c41ed44434ab5b4,0x3d443dbab4d464cb,
0xadcbb4d543ac454b,0xb46522ad44265cb5,0xdb4d62c255d3162c,0x4d4454b35b54354c,
0xcdd354d544db3dd3,0x5c436ccb44d24d33,0xc953cce4d4dadc25,0x15acc5dcccae5a06,
0x3019244454c45994,0xa422ca5944101a34,0xb445341bd3244413,0x555222242453aa34,
0x2cc4d2443f504cbb,0x0ccb595a450c9c45,0xda6213c5d53443d4,0xde4444c34ad53d2b,
0x4d4acba4d55bc1b2,0xa36b2ac62326b3dc,0xb2b35bc35b0b21cb,0xdca4944b43eb234a,
0x4544c32c4d15ccd4,0xccbc5c54bccbd55c,0xb5625259343abdc4,0xa34bdded3cdbae3d,
0x3c545d5d9cddca20,0xd95b4edc44c595bc,0x51b334309b335453,0x9502c5c544c50ab5,
0x4513c3bdcc541033,0x43035d31cc4c3b43,0x1d9b3db3431cebcd,0x02232a3d4a5dc2bc,
0x459deb433254b532,0xccc3b9353c3a45cc,0xcc4c13c53023b2bd,0x554e0c1bcbc354cd,
0x2cd55bd9cccd4435,0x5c31bccd46135dcc,0xdcb5c1dc3dcc105b,0xe395c4c35434e4d5,
0xbcc9d5aa5cd5c3b3,0x55eccc552cbdc4c3,0x5d5ce4dd52d440db,0x52ce4e63d44c3ccd,
0xc6a3c4144344bca9,0xb4ccdc6e23ccca4c,0xe53cb2ad44ccc4d3,0xccbc35dbb4c2a4ad,
0x444ca93cdd2444d1,0x4da3b4b3c4ca152d,0x4ca42bc9dcc3b93e,0xeb23d35cc1edc055,
0x3cb6eac5c39453d4,0x3bc4a9bb03a05c5c,0xcac4933baa9bc515,0xd0350b4bc2cb4eb2,
0xb44350c1ccb5d4c1,0xbcd3cd4999be4c44,0x5d3cde4cdd449c55,0x5ce3cb5dddcd49a5,
0x555dccc2b22d5d15,0x25353dd53934ddd5,0xcdd4cdc5dac2acbd,0xb33c4451c3b36152,
};

static int backbone_model4_conv1_quant1_threshold[64 * 14] =
{ // torch.Size([64, 14])
-1060, -740, -528, -368, -260, -152, -44, 60, 168, 276, 384, 544, 756, 1076,
-1120, -804, -592, -432, -324, -220, -116, -8, 96, 204, 308, 468, 680, 1000,
-912, -620, -428, -280, -184, -88, 12, 108, 204, 304, 400, 544, 740, 1032,
-1008, -700, -496, -340, -240, -136, -32, 68, 172, 272, 376, 532, 736, 1044,
-920, -616, -412, -256, -156, -52, 48, 152, 252, 356, 456, 608, 812, 1120,
-1012, -652, -412, -232, -112, 8, 128, 248, 368, 484, 604, 784, 1024, 1384,
-1004, -644, -400, -220, -100, 20, 140, 260, 380, 500, 624, 804, 1044, 1404,
-1324, -936, -680, -484, -356, -228, -100, 32, 160, 288, 416, 612, 868, 1256,
-1324, -968, -732, -556, -436, -320, -200, -80, 36, 156, 272, 452, 688, 1044,
-2216, -1700, -1352, -1096, -920, -748, -576, -404, -232, -60, 112, 372, 716, 1232,
-1312, -940, -696, -508, -388, -264, -140, -16, 108, 232, 356, 540, 788, 1156,
-880, -592, -400, -256, -160, -64, 32, 128, 224, 320, 416, 560, 748, 1036,
-1040, -728, -520, -364, -260, -156, -52, 52, 156, 264, 368, 524, 732, 1044,
-1076, -716, -472, -292, -172, -52, 68, 188, 308, 432, 552, 732, 972, 1332,
-1320, -956, -716, -536, -412, -292, -172, -52, 72, 192, 312, 496, 736, 1100,
-952, -640, -432, -272, -168, -64, 40, 144, 248, 352, 456, 616, 824, 1136,
-892, -568, -352, -192, -84, 24, 132, 240, 348, 456, 564, 728, 944, 1268,
-1092, -756, -532, -364, -248, -136, -24, 88, 200, 312, 424, 596, 820, 1156,
-2004, -1500, -1164, -916, -748, -580, -412, -244, -76, 92, 260, 512, 848, 1352,
-920, -644, -464, -328, -236, -144, -56, 36, 128, 220, 308, 448, 628, 900,
-1108, -704, -432, -232, -96, 36, 172, 308, 444, 576, 712, 916, 1184, 1588,
-964, -680, -492, -352, -256, -160, -68, 28, 124, 216, 312, 452, 644, 928,
-1184, -864, -652, -492, -388, -280, -176, -68, 36, 144, 252, 408, 620, 940,
-1336, -996, -768, -600, -488, -372, -260, -148, -36, 80, 192, 360, 588, 928,
-920, -628, -432, -284, -188, -88, 8, 108, 204, 300, 400, 548, 740, 1036,
-828, -572, -400, -272, -188, -104, -16, 68, 152, 240, 324, 452, 624, 880,
-1400, -1052, -820, -648, -532, -416, -300, -184, -68, 48, 164, 336, 568, 916,
-868, -572, -376, -228, -128, -28, 72, 168, 268, 368, 464, 612, 812, 1108,
-1132, -824, -620, -464, -364, -260, -160, -56, 44, 148, 252, 404, 608, 916,
-704, -436, -260, -124, -36, 52, 140, 232, 320, 408, 500, 632, 812, 1076,
-956, -676, -492, -352, -260, -168, -72, 20, 112, 204, 296, 436, 624, 900,
-948, -620, -404, -240, -132, -24, 84, 192, 304, 412, 520, 684, 900, 1228,
-1068, -728, -504, -336, -224, -108, 4, 116, 228, 340, 456, 624, 848, 1188,
-908, -608, -412, -264, -164, -64, 36, 136, 232, 332, 432, 580, 780, 1076,
-944, -684, -508, -376, -288, -200, -112, -28, 60, 148, 236, 368, 544, 804,
-1336, -952, -700, -508, -380, -252, -124, 4, 128, 256, 384, 576, 832, 1212,
-1076, -672, -400, -200, -64, 68, 204, 340, 472, 608, 744, 944, 1216, 1620,
-1028, -728, -524, -376, -272, -172, -72, 28, 128, 228, 332, 480, 684, 984,
-1140, -808, -584, -416, -304, -192, -80, 32, 144, 256, 368, 532, 756, 1092,
-1008, -648, -408, -228, -104, 16, 136, 256, 376, 496, 616, 796, 1040, 1400,
-1372, -1012, -772, -592, -472, -352, -232, -112, 8, 132, 252, 432, 672, 1032,
-1072, -772, -572, -424, -324, -224, -124, -24, 76, 172, 272, 424, 624, 920,
-864, -592, -412, -276, -188, -96, -4, 84, 176, 264, 356, 492, 672, 944,
-920, -632, -440, -296, -200, -104, -8, 88, 184, 280, 376, 520, 712, 1000,
-1696, -1284, -1008, -800, -664, -524, -388, -252, -112, 24, 164, 368, 644, 1060,
-992, -696, -496, -348, -252, -152, -52, 44, 144, 240, 340, 488, 684, 980,
-1244, -924, -712, -552, -448, -340, -236, -128, -24, 84, 188, 348, 560, 880,
-1164, -836, -616, -452, -344, -232, -124, -16, 96, 204, 312, 480, 696, 1024,
-1284, -760, -412, -152, 24, 196, 372, 544, 720, 896, 1068, 1328, 1676, 2200,
-1364, -1020, -792, -620, -504, -388, -272, -160, -44, 72, 188, 360, 588, 936,
-924, -552, -300, -112, 12, 136, 260, 384, 508, 632, 760, 944, 1196, 1568,
-996, -684, -476, -320, -216, -112, -8, 96, 200, 304, 408, 564, 772, 1084,
-860, -556, -352, -200, -96, 4, 104, 208, 308, 412, 512, 664, 868, 1172,
-1184, -840, -612, -440, -324, -212, -96, 20, 132, 248, 364, 536, 764, 1108,
-1056, -696, -456, -276, -156, -36, 80, 200, 320, 440, 560, 740, 980, 1340,
-1176, -856, -644, -484, -376, -272, -164, -56, 48, 156, 264, 424, 636, 956,
-876, -608, -428, -296, -204, -116, -24, 64, 156, 244, 336, 468, 648, 916,
-1216, -836, -584, -396, -268, -144, -16, 108, 236, 360, 488, 676, 928, 1308,
-1256, -912, -684, -512, -400, -284, -172, -56, 56, 172, 284, 456, 684, 1028,
-1056, -736, -524, -368, -260, -156, -48, 56, 164, 268, 376, 536, 748, 1064,
-1424, -1040, -780, -588, -460, -328, -200, -72, 56, 184, 312, 508, 764, 1152,
-824, -580, -420, -300, -220, -140, -60, 20, 100, 184, 264, 384, 544, 784,
-1624, -1236, -976, -780, -652, -524, -392, -264, -136, -4, 124, 320, 576, 964,
-976, -652, -436, -272, -164, -56, 52, 160, 268, 376, 484, 648, 864, 1188,
};

static uint64_t backbone_model4_conv1_conv2_weight[64 * 9] =
{ // torch.Size([64, 3, 3, 1])
0x4, 0x5, 0x4, 0x5, 0x5, 0x4, 0x4, 0x5, 0xb,
0x5, 0x6, 0x4, 0x1, 0xa, 0xb, 0xc, 0xd, 0xb,
0x4, 0x6, 0x3, 0xc, 0x5, 0x4, 0xc, 0x4, 0x4,
0xd, 0xd, 0xb, 0xc, 0x5, 0x5, 0x4, 0x5, 0x5,
0x5, 0x5, 0x5, 0x0, 0xc, 0xc, 0xd, 0xd, 0xd,
0x6, 0x4, 0xd, 0x4, 0xd, 0xc, 0x4, 0x4, 0xb,
0x6, 0x5, 0xd, 0x5, 0xd, 0xc, 0xc, 0xb, 0xc,
0x2, 0x5, 0x5, 0x5, 0xa, 0x1, 0x6, 0x3, 0x3,
0x4, 0xd, 0xd, 0x2, 0x5, 0xe, 0x4, 0x4, 0xd,
0xb, 0xc, 0xc, 0x9, 0xe, 0xe, 0x3, 0xc, 0x1,
0xc, 0xc, 0xb, 0x3, 0x3, 0x4, 0x4, 0x5, 0x5,
0xe, 0x6, 0x5, 0xd, 0xc, 0x4, 0xb, 0xd, 0x2,
0x5, 0x5, 0x5, 0xb, 0x3, 0x5, 0xd, 0xd, 0x4,
0x3, 0x2, 0x4, 0xc, 0xc, 0xc, 0xd, 0xc, 0xc,
0xa, 0xd, 0xb, 0xb, 0xf, 0xc, 0x4, 0x3, 0x5,
0xb, 0x4, 0xc, 0xd, 0xc, 0x1, 0x3, 0xe, 0xd,
0x1, 0xb, 0x0, 0xc, 0x7, 0xb, 0x2, 0x4, 0x0,
0xb, 0x9, 0xd, 0x4, 0x2, 0xd, 0x6, 0x6, 0xb,
0x4, 0x4, 0xc, 0xe, 0xc, 0x5, 0xd, 0xb, 0xa,
0x3, 0xd, 0xe, 0x4, 0x5, 0xd, 0xb, 0xb, 0xb,
0xd, 0xe, 0x1, 0xc, 0xe, 0xa, 0x0, 0xb, 0x4,
0x4, 0x2, 0xc, 0xd, 0xc, 0x3, 0xe, 0xc, 0x2,
0x4, 0xc, 0xe, 0x5, 0x4, 0xd, 0x5, 0x4, 0xd,
0x5, 0x3, 0x2, 0x3, 0xd, 0xc, 0x0, 0xe, 0xc,
0xe, 0xe, 0xa, 0x3, 0x4, 0x9, 0x2, 0x4, 0x1,
0x4, 0x2, 0xc, 0x5, 0xc, 0xd, 0x6, 0xd, 0xd,
0x5, 0x4, 0xd, 0x4, 0x4, 0x4, 0x9, 0x3, 0x4,
0xd, 0x4, 0x5, 0xd, 0x1, 0x6, 0xc, 0x1, 0x3,
0xa, 0x4, 0xa, 0x4, 0xf, 0x3, 0x0, 0x3, 0x1,
0x6, 0x5, 0x3, 0xb, 0xd, 0xd, 0xc, 0xb, 0xb,
0x5, 0x9, 0xe, 0x5, 0xe, 0x3, 0x4, 0x9, 0x4,
0xc, 0xc, 0x9, 0xb, 0x2, 0xc, 0xe, 0xd, 0xb,
0xb, 0x5, 0x4, 0xc, 0xb, 0xc, 0xe, 0xe, 0xb,
0x6, 0xc, 0xd, 0x6, 0xd, 0xd, 0x5, 0x5, 0xc,
0xe, 0xd, 0x4, 0xb, 0xb, 0x5, 0x2, 0x5, 0x5,
0x5, 0x4, 0x6, 0xd, 0xc, 0xc, 0xe, 0xd, 0xe,
0x4, 0x4, 0x3, 0xd, 0xc, 0xc, 0xc, 0xd, 0xd,
0x3, 0xc, 0xc, 0xb, 0x6, 0x5, 0xe, 0xc, 0x5,
0xd, 0xd, 0xd, 0xb, 0xc, 0xc, 0xa, 0x3, 0xc,
0x5, 0x6, 0x5, 0xb, 0xc, 0xa, 0x0, 0xc, 0x4,
0xd, 0xb, 0x1, 0xe, 0x4, 0x1, 0xc, 0xc, 0xc,
0xd, 0x3, 0x5, 0xe, 0xb, 0x6, 0x2, 0x3, 0x3,
0x3, 0xa, 0x4, 0x5, 0x6, 0x3, 0xa, 0xd, 0xc,
0xd, 0xd, 0xd, 0x2, 0xc, 0x4, 0x5, 0x3, 0x5,
0x4, 0x5, 0x6, 0x3, 0x4, 0x5, 0xb, 0x1, 0x9,
0x4, 0xe, 0xe, 0xb, 0x4, 0x2, 0xc, 0xa, 0xb,
0x2, 0x4, 0x4, 0xe, 0x4, 0x4, 0xe, 0x4, 0x2,
0xb, 0x4, 0x3, 0xc, 0xb, 0x5, 0x3, 0xf, 0xc,
0x3, 0x6, 0x6, 0xc, 0x5, 0x4, 0x4, 0xb, 0x4,
0xc, 0xc, 0xd, 0xb, 0xc, 0xc, 0xb, 0xd, 0xc,
0x3, 0xd, 0xd, 0xd, 0xd, 0xc, 0xc, 0x4, 0x5,
0x6, 0x5, 0x5, 0xc, 0xd, 0x0, 0xd, 0xd, 0xd,
0x6, 0x5, 0xc, 0x5, 0xd, 0xd, 0x3, 0xc, 0x3,
0xa, 0xf, 0x3, 0x3, 0xc, 0x3, 0x2, 0xd, 0x0,
0xd, 0xd, 0xd, 0xb, 0xc, 0x1, 0xd, 0xb, 0xb,
0x1, 0xd, 0x1, 0x5, 0xe, 0x4, 0x4, 0xe, 0xa,
0xc, 0xa, 0x4, 0xe, 0x4, 0x2, 0xb, 0x5, 0x4,
0xa, 0x7, 0x5, 0x9, 0x4, 0x2, 0xb, 0x2, 0xb,
0x4, 0x4, 0x0, 0x4, 0x4, 0x5, 0x3, 0x4, 0x5,
0xc, 0xb, 0xc, 0x4, 0xc, 0xd, 0x7, 0x5, 0xa,
0xc, 0x5, 0x5, 0x5, 0xc, 0xd, 0x3, 0xd, 0xd,
0xa, 0xc, 0xb, 0xb, 0xd, 0xd, 0x5, 0x5, 0x5,
0x3, 0x4, 0x2, 0x4, 0xf, 0xb, 0xc, 0xa, 0x9,
0xa, 0xc, 0xb, 0xc, 0x7, 0xa, 0x4, 0x5, 0x2,
};

static int backbone_model4_conv1_relu2_threshold[64 * 7] =
{ // torch.Size([64, 7])
36, 88, 136, 188, 260, 360, 512,
-28, 28, 80, 132, 212, 320, 480,
20, 72, 124, 176, 252, 356, 512,
12, 52, 92, 132, 192, 272, 396,
36, 68, 104, 136, 184, 252, 348,
-4, 32, 68, 104, 160, 232, 344,
36, 68, 100, 128, 176, 240, 332,
-12, 48, 108, 168, 260, 380, 560,
-36, 0, 40, 76, 132, 204, 316,
32, 64, 96, 128, 176, 240, 336,
4, 36, 68, 100, 148, 216, 316,
0, 48, 100, 148, 224, 320, 468,
-4, 28, 56, 84, 128, 188, 276,
12, 40, 68, 96, 136, 188, 272,
96, 152, 208, 264, 348, 460, 628,
-16, 24, 68, 108, 172, 256, 384,
-8, 56, 120, 180, 276, 400, 588,
-28, 24, 80, 136, 216, 324, 488,
32, 56, 80, 108, 144, 196, 272,
-8, 32, 76, 116, 180, 264, 392,
-48, 24, 96, 168, 276, 420, 636,
0, 52, 108, 164, 244, 356, 520,
4, 40, 76, 112, 168, 240, 348,
-4, 28, 60, 96, 144, 208, 304,
44, 92, 144, 192, 268, 368, 516,
36, 80, 124, 164, 228, 316, 444,
8, 28, 48, 72, 104, 148, 212,
40, 80, 120, 160, 224, 304, 428,
4, 60, 112, 168, 248, 356, 520,
-12, 40, 88, 136, 208, 304, 448,
40, 84, 132, 176, 244, 336, 476,
44, 80, 112, 144, 196, 264, 364,
-8, 44, 92, 140, 212, 308, 452,
48, 96, 140, 188, 256, 348, 484,
8, 56, 100, 148, 216, 308, 444,
80, 124, 172, 216, 284, 376, 512,
0, 40, 84, 124, 184, 268, 388,
84, 124, 164, 204, 264, 348, 468,
56, 96, 136, 176, 236, 316, 436,
-76, -32, 16, 64, 132, 228, 368,
-4, 36, 76, 120, 180, 264, 388,
80, 116, 156, 192, 248, 320, 432,
8, 44, 80, 120, 176, 248, 360,
12, 52, 88, 124, 180, 256, 368,
32, 96, 160, 224, 316, 444, 632,
-36, 20, 72, 128, 212, 320, 484,
16, 60, 104, 144, 208, 292, 420,
-8, 52, 112, 172, 264, 384, 564,
-64, -16, 32, 84, 156, 256, 400,
36, 76, 112, 152, 208, 284, 396,
8, 44, 76, 112, 164, 232, 332,
60, 104, 152, 196, 264, 356, 492,
16, 60, 104, 148, 212, 300, 428,
64, 132, 196, 260, 360, 492, 688,
56, 96, 136, 180, 244, 324, 452,
36, 88, 140, 192, 272, 376, 536,
48, 80, 112, 144, 188, 248, 344,
-76, -8, 60, 128, 228, 360, 560,
16, 64, 108, 156, 228, 324, 464,
20, 84, 144, 208, 300, 424, 608,
16, 48, 80, 112, 156, 220, 316,
40, 84, 124, 164, 228, 312, 436,
36, 84, 132, 180, 256, 352, 500,
-4, 56, 116, 176, 264, 384, 564,
};

static uint64_t backbone_model4_conv2_conv1_weight[64 * 1*4] =
{ // torch.Size([64, 1, 1, 64])
0x594ccbdad3d4bca3,0xcd4d24a34dadc0bc,0x59ca3d5db5559dda,0xbaca4ba6edcc01c3,
0x49e436ec4c3acc5c,0x3b2c2d4d95443954,0x924b3ca45a3ba53c,0x45b04445353bc55b,
0x44c94219cc0ccb0c,0xc4453335c319c4ec,0xbb34aa033344a251,0x0cb3ac24cbcac4c4,
0xa594ab436d3c94c5,0x34dbc99cb2bddd4c,0xb5dc3a2d25ddbb43,0x5bcddd45cb5dabcc,
0xd6accd4c540543d2,0x644d11bb4bbdcc2a,0xb1454dcc094ca3de,0xd4abc4564252a5dc,
0xde113244235ba43c,0xd35c140ccc3bc221,0x321245444444594d,0x4d4a32bdb14c4455,
0x9b5cca430d453d2b,0xcaedc0d20d2b3c3e,0x23c35ac4616d91c5,0xe2d0443ddcccb45d,
0x5ccd154b495dd434,0x52419c491b3cd202,0x1bba44acc54b5dc0,0xd4bcd3b0cc434344,
0x01033acd44d54cb3,0xab4d5d345bdb24bc,0xb553dbeb5dccda4c,0xbe1c55abc4c2355d,
0x3c55b4d33cd34cac,0xb45c53d5321b44a2,0xcdccac2c44b6d065,0x5c0451d6a3d23ac2,
0xb13d5392c492c415,0xcc3cd45340b42521,0xbb43d2e3bd05cb13,0xac4d24339ab63c43,
0x5d4b455b25dd443d,0xc2343d9c433a35c5,0x2c45455cd5a2be3e,0xbdb40c3c51532355,
0xcbbb2c26ad5bcb44,0x2cdb5acbaa69bd4a,0xdc5cbcc5cd3a4ba5,0xccb4cdc2cabb9dd2,
0x0133154c5cb9331d,0x43cd3d405ddd4943,0xd9035c9db5399153,0x43b254155253c44d,
0x34432acc4d9544c3,0x5edd20555bb30b44,0x4533abb25aa5dc1b,0x545d5535a52b4434,
0x5cd322ddbb31bccc,0xca54b9513cc3c62b,0x5c2ccc5dc4cbdade,0xd4dc5ddb44cb5d4a,
0x5c4a3144255dcca3,0xb55c03442449b4c1,0x4c3444d54b454255,0x443c3b33dadb9553,
0xdd534c12233e4bd5,0x616db433334e3da4,0x4dc195c4ac55d4c5,0xc154cbc5dc32ccbc,
0x34b19ad5144446d5,0xc5de334c305de55b,0xa343574bc94ea3cb,0xa454545553304ab4,
0x4ace3422435cb2ba,0xb454cd93c3b43b33,0x4da44333d4454a23,0xc53b133c4d123c65,
0xa3d9c44b435414b4,0x449240cb2b5d3da5,0xd0c14444dc4acb64,0x54d13d1453adb9b9,
0x39393c355c5cd433,0x95dbdb6dc54d5424,0xc4cb4555523d5ac4,0x933ac4baca5bdc3c,
0x4c3c314bc132ab43,0xcab39cad543ca902,0x9cc7c22b4a0bab13,0xb4ac11a34ddc02a3,
0x33234c432b4dd544,0x133642a6c5bb14c5,0x5bba25045bcb5a54,0x4345c349e3524544,
0x4db9c3b4943cb45b,0xc345a1bcbba4db52,0x423bb5adc2d34a3b,0x544041a3b4aa4d4d,
0x41bbcbc63b2243b4,0xc43bdbc4c25b35ce,0xccbcebd544b2b945,0x9c4b4324a9c4cd43,
0x55430203932044b5,0x544c03553b236935,0xc3b5c3bbc43cb5b4,0x053d455545394d2a,
0x6525cb1ad45465d6,0x3bdc2ba424c452c4,0x32cbc6c4bc54cbd1,0x5b55b54a54cf54da,
0x3dc423cbcbdddddc,0xd15adda6ccddddaa,0x32c4cccdc33e57bd,0x4c24cd6d43acdc3b,
0xcdc51c1ca35a643c,0xdd533dddd41b99c3,0xb254ad0b1c4d4ecd,0x1cdbb12d164cb94c,
0xc4c1ab44ccc390b4,0xac1cd55d5e6445d5,0x5453b4343dcdb4dc,0x4bc3bb2c93c3caa3,
0x3bdabc440d2cbdc4,0xbdbed2535c54b333,0xb96a0c5cd3cbd9bc,0x4cc4bdd3d4c0dcc4,
0x3e44b4ccb42234bb,0xc53d303435044344,0x4c49224a9d34c19b,0xa31c45edb451a43a,
0xb0b00d4a5d2c33c4,0x32cbbc9bbdcd3a64,0xdccabbbab5ad5544,0xd3c3cc3dbb5cb01d,
0xdc1433553cc9d540,0x5546db35c03002c5,0xc31b30ca5e9a3344,0x3b4cccac4c5324d3,
0x60bac34cbcd2aab1,0x49c3bc9d2cba3251,0xd3a6b2bcb3b9c915,0xb4290b4b2b4ccdac,
0xd25d6b53dc91dd5d,0x2ddcb3d3baeacde4,0xbb146d951c52abc4,0xd4dc1ccc0dc4a60b,
0x909acb19ab3a9403,0x90b2a12920939b3a,0x1a399510cc22b939,0x304ab30a40a1bb2a,
0xb0513c55ddd255dc,0x93ccc1b4bd05ac1c,0xcdc34d245434c444,0x32d2253d4a243bcc,
0x30039babcdbc545c,0x3a1b9bcb53c26cb2,0xa9ccb5cdb9c2cbc9,0x1c24bc9c4dcaaccb,
0x93b5dcc42cb443ad,0x2525dd4dc3c43dab,0xd655cbcc2dcdb04b,0xd304c90d3464ac4d,
0xedb1a3d33abad45d,0xd5d55c3bb5b44b41,0xa40d25121c43cc54,0xdc4445de1cb44bb3,
0xc0c3b43bc56eb554,0xc595cc0ce4324bba,0xbdc43443353c54db,0x3435ec6e4a5ddd43,
0x4cdd54454b22accb,0x51c9dd2ddda53b53,0xa4bc49a5054d5a9c,0x35caccd4c54b5954,
0x4b04a02bc40c4436,0xbc53dcac4435bc4a,0x4cd5450cd23452db,0xa4d4cc5555130a3c,
0xacacc424d55cdca4,0xcb3cc644dd5ccc46,0x4c244d4dd442cc00,0x5dcbbbcbb245ddd4,
0x3a4c45b93c5ddd3d,0xd130456cac44b5cd,0xcdcbdda2c4a45bd5,0xcbcc9cd5cce35dc4,
0xdd3b44435d312a46,0xddcdc43d5ea3d43d,0x124a34ca45a5394c,0x2a2d5bd35444255b,
0xc3cb6c43dab4cbb3,0xd3432c53b9c593d4,0x64bb4c443c5b93dc,0x23dcabcacddd5ab5,
0x1d52c2ed3542344b,0x32bb25b444d46925,0x33cc4b1cac3b42cc,0x9bb43ada2940c24d,
0xd45c2d43bdbcb415,0xaaddc3503ad1553b,0xcac144b4ccc53b44,0xc2cdba3ac903c4c4,
0xbbdcdd3d35cc4bd2,0x5a43cb3d1dcb1d5c,0xebc4bcdcd2a95ccc,0xe6d3ccd355141c5c,
0x23b4c4c4144caad3,0x45053cf1b4534d34,0x39dcd2543b4d03c5,0xac4cbbb3adbd44b4,
0xa64bc33b2414c445,0x5d24352d35354d34,0x43bb462b43c41db3,0x244d4353bdd59544,
0xd5a63bb2cdcdc40c,0xb9b54bcdd14bbddd,0x01cd314923bdb2b2,0x4bc4dd5bbcdcbc3a,
0xbc5ae4c543945c35,0xb34c34d2935c9c46,0xd052c354ccbbd9b4,0x5d43433055b3e2bc,
0x3ddc403ec56acdda,0xc3dcb540c3c2acb2,0x3b4a5c6cdc4c32db,0x5dbd4cd4bb4bc44b,
0xdcbdd4a55c5cdb33,0xb05445d4b14d5a24,0xcc4c4344d43ccd53,0xcdc5dcc5ad4dbcd5,
0x1cedbd55cc4bbdc5,0xdacdccc4cc529b33,0xcc55ddd5bd4d1ac3,0xcdd3db50cc2b4dc5,
0x90aab92aa43ba504,0x93a3ba2b09939d13,0x492aa530bc32b20a,0x414ba23a4a19bb2b,
0x4cb494349d4cd44b,0xc4552b41e5344cea,0x4d5b3455c433cbb1,0xc52cc153d4634c55,
0x0c2243415d5ddddb,0x43d3cc4ddb3a3a5c,0xc4cc4caa02ed3314,0x4ac4cdbbc49acd3d,
