static uint64_t backbone_model0_conv1_weight[16 * 9] =
{ // torch.Size([16, 3, 3, 3])
0x15d, 0xc6d, 0x05e, 0x06d, 0xd6d, 0xd6d, 0xc5e, 0xd6d, 0xc6a,
0x55b, 0xc5c, 0x49d, 0xd3c, 0xe3b, 0xa53, 0xe44, 0xe33, 0xc44,
0xd34, 0xd45, 0xd25, 0xd45, 0xe55, 0xe55, 0xc45, 0xd55, 0xd45,
0x31b, 0x443, 0xa43, 0x54a, 0xdcc, 0xfdd, 0x542, 0x343, 0xc09,
0x243, 0x9cb, 0xded, 0x555, 0x441, 0xddd, 0x454, 0x244, 0xacb,
0x4c4, 0x4db, 0x4c1, 0x5c2, 0x5c3, 0x5cb, 0x5c0, 0x4c3, 0x4c3,
0x344, 0x345, 0x454, 0xc3b, 0xc1b, 0xc3a, 0xcbb, 0xcbc, 0xd9b,
0x2c5, 0xae4, 0x3eb, 0x5d5, 0x1e4, 0xce1, 0xbd5, 0x5d5, 0x5d5,
0xc33, 0x2b4, 0x4b1, 0x410, 0x4cc, 0x4dd, 0x4bb, 0x5dd, 0x4de,
0x3c9, 0x544, 0x544, 0x334, 0x0b3, 0x334, 0xa33, 0xeed, 0xedd,
0xccc, 0xeed, 0xddd, 0x440, 0xc9b, 0x933, 0x544, 0x555, 0x554,
0x512, 0x555, 0x554, 0xb90, 0x144, 0xb43, 0x332, 0xedd, 0xdcd,
0xddd, 0xbdc, 0x454, 0xdde, 0xccc, 0x555, 0x393, 0x435, 0x454,
0x344, 0x334, 0x434, 0xdee, 0xcdc, 0x454, 0xcdd, 0xbac, 0x534,
0x454, 0x556, 0x456, 0x42a, 0x14c, 0x422, 0xced, 0xdfd, 0x9dd,
0x455, 0x555, 0x444, 0x555, 0xa33, 0xbdd, 0x013, 0xddd, 0xeee,
};

static int backbone_model0_relu1_threshold[16 * 7] =
{ // torch.Size([16, 7])
56, 289, 523, 756, 1106, 1572, 2272,
-132, 88, 309, 529, 859, 1300, 1961,
8, 445, 882, 1320, 1976, 2850, 4162,
-150, 50, 249, 449, 748, 1147, 1746,
-67, 106, 279, 451, 710, 1056, 1574,
359, 723, 1087, 1451, 1997, 2725, 3817,
125, 301, 477, 652, 916, 1268, 1795,
-109, 161, 431, 701, 1107, 1647, 2457,
-149, 191, 530, 870, 1380, 2059, 3078,
-122, 88, 297, 506, 820, 1239, 1867,
-94, 95, 284, 473, 756, 1134, 1701,
80, 381, 681, 981, 1431, 2031, 2932,
-80, 104, 288, 472, 748, 1116, 1668,
-103, 70, 244, 417, 677, 1024, 1545,
-60, 108, 277, 446, 699, 1036, 1542,
-94, 77, 248, 419, 676, 1018, 1531,
};

static uint64_t backbone_model0_conv2_conv1_weight[16 * 1] =
{ // torch.Size([16, 1, 1, 16])
0xb2c30ad12562e2d4,
0x9b4bbb97416b0ed0,
0xc4544d43cccdd040,
0xcd95c5dc55443344,
0xbccb10cdf1ca4cc9,
0xc9a9b9c6c45bddd5,
0x1410bacd535bddde,
0x44cc4c54cdb450b3,
0xccdac4da533543b9,
0x22c13acc3363a666,
0x54dd3d549bc4401b,
0xdcdcd5c035254bcb,
0xc356c3ccc11cd232,
0xc5565c5ac1acc31b,
0x54dd5b42a44553c1,
0x663d5c5ad04cc4b3,
};

static int backbone_model0_conv2_quant1_threshold[16 * 14] =
{ // torch.Size([16, 14])
-588, -420, -308, -224, -168, -112, -56, 1, 57, 113, 169, 253, 365, 533,
-622, -435, -309, -216, -153, -90, -28, 35, 97, 160, 222, 316, 441, 629,
-246, -172, -123, -86, -61, -37, -12, 13, 37, 62, 87, 124, 173, 247,
-451, -318, -230, -163, -119, -75, -30, 14, 58, 102, 147, 213, 302, 434,
-635, -470, -360, -278, -223, -168, -113, -58, -4, 51, 106, 189, 298, 463,
-493, -349, -253, -181, -133, -85, -37, 11, 60, 108, 156, 228, 324, 468,
-514, -370, -274, -202, -154, -106, -59, -11, 37, 85, 133, 205, 301, 445,
-357, -245, -170, -113, -76, -38, -1, 37, 74, 112, 149, 206, 281, 393,
-477, -341, -251, -183, -138, -93, -48, -3, 42, 87, 133, 200, 291, 426,
-453, -302, -201, -126, -76, -25, 25, 75, 125, 176, 226, 301, 402, 553,
-464, -320, -224, -151, -103, -55, -7, 41, 89, 138, 186, 258, 354, 499,
-483, -342, -249, -179, -132, -85, -38, 9, 55, 102, 149, 219, 313, 453,
-441, -310, -223, -157, -113, -70, -26, 18, 61, 105, 149, 214, 302, 433,
-500, -344, -240, -162, -110, -58, -6, 46, 98, 150, 202, 280, 384, 540,
-305, -208, -143, -95, -62, -30, 2, 35, 67, 100, 132, 180, 245, 342,
-558, -385, -270, -184, -127, -69, -12, 46, 103, 161, 218, 305, 420, 592,
};

static uint64_t backbone_model0_conv2_conv2_weight[16 * 9] =
{ // torch.Size([16, 3, 3, 1])
0x4, 0x3, 0x5, 0x3, 0xc, 0xd, 0x4, 0xd, 0xf,
0x5, 0x5, 0x5, 0x5, 0xd, 0xd, 0x5, 0xd, 0xf,
0xb, 0x6, 0x9, 0xd, 0x4, 0x6, 0xd, 0xd, 0x6,
0x4, 0x5, 0x4, 0xc, 0xf, 0xf, 0x9, 0x1, 0x5,
0x4, 0xa, 0x4, 0x3, 0xd, 0xd, 0xa, 0xd, 0xe,
0xc, 0xd, 0xd, 0xc, 0x4, 0x5, 0x1, 0x6, 0x6,
0xb, 0xc, 0xb, 0xb, 0x5, 0x5, 0x0, 0x6, 0x6,
0x9, 0x3, 0x5, 0x4, 0x6, 0xe, 0x3, 0xe, 0xf,
0x4, 0x5, 0x3, 0xc, 0x3, 0x6, 0xc, 0xf, 0xf,
0x4, 0x2, 0x9, 0x4, 0xd, 0xe, 0x4, 0xe, 0xf,
0xc, 0xd, 0xc, 0xc, 0xd, 0x5, 0xc, 0x6, 0x7,
0x3, 0xc, 0xa, 0x5, 0x5, 0xe, 0x1, 0x7, 0x6,
0x3, 0xc, 0xc, 0x5, 0xe, 0xc, 0x6, 0xe, 0x3,
0x3, 0xd, 0xb, 0x4, 0x9, 0xf, 0x4, 0x5, 0xe,
0x4, 0x0, 0xd, 0x5, 0xd, 0xd, 0x5, 0xf, 0x4,
0x4, 0x4, 0x0, 0xd, 0xf, 0xe, 0xc, 0xb, 0xb,
};

static int backbone_model0_conv2_relu2_threshold[16 * 7] =
{ // torch.Size([16, 7])
-21, 63, 148, 232, 358, 526, 778,
-8, 52, 112, 172, 262, 382, 562,
41, 151, 261, 370, 535, 754, 1083,
25, 137, 249, 361, 529, 753, 1089,
0, 55, 109, 163, 245, 354, 517,
-3, 54, 111, 168, 253, 367, 538,
-13, 61, 135, 209, 320, 468, 690,
48, 139, 230, 321, 458, 640, 913,
46, 156, 265, 375, 540, 760, 1090,
34, 150, 265, 380, 554, 784, 1131,
36, 115, 194, 272, 390, 548, 784,
45, 150, 256, 362, 521, 732, 1049,
50, 122, 194, 266, 373, 517, 733,
29, 99, 168, 237, 341, 480, 688,
39, 140, 241, 343, 494, 697, 1000,
-11, 99, 208, 318, 483, 703, 1033,
};

static uint64_t backbone_model1_conv1_conv1_weight[16 * 1] =
{ // torch.Size([16, 1, 1, 16])
0xce5545abd2bb4cb4,
0xcb02aa6dc24322eb,
0x7bbc44b5c04baa4b,
0xd954bd1de334f51b,
0x0babccb0b55d2d3e,
0xd2d34c4adac346c5,
0xba732d06d443a34a,
0x34b13453265a4aec,
0x23431ccba3eda353,
0x9a3ab0bc05599a4e,
0xcac2b4c34cd44b96,
0x35a3b42f6031cdab,
0xc4c3f63b444a0d42,
0xb667c4ac4aa1b5ba,
0x192a24b435d7a16c,
0xab3b997c17d5b92c,
};

static int backbone_model1_conv1_quant1_threshold[16 * 14] =
{ // torch.Size([16, 14])
-435, -307, -221, -157, -114, -72, -29, 14, 57, 99, 142, 206, 292, 420,
-581, -414, -303, -220, -164, -109, -53, 2, 58, 113, 169, 252, 363, 529,
-489, -329, -223, -143, -90, -37, 16, 69, 122, 176, 229, 308, 415, 574,
-840, -604, -446, -328, -250, -171, -92, -14, 65, 144, 222, 341, 498, 734,
-553, -396, -291, -212, -159, -107, -54, -2, 51, 103, 156, 235, 340, 498,
-410, -285, -202, -140, -98, -57, -15, 26, 68, 110, 151, 213, 297, 421,
-609, -411, -279, -180, -114, -48, 18, 84, 151, 217, 283, 382, 514, 712,
-543, -368, -252, -165, -106, -48, 10, 68, 126, 184, 243, 330, 446, 621,
-531, -378, -276, -199, -148, -97, -46, 6, 57, 108, 159, 235, 338, 491,
-509, -359, -259, -184, -134, -84, -34, 16, 66, 116, 166, 241, 341, 491,
-510, -351, -245, -165, -112, -59, -5, 48, 101, 154, 207, 287, 393, 553,
-483, -340, -244, -173, -125, -77, -30, 18, 66, 113, 161, 233, 328, 471,
-515, -363, -261, -185, -134, -83, -32, 19, 69, 120, 171, 247, 349, 501,
-690, -467, -318, -206, -131, -57, 18, 92, 167, 241, 316, 428, 577, 800,
-509, -336, -220, -134, -76, -18, 40, 98, 155, 213, 271, 358, 473, 647,
-649, -440, -300, -195, -125, -55, 14, 84, 154, 224, 294, 399, 538, 748,
};

static uint64_t backbone_model1_conv1_conv2_weight[16 * 9] =
{ // torch.Size([16, 3, 3, 1])
0xb, 0x3, 0xb, 0x4, 0xe, 0xb, 0xc, 0xe, 0x5,
0xc, 0x3, 0x2, 0x0, 0xf, 0xa, 0x1, 0xc, 0x4,
0x2, 0x1, 0x2, 0x3, 0x3, 0xa, 0x4, 0xd, 0xf,
0x0, 0xc, 0x1, 0x2, 0xd, 0x2, 0x3, 0xf, 0xd,
0xc, 0x1, 0x4, 0xd, 0x4, 0x6, 0xd, 0xb, 0x2,
0x3, 0x9, 0x3, 0x4, 0x1, 0xb, 0xb, 0x7, 0x0,
0x0, 0x9, 0xb, 0xc, 0x4, 0x1, 0xa, 0x3, 0x7,
0x4, 0x3, 0xc, 0xc, 0x7, 0xb, 0xb, 0x0, 0xb,
0x4, 0x5, 0x5, 0x4, 0xa, 0xb, 0xb, 0xd, 0xd,
0x4, 0x6, 0x4, 0x4, 0xc, 0x1, 0xc, 0xd, 0xc,
0x1, 0x2, 0x3, 0xb, 0x6, 0x4, 0x0, 0xc, 0xd,
0x3, 0x9, 0x2, 0xc, 0x6, 0x6, 0xb, 0x4, 0x1,
0xb, 0x1, 0xb, 0x3, 0xd, 0xf, 0xb, 0xb, 0xa,
0x0, 0x9, 0xa, 0x9, 0x4, 0x7, 0xb, 0x1, 0x4,
0xa, 0xa, 0xb, 0xb, 0x5, 0xa, 0xb, 0x6, 0x4,
0x3, 0x3, 0x3, 0x0, 0xc, 0x3, 0x3, 0xf, 0xc,
};

static int backbone_model1_conv1_relu2_threshold[16 * 7] =
{ // torch.Size([16, 7])
-22, 48, 117, 186, 291, 429, 637,
-23, 69, 161, 254, 392, 577, 853,
-25, 55, 135, 215, 335, 495, 735,
-16, 68, 152, 236, 363, 531, 783,
-5, 45, 96, 146, 222, 323, 475,
-30, 51, 132, 212, 333, 494, 735,
-8, 64, 135, 206, 313, 455, 669,
-14, 53, 120, 187, 287, 421, 622,
22, 44, 66, 88, 121, 166, 232,
3, 39, 76, 112, 167, 241, 351,
2, 34, 65, 97, 144, 207, 301,
-35, 40, 115, 190, 302, 452, 677,
-38, 57, 152, 246, 388, 577, 861,
-9, 71, 151, 232, 352, 512, 753,
-9, 40, 89, 138, 212, 310, 457,
-19, 61, 142, 223, 344, 505, 748,
};

static uint64_t backbone_model1_conv2_conv1_weight[64 * 1] =
{ // torch.Size([64, 1, 1, 16])
0x303236a3dcac3d93,
0xccc1cc944a239cec,
0x10f2c1cc4cc43343,
0xab5d44cdcc30dcca,
0x1b9d54ab9eec5abc,
0x0b40a442bbdcde24,
0x251142a45b2111e9,
0x1329035a143b6dbb,
0x56443d42a5314c5b,
0xd0c5c4ad4d4d5cdc,
0x6d9aa2aae223bcbb,
0xa045c4c4c642d554,
0x414b24bcecaa0369,
0x544ace594451252d,
0x30a66543c49c5c53,
0x3254522199edbd13,
0x6d42a23243b3cac9,
0xb42d51355cdc54b4,
0xcb0254d5c3a42eb5,
0x925d4dc302cc1335,
0xd55acac45c412ad9,
0xce445ddd4b40a5d2,
0x444226c4ec43535c,
0xdc9bbd4c6445c3c4,
0xd1a45acc43b4fcc3,
0xccc541d0c4eddb4c,
0xc2499b5c75ab33c0,
0xcc3dc565a99d444d,
0xccd1edba455ac5cd,
0x4025b334012e432e,
0x42503ab4b466a247,
0x64dc50c4da91e542,
0x327c54cbcbb0c334,
0xa9a1b03ca44b23de,
0xbad954db1ec3dbcc,
0x44ec4a53d42dccc2,
0x432d325b3c563945,
0xa2adec9a9b2c32cb,
0xdc5443cc4a4dbbcd,
0x566bbc4145554b5c,
0x20cd405c4303443c,
0xbc0ceb3abbcbaf39,
0x3da5d05235a46d42,
0x41c4cc3dc355f3c3,
0x65e3c3421ac44954,
0x442c2034c33bf2bb,
0x246d2e2c241cc9b4,
0xdcb343dc44ecdeb5,
0xddbaca4c66d33333,
0xc605d4bcd44cccc4,
0x3a556ce04b1c43b2,
0x33999eb463bbc3e4,
0x404e54043cd23643,
0xdec333cb3c54bbd4,
0xee44b54c54005e34,
0xab3b333cbbdd132e,
0xb130332532c46d55,
0x9337ccccb61c1c33,
0xabcdd365cc652c24,
0x65425c5526dbd454,
0x35b3b9454542d543,
0x49e62bd545334b44,
0x934dcd534d2e359d,
0x13d35bc43de15c24,
};

static int backbone_model1_conv2_quant1_threshold[64 * 14] =
{ // torch.Size([64, 14])
-603, -421, -300, -209, -149, -88, -27, 33, 94, 154, 215, 305, 427, 608,
-681, -494, -370, -277, -215, -153, -91, -29, 34, 96, 158, 251, 375, 561,
-972, -692, -505, -364, -271, -177, -84, 10, 103, 197, 290, 431, 618, 898,
-535, -383, -281, -205, -155, -104, -53, -2, 48, 99, 150, 226, 327, 480,
-727, -525, -390, -289, -221, -154, -86, -19, 49, 116, 184, 285, 420, 622,
-564, -407, -302, -224, -172, -119, -67, -15, 37, 90, 142, 220, 325, 482,
-536, -372, -263, -181, -127, -72, -17, 37, 92, 146, 201, 282, 392, 555,
-581, -401, -282, -192, -132, -72, -13, 47, 107, 167, 227, 316, 436, 615,
-658, -444, -301, -194, -122, -51, 21, 92, 163, 235, 306, 413, 556, 770,
-863, -616, -451, -327, -245, -162, -80, 2, 85, 167, 249, 373, 538, 785,
-739, -522, -378, -270, -197, -125, -53, 19, 91, 164, 236, 344, 489, 705,
-580, -392, -267, -173, -110, -48, 15, 78, 140, 203, 266, 360, 485, 673,
-684, -476, -337, -233, -163, -94, -24, 45, 115, 184, 254, 358, 497, 705,
-987, -696, -502, -356, -259, -162, -65, 32, 129, 226, 323, 469, 663, 954,
-531, -351, -232, -142, -82, -22, 38, 98, 158, 218, 278, 368, 488, 667,
-626, -444, -322, -231, -170, -109, -48, 13, 74, 135, 196, 287, 409, 591,
-518, -359, -253, -173, -120, -67, -13, 40, 93, 146, 199, 279, 385, 545,
-572, -398, -283, -196, -138, -80, -23, 35, 93, 151, 209, 295, 411, 585,
-583, -408, -292, -205, -147, -88, -30, 28, 86, 144, 202, 290, 406, 580,
-497, -346, -245, -170, -119, -69, -19, 32, 82, 132, 183, 258, 359, 510,
-680, -479, -345, -245, -178, -111, -44, 23, 90, 157, 224, 324, 458, 659,
-668, -467, -333, -232, -165, -97, -30, 37, 104, 171, 238, 339, 473, 675,
-767, -524, -362, -241, -160, -79, 2, 83, 164, 244, 325, 447, 608, 851,
-807, -564, -402, -281, -200, -119, -38, 43, 124, 205, 285, 407, 569, 811,
-757, -534, -385, -273, -199, -124, -50, 25, 99, 174, 248, 360, 509, 732,
-732, -523, -384, -280, -211, -141, -72, -2, 67, 137, 206, 311, 450, 658,
-614, -423, -295, -199, -136, -72, -8, 56, 120, 184, 248, 343, 471, 662,
-581, -409, -295, -209, -152, -95, -38, 20, 77, 134, 191, 277, 391, 563,
-690, -492, -360, -261, -195, -129, -63, 3, 69, 135, 201, 300, 432, 631,
-704, -499, -363, -261, -193, -125, -57, 11, 79, 147, 215, 317, 453, 657,
-557, -363, -233, -136, -71, -6, 59, 124, 189, 253, 318, 416, 545, 740,
-653, -447, -309, -205, -136, -67, 2, 71, 140, 209, 277, 381, 519, 726,
-664, -455, -315, -211, -141, -72, -2, 68, 137, 207, 277, 381, 521, 730,
-561, -401, -295, -214, -161, -108, -54, -1, 52, 106, 159, 239, 346, 506,
-646, -462, -339, -247, -185, -124, -63, -1, 60, 121, 183, 275, 398, 582,
-637, -453, -330, -238, -176, -115, -53, 8, 69, 131, 192, 284, 407, 591,
-615, -413, -278, -177, -109, -42, 26, 93, 161, 228, 296, 397, 532, 734,
-483, -354, -267, -203, -159, -116, -73, -30, 13, 57, 100, 165, 251, 380,
-598, -425, -309, -222, -165, -107, -49, 9, 66, 124, 182, 268, 384, 557,
-745, -498, -334, -211, -129, -46, 36, 118, 200, 282, 364, 488, 652, 898,
-458, -316, -222, -151, -104, -56, -9, 38, 85, 133, 180, 251, 345, 487,
-729, -537, -409, -313, -249, -185, -121, -57, 8, 72, 136, 232, 360, 552,
-831, -574, -403, -274, -189, -103, -17, 68, 154, 240, 325, 454, 625, 882,
-754, -526, -374, -260, -183, -107, -31, 45, 121, 197, 273, 387, 540, 768,
-632, -430, -296, -195, -127, -60, 7, 75, 142, 209, 277, 377, 512, 714,
-1054, -748, -544, -391, -288, -186, -84, 18, 120, 222, 324, 477, 682, 988,
-644, -454, -327, -232, -169, -105, -42, 21, 84, 148, 211, 306, 433, 623,
-741, -533, -395, -291, -222, -153, -84, -15, 54, 123, 192, 296, 434, 642,
-1017, -708, -502, -348, -245, -142, -38, 65, 168, 271, 374, 528, 734, 1043,
-723, -505, -360, -251, -178, -106, -33, 39, 112, 184, 257, 366, 511, 728,
-720, -496, -347, -235, -160, -85, -11, 64, 139, 213, 288, 400, 549, 773,
-835, -591, -429, -307, -226, -144, -63, 18, 99, 181, 262, 384, 547, 790,
-592, -407, -284, -192, -130, -69, -7, 54, 116, 177, 239, 331, 454, 639,
-842, -602, -442, -322, -242, -163, -83, -3, 77, 157, 237, 357, 517, 757,
-896, -627, -448, -314, -224, -134, -45, 45, 134, 224, 313, 448, 627, 895,
-546, -396, -296, -221, -171, -121, -71, -21, 29, 79, 129, 204, 305, 455,
-640, -442, -310, -211, -146, -80, -14, 52, 118, 184, 250, 349, 481, 678,
-810, -553, -381, -252, -167, -81, 5, 91, 176, 262, 348, 476, 648, 905,
-818, -568, -401, -276, -192, -109, -26, 58, 141, 224, 308, 433, 599, 850,
-645, -432, -290, -184, -113, -42, 29, 100, 171, 242, 313, 420, 562, 775,
-471, -314, -208, -129, -77, -24, 28, 81, 133, 186, 239, 318, 423, 580,
-564, -380, -258, -167, -106, -45, 16, 77, 138, 199, 260, 352, 474, 657,
-663, -471, -343, -248, -184, -120, -56, 8, 72, 136, 199, 295, 423, 615,
-581, -410, -295, -209, -152, -95, -37, 20, 77, 134, 192, 278, 392, 564,
};

static uint64_t backbone_model1_conv2_conv2_weight[64 * 9] =
{ // torch.Size([64, 3, 3, 1])
0xc, 0xa, 0x4, 0xd, 0xd, 0x6, 0xc, 0x4, 0x4,
0x6, 0x5, 0x5, 0x5, 0xb, 0x9, 0xd, 0xd, 0xd,
0x4, 0xd, 0x9, 0x4, 0xd, 0x2, 0x9, 0xe, 0x3,
0x5, 0xb, 0xd, 0x6, 0xb, 0xd, 0x5, 0x1, 0xa,
0xd, 0x4, 0x4, 0x9, 0xe, 0x5, 0x4, 0x0, 0xd,
0x5, 0x6, 0x5, 0xd, 0xe, 0xd, 0x4, 0x4, 0x3,
0xd, 0xb, 0x5, 0xe, 0x2, 0x5, 0xd, 0x3, 0x5,
0xc, 0x0, 0xd, 0xc, 0x3, 0x5, 0xb, 0x5, 0x6,
0x4, 0x2, 0xc, 0x5, 0x6, 0xc, 0xc, 0xb, 0xc,
0x3, 0xc, 0xb, 0x1, 0xc, 0xa, 0xd, 0xd, 0xc,
0xd, 0xe, 0xe, 0xc, 0xd, 0xc, 0x5, 0x6, 0x5,
0xd, 0xc, 0xa, 0xb, 0xe, 0x4, 0x1, 0xd, 0xa,
0x0, 0x5, 0x6, 0x9, 0xc, 0x5, 0xd, 0xe, 0xd,
0xc, 0xe, 0x1, 0xc, 0x3, 0xc, 0xa, 0x5, 0x2,
0x3, 0x4, 0x2, 0x2, 0x4, 0x3, 0xc, 0xf, 0x9,
0xa, 0xa, 0x1, 0xa, 0xc, 0xe, 0x2, 0x5, 0x5,
0x5, 0x6, 0x5, 0x1, 0x3, 0x2, 0xd, 0xd, 0xc,
0x3, 0x2, 0x3, 0x9, 0xb, 0xd, 0x4, 0xd, 0xe,
0x9, 0xa, 0x3, 0xb, 0xa, 0x5, 0x4, 0x7, 0xc,
0xd, 0xc, 0x3, 0xd, 0x5, 0xb, 0x2, 0x6, 0xd,
0x5, 0x6, 0x3, 0x4, 0x5, 0x1, 0xd, 0xc, 0xd,
0x4, 0xc, 0x5, 0x4, 0x6, 0x3, 0xc, 0x3, 0xd,
0x3, 0x3, 0x9, 0xa, 0x5, 0xc, 0x9, 0x6, 0x9,
0xb, 0x4, 0x6, 0xd, 0x4, 0x6, 0xe, 0xd, 0x9,
0xa, 0x5, 0x4, 0x9, 0x7, 0x4, 0x3, 0xc, 0xd,
0x3, 0xb, 0xa, 0x4, 0x6, 0x5, 0xc, 0xb, 0x5,
0xe, 0xd, 0xc, 0xd, 0xd, 0xc, 0xb, 0x6, 0x6,
0xb, 0xc, 0x1, 0xc, 0xc, 0x5, 0x5, 0x6, 0xa,
0xc, 0x2, 0x0, 0xc, 0xc, 0x5, 0xa, 0x5, 0x6,
0xc, 0xd, 0x2, 0xc, 0xe, 0x4, 0xa, 0xc, 0x4,
0x3, 0xa, 0xc, 0x9, 0xc, 0xf, 0xb, 0x3, 0xc,
0xd, 0xc, 0x6, 0xd, 0xc, 0x5, 0xd, 0xc, 0x5,
0xa, 0xb, 0x3, 0xc, 0xb, 0x3, 0xe, 0xe, 0x4,
0xb, 0xb, 0x5, 0xd, 0x6, 0x1, 0xb, 0x5, 0xd,
0xa, 0xc, 0xb, 0x1, 0x4, 0xc, 0x4, 0x7, 0x5,
0xd, 0xc, 0xc, 0xd, 0xb, 0x4, 0xb, 0x5, 0x5,
0xd, 0x2, 0x4, 0xd, 0xd, 0x5, 0x4, 0xd, 0xb,
0xd, 0xc, 0x2, 0x6, 0x6, 0x3, 0xc, 0xd, 0x0,
0x4, 0xc, 0x4, 0x3, 0x5, 0x5, 0xd, 0xc, 0x5,
0x5, 0x6, 0x1, 0x3, 0xc, 0x5, 0xd, 0xe, 0xb,
0xd, 0xc, 0xd, 0x4, 0x2, 0xa, 0x5, 0x4, 0x3,
0xa, 0xd, 0x2, 0x5, 0x6, 0x2, 0xc, 0xc, 0xb,
0xd, 0xd, 0xc, 0x4, 0xc, 0xc, 0x6, 0x5, 0x0,
0x4, 0xb, 0xd, 0x5, 0x5, 0xd, 0x5, 0x6, 0xd,
0x4, 0x5, 0x3, 0x2, 0x2, 0xc, 0xc, 0xe, 0xd,
0x4, 0xe, 0xe, 0x3, 0xc, 0xb, 0x4, 0x3, 0xd,
0xb, 0xc, 0xb, 0xd, 0xd, 0xa, 0x9, 0xd, 0x4,
0xa, 0x4, 0xb, 0xa, 0xc, 0xb, 0x5, 0x7, 0x4,
0xb, 0x5, 0x5, 0x3, 0x4, 0x3, 0x3, 0x4, 0x5,
0x3, 0x9, 0xc, 0x4, 0x9, 0xd, 0x4, 0xd, 0xe,
0xc, 0xd, 0xb, 0xd, 0xd, 0xc, 0x5, 0x5, 0x0,
0x4, 0x3, 0xd, 0x5, 0xc, 0xd, 0x6, 0xa, 0xd,
0x4, 0xa, 0xc, 0x4, 0xc, 0xc, 0xd, 0xe, 0x4,
0xd, 0xa, 0x4, 0xc, 0x6, 0x5, 0xe, 0x6, 0x6,
0x3, 0x4, 0xa, 0xa, 0x6, 0x3, 0x9, 0x5, 0x3,
0x4, 0x4, 0xc, 0xb, 0x6, 0xe, 0x3, 0x5, 0xd,
0x4, 0xc, 0xe, 0x3, 0xb, 0xe, 0x4, 0x5, 0xc,
0x4, 0xa, 0x3, 0xd, 0x4, 0x5, 0xf, 0xd, 0x5,
0x4, 0x3, 0x1, 0x4, 0x4, 0xb, 0xc, 0x5, 0x6,
0xc, 0x3, 0xc, 0x2, 0xc, 0xc, 0x2, 0xe, 0x1,
0xd, 0xe, 0xc, 0x9, 0x4, 0x4, 0x2, 0x5, 0x5,
0xb, 0xc, 0xb, 0x4, 0xc, 0xc, 0x4, 0x6, 0x4,
0x3, 0x6, 0x4, 0x6, 0x9, 0xc, 0x3, 0xd, 0xa,
0xb, 0xa, 0x9, 0x6, 0x6, 0xd, 0x9, 0xb, 0x3,
};

static int backbone_model1_conv2_relu2_threshold[64 * 7] =
{ // torch.Size([64, 7])
14, 45, 77, 108, 154, 216, 310,
25, 70, 115, 160, 228, 318, 452,
8, 50, 93, 136, 200, 286, 415,
21, 61, 101, 141, 201, 281, 402,
16, 48, 80, 111, 159, 223, 318,
28, 82, 137, 192, 275, 385, 549,
21, 47, 73, 99, 139, 191, 270,
19, 67, 115, 163, 235, 331, 475,
20, 60, 100, 140, 200, 280, 399,
13, 46, 78, 111, 160, 226, 324,
30, 101, 172, 243, 350, 492, 705,
13, 62, 111, 160, 234, 332, 479,
24, 64, 105, 146, 207, 288, 411,
-8, 20, 48, 76, 118, 174, 258,
12, 74, 135, 197, 289, 412, 597,
9, 47, 85, 123, 179, 255, 369,
32, 69, 107, 145, 201, 277, 390,
10, 62, 114, 166, 244, 348, 504,
23, 80, 138, 195, 281, 396, 569,
24, 57, 91, 125, 175, 242, 343,
28, 62, 96, 130, 181, 248, 350,
7, 56, 106, 156, 230, 330, 479,
10, 51, 91, 132, 192, 273, 395,
33, 90, 147, 204, 289, 403, 574,
-4, 68, 141, 214, 323, 468, 686,
13, 50, 86, 123, 178, 251, 362,
9, 86, 162, 239, 354, 508, 738,
29, 74, 118, 163, 229, 318, 452,
22, 78, 134, 191, 275, 388, 557,
13, 55, 97, 138, 201, 284, 409,
9, 81, 153, 225, 332, 476, 692,
18, 61, 104, 147, 212, 297, 426,
3, 65, 128, 190, 283, 407, 594,
17, 57, 96, 136, 195, 274, 392,
20, 85, 150, 216, 313, 444, 640,
17, 61, 106, 150, 217, 306, 440,
19, 55, 90, 125, 178, 248, 354,
29, 80, 130, 180, 256, 357, 508,
17, 55, 93, 130, 187, 262, 375,
27, 58, 89, 120, 166, 228, 321,
18, 49, 79, 110, 156, 217, 309,
19, 54, 90, 125, 179, 250, 356,
17, 49, 80, 111, 158, 221, 315,
14, 60, 105, 151, 220, 311, 448,
16, 63, 111, 158, 230, 325, 467,
30, 83, 136, 189, 268, 374, 533,
13, 49, 85, 121, 175, 247, 355,
12, 88, 164, 241, 355, 508, 736,
27, 70, 112, 155, 219, 305, 433,
10, 67, 124, 182, 267, 382, 553,
30, 71, 111, 151, 212, 293, 414,
19, 45, 71, 97, 136, 188, 266,
1, 61, 120, 180, 269, 388, 567,
54, 112, 170, 227, 314, 430, 603,
24, 67, 110, 154, 219, 305, 436,
28, 77, 126, 176, 250, 349, 497,
7, 52, 97, 143, 210, 301, 437,
11, 75, 138, 202, 297, 424, 615,
9, 42, 75, 108, 157, 223, 322,
11, 57, 103, 149, 218, 311, 449,
26, 69, 111, 154, 218, 303, 431,
15, 50, 86, 121, 174, 245, 351,
24, 65, 107, 148, 210, 293, 417,
16, 54, 92, 130, 187, 263, 377,
};

static uint64_t backbone_model2_conv1_conv1_weight[64 * 1*4] =
{ // torch.Size([64, 1, 1, 64])
0x4b43451bd2dcc53c,0x3330da55545143d4,0xbbdba94eec1ce5b5,0xa545bccbbd4cedbb,
0x4a54dcb094dd34ad,0x35cbca2a5dc4c5cd,0x3d1c453c35d46454,0x6ce22d56aab4c59c,
0xbc505c5dbd2ca444,0xedc22311344b4cc3,0xcdd5c9c5b40292c4,0xc5dac913c9b3dbac,
0x5552c4b5c402a94d,0x620db5459cc425cc,0x2441446451cb5634,0x5b5331559c433a54,
0xb5c341432ab2c3d3,0xc5491bcd9b44444b,0xdb9b4e1c053c4c5d,0x4caf54cccdd4045b,
0xdc45442245daaedd,0xbc0ddbacda2d434c,0x6c5dcecedb53444c,0x4c5dc44e4ac4c535,
0x42bd5cbad443c466,0xb25cc45c4a4e0c05,0xb43543aa4c949cc4,0xdbbc4455bc43bc4d,
0x4c5beb493e9d2ccd,0xb0bd42211bbcdcb5,0xc02c454ac6e43494,0xc0dcbc544b2ac2b3,
0xddead1a66c4c4442,0xccc5acdcdcaccc6e,0x4a5c4cd94a1d6cbc,0xc5cbb9c0c4c60693,
0xb455d35ccd1d4c54,0xcdbe29a4eb4c0db4,0x2b540d1c63463c44,0x05cd265415533c59,
0x4533aa4b215d4d51,0xdb5dbb3ac44c5abe,0x3b2c14dd1a44c9c2,0xd53351ba644d232a,
0x6545cd4edd1bb595,0xb0c9cca53b549cb4,0xc5d5335512bbb140,0x4555d4ccdc5cbe5d,
0x54bb3ca6bb4edc54,0xe4c5ecc443c34d23,0x44b45c90c434c9a4,0xc53c93b4c2bcddb5,
0xc455c549b54c55c2,0xcdb45cbc53949d1c,0x45b4b55c3d4cbc21,0x1465d43b33344c3c,
0xd3dc4eddd4531c29,0xdc543d6bc4cbc439,0xb444d3cdccccde90,0xd450ccc4cccd5dcd,
0xdb214b533445bc3b,0x5c3a42ccac43a255,0xbbddaccd4cc2d5c9,0x4d5b0949db252994,
0xc30b1cc465522c5c,0x5ab4534dd9144a4e,0x2c5d45d50cbb55da,0xcb3c4a33b52246c2,
0xcc935dd4c4ca1444,0xcbb4b95a345bbabc,0x5c11dac34ce4b2ba,0x3901b334d9bbab4d,
0xa43a4cce5bcc435c,0x4a509b5dc3534b9c,0x3bccc4de400424c3,0x53d2b5ddd550cc24,
0xccbc4bd3d4339c54,0xdc465b4a351b4b1a,0x44bbddbcdd4ccedb,0xd51b34ba242b3dbb,
0x5c03b53dddd4c9a4,0x243d9c5b334434b6,0xddd14c2d54c3b144,0x3cba54c44b520d41,
0xa13c45a4eccad46a,0xc54b144b6c4c44d5,0x5ac44d3b4345dc25,0x15d3c6b3c30a4d1b,
0xacd99de594b3c344,0xb1d3d402dd4c054c,0x544cdade1bdbcdbc,0x1e50acb45b1c95bb,
0x43c3441b5393d4db,0xc595bbc05a14d535,0xdedc44db393bac31,0x9b49540c3c0cc902,
0x5045b53bd90c24bc,0x45d4e6ac4d4cda44,0xd4d5665c2bdc45bb,0x5254230a2d542c5c,
0xb3c5c55cc34d6535,0x44c49cc5bcc2c54b,0x35434453da4d443a,0xc5541eb3dc42ca55,
0x544cd429bcdc4c4c,0xb1d3bb019d4d349d,0xddd253b4d5e435b4,0xadde62243bb3c595,
0x4cca0b4444d404cc,0x49d3c4c34ab2db95,0x43ed4c4cddc23322,0x1d2442b4ccb4c533,
0x552c544bb4ce332a,0xa43cccaddd3c4b43,0xbcc353edc1cb14cc,0x44c95bcd5b4db490,
0xdebdc5c55526ccb1,0x413d4b5b33c4bbc4,0x9adc9d453442d5b4,0x0cdbbad25db3c4c0,
0x4c52db433dcb4c4d,0x4cd5b6d3cc324b34,0x39a5b6ad49d555c4,0x4636c54c15443b32,
0xbdbccdc50d02cd65,0x4a5335cbcbd9bdb3,0xc54accd6d254bbdb,0xd9dd514c14cdd3b2,
0x5c43a3935a4b2c41,0xd353424aa3c4ddc9,0x3ba54995b4bcc4da,0xd44c3c34c9ca4c13,
0x03d30959cc1d3c5a,0xc455aadbc4cccd95,0x35ac3123c409abc3,0xe54d425544444a05,
0x3453d3cb1c44443d,0xd3bcd43b4d24233d,0x5c5a445d35eabc52,0x4c2bd4b5c4ba41c1,
0x4441dd15b433bb23,0xbcd9d554c5a4cdb9,0x46d22a54cb1cddbd,0xca24cdd5bb5c9cb4,
0x533c4d433434dcc5,0x4511bb45b30b3524,0xc50cb115d35329bd,0x3d5d4bab4c9e2c3d,
0x26ccda64415db134,0xb4d5b4a2c54d956c,0xb43cb4bdbcc9b253,0xad4b439dd4bca434,
0x442bc2613dccc21b,0xcdb3c6c4459a3cb9,0x16da3ba5d5434ba1,0xe634cb3bda44d245,
0xc53c45b3c034dd9c,0x4c4b6b0bdc34c424,0xc0cdbcce49c1cd3c,0x5dda22cc55ca5bb4,
0xaebb21db3d404d5d,0x4ddc4949c9d5dacd,0x5c3d30d0433144d4,0x94d49bc354cab543,
0x0b51c4cccae5dd6d,0xa450c1432cad4cc2,0xd1dc324dd35ecb56,0xbd0cdccd3e2bc5da,
0xcc454d4b0ca54d34,0x4c2452c354d455c4,0xbc95ea05a51cc35c,0xc543cd34ebd53bc9,
0x5b559d3dd3d54cdc,0x5cadb549e4b42ae5,0x2bd2d04b4d34c495,0x04d414ba5b23dc45,
0x4c5bd452dbb35492,0x04d351bc42d6bcd2,0x53d5dc6453cbbd5a,0x53464042c115bb05,
0x55b4bc5b4c2e3bcb,0x3dd3dcd455d29dbc,0xb5534ac5db53a4a9,0xdc3c313c5bdd3494,
0x35b4435edd5d3d4a,0x3403dd9dcdcd535d,0x2c5b45dddc3544d0,0xc04c5a2d44ce4ba1,
0x41195a3ddcc0d5a2,0xabc1c455cc5ebb46,0xd5eb39bcab0bb2d0,0xb45a022c5c5ddd5c,
0xa5bb3dcd25b5b0c4,0x5559cc523423d53b,0xcbed34add4c445d3,0x1cac42c56c4c152b,
0x430456560cac413c,0xd6bb15d36dc544c4,0x4d25533535d51144,0x04c413453ac39bbc,
0xe4b4552d9354cccc,0x454ac5beddcdb4cd,0xdd51c3c5c94cb41b,0xa49caceddc2c3ecc,
0x4cc11cc6cccc64c4,0xcb3d4145a0445b45,0x60adde3c2cb54d1c,0xd14b5664cb4bac55,
0xc403bd60c333b9c0,0xd3205cbac94dbd91,0xd51ba5529193a1a2,0xc351d3a01cb544a0,
0xbdcb5ddce6c4dda5,0x496ddd6bd34d3cdc,0x2ce3d4dddc44da1c,0xccd92cdc5bbcdddd,
0xbdc15dcd3ab3c554,0xccd2d454c2ad4c32,0xad35dc35dc4c1cdc,0xa53c3cc3dd5cdd2d,
0xb922bb53c4a3932c,0x2dc932bbb329bdc4,0xc6523042d2b42142,0x4345dab2c3a23442,
0x2434d4bdd31c0d4d,0x554c455c434b34d9,0xccbc4414d434d5d5,0xdb5464cc4b2d2c31,
0x3335514d149dd69a,0xc45d1d554b74c533,0x03a54b5d1ddba104,0x4559cb4bd264cdcc,
0xb49295a534344cb2,0x54332c4cbd55c952,0x366d3b3b2cdc434a,0x5d9b4c2c54cd5414,
0x4c22d4c54dad5d5d,0x435b54cbd5d45cb3,0x4a3bdcb34544a443,0x9cccc9b1e5e434d4,
0x5565d351cdcbbc4c,0x555d5ac95baa3635,0xda4b59b5b5d54526,0x4c4c5543ccb4bb64,
0x5a34ed4c9eda3bdb,0xcbcd2a93bd242b2c,0xd39c4b43c6d444c1,0xc992b045353ac659,
0x5e253cdac4d4dc54,0x5b4bd3543db163dc,0x2db4dac15c5ab5ac,0xaa5cccc4cdc4cdae,
0x5ccacad4b9bec4cb,0x3bc53cc2b42b3dd3,0x9640c1d13423554b,0x54bcd2bc44abc4ab,
};

static int backbone_model2_conv1_quant1_threshold[64 * 14] =
{ // torch.Size([64, 14])
-885, -628, -458, -330, -244, -159, -74, 12, 97, 183, 268, 396, 567, 823,
-1093, -774, -561, -401, -295, -189, -82, 24, 131, 237, 344, 503, 716, 1035,
-776, -551, -401, -289, -213, -138, -63, 12, 87, 162, 237, 349, 499, 725,
-815, -552, -376, -245, -157, -69, 19, 106, 194, 282, 370, 501, 677, 940,
-906, -638, -459, -325, -236, -146, -57, 32, 122, 211, 301, 435, 614, 882,
-795, -567, -415, -301, -224, -148, -72, 4, 80, 156, 232, 346, 498, 727,
-1001, -701, -501, -351, -251, -151, -51, 49, 149, 248, 348, 498, 698, 998,
-962, -677, -487, -345, -250, -155, -60, 35, 130, 225, 320, 462, 652, 937,
-1121, -792, -573, -408, -299, -189, -80, 30, 139, 249, 359, 523, 742, 1071,
-835, -586, -420, -295, -212, -129, -46, 37, 120, 203, 286, 411, 577, 826,
-932, -661, -481, -346, -255, -165, -75, 15, 105, 196, 286, 421, 601, 872,
-866, -604, -429, -298, -210, -123, -35, 52, 139, 227, 314, 445, 620, 882,
-903, -634, -454, -319, -229, -139, -49, 41, 131, 221, 311, 445, 625, 895,
-593, -409, -286, -194, -132, -71, -10, 52, 113, 175, 236, 328, 451, 635,
-924, -660, -484, -351, -263, -175, -87, 1, 90, 178, 266, 398, 575, 839,
-593, -413, -293, -202, -142, -82, -22, 38, 98, 158, 219, 309, 429, 610,
-876, -604, -422, -286, -195, -105, -14, 77, 168, 258, 349, 485, 667, 939,
-681, -484, -352, -254, -188, -122, -57, 9, 75, 141, 206, 305, 437, 634,
-885, -627, -456, -327, -241, -156, -70, 16, 102, 188, 273, 402, 573, 831,
-1045, -739, -534, -381, -279, -177, -75, 27, 129, 231, 334, 487, 691, 997,
-763, -534, -380, -266, -189, -112, -36, 41, 117, 194, 271, 385, 539, 768,
-1030, -712, -500, -341, -235, -129, -23, 83, 189, 295, 401, 560, 772, 1090,
-839, -604, -447, -329, -251, -173, -94, -16, 63, 141, 220, 337, 494, 729,
-772, -540, -385, -269, -192, -115, -37, 40, 117, 194, 272, 388, 542, 774,
-943, -645, -446, -297, -197, -98, 2, 101, 200, 300, 399, 548, 747, 1046,
-864, -596, -417, -283, -194, -105, -16, 74, 163, 252, 342, 476, 654, 922,
-874, -613, -438, -308, -220, -133, -46, 41, 128, 216, 303, 434, 608, 870,
-748, -528, -382, -272, -199, -126, -53, 20, 93, 166, 240, 349, 496, 715,
-882, -625, -454, -325, -240, -154, -68, 17, 103, 189, 274, 403, 574, 831,
-807, -565, -404, -282, -202, -121, -40, 40, 121, 202, 283, 404, 565, 807,
-928, -637, -444, -298, -201, -105, -8, 89, 186, 283, 380, 525, 719, 1010,
-933, -655, -469, -329, -236, -143, -50, 43, 136, 229, 322, 461, 647, 926,
-559, -391, -278, -193, -137, -81, -24, 32, 88, 144, 201, 285, 398, 567,
-799, -556, -394, -272, -191, -110, -29, 52, 133, 214, 296, 417, 579, 823,
-889, -626, -450, -318, -231, -143, -55, 33, 121, 208, 296, 428, 603, 867,
-902, -630, -448, -312, -221, -130, -39, 51, 142, 233, 324, 460, 642, 914,
-922, -639, -450, -309, -215, -120, -26, 68, 162, 257, 351, 492, 681, 964,
-731, -507, -357, -244, -170, -95, -20, 55, 130, 205, 280, 392, 542, 767,
-885, -612, -430, -293, -202, -111, -20, 71, 162, 253, 344, 481, 663, 936,
-789, -556, -401, -284, -206, -129, -51, 27, 104, 182, 260, 376, 531, 764,
-784, -557, -405, -292, -216, -140, -64, 11, 87, 163, 239, 352, 504, 731,
-879, -623, -451, -323, -237, -151, -66, 20, 106, 191, 277, 405, 577, 834,
-798, -548, -381, -256, -173, -90, -6, 77, 160, 244, 327, 452, 619, 869,
-970, -682, -490, -346, -250, -154, -58, 38, 134, 229, 325, 469, 661, 949,
-1108, -760, -529, -355, -239, -123, -8, 108, 224, 340, 456, 629, 861, 1209,
-787, -554, -399, -283, -205, -127, -50, 28, 105, 183, 260, 377, 532, 765,
-897, -636, -462, -331, -244, -157, -70, 16, 103, 190, 277, 408, 582, 843,
-889, -629, -455, -325, -238, -152, -65, 22, 109, 195, 282, 412, 586, 846,
-954, -667, -476, -333, -237, -142, -46, 49, 145, 240, 336, 479, 670, 956,
-857, -583, -401, -264, -173, -82, 9, 100, 191, 282, 374, 510, 693, 966,
-1018, -714, -512, -360, -258, -157, -56, 45, 147, 248, 349, 501, 703, 1007,
-904, -630, -448, -311, -220, -129, -38, 53, 144, 235, 326, 463, 645, 919,
-719, -499, -353, -243, -169, -96, -23, 51, 124, 197, 271, 381, 527, 747,
-1210, -868, -641, -470, -356, -242, -128, -14, 100, 214, 328, 499, 727, 1068,
-773, -550, -401, -289, -215, -140, -66, 9, 83, 158, 232, 344, 493, 716,
-523, -358, -248, -166, -111, -56, -1, 54, 109, 164, 219, 301, 411, 576,
-775, -538, -381, -262, -183, -104, -25, 53, 132, 211, 290, 408, 566, 803,
-897, -625, -443, -307, -216, -125, -34, 56, 147, 238, 329, 465, 647, 919,
-683, -467, -323, -215, -143, -71, 1, 73, 145, 218, 290, 398, 542, 758,
-820, -577, -414, -292, -211, -130, -49, 32, 113, 195, 276, 398, 560, 804,
-780, -526, -357, -229, -145, -60, 25, 109, 194, 279, 363, 491, 660, 914,
-982, -691, -497, -351, -254, -157, -60, 37, 134, 231, 328, 474, 668, 959,
-925, -651, -468, -331, -240, -149, -57, 34, 125, 217, 308, 445, 627, 901,
-608, -426, -305, -214, -154, -93, -33, 28, 88, 149, 209, 300, 421, 603,
};

static uint64_t backbone_model2_conv1_conv2_weight[64 * 9] =
{ // torch.Size([64, 3, 3, 1])
0x5, 0xb, 0xc, 0x6, 0x3, 0x1, 0x6, 0x5, 0xb,
0xc, 0x4, 0xc, 0xd, 0xe, 0x4, 0x4, 0xe, 0x5,
0xd, 0xd, 0xd, 0x4, 0x4, 0x5, 0x4, 0x4, 0x5,
0x3, 0xa, 0xb, 0xb, 0xe, 0xd, 0x4, 0xd, 0x1,
0x3, 0x3, 0x4, 0x4, 0x5, 0x5, 0x4, 0x6, 0x4,
0x9, 0x9, 0x1, 0x4, 0xd, 0x3, 0x2, 0x4, 0x7,
0x5, 0xc, 0xd, 0x5, 0xc, 0xd, 0x5, 0xd, 0xd,
0x5, 0x0, 0xd, 0x5, 0x4, 0xe, 0x6, 0x4, 0xd,
0x1, 0xc, 0xb, 0x4, 0xe, 0xf, 0x3, 0x3, 0x2,
0xb, 0x1, 0x2, 0x4, 0xa, 0xd, 0xd, 0xc, 0xf,
0x3, 0xe, 0xd, 0x4, 0xd, 0xd, 0x6, 0x5, 0xb,
0xc, 0x5, 0x6, 0xe, 0x4, 0x3, 0xd, 0xb, 0xc,
0x3, 0x1, 0x4, 0x3, 0x5, 0x9, 0x6, 0x4, 0xd,
0xc, 0x5, 0x0, 0xd, 0x4, 0x6, 0xc, 0xe, 0x5,
0xa, 0x4, 0xd, 0x3, 0x7, 0x3, 0xd, 0x3, 0xd,
0xd, 0x3, 0x1, 0x5, 0x6, 0xd, 0x5, 0xe, 0x0,
0xe, 0xd, 0xc, 0xd, 0xd, 0x1, 0x5, 0x5, 0x5,
0xc, 0x4, 0x5, 0xc, 0xd, 0xd, 0x2, 0x5, 0x6,
0xc, 0xc, 0xc, 0xd, 0xd, 0xe, 0x2, 0x9, 0xa,
0xd, 0x5, 0x5, 0xd, 0x4, 0x5, 0xd, 0xd, 0x2,
0x3, 0xb, 0x6, 0x2, 0xc, 0x5, 0xe, 0xe, 0xa,
0x1, 0x4, 0x4, 0xa, 0x5, 0x3, 0x5, 0x5, 0xa,
0xc, 0xe, 0xa, 0x3, 0x6, 0x6, 0xc, 0xc, 0x3,
0x5, 0xc, 0xd, 0x6, 0xc, 0xc, 0x5, 0x2, 0xd,
0xd, 0xe, 0xe, 0xc, 0xa, 0x4, 0x5, 0x5, 0x5,
0x3, 0xc, 0xa, 0x9, 0x9, 0xc, 0xb, 0x0, 0xe,
0x3, 0x6, 0x4, 0x5, 0xc, 0xd, 0x5, 0xe, 0xc,
0x4, 0x5, 0xd, 0xb, 0x5, 0xd, 0x3, 0x0, 0xe,
0x4, 0x5, 0x6, 0x1, 0x0, 0x1, 0xd, 0xe, 0xc,
0x5, 0x5, 0x2, 0x2, 0xd, 0xd, 0xe, 0xd, 0x3,
0x4, 0x5, 0x4, 0x5, 0x5, 0x0, 0x3, 0x5, 0xb,
0x4, 0x6, 0x5, 0xd, 0xc, 0x4, 0xd, 0xe, 0xc,
0xc, 0xd, 0xd, 0x6, 0x2, 0x5, 0x0, 0xd, 0x0,
0x3, 0x4, 0x0, 0xe, 0x1, 0x5, 0x2, 0xe, 0xd,
0xe, 0xd, 0x5, 0xe, 0xc, 0x6, 0xc, 0x4, 0x5,
0x5, 0xb, 0xd, 0x6, 0x5, 0xd, 0xb, 0x5, 0xb,
0xb, 0xd, 0xd, 0x5, 0x2, 0xe, 0x6, 0xa, 0xc,
0x9, 0x3, 0x3, 0xd, 0xc, 0x5, 0xd, 0x6, 0x6,
0xd, 0x5, 0x5, 0xf, 0xa, 0x5, 0x5, 0x9, 0x4,
0xc, 0xd, 0xd, 0x0, 0xc, 0xd, 0x5, 0x6, 0x5,
0x4, 0x6, 0x4, 0x3, 0x4, 0xd, 0x4, 0xd, 0xd,
0xc, 0x4, 0xb, 0x3, 0x4, 0x2, 0x5, 0x5, 0x5,
0x3, 0x3, 0x1, 0x1, 0x4, 0x4, 0x4, 0x6, 0x5,
0x5, 0x5, 0x5, 0x3, 0x5, 0x4, 0xb, 0xd, 0xc,
0x4, 0xb, 0xb, 0x5, 0x1, 0x0, 0x5, 0x5, 0x5,
0xd, 0xd, 0xb, 0xd, 0x2, 0x5, 0xc, 0x6, 0x6,
0x6, 0x5, 0xb, 0x5, 0x5, 0xc, 0x3, 0x4, 0xd,
0xd, 0x4, 0x5, 0xc, 0xa, 0x5, 0xc, 0x4, 0x6,
0xd, 0xc, 0x6, 0xe, 0xd, 0x6, 0xd, 0xd, 0x5,
0xa, 0xc, 0x2, 0x4, 0xe, 0xd, 0x3, 0xd, 0xc,
0x6, 0x4, 0xd, 0x5, 0x4, 0xd, 0x5, 0x3, 0x4,
0xb, 0x1, 0xe, 0x0, 0xd, 0xd, 0xc, 0xd, 0xc,
0x5, 0xd, 0x5, 0x6, 0xc, 0xd, 0xa, 0x6, 0xe,
0xc, 0x3, 0xc, 0xc, 0xc, 0xd, 0xd, 0xd, 0xd,
0x9, 0x5, 0x2, 0x5, 0x5, 0x7, 0xe, 0xb, 0x5,
0xb, 0xd, 0x5, 0x5, 0xe, 0x5, 0x2, 0xc, 0x2,
0xd, 0xc, 0xc, 0xc, 0x5, 0x5, 0x5, 0x6, 0x9,
0xb, 0xd, 0xc, 0x2, 0xe, 0xd, 0x9, 0xa, 0xd,
0x3, 0x2, 0x4, 0x4, 0x5, 0x4, 0xc, 0xe, 0xf,
0xa, 0xe, 0xa, 0x9, 0xe, 0xc, 0x4, 0xb, 0x5,
0x1, 0x4, 0x2, 0x4, 0xd, 0xd, 0xc, 0xd, 0xe,
0x3, 0xc, 0xe, 0x5, 0xc, 0xd, 0x4, 0x6, 0x6,
0x3, 0x4, 0x5, 0x9, 0x5, 0xa, 0x5, 0x5, 0xc,
0x3, 0x5, 0xe, 0x5, 0x4, 0xe, 0x4, 0xd, 0xc,
};

static int backbone_model2_conv1_relu2_threshold[64 * 7] =
{ // torch.Size([64, 7])
28, 107, 185, 264, 382, 539, 774,
16, 67, 117, 167, 242, 342, 492,
25, 65, 106, 146, 206, 286, 407,
8, 58, 109, 159, 235, 336, 487,
21, 95, 170, 244, 356, 505, 728,
26, 84, 142, 200, 287, 403, 578,
20, 61, 101, 142, 203, 284, 405,
24, 58, 92, 126, 178, 246, 349,
23, 88, 153, 218, 316, 446, 642,
28, 103, 178, 253, 366, 516, 742,
9, 65, 122, 178, 263, 376, 546,
22, 64, 106, 147, 210, 294, 419,
21, 71, 122, 172, 248, 348, 500,
9, 69, 130, 191, 283, 405, 587,
32, 79, 126, 173, 244, 338, 479,
23, 65, 107, 148, 211, 295, 421,
22, 70, 119, 168, 240, 338, 483,
25, 61, 97, 134, 188, 261, 369,
26, 71, 117, 162, 230, 321, 457,
30, 63, 97, 130, 180, 247, 347,
16, 77, 137, 197, 288, 408, 589,
19, 65, 112, 158, 227, 320, 458,
28, 67, 107, 147, 206, 285, 404,
31, 76, 121, 166, 233, 324, 459,
15, 81, 147, 212, 311, 443, 640,
21, 55, 89, 123, 174, 242, 345,
16, 64, 112, 161, 233, 329, 474,
15, 78, 142, 206, 302, 429, 621,
19, 82, 144, 206, 300, 424, 611,
27, 68, 109, 150, 211, 293, 417,
36, 73, 110, 148, 203, 277, 388,
27, 71, 115, 159, 224, 312, 444,
21, 64, 107, 150, 214, 300, 428,
25, 72, 119, 167, 237, 331, 473,
30, 78, 127, 175, 248, 345, 490,
30, 76, 123, 170, 239, 333, 473,
24, 76, 128, 180, 257, 361, 517,
27, 76, 124, 173, 245, 342, 488,
32, 81, 130, 179, 253, 352, 500,
25, 76, 128, 179, 256, 358, 512,
27, 66, 106, 145, 204, 283, 401,
20, 68, 116, 164, 236, 333, 477,
19, 75, 131, 188, 272, 384, 552,
28, 70, 112, 153, 216, 300, 425,
25, 52, 78, 105, 145, 198, 277,
29, 88, 147, 206, 294, 412, 589,
18, 69, 120, 172, 249, 351, 505,
15, 69, 122, 176, 257, 364, 525,
29, 85, 141, 197, 281, 393, 561,
19, 74, 128, 182, 264, 372, 535,
4, 50, 97, 144, 214, 307, 447,
21, 83, 145, 207, 300, 423, 609,
29, 79, 129, 178, 253, 353, 502,
35, 77, 120, 162, 226, 310, 438,
36, 106, 176, 246, 351, 492, 702,
27, 68, 109, 150, 212, 294, 417,
16, 58, 100, 142, 205, 289, 416,
27, 91, 156, 220, 316, 445, 638,
38, 115, 193, 270, 386, 542, 774,
20, 78, 136, 193, 280, 395, 568,
25, 89, 153, 218, 314, 442, 635,
31, 78, 125, 172, 242, 337, 478,
14, 59, 105, 151, 220, 312, 449,
33, 83, 132, 182, 257, 356, 505,
};

static uint64_t backbone_model2_conv2_conv1_weight[64 * 1*4] =
{ // torch.Size([64, 1, 1, 64])
0x545dcd45a5525b44,0x55455bc55d63d595,0x553545555eb546dd,0x4c635dd6bd555adc,
0x55dcbaeddccb2bcd,0x15bc0cc6435c06ac,0x457a453dacd33ddb,0x2cd459ad6dc544de,
0xd2b23cad93c6bd20,0xc59103bc0e464ccb,0xdccbc54dccbda3bd,0x5de04521bd9bad5c,
0xd553a13356b4bccd,0xce5b4b2ca6d55366,0x5cbd5b24415c3c50,0x094124cc454dc216,
0xcdccccddddc42355,0xedbbabdb5c55d6b4,0xdccc69b455dc9255,0x3c5ecddda94dcb44,
0xb4354ccd3c3b45c2,0x4cb32b42446a4343,0x4b0945564bb43152,0xe4a63493313d5a2a,
0x52dd3556543c614a,0x645ded405c6ea5d6,0xe35b69d55541dc6c,0x60e65ebd995cc3bd,
0xee5d4535e43cd3dc,0x5b4b2de04543ac66,0x50c5dd55d45b4d66,0xc4eed416b445d252,
0xcb4454b54c55ad5d,0xc4dd6d545ce45595,0x65b5346d46d64564,0xc4cdc4650cd4c2e4,
0x553dce5652465dd6,0xd36b44c55d46434c,0x554655666e4355d4,0x5d35d366cc43cc45,
0x5eb66cda45c6c03a,0xa2d2ced463d3d5c6,0x9beb155e56ecd37c,0x5bedadcc5d5dbb4d,
0xe55adc52cebcc5a2,0x465455b5e564543e,0x433550dce36d5195,0x66b56d0455550dda,
0x3b3933549b433b04,0xa554ba34be9d23f5,0x4b2b43cb5444b4ca,0xb3db1c0539b9a254,
0xcc6ad43d356add92,0x5cc55c6202c5461d,0x56355d65b5cc43cd,0xc2cc4ce96cd65cbd,
0x2251ccb5b454ceb2,0xcb244dcc5d355d45,0x455bcc66dd5d65e3,0xa4c5b5d5c1566456,
0x2dedbd3a2ac54bdd,0xdabb5b43cc15cc3c,0x24bbc0541c55d5a3,0x3dd33964ddeddce1,
0x43cdcdccddd44c56,0xdd52cebc245cd29d,0xdded3cd4cbbe9ecb,0x4b95acd4a3635d5b,
0xcde0d4ddabea3c05,0x5c54de9c556cde44,0x91cdddd6ed5e1cad,0xc135c2dc34b45564,
0xcbc64d5d555ed254,0xd564a25ceccccceb,0x30b55d1dbdd65dd4,0xe52c63dc45935d0d,
0xeb4b335bdeb54346,0x4dd26555ddd4425e,0x45555253b02555c6,0xd5d5de46b22b4c44,
0x3e5c5bdd01e0b42c,0xc5dbddcc5ed33c03,0x5ba2d4cdd1532c05,0xb254da54bc555ccd,
0x0c2ad6ea1b25c4c3,0x5cbdc594cd4c2c3a,0xbdd354dc4cd5cdbd,0xc6c9db35bd9ed65d,
0x6d3db64d2ca6dc64,0x35b4db29cdddc933,0x50d5b4cc4cea43cc,0xb4d0dd44bacce44d,
0x1de3a6664d6d4a34,0xd6566366d354d5d3,0xc5dc55b5db25e545,0x444c3c44dc3a35c6,
0x3de6ec2b51a55c55,0xe6b5d4cbd3445b1b,0xecd4bb345dda4ddc,0x2c15d43e964b5d9b,
0xdc54355c0ecd362c,0x55b315bdc54d302d,0x0cc325ddc533ed5d,0xbc555cc4cbdbeedb,
0xbbb49c52ce5440cd,0xa5a355445444335d,0x432524d45c46d551,0x4e436b45bdd4eed1,
0x554b6524355d535b,0x65b64643cc51e5cc,0x15b6c646c6b4b24e,0xd66c5c255d3535dd,
0x3c02e2cc44d5bb05,0xeedc5ec234944b43,0x4aab5d4c5b4c3a05,0xac4ceddd554db4b6,
0xbdc45c3c3c2bd344,0x5345242b3ab5ccd1,0xbadbd30db555dc33,0xd6ccb442d2525461,
0xc145cb4ddde3de5d,0xda4d3cd4cd3b5b45,0xed35d3ddcdd4bd3d,0x4be42564352eed5c,
0xbabc2dbdcc4cc42d,0x39cb0b91dcb2ccdd,0xd1c9bca3ccdcd5d0,0xdc02d332ccb04dc2,
0xbd295dccad4ceec5,0x4dc94d6db44549c4,0xb55cdb4a454c455b,0xd6c24455c3266c65,
0x56d25dbc264345ed,0x43b61121e516e553,0x65ca59555245a53a,0xb4cc3dc4ed345cdc,
0xc653dc34b45d5c6c,0xcc5c154c2abdad45,0xddc3bdc4dbdb5ebd,0x4ccc34531bced4a5,
0xa65aa2ca55d5dbdd,0x1c6bc52d465cad3c,0xdc4dcdbd4b2dadcc,0x55cb653d352ce4d4,
0xa5d66c4c94415ad6,0x5343cc5cb14c4dbc,0x4b1d164dc4655544,0xc6e5244b6c6a4c6b,
0xc39e54d4dcd4e35e,0xec0acdde35639695,0xbdc4bcecb6bebd5d,0x6c2dddcbd555d354,
0xe44beaaddbdcb156,0x5dc3db5d33c3ee54,0x9dc3ed34f35b4ebd,0xc3cd5df5ce4cc454,
0xb555b6bd9c4ec01e,0xb5b494c3d6544d35,0x54ba5cd54c65d542,0xc355355c45cbd5d4,
0x2cdee4c24cd3ddc9,0xb35dbdd24345434b,0xc2cb5e534dd3ddcc,0xadd2b9c1d5e542c4,
0x1ed2b43424524d06,0x52c654445c534594,0x3546cd46d453c596,0x5e445d654ce543cb,
0x5ecc25ddc0b4ed54,0xdefe14bd5e04ca5c,0x4b2641dbd5b54345,0xdc9c1a55c514b44c,
0xbc95d24d33d46914,0x1124dce50535651a,0xcb1343cc53045d4c,0x31a3cdcd654d2aed,
0x549c45d26cd2de63,0xdd4e555cd54cea94,0x2555cc5c52b5ad94,0x53d3ca5ecd05d5db,
0x4d9c55e4dddc54db,0x59cbac2564543a64,0x6453c4dad352c535,0x4bbbc4b2dda555a4,
0xd5ed4193e54ecdbc,0x533355554bd2eceb,0xc46dc2bde5d41ea3,0x05d45de639dc3555,
0x55d2aced34bb3dcd,0xd45de4d4cb4b54b9,0xc55d36cd4bd49dc2,0x3ca6c5be45440bb1,
0x53abdd65a45dc5d5,0x6553bd45dbb143ed,0x5abcc446bcc45bc2,0xb5cb46d4d55bdd3d,
0x2c2c45446ca5ce64,0xddcd2445d65b4d4d,0x56453a55555c3a56,0x59c5e25cd9c644c6,
0x5c5cd43d6556d5a5,0xddd45c4db5d55c76,0x53e42d5a63255442,0xd55d55a5c5dc140c,
0x5d4e35dd0dd5d456,0x4cddd50e0bdbbd5b,0xbdc5d99d55da5c9d,0xbabbdcb4acabd45e,
0xe1adad55e44a4cc5,0xd4d55c456e45634c,0x45435664d3514515,0xd4435dd6cc555da5,
0x5c5eb3bc5423cc6b,0x4cbc55bba5bc9b51,0x31544e2423ccae53,0x4d4cadcc41e6d3fc,
0xc1d45bcdb5ebc594,0x53dbe3dcbbcd3ce2,0xeddec4dec5ccbd4d,0xe54d5aeeac9d556e,
0xbdd445bd54cce55b,0xc3cadc5dd5dce5e5,0xededdd42c5dd2edd,0xd6ddccdd235d55cc,
0x15065bebc5d5dd3e,0xdddccebc3ac5b5c3,0xbddc24ce45340c5e,0xc4de453d425d2c3e,
0x543d42504c33bc62,0x521652cddc5e56d4,0xd3544324b5c4166e,0x5bd5c4455bbde5cd,
0xb9d364d33d4b533b,0xc6b553549d05d5da,0xeb5d9602db4cd434,0xb5640a6bd445320b,
0xc354442bdc4c566c,0x4ac6ccbd3c4ca5e3,0xecdad6dcc3cdc25c,0xc56dcd3c6d6c423e,
0xa5cddc2dd53ceabc,0x4c54c55c54d43da3,0xcabd4d1344b944cc,0xd4cc45e3d4c4335d,
0xd4d464dd5b2c6ccc,0xc4dac3553305de51,0xd46e5954a544335b,0xb4d5bd456d5464c4,
0xb3434ae3dbdda49d,0x47dc5ec15cddc3b5,0xcd93e53de344dd5e,0x54c26355ee44b5bd,
0x435eeddc43c4453c,0x4ccedddeca3c5d5d,0xedcd41455ddc6d9d,0xc042eddd65c5cecd,
};

static int backbone_model2_conv2_quant1_threshold[64 * 14] =
{ // torch.Size([64, 14])
-1006, -682, -466, -305, -197, -89, 19, 127, 235, 343, 451, 613, 829, 1153,
-1123, -791, -570, -404, -293, -182, -72, 39, 149, 260, 371, 537, 758, 1090,
-886, -630, -458, -330, -244, -159, -73, 13, 98, 184, 269, 398, 569, 826,
-1254, -870, -613, -420, -292, -164, -36, 93, 221, 349, 478, 670, 927, 1312,
-1054, -749, -546, -393, -291, -190, -88, 14, 116, 217, 319, 472, 675, 980,
-730, -497, -342, -225, -148, -70, 7, 85, 163, 240, 318, 434, 589, 822,
-1247, -871, -620, -432, -307, -181, -56, 69, 195, 320, 445, 633, 884, 1260,
-1286, -894, -634, -438, -308, -177, -47, 84, 214, 345, 475, 671, 931, 1323,
-1180, -816, -574, -392, -271, -149, -28, 93, 215, 336, 457, 639, 882, 1245,
-1254, -857, -592, -394, -262, -130, 3, 135, 267, 400, 532, 730, 995, 1391,
-1639, -1139, -805, -555, -388, -222, -55, 112, 279, 446, 612, 863, 1196, 1696,
-928, -642, -451, -308, -213, -117, -22, 73, 169, 264, 359, 502, 693, 979,
-1076, -751, -535, -373, -264, -156, -48, 60, 168, 276, 384, 547, 763, 1087,
-1294, -910, -653, -461, -333, -205, -76, 52, 180, 308, 436, 629, 885, 1270,
-1017, -702, -492, -334, -229, -124, -19, 86, 191, 296, 401, 559, 769, 1084,
-1756, -1214, -853, -582, -401, -221, -40, 141, 321, 502, 682, 953, 1314, 1856,
-1071, -761, -554, -399, -295, -192, -88, 15, 119, 222, 326, 481, 688, 998,
-1261, -881, -627, -437, -310, -183, -56, 71, 198, 325, 451, 642, 895, 1276,
-1383, -968, -690, -482, -344, -205, -67, 72, 210, 349, 488, 696, 973, 1389,
-1158, -806, -571, -394, -277, -159, -42, 76, 194, 311, 429, 605, 840, 1193,
-1036, -728, -522, -368, -265, -162, -60, 43, 146, 249, 351, 505, 711, 1019,
-1183, -836, -604, -431, -315, -199, -84, 32, 148, 263, 379, 553, 784, 1131,
-1141, -804, -580, -411, -299, -187, -75, 37, 150, 262, 374, 542, 767, 1103,
-1140, -782, -544, -365, -246, -126, -7, 112, 231, 351, 470, 649, 887, 1245,
-1414, -987, -703, -489, -347, -205, -62, 80, 222, 364, 507, 720, 1005, 1432,
-935, -657, -471, -332, -239, -146, -54, 39, 132, 225, 318, 457, 642, 921,
-1108, -765, -536, -364, -250, -135, -21, 93, 208, 322, 437, 608, 837, 1180,
-941, -638, -437, -285, -184, -84, 17, 118, 219, 320, 421, 572, 774, 1077,
-1063, -753, -547, -393, -290, -187, -84, 20, 123, 226, 329, 483, 689, 999,
-1069, -747, -532, -372, -264, -157, -50, 57, 164, 272, 379, 540, 754, 1076,
-1251, -889, -648, -467, -347, -226, -106, 15, 135, 256, 376, 557, 798, 1159,
-1177, -836, -609, -438, -325, -211, -97, 16, 130, 244, 358, 528, 755, 1097,
-1054, -737, -526, -368, -262, -156, -51, 55, 161, 266, 372, 531, 742, 1059,
-1384, -969, -692, -485, -346, -208, -70, 69, 207, 346, 484, 692, 968, 1384,
-1177, -825, -591, -416, -299, -182, -65, 52, 169, 286, 403, 579, 813, 1164,
-1464, -1022, -727, -506, -359, -212, -65, 83, 230, 377, 525, 746, 1040, 1482,
-1005, -689, -478, -320, -215, -109, -4, 101, 206, 312, 417, 575, 786, 1102,
-1298, -919, -666, -476, -350, -223, -97, 30, 157, 283, 410, 599, 852, 1232,
-1329, -945, -689, -496, -368, -240, -112, 16, 144, 272, 400, 592, 849, 1233,
-943, -650, -455, -309, -211, -114, -16, 81, 179, 276, 374, 520, 715, 1008,
-876, -626, -460, -335, -252, -169, -86, -3, 81, 164, 247, 372, 538, 787,
-978, -662, -451, -293, -188, -82, 23, 129, 234, 339, 445, 603, 814, 1130,
-1090, -769, -556, -395, -288, -182, -75, 32, 139, 246, 353, 513, 727, 1047,
-1097, -768, -548, -383, -273, -164, -54, 56, 166, 276, 386, 550, 770, 1099,
-1103, -777, -560, -397, -288, -180, -71, 37, 146, 255, 363, 526, 743, 1069,
-1155, -794, -553, -372, -252, -131, -11, 110, 230, 351, 471, 652, 893, 1255,
-1343, -944, -678, -479, -346, -213, -80, 53, 186, 319, 452, 651, 917, 1316,
-1080, -761, -549, -390, -284, -178, -72, 34, 140, 246, 352, 511, 723, 1041,
-1198, -828, -581, -396, -273, -150, -26, 97, 220, 344, 467, 652, 899, 1269,
-1085, -751, -528, -362, -250, -139, -28, 83, 194, 306, 417, 584, 806, 1140,
-1263, -873, -613, -418, -288, -158, -28, 102, 232, 362, 493, 688, 948, 1338,
-1012, -720, -526, -380, -283, -186, -89, 8, 106, 203, 300, 446, 640, 932,
-1130, -781, -548, -373, -257, -141, -24, 92, 209, 325, 441, 616, 849, 1198,
-1025, -723, -522, -370, -270, -169, -68, 33, 133, 234, 335, 486, 688, 990,
-1470, -1041, -754, -540, -396, -253, -110, 33, 176, 319, 462, 677, 963, 1393,
-1353, -964, -705, -511, -381, -252, -122, 8, 137, 267, 396, 591, 850, 1239,
-1203, -861, -633, -462, -348, -234, -120, -6, 108, 222, 336, 507, 735, 1077,
-1323, -927, -663, -465, -333, -201, -69, 63, 195, 327, 459, 657, 921, 1317,
-1007, -693, -485, -328, -224, -119, -15, 90, 194, 298, 403, 559, 768, 1081,
-1051, -735, -524, -366, -261, -156, -50, 55, 160, 266, 371, 529, 739, 1055,
-1176, -830, -599, -426, -311, -196, -80, 35, 150, 266, 381, 554, 785, 1131,
-981, -680, -480, -329, -229, -129, -29, 71, 172, 272, 372, 522, 723, 1023,
-1253, -882, -634, -448, -325, -201, -77, 47, 171, 295, 418, 604, 852, 1223,
-1177, -840, -616, -448, -336, -224, -111, 1, 113, 225, 337, 505, 730, 1066,
};

static uint64_t backbone_model2_conv2_conv2_weight[64 * 9] =
{ // torch.Size([64, 3, 3, 1])
0x4, 0x2, 0xd, 0x5, 0x5, 0xe, 0xd, 0xd, 0xe,
0xe, 0x5, 0x5, 0xc, 0x6, 0x0, 0x6, 0x4, 0xd,
0x9, 0x6, 0xd, 0xa, 0x3, 0x6, 0x5, 0xd, 0x5,
0xd, 0xd, 0xd, 0xd, 0xd, 0xc, 0xd, 0x4, 0xa,
0x5, 0x5, 0xe, 0x5, 0x4, 0xd, 0x6, 0xc, 0xd,
0xd, 0x5, 0x5, 0x6, 0x4, 0xe, 0xd, 0xe, 0x2,
0xd, 0xc, 0xd, 0x1, 0xd, 0xe, 0x5, 0xa, 0xe,
0x5, 0x4, 0xb, 0x6, 0x5, 0x3, 0x5, 0x5, 0x4,
0xd, 0xd, 0xb, 0xd, 0xd, 0x4, 0xe, 0xd, 0x4,
0x9, 0xd, 0xc, 0x3, 0xe, 0xf, 0xb, 0x5, 0xc,
0x5, 0x5, 0x5, 0x5, 0x6, 0x4, 0x5, 0x6, 0x3,
0x3, 0x5, 0xd, 0x4, 0xd, 0xe, 0xd, 0xe, 0xc,
0xc, 0xb, 0x6, 0x5, 0xc, 0xe, 0xb, 0x1, 0x4,
0xa, 0xd, 0xd, 0xb, 0xd, 0xd, 0x4, 0xc, 0xe,
0xc, 0xc, 0x3, 0xd, 0x0, 0x4, 0xf, 0xe, 0xd,
0x5, 0x6, 0x6, 0x4, 0x3, 0x5, 0x4, 0xe, 0xe,
0xb, 0xc, 0x5, 0x4, 0x6, 0x6, 0x3, 0x6, 0x5,
0x2, 0xb, 0xb, 0x9, 0xa, 0x5, 0x5, 0x6, 0x7,
0xb, 0x1, 0x3, 0x5, 0x4, 0x4, 0x6, 0x5, 0x6,
0xe, 0xd, 0xa, 0x2, 0xe, 0xb, 0x3, 0xd, 0xe,
0x6, 0x5, 0x5, 0x6, 0x4, 0xc, 0xa, 0xd, 0xd,
0x2, 0x4, 0xb, 0x5, 0x5, 0x0, 0x6, 0x6, 0x4,
0x4, 0x6, 0x5, 0xd, 0x5, 0x6, 0xb, 0xe, 0xe,
0xa, 0xb, 0xd, 0xe, 0xc, 0x4, 0xe, 0xc, 0x3,
0x5, 0x5, 0x5, 0x5, 0x5, 0x3, 0x5, 0x5, 0x2,
0x5, 0x4, 0xd, 0x5, 0x6, 0x3, 0xc, 0xd, 0xd,
0x2, 0x6, 0x2, 0xc, 0xe, 0xe, 0xc, 0xe, 0x2,
0xa, 0xe, 0xd, 0x3, 0xe, 0xc, 0x6, 0xe, 0xc,
0x5, 0x5, 0xd, 0x3, 0x5, 0xd, 0xb, 0x7, 0x4,
0xc, 0x2, 0x5, 0xd, 0x4, 0x6, 0xe, 0xd, 0x4,
0x5, 0x5, 0xd, 0x5, 0x6, 0x3, 0xa, 0x4, 0x5,
0x4, 0x4, 0x4, 0x3, 0x3, 0x3, 0x4, 0x4, 0x4,
0x5, 0xc, 0xd, 0x1, 0xd, 0xc, 0xd, 0xe, 0x5,
0xd, 0xd, 0xd, 0x2, 0xd, 0xe, 0x1, 0xc, 0xd,
0x4, 0x4, 0x4, 0x4, 0x5, 0x5, 0x5, 0x5, 0x5,
0x5, 0x6, 0x3, 0x5, 0x5, 0x4, 0x5, 0x9, 0xb,
0x4, 0x6, 0xc, 0x4, 0xc, 0xe, 0xd, 0xe, 0xd,
0x4, 0x6, 0x5, 0x5, 0x6, 0x3, 0x5, 0x5, 0x5,
0x5, 0x4, 0x4, 0x5, 0x5, 0x3, 0x0, 0x6, 0x6,
0xd, 0x6, 0x2, 0xd, 0xe, 0x0, 0xe, 0xe, 0xa,
0xe, 0x6, 0x5, 0xe, 0x6, 0xc, 0x5, 0x5, 0xc,
0x4, 0x2, 0xd, 0x5, 0xd, 0xe, 0xc, 0xe, 0xc,
0xd, 0x5, 0x6, 0xd, 0x4, 0x6, 0xe, 0xd, 0x5,
0xd, 0x5, 0x6, 0xd, 0x4, 0x5, 0xc, 0x5, 0x5,
0xe, 0xd, 0xd, 0xc, 0x4, 0x4, 0x5, 0x5, 0x6,
0xd, 0xd, 0xd, 0xd, 0x2, 0x5, 0x4, 0x6, 0x6,
0x4, 0x4, 0x5, 0x5, 0x5, 0x4, 0x5, 0x4, 0x4,
0x6, 0x5, 0xc, 0x5, 0x3, 0xe, 0x5, 0xc, 0xd,
0x4, 0x5, 0x4, 0x4, 0x5, 0x3, 0x4, 0x5, 0x5,
0xd, 0xe, 0xe, 0xd, 0xd, 0xc, 0xc, 0x2, 0x5,
0xc, 0xc, 0xd, 0xd, 0xc, 0xd, 0xd, 0xd, 0xc,
0xb, 0x4, 0x3, 0xb, 0x6, 0x5, 0x4, 0x6, 0x4,
0x9, 0x3, 0x2, 0xe, 0xe, 0xe, 0xb, 0xd, 0xc,
0xb, 0xd, 0xc, 0x3, 0xe, 0xd, 0x5, 0x6, 0x5,
0x4, 0x2, 0x2, 0x3, 0x6, 0x5, 0x3, 0x7, 0x5,
0x5, 0x7, 0x6, 0x2, 0x4, 0x3, 0xc, 0x4, 0x3,
0xb, 0x1, 0x3, 0xd, 0x5, 0x6, 0xd, 0x4, 0x6,
0xd, 0xd, 0xa, 0xc, 0xd, 0xd, 0xb, 0xd, 0xd,
0x0, 0xe, 0x3, 0x6, 0x3, 0xe, 0x5, 0x5, 0xe,
0xc, 0xa, 0xc, 0x6, 0x5, 0xe, 0x4, 0x6, 0xd,
0x2, 0x3, 0xc, 0x9, 0xd, 0xe, 0x2, 0xe, 0xd,
0x0, 0xc, 0xc, 0xd, 0xd, 0xc, 0xd, 0xd, 0xd,
0x5, 0x6, 0x6, 0x4, 0x5, 0x4, 0x3, 0x5, 0xc,
0x5, 0x6, 0x5, 0x2, 0x6, 0x5, 0xb, 0x0, 0x4,
};

static int backbone_model2_conv2_relu2_threshold[64 * 7] =
{ // torch.Size([64, 7])
54, 117, 179, 242, 336, 461, 649,
55, 122, 188, 255, 355, 488, 688,
30, 93, 156, 219, 314, 440, 629,
26, 75, 125, 174, 248, 347, 495,
55, 119, 182, 246, 341, 468, 658,
52, 127, 203, 279, 392, 544, 771,
25, 101, 178, 254, 369, 522, 752,
40, 110, 180, 250, 355, 495, 705,
24, 93, 163, 232, 336, 475, 684,
47, 106, 166, 226, 315, 434, 613,
-11, 68, 148, 227, 347, 506, 744,
47, 103, 160, 216, 301, 414, 583,
38, 95, 153, 210, 297, 412, 584,
17, 81, 145, 208, 304, 431, 622,
35, 112, 188, 265, 380, 533, 763,
20, 61, 101, 141, 202, 283, 404,
41, 110, 180, 250, 354, 494, 703,
50, 115, 180, 245, 343, 474, 669,
36, 94, 152, 211, 298, 414, 589,
41, 113, 185, 257, 365, 509, 724,
42, 113, 183, 253, 358, 498, 708,
40, 97, 154, 211, 296, 411, 582,
60, 124, 187, 251, 346, 474, 664,
17, 72, 127, 182, 264, 375, 540,
15, 81, 147, 213, 312, 444, 643,
52, 94, 136, 178, 242, 326, 453,
60, 122, 185, 248, 342, 468, 656,
41, 121, 200, 279, 398, 557, 795,
49, 119, 189, 260, 365, 506, 717,
44, 93, 143, 193, 267, 367, 516,
23, 76, 128, 180, 259, 363, 520,
12, 36, 60, 84, 121, 169, 241,
27, 76, 124, 173, 246, 344, 490,
13, 68, 123, 178, 260, 370, 535,
38, 99, 160, 222, 314, 436, 620,
24, 72, 121, 169, 241, 338, 483,
56, 114, 172, 230, 317, 433, 608,
34, 115, 196, 277, 398, 560, 804,
34, 112, 191, 269, 387, 544, 779,
63, 126, 190, 254, 349, 477, 668,
53, 108, 164, 219, 303, 414, 580,
38, 101, 163, 226, 319, 445, 632,
68, 119, 171, 222, 299, 402, 556,
37, 104, 171, 239, 340, 474, 676,
49, 106, 162, 219, 304, 417, 587,
46, 103, 160, 216, 301, 415, 585,
37, 88, 139, 190, 266, 368, 520,
32, 86, 139, 193, 273, 379, 540,
31, 76, 122, 167, 235, 325, 461,
39, 102, 164, 227, 321, 447, 636,
20, 80, 141, 201, 291, 411, 592,
36, 96, 157, 217, 308, 429, 610,
39, 109, 179, 249, 355, 495, 706,
52, 115, 179, 242, 338, 465, 655,
30, 120, 210, 301, 436, 616, 887,
37, 108, 179, 250, 356, 498, 711,
48, 112, 176, 240, 336, 465, 657,
26, 74, 122, 170, 242, 339, 483,
47, 105, 162, 220, 306, 422, 595,
53, 122, 191, 260, 364, 502, 709,
49, 132, 215, 297, 421, 586, 834,
26, 84, 142, 201, 288, 405, 580,
30, 118, 207, 295, 428, 604, 870,
31, 114, 197, 281, 406, 572, 822,
};

static uint64_t backbone_model3_conv1_conv1_weight[64 * 1*4] =
{ // torch.Size([64, 1, 1, 64])
0xc4c00d4a40cba245,0x3ddc5c34b9dbccc5,0xcb445b26aedc45c4,0xd5ac2544d2d465d4,
0x36a02490464a9a5b,0xd5c1bcdd44aada2c,0xc44cc56d424dc420,0x45c0045a55c31422,
0xcdce3ab4d5541b6d,0x5dc555dbc33d1d55,0x412b4d3624dc5d9d,0xe5d0b5b6d436b425,
0x2babc124442b5a3c,0xbdd2ac4d0cb516d6,0xcc5c24434154ccc4,0x3659cc39cbbdcbdc,
0xcd6db665d93c3ec3,0xda3a5adda34c9a5a,0xa3b54c1aa55ab1bc,0x0139b0a29605d333,
0xc4ccce3d34554d5d,0xcc35d3dd35cb3ccd,0xdb0ddb4d545d454b,0x64433c4b4bdadcea,
0x523bc32b44cad2da,0xd51b19cc93c314bd,0x5c24dbb4c30b15b9,0xadbd1c1c54e93ddc,
0xb59d524ad34ecbbb,0x9c2d3154a4195510,0x45c45ed903bbc09b,0x9434daec4ccb49d5,
0xe5ca53b5262dda24,0xbd4c1c5033e9ab33,0x955b45504bccb344,0x5c3cc4533bd3a5cc,
0x5d43c35c59c3c3db,0x443dc552d5a16c22,0xbd4243c40ba0e164,0x4d4cdec5b1bc599a,
0xad24a5b3bcc5dad4,0x4bbb55535ddc65d4,0xacb2ccb40ee562ce,0x9c50514d94bcd9ab,
0x5dc4ba344d3d05b4,0xd544614bcc54c233,0xddcb3ccceb34cbd4,0xcbc10ccc4b2dbcab,
0x0350d1bb9dcc3c55,0x5659ccc433d243d4,0x5d552dd2a35ccdbc,0xd4dbbacc5dc54c0c,
0xc515bcc414cc4756,0x35cccc3b55434ba5,0xdd1eb4c22dcd45b3,0x423d9401c55d4444,
0x2cc54bcab4b4d540,0x55239b56ca5554d6,0x4d04c3cddb5332a5,0x5a0dbcb4de55cd6d,
0xd5004442d5db3d13,0xbd3c0ccbcbbd3bac,0x450a525dd442a33d,0x46a5c45b26b3c506,
0x44e44530dcda9392,0x923c50344e5a4cb4,0x3d354bc4c444644c,0x142d36d4d45452ad,
0x5dac3b455cdbd0db,0x44dd6e04c3a4d336,0x5ac4b335da9dcda4,0xd4d3ca41dda5b4b5,
0x2caecdbd44c24441,0x5942b3dc34cd2dcc,0x2ccd4c043c2c544b,0xd4cb3c45cb040143,
0xce431cbc4db4b625,0xb553a5c13d54443c,0x1bddadb4d32243c5,0xbcbc29e4ab3dcb5c,
0xcb54cdd403dd4635,0x6359d6dd455c3bb4,0x3b4dedc5c3cdd6c3,0x244b3d1545c55c5d,
0xadc53cc9bbd6559b,0x5dc4465cddcc4544,0x54034b45e3544acc,0x144b4939d1bb53b3,
0xc430ed5debcbe255,0xc5662dcd2ccda4dd,0xc4c54dddb144c44b,0xc3b224cd6b39ddba,
0x4903bbe44a4143cc,0x4c4456b04dc1cd52,0x5ad51a261cccbccc,0x44bc54144e155933,
0x33ddc46959bc51b4,0x034c323c45c0bde4,0xdea43abbd546c335,0xd2e23abb02bc3b4b,
0xdcbccdb6b4d534bb,0x0ed3d44e25ada5cd,0x0cbdd39dc3db5ddd,0x5059455cad4cddc4,
0xacb4445c33cc94c4,0xd5dcbda0d2e5b41c,0x2b304bc5d403e4cb,0x94d3dcb2e5cdacbb,
0xd5553c4c3cc3e455,0xe4405325cd44d9a5,0x4dd9bcc5e5042434,0xc4bd3424a4d55d3a,
0x6943cbbc3dbb3345,0xc5435db32455ce9c,0x5eb4c4515cedd3a4,0xdce4b45c4344c44c,
0x5b34ddad2e53445b,0x555025e4b9054354,0x4badedd5455acc40,0xab403ee5224c424d,
0x3c13ab5dc44495cb,0x4c4dd5d452ec9343,0xc3cecb9223d343cd,0x4c2c5d45d43d00c0,
0x5e4aa544bda35ddd,0x352344cc4b1c045c,0xd334dcd33b1cbcdd,0xcddb2c2cdd34b0ab,
0xa414acacca33e545,0xdad04353c3456b51,0x4c0d5b3a2d4c5315,0x3c41eea55b5dbbb1,
0xbdba3444cd54dddc,0x4b9bcd35bdb33534,0xc6d424a524bc3bad,0x4cd635bc333cd5c5,
0x4d5224b42bc45dc3,0x5bbb6645a6c45441,0x44440cc545bd5346,0x2ddd9dc5ec23b451,
0xcbba544db254433e,0xbd49d4c5adb6dd5d,0xd5dd642d52d50e4a,0xac5c44adcc2db4d5,
0x1ac4ddbc4dd435d9,0xc2cedd9cd463d545,0xe4eedb35d3dd4d05,0xda96142dd36ed6c4,
0x3c6db45b9ed3c041,0x2b5dd434bc53ddc4,0xc41dcddbc64c5cec,0xdad5cdd5b644ca9d,
0xc4d5addc192c439d,0x1353dedd954cd54c,0xd5cbe54dd46bdc49,0x5214143d943d23ca,
0x5ecc355d2e345dd4,0xc04155dca4cd4b5c,0xc5ca0cd5354c552d,0xdb253aed553c92cb,
0x4bbd4d6c5c6c9b2d,0xdcd4b4b5cd360c33,0xad5cd1dc5dc25dc5,0x4cb1ccb9d43901cc,
0xb43cccd054352222,0xa3bacd4d5534a4ad,0xbeac145c3dcb5544,0x5d5d654c3d23ecd5,
0x0a4d45c443cc1ed4,0x55ce33c54cc3b43b,0xa554d1b514acc5d5,0x3cb5ca44e4c5324c,
0xd42bbb43cb45cb4c,0xcc95e6b23ccccbdd,0xdcd0ebddb53c5cdb,0x4dc163bcdbcdcbbc,
0x5c2d54adddc54403,0x5ab3c953bd51442c,0x45dd5dcd523494dc,0xd3d42bedad3bb954,
0x5ba50352bc5c4bcb,0x3d5335d03dd3ce31,0x5a401c9555d3bc4d,0x22d535c4b4ba534b,
0xdac4cd9493d46d5b,0x2ed505256bac4e4b,0xdccc3b0bd6554e46,0xb41555b6dd494293,
0x0ac454a3cb553bc5,0x5d659392bd534cc4,0x5b45534d34c24551,0x553435bc2255cb52,
0x3dad34b5350ad5bd,0xe4cd4dad15dc6c3d,0x22455cc34ddd5c64,0xac14d4c5d44cc5ec,
0xe35d553bb333ddc4,0x02c3cab24dbcc23c,0xc514430d4bc496ed,0x4c23454d154ad42a,
0xb5dd3c4cd3add134,0x1cbb1dd35dccedec,0xdd132c41cbda35d5,0x3cda5511414a54cb,
0xcdb4aa0ceb363b2c,0x4d45c54bd91b5c4c,0x34913563d550c34d,0x4b433d5d4a043bc4,
0x5bd0344443aca244,0xdb14524ca53ad9f4,0x4d22eccdb23c53dc,0xd3da453cdca43c1d,
0x529a4c4cc5bd4c5c,0x431dbc51eceb53c6,0xdb51c3bb95549b4c,0x5553de23943d4add,
0x412213504d545242,0xd455b2cd45e205d2,0xab5cd40e404acc40,0x3da24bac322bda3d,
0xcab2d75cd41c3632,0xdcdbddd340004c06,0x65bdbb4c56c95e44,0x3d46bc55d76d667c,
0x5dab342d45cc4c44,0x5d2dc53b35eddd4c,0x44543cb44b2e94dc,0x454c1d23d6d340eb,
0x4d6433c0dc443c24,0x33d44231dd54c435,0x42bbcdca4c3205ed,0xa419ccdc3c3bccad,
0x5ec4c54bbcdaabd3,0x4eed44429cc1b440,0x55c43cc9cddc4cd4,0xcdc34c25d32c4252,
0x29b4b45cdb4c4133,0x5442a324e2555934,0x02cb4db0b043db63,0x3545eee635035b94,
0x1b25db39ec4a5363,0xca45354be1ccca14,0x34355c24cd43cc4d,0x36b9db4d434244a6,
0xd5d54095c422125c,0xac434cc14cd34445,0x4b01b53d03c4c945,0x444506c4e35c5360,
0x4d424b4c1c42beb2,0xdd54a0c9b5d9c31d,0x45b91b3454439d3c,0x1ba5113c42dcc3d9,
0x315cfc4e5cdcc524,0x45bc3ced95cdc1cc,0x4d2cad2bdc0c03ac,0xe0bc3e6244da4b24,
};

static int backbone_model3_conv1_quant1_threshold[64 * 14] =
{ // torch.Size([64, 14])
-828, -575, -407, -281, -196, -112, -28, 56, 140, 224, 308, 435, 603, 855,
-910, -631, -446, -307, -214, -122, -29, 64, 156, 249, 342, 481, 666, 944,
-794, -549, -386, -263, -182, -100, -19, 63, 144, 226, 308, 430, 593, 838,
-808, -566, -404, -283, -202, -121, -41, 40, 121, 202, 283, 404, 566, 808,
-596, -417, -297, -208, -148, -88, -29, 31, 91, 150, 210, 300, 419, 598,
-920, -654, -477, -345, -256, -168, -79, 9, 97, 186, 274, 407, 584, 849,
-898, -632, -455, -323, -234, -146, -57, 31, 120, 209, 297, 430, 607, 872,
-658, -462, -331, -233, -168, -102, -37, 28, 94, 159, 225, 323, 454, 650,
-817, -568, -401, -276, -193, -110, -27, 57, 140, 223, 306, 431, 598, 847,
-752, -523, -371, -256, -180, -104, -27, 49, 125, 202, 278, 392, 545, 774,
-782, -554, -402, -288, -212, -136, -60, 16, 92, 168, 244, 358, 510, 738,
-771, -541, -387, -272, -196, -119, -42, 35, 111, 188, 265, 380, 533, 763,
-821, -575, -411, -288, -206, -124, -42, 40, 122, 204, 286, 409, 573, 819,
-1092, -756, -532, -364, -252, -140, -28, 84, 196, 308, 420, 588, 812, 1148,
-981, -683, -484, -335, -236, -136, -37, 62, 162, 261, 361, 510, 709, 1007,
-959, -665, -470, -323, -225, -127, -29, 69, 167, 264, 362, 509, 705, 998,
-663, -458, -321, -218, -149, -81, -12, 56, 125, 193, 262, 364, 501, 707,
-1028, -723, -520, -368, -266, -164, -63, 39, 141, 242, 344, 496, 700, 1005,
-889, -624, -448, -316, -228, -140, -52, 36, 124, 212, 300, 432, 609, 873,
-891, -625, -448, -315, -226, -137, -49, 40, 129, 217, 306, 439, 616, 882,
-932, -647, -458, -315, -220, -126, -31, 64, 159, 254, 349, 491, 681, 966,
-853, -589, -413, -281, -194, -106, -18, 70, 158, 246, 334, 466, 642, 906,
-954, -673, -485, -344, -251, -157, -63, 31, 124, 218, 312, 452, 640, 921,
-703, -488, -344, -236, -165, -93, -21, 51, 123, 195, 266, 374, 518, 733,
-740, -517, -368, -257, -183, -108, -34, 40, 114, 189, 263, 374, 523, 746,
-902, -646, -475, -346, -261, -176, -90, -5, 81, 166, 252, 380, 551, 807,
-893, -632, -459, -329, -242, -156, -69, 18, 105, 191, 278, 408, 581, 842,
-806, -561, -398, -275, -194, -112, -30, 52, 133, 215, 297, 419, 583, 828,
-993, -700, -504, -357, -259, -161, -64, 34, 132, 230, 328, 475, 670, 964,
-916, -638, -453, -314, -222, -129, -37, 56, 148, 241, 334, 472, 657, 935,
-866, -611, -440, -312, -227, -142, -57, 28, 114, 199, 284, 412, 582, 838,
-797, -567, -414, -299, -222, -146, -69, 7, 84, 161, 237, 352, 505, 735,
-795, -552, -390, -269, -188, -107, -26, 56, 137, 218, 299, 420, 582, 825,
-962, -674, -482, -338, -242, -146, -50, 46, 142, 238, 334, 479, 671, 959,
-1082, -749, -526, -360, -248, -137, -26, 85, 196, 307, 418, 585, 807, 1141,
-770, -544, -394, -281, -206, -130, -55, 20, 95, 171, 246, 359, 509, 735,
-1220, -862, -623, -444, -325, -205, -86, 33, 152, 272, 391, 570, 809, 1167,
-815, -571, -408, -286, -205, -124, -42, 39, 120, 202, 283, 405, 568, 812,
-1043, -737, -533, -380, -278, -176, -75, 27, 129, 231, 333, 486, 690, 995,
-852, -598, -429, -302, -217, -132, -47, 37, 122, 207, 291, 419, 588, 842,
-771, -543, -391, -277, -201, -125, -49, 27, 103, 180, 256, 370, 522, 750,
-895, -632, -457, -325, -237, -149, -62, 26, 114, 202, 290, 421, 597, 860,
-847, -595, -426, -300, -216, -132, -48, 37, 121, 205, 289, 416, 584, 837,
-800, -575, -425, -313, -238, -163, -88, -13, 62, 137, 212, 324, 474, 699,
-739, -519, -372, -262, -188, -115, -42, 32, 105, 179, 252, 362, 509, 729,
-848, -587, -413, -283, -196, -109, -22, 65, 151, 238, 325, 455, 629, 890,
-828, -577, -410, -285, -202, -118, -35, 48, 132, 215, 299, 424, 591, 841,
-808, -553, -383, -255, -170, -85, 0, 85, 170, 256, 341, 468, 639, 894,
-933, -655, -470, -332, -239, -146, -54, 39, 131, 224, 316, 455, 640, 918,
-815, -576, -416, -297, -217, -137, -58, 22, 102, 182, 261, 381, 540, 779,
-657, -468, -343, -249, -186, -124, -61, 2, 64, 127, 190, 284, 409, 597,
-661, -466, -336, -239, -173, -108, -43, 22, 87, 152, 217, 315, 445, 640,
-860, -607, -439, -313, -228, -144, -60, 24, 108, 192, 277, 403, 571, 824,
-801, -558, -396, -274, -193, -112, -31, 50, 131, 212, 293, 414, 577, 820,
-817, -574, -412, -291, -210, -129, -49, 32, 113, 194, 275, 396, 558, 800,
-1077, -730, -499, -325, -210, -94, 22, 137, 253, 369, 485, 658, 889, 1236,
-969, -679, -485, -340, -244, -147, -50, 47, 143, 240, 337, 482, 675, 965,
-711, -499, -358, -252, -182, -111, -41, 30, 101, 171, 242, 348, 489, 701,
-921, -648, -465, -328, -237, -146, -55, 37, 128, 219, 310, 447, 630, 904,
-811, -560, -393, -267, -183, -100, -16, 68, 152, 235, 319, 445, 612, 863,
-686, -473, -331, -225, -154, -83, -12, 59, 130, 201, 272, 378, 520, 733,
-796, -547, -380, -256, -173, -90, -7, 76, 159, 243, 326, 450, 616, 865,
-436, -308, -223, -158, -116, -73, -30, 13, 55, 98, 141, 205, 291, 419,
-1341, -959, -705, -514, -387, -260, -133, -6, 121, 249, 376, 566, 821, 1202,
};

static uint64_t backbone_model3_conv1_conv2_weight[64 * 9] =
{ // torch.Size([64, 3, 3, 1])
0xc, 0xd, 0xb, 0x5, 0x5, 0x5, 0x4, 0x5, 0x5,
0x4, 0xa, 0x5, 0x4, 0x3, 0x6, 0x4, 0x9, 0x1,
0x5, 0x6, 0x3, 0x3, 0x3, 0x3, 0x1, 0x4, 0xb,
0xc, 0xb, 0x2, 0xc, 0x5, 0x3, 0x0, 0x6, 0x4,
0xd, 0x5, 0x6, 0xd, 0x2, 0x5, 0x9, 0xd, 0x0,
0x4, 0x6, 0xc, 0x9, 0x6, 0xb, 0xc, 0x3, 0xa,
0x5, 0x3, 0x2, 0x5, 0x5, 0x4, 0x0, 0x4, 0xa,
0x2, 0x9, 0xc, 0x4, 0x6, 0xb, 0xe, 0xc, 0x4,
0x9, 0x7, 0x0, 0xa, 0xe, 0xa, 0x3, 0x3, 0x2,
0xc, 0xa, 0x4, 0xe, 0xa, 0x5, 0x0, 0x4, 0x4,
0xe, 0x4, 0x4, 0xd, 0x4, 0x4, 0xc, 0xd, 0xd,
0x4, 0xd, 0xc, 0x5, 0xe, 0xc, 0x5, 0xb, 0xa,
0xc, 0x5, 0x4, 0xd, 0x6, 0x4, 0xc, 0x3, 0x2,
0x4, 0x5, 0x4, 0x4, 0x5, 0x2, 0x4, 0x4, 0xb,
0x5, 0x0, 0xd, 0x0, 0xd, 0xc, 0xc, 0xd, 0x3,
0x6, 0xb, 0xb, 0xd, 0xc, 0xb, 0xc, 0x4, 0x4,
0x4, 0x4, 0x5, 0xb, 0xd, 0x4, 0xd, 0xe, 0x0,
0xe, 0xe, 0x9, 0xd, 0xc, 0xa, 0xc, 0x2, 0x0,
0x5, 0x5, 0xb, 0xc, 0xd, 0x3, 0xd, 0xb, 0xc,
0x4, 0xc, 0xd, 0x4, 0xd, 0x3, 0x6, 0x4, 0x0,
0xa, 0x3, 0xe, 0xa, 0xc, 0xe, 0x2, 0xd, 0xa,
0x1, 0xc, 0xb, 0x9, 0xd, 0x4, 0x5, 0x6, 0x5,
0xb, 0xf, 0x1, 0x3, 0xc, 0xb, 0xc, 0x4, 0xa,
0xb, 0xe, 0xc, 0xd, 0xc, 0x5, 0xc, 0x3, 0x5,
0x0, 0x6, 0x4, 0xd, 0x4, 0x5, 0xd, 0xe, 0x3,
0xc, 0x2, 0xb, 0xc, 0x4, 0xd, 0xc, 0xd, 0xc,
0x4, 0xd, 0xd, 0x5, 0xb, 0xc, 0x4, 0x1, 0xd,
0xa, 0xd, 0xb, 0xe, 0x4, 0xb, 0xd, 0x4, 0x3,
0xc, 0xb, 0xd, 0xc, 0xe, 0x2, 0x1, 0x4, 0x0,
0x9, 0xe, 0x3, 0x3, 0x5, 0xa, 0x0, 0xb, 0xc,
0x4, 0x5, 0xc, 0x4, 0x2, 0xd, 0x3, 0xc, 0xe,
0x6, 0xc, 0xd, 0x3, 0x5, 0xc, 0xd, 0x5, 0x2,
0xd, 0x4, 0x4, 0xc, 0x6, 0x2, 0xb, 0x5, 0x4,
0x6, 0x4, 0xc, 0x4, 0x5, 0x9, 0x1, 0x0, 0xa,
0xc, 0xc, 0x9, 0xe, 0xc, 0x2, 0xd, 0xa, 0x2,
0xa, 0x4, 0x4, 0xc, 0x7, 0x9, 0x2, 0xb, 0x2,
0x4, 0x4, 0x4, 0x4, 0x4, 0x4, 0x2, 0x4, 0x4,
0xd, 0x1, 0x4, 0xd, 0x4, 0xb, 0x4, 0x6, 0x4,
0x0, 0x3, 0x4, 0xc, 0x5, 0x5, 0xb, 0x4, 0x5,
0xd, 0x4, 0xc, 0xe, 0xc, 0xa, 0x4, 0xc, 0x0,
0x1, 0xd, 0xb, 0x9, 0x7, 0x2, 0xb, 0xb, 0x2,
0x5, 0x3, 0x9, 0x6, 0xb, 0x3, 0x4, 0xb, 0xa,
0x4, 0x5, 0x3, 0xa, 0x0, 0x2, 0xc, 0xf, 0xc,
0x4, 0x4, 0xe, 0x4, 0x6, 0xd, 0x3, 0x5, 0x0,
0xc, 0xe, 0x2, 0x5, 0xe, 0x3, 0xa, 0x6, 0x5,
0x5, 0x5, 0x9, 0xb, 0xd, 0xb, 0xe, 0xd, 0xa,
0x3, 0x0, 0x9, 0x4, 0x6, 0x0, 0x4, 0x5, 0x5,
0x4, 0xd, 0xe, 0x5, 0xd, 0xd, 0x5, 0x4, 0x1,
0xb, 0xc, 0x4, 0x1, 0xb, 0x4, 0x4, 0x6, 0x3,
0x3, 0xe, 0xe, 0x4, 0xd, 0xc, 0x3, 0x5, 0x5,
0xc, 0xd, 0xd, 0x3, 0x0, 0x9, 0x6, 0x5, 0x5,
0xb, 0xc, 0x3, 0x5, 0x5, 0x3, 0xc, 0xe, 0x4,
0x4, 0xd, 0xd, 0x5, 0xb, 0xd, 0xa, 0x4, 0x3,
0x6, 0x1, 0xc, 0x4, 0xd, 0xc, 0x3, 0xc, 0x2,
0xd, 0xd, 0x3, 0x4, 0xc, 0x5, 0xb, 0xa, 0x5,
0xc, 0xd, 0xc, 0x0, 0xd, 0xd, 0xa, 0xd, 0xc,
0x5, 0xc, 0xc, 0x6, 0x4, 0xb, 0x5, 0x5, 0xc,
0xb, 0xd, 0xa, 0xd, 0xc, 0x4, 0x5, 0x5, 0x3,
0xb, 0x5, 0x5, 0xd, 0x5, 0x4, 0xd, 0x4, 0x4,
0x9, 0x4, 0x4, 0xc, 0xe, 0x4, 0xb, 0x9, 0x5,
0x5, 0x5, 0x4, 0xc, 0xe, 0x2, 0x1, 0x0, 0xb,
0xe, 0xd, 0x4, 0xc, 0xb, 0x2, 0x4, 0x4, 0x4,
0x5, 0xc, 0xc, 0xe, 0xc, 0x5, 0xd, 0x3, 0x5,
0xb, 0xb, 0x4, 0x1, 0xf, 0x3, 0xb, 0x3, 0x3,
};

static int backbone_model3_conv1_relu2_threshold[64 * 7] =
{ // torch.Size([64, 7])
18, 74, 129, 185, 269, 380, 547,
25, 65, 105, 144, 204, 283, 403,
23, 74, 125, 176, 252, 354, 507,
23, 55, 87, 119, 167, 231, 327,
24, 107, 190, 273, 397, 563, 812,
17, 69, 121, 173, 251, 355, 512,
15, 43, 72, 100, 143, 199, 285,
26, 56, 87, 118, 163, 224, 316,
20, 65, 111, 157, 225, 316, 453,
31, 68, 104, 140, 195, 268, 377,
21, 61, 102, 142, 203, 284, 406,
26, 63, 100, 137, 192, 266, 376,
12, 55, 99, 142, 207, 294, 424,
29, 64, 100, 135, 189, 260, 367,
9, 55, 101, 146, 215, 306, 443,
14, 38, 61, 85, 121, 169, 241,
18, 67, 115, 164, 237, 334, 480,
30, 80, 130, 181, 256, 357, 508,
18, 51, 85, 118, 168, 234, 334,
17, 49, 81, 113, 161, 225, 321,
18, 88, 157, 227, 332, 472, 682,
8, 59, 109, 160, 236, 338, 490,
21, 83, 144, 206, 299, 422, 607,
7, 63, 119, 175, 259, 371, 540,
27, 80, 134, 188, 268, 375, 536,
15, 51, 86, 121, 174, 245, 351,
15, 51, 86, 122, 175, 246, 352,
19, 65, 111, 157, 226, 318, 456,
8, 58, 108, 157, 232, 332, 481,
10, 35, 59, 83, 119, 168, 241,
25, 75, 124, 174, 248, 348, 497,
20, 54, 88, 122, 173, 241, 343,
24, 63, 103, 142, 201, 280, 399,
17, 68, 120, 171, 248, 352, 506,
21, 71, 120, 170, 244, 343, 492,
7, 72, 138, 204, 302, 433, 630,
23, 53, 82, 112, 156, 216, 305,
22, 55, 88, 122, 172, 238, 338,
13, 55, 96, 138, 201, 285, 410,
9, 59, 109, 159, 233, 333, 482,
23, 73, 122, 172, 247, 346, 496,
18, 55, 92, 129, 185, 259, 371,
15, 62, 108, 155, 225, 318, 457,
24, 58, 93, 127, 179, 248, 351,
18, 78, 137, 197, 286, 405, 584,
27, 70, 113, 156, 220, 306, 435,
44, 106, 168, 230, 324, 448, 635,
18, 61, 103, 145, 208, 292, 419,
15, 46, 77, 108, 155, 217, 311,
10, 71, 132, 193, 285, 407, 590,
19, 72, 125, 178, 257, 362, 520,
22, 59, 96, 133, 189, 262, 373,
24, 53, 81, 110, 153, 211, 298,
19, 53, 86, 120, 170, 237, 337,
11, 48, 85, 123, 179, 253, 365,
31, 72, 113, 154, 216, 298, 422,
19, 77, 135, 193, 279, 395, 568,
18, 50, 83, 115, 164, 229, 326,
11, 56, 102, 147, 215, 305, 441,
21, 49, 76, 104, 146, 201, 284,
23, 57, 91, 125, 176, 244, 346,
5, 45, 85, 125, 185, 266, 386,
31, 98, 165, 232, 333, 467, 668,
14, 74, 135, 196, 287, 408, 590,
};

static uint64_t backbone_model3_conv2_conv1_weight[64 * 1*4] =
{ // torch.Size([64, 1, 1, 64])
0x69dcdc4ddb24a5cd,0xccb4c205dc4d2453,0xb5d5355502d4b65e,0x4b4cc344dcbb05bc,
0x1c34543abc4940b5,0xd434439bd0d3d5cc,0x51dbd34c3c4552a4,0xd42d533e49352034,
0xd3cc91c2445494a3,0x5d9b433c52bb4bdd,0xdba4cd3c95edad9c,0x944c1cda3d40344c,
0x441cbd26455dcc4c,0xdcaaddc2b5c3a34d,0x334cd63bc34a44d5,0x344455ac563b4b54,
0xcc31443c1bc343c5,0xc5c056c240ea52d3,0x04c543945b54db44,0xd4be94bba5554ca4,
0x5914c4c454a21a51,0x54993dcb35313344,0x3db24432e23b135b,0x4b44945344cedc5d,
0x315cc3d4c5ccdb94,0x349c326c4b43cb44,0xa3d519912dbbc5bc,0x5c33a43ea0da4b53,
0x4a2652c5c5bb5455,0xb45b3b32c415dd44,0x5da9445db6cc5c34,0x5d2d32c9c42ca54b,
0x4b4c41c4b9c4c03a,0xd3b3cc3bd2cad3cc,0x539ce43d22b25ceb,0xccda5dc4d34c440b,
0x4ec44d4e4dcd3240,0xb4c95dc4239342cb,0xb044a3db5e44d52b,0xcec4db43354e3dbb,
0x4d4c33d543cd52c6,0x469d4a4d54c5d44b,0xcbb5bc2494a50443,0xb555b45c25d3bc55,
0x4c460c5b403b5549,0xb51a9c534c551d93,0xd5bc416c44bbd13b,0x4d45d3bcdc2c44c4,
0x3cbc5b9d9aa3bdcc,0x5aca45c346033c4b,0x45cb4b3ae4b5cb3b,0xe533bebcb1b5344c,
0xbb25bba44445d55c,0x04d12535d3490c3b,0x2c5a33cab45ccd52,0x5c50dcb4e04cb6cb,
0xc353db5555552b45,0x6444454c455ad5d5,0x54d5a405aeada354,0x5196543c4643554b,
0x5dcb2bc445541c3c,0xd5cc0b3b44cb4de3,0x44c3c55dd42ceab3,0x3eb5332bc4de451c,
0x44bde4511599dc1c,0x3d54e5c52544c555,0x4d3cc4334a6d51b4,0x91491bc253d00c6a,
0xb9355bc2a2ed3645,0xb24d53c0c4c2cd52,0xad5502c5b6d3b3d5,0x4dd4c6cc5ada4dd3,
0xccd2bc35b4333c33,0xb3dc9daac6334ed3,0x59c4dc33d0ac3444,0xb32204d2c1accc5b,
0x5bc493a3a5444bac,0x5299dd4bd4bdcc54,0x5dbac5d4edc03cdd,0x3bc55c514dbdc41c,
0x135cc03bb4bde35c,0x4c24d546b54b92ba,0xb3454cc44b6cb5a1,0x23a4e3c354db3d5b,
0xd2429c25c0b3cb44,0x4b43bbb42149b3c4,0x5cbccd6c4ccdcca4,0xb54554a3a543bc45,
0x33cee4dac9cba42d,0x0c4c95a335c32444,0x190bd3b24b33ccd1,0xc3e3c4955ad43e45,
0x5c4ca635559dcc5c,0x3c20a992ddb4cb6a,0x5a4a4433a6bc49c3,0x4dd25acd462d34c2,
0xb4956dd3215c90c6,0xa44c51d954ccb65d,0xc4d9cb431cc641bb,0x3650346cb53cc4d6,
0x9b4c314de42db35c,0x449b1b0334025333,0xc1cc35a123b3c5d2,0xdc14c30950cda3ce,
0x43943c434aa04945,0xb22d34d15a456c43,0xda343ba54a3de344,0x94553b2b5b42b2d4,
0x4961444cb4229c3b,0xbd45cc44cd2ddcc1,0x54324dcbc5d254c3,0x5edc3ad4c45c4dbe,
0xfa44454344434044,0x3549234d43b2b4b3,0x433c53d32431cd4b,0x3145b935c5493552,
0xd4d3c4b54a562513,0xcc342595acada2d5,0x521b455e4bbdae54,0x53aa0544c544d53b,
0xd35da355d5bb106d,0xcd49a4d0e43b31ba,0x34ddc544bb1d44d5,0xcac30acbbc3a2c9d,
0xc344cc5dd4546652,0x54445ab5bd4c2c3d,0xcdd6cec4445d4533,0x9c542dd0a52a5b93,
0x5dc543ccc15353c9,0x25dc5dca5e1d5acb,0xdbb44dcd1cd4ccbd,0xd9ca0b434b43c4b1,
0x3549b50b0b55bc54,0x55e9b3bc4d2d45b4,0x440d556bc43c425e,0x40355c4cc34bb5a0,
0x429cb135cd54d443,0x45eaddcb3d444dc4,0x5cc03cc5315c433d,0x445c5a2cc2b152c5,
0x94925c141dac433d,0x1be44a4c45c35cae,0x55c41392d924b153,0x452b24ca430cccc2,
0xb1e32c4b19cc5ad1,0x5cb214d3342152a4,0x9cb51a259d2454b3,0xd54d43b452a55cc5,
0xcd5035c453523254,0xab3c44a4dd354453,0xca5d5311353d2c44,0x4453cc32a55dd69d,
0x54b21d4cd11c14ce,0x04c49cc2cc4b4d2d,0xb523b554d49a32c0,0x0add45301cc9acbd,
0xda4244d26bb4db50,0x54c4c4ccd5e4cc25,0x39da143dc5a9c439,0xcb5cbb31ca5dd259,
0x96d9444c255cbd4c,0x9144b24c545504e5,0x00c0d3c3c54e3cb0,0x245b2da4cdec3c55,
0xada555cd4a0bcbd5,0x46cc34635c34c1cc,0xbd3be35d2c45443d,0x5c53cb5bc5d5cc14,
0x45544ac55b445b43,0xb524ab4444b452cd,0xcb4e444d32d21a54,0xc54bb424335ce4cc,
0xc152bdad519aa39c,0x9a4c2a4104b3b52c,0xbcbccc404ac99bb3,0x2b45bbcba421cb42,
0x45dbbdcb19d53414,0x2d6492c4cdadc545,0xbd0454cb5c22bb2d,0xad4b5d5bc03333cc,
0x4ecb46c554144db5,0x44b04bcccc45d654,0x3b453c5b65145945,0xd1595dcc455aac5b,
0x34ccd52dccadbc30,0xbc4cdb9d3c504c3d,0x02c50b354dc424c2,0x65d5434d5cd9dd52,
0xb54d559435e6a433,0x4c5953639a341c56,0x6dccbc95cd555ccd,0xc0ba5d3956bccc34,
0x01c4a911b55442db,0x1c3e13254c1b6453,0x395c1bd1bb4bacb1,0xa0024b0243b2a3ab,
0xcacdc53dcc44e1dc,0x3c1a55da5d2139ca,0x4542dcb95d444cd4,0xb5dbc4cc5c35bdc2,
0x4144444bbccdadcd,0x53b2d634b234915c,0xa40b25d4d234c44d,0x14c3ad4a94d4c5bd,
0x4b94425b523cbe4b,0x3bc10cbb5354b592,0xc44c23954d54944b,0x45454c4db43c2232,
0x325cd5bc02c45a3d,0x62cb40ab3c9b544d,0xbd45edc5ac54a5cd,0x24b4cdb934d350dc,
0x5da544a5c4cc3a3d,0x95c443c3d1541444,0x43aac534d345a392,0x32c305431303d0dc,
0xd5cc4cc3eaaac5bd,0x2dcd9ccacbbcad4c,0x39ddb24c4cddc9db,0xb42bdc5daedccc05,
0xcc34545cdd04aa2c,0xdd94cce5dd9c312d,0x495b934544b559e5,0x24cc4dc5d504bd44,
0x4dc95d3cd0e5c245,0x4cd295c4caddbd44,0x2cd53cc3d0e3dc1c,0xbddd4d6c1e5dd52b,
0xd251b23a643b125c,0x6d3c5c4c10dcd9c2,0xc540cd6a4c4035c4,0x0b3034abbd50cba4,
0x4a5ccb9a923cb1bc,0xdd45cac5ddcb21d9,0x4451bcc3c5445cc3,0xd90dbbb4c4ba530c,
0x5ddabcc442a34c9c,0xb5c359c4b3bc43bb,0x95ce44ccdd54b34b,0x9244dc54c33bc5cd,
0xbccbcdc54c1a43dd,0xcbdc4ecdccdd5dec,0xcc54b4dc2dcb2252,0x51acb6d29d4999dd,
0xec3cbad333dccb3d,0x424c9ccdcb4cc95d,0x35ded4542c4a3dc3,0x5ca4924dcb40b4c3,
0xcd5b1551cdbb346d,0xbd4b46450aec55a3,0xc33ccbba5dccb424,0x3d4da2d59d4e3cbc,
0x5cc5c35cc54c0ccc,0xccbdcc446b5c4c90,0xbd5d5ddccbbadccc,0x3dc49bcc2bdbc352,
};

static int backbone_model3_conv2_quant1_threshold[64 * 14] =
{ // torch.Size([64, 14])
-1068, -746, -531, -370, -263, -155, -48, 60, 167, 275, 382, 543, 758, 1080,
-726, -507, -360, -250, -177, -104, -31, 42, 116, 189, 262, 372, 518, 738,
-752, -528, -379, -267, -193, -118, -44, 31, 106, 180, 255, 367, 516, 740,
-866, -600, -423, -290, -201, -113, -24, 65, 153, 242, 330, 463, 641, 907,
-894, -613, -425, -284, -190, -96, -3, 91, 185, 279, 373, 514, 701, 983,
-741, -518, -369, -257, -183, -109, -34, 40, 114, 189, 263, 375, 523, 746,
-843, -593, -427, -301, -218, -135, -51, 32, 115, 199, 282, 407, 574, 824,
-986, -686, -486, -335, -235, -135, -35, 65, 165, 265, 365, 516, 716, 1016,
-789, -560, -407, -293, -216, -140, -64, 13, 89, 165, 242, 356, 509, 738,
-1203, -859, -630, -458, -343, -228, -114, 1, 116, 231, 345, 517, 747, 1091,
-763, -524, -364, -245, -165, -85, -6, 74, 154, 233, 313, 433, 592, 831,
-851, -595, -425, -297, -212, -127, -41, 44, 129, 214, 299, 427, 598, 853,
-758, -536, -389, -278, -204, -130, -56, 17, 91, 165, 239, 350, 497, 719,
-770, -535, -378, -260, -181, -103, -24, 55, 133, 212, 290, 408, 565, 801,
-824, -557, -378, -245, -156, -66, 23, 112, 201, 290, 379, 513, 691, 959,
-987, -703, -514, -372, -277, -183, -88, 6, 101, 196, 290, 432, 621, 905,
-940, -652, -460, -317, -221, -125, -29, 67, 163, 259, 355, 499, 690, 978,
-944, -662, -474, -332, -238, -144, -50, 44, 138, 232, 326, 467, 655, 938,
-719, -510, -372, -268, -198, -129, -59, 10, 79, 149, 218, 322, 461, 669,
-817, -583, -428, -311, -233, -155, -77, 0, 78, 156, 234, 351, 506, 740,
-873, -604, -424, -290, -200, -110, -20, 69, 159, 249, 339, 473, 653, 922,
-785, -539, -375, -252, -170, -88, -6, 76, 159, 241, 323, 446, 610, 856,
-1032, -732, -532, -382, -282, -183, -83, 17, 117, 217, 317, 467, 667, 967,
-930, -642, -450, -306, -210, -114, -18, 78, 174, 270, 366, 510, 702, 990,
-866, -597, -418, -283, -194, -104, -14, 75, 165, 255, 344, 479, 658, 927,
-785, -553, -398, -281, -204, -126, -49, 29, 106, 184, 261, 377, 532, 765,
-648, -443, -306, -203, -134, -66, 2, 71, 139, 208, 276, 379, 516, 721,
-884, -618, -441, -308, -220, -131, -43, 46, 134, 223, 312, 444, 622, 887,
-790, -546, -384, -262, -181, -99, -18, 63, 145, 226, 307, 429, 592, 836,
-861, -597, -422, -290, -202, -114, -26, 62, 150, 237, 325, 457, 633, 897,
-895, -625, -446, -311, -221, -131, -42, 48, 138, 228, 318, 452, 632, 901,
-725, -501, -352, -240, -166, -91, -17, 58, 132, 207, 281, 393, 542, 766,
-1005, -708, -510, -362, -263, -163, -64, 35, 134, 233, 332, 480, 678, 976,
-1042, -718, -503, -341, -233, -125, -17, 91, 198, 306, 414, 576, 792, 1115,
-931, -650, -462, -321, -227, -134, -40, 54, 148, 242, 336, 476, 664, 945,
-736, -512, -363, -251, -176, -102, -27, 48, 122, 197, 272, 384, 533, 757,
-804, -565, -406, -286, -206, -126, -47, 33, 113, 193, 272, 392, 552, 791,
-771, -532, -374, -255, -175, -96, -17, 63, 142, 222, 301, 420, 579, 817,
-935, -667, -488, -354, -265, -175, -86, 4, 93, 182, 272, 406, 585, 853,
-759, -531, -378, -264, -188, -111, -35, 41, 117, 194, 270, 384, 537, 766,
-1154, -807, -575, -402, -286, -171, -55, 61, 177, 292, 408, 581, 813, 1160,
-908, -639, -460, -325, -236, -146, -56, 33, 123, 213, 302, 437, 616, 885,
-668, -457, -316, -210, -140, -69, 1, 72, 142, 213, 283, 389, 530, 741,
-844, -590, -420, -293, -208, -124, -39, 46, 131, 215, 300, 427, 597, 851,
-738, -519, -372, -262, -189, -115, -42, 31, 105, 178, 251, 361, 508, 728,
-813, -558, -389, -262, -177, -92, -7, 77, 162, 247, 332, 459, 628, 883,
-810, -567, -404, -282, -201, -119, -38, 43, 124, 206, 287, 409, 571, 815,
-928, -645, -456, -314, -219, -125, -30, 64, 159, 253, 348, 489, 678, 962,
-607, -423, -301, -209, -148, -86, -25, 36, 97, 159, 220, 312, 434, 618,
-777, -541, -385, -267, -188, -110, -31, 47, 126, 204, 282, 400, 557, 792,
-784, -548, -391, -274, -195, -117, -38, 40, 119, 197, 275, 393, 550, 785,
-693, -475, -329, -220, -148, -75, -2, 70, 143, 216, 289, 398, 543, 761,
-984, -685, -486, -336, -236, -136, -37, 63, 163, 263, 362, 512, 712, 1011,
-768, -533, -376, -258, -180, -101, -23, 56, 134, 213, 291, 409, 566, 801,
-945, -679, -502, -368, -280, -191, -102, -14, 75, 164, 253, 386, 563, 829,
-988, -688, -489, -339, -239, -139, -39, 61, 160, 260, 360, 510, 710, 1009,
-953, -678, -495, -357, -266, -174, -82, 9, 101, 192, 284, 422, 605, 880,
-793, -545, -380, -256, -174, -91, -9, 74, 156, 239, 321, 445, 610, 858,
-621, -435, -311, -218, -156, -94, -32, 30, 92, 154, 216, 309, 433, 618,
-666, -472, -343, -246, -181, -117, -52, 12, 77, 141, 206, 303, 432, 626,
-864, -621, -460, -339, -258, -177, -96, -15, 65, 146, 227, 348, 510, 752,
-946, -671, -488, -351, -259, -168, -76, 15, 107, 198, 290, 427, 610, 885,
-1037, -721, -510, -353, -247, -142, -37, 69, 174, 279, 384, 542, 753, 1069,
-910, -644, -467, -334, -245, -156, -68, 21, 110, 198, 287, 420, 598, 864,
};

static uint64_t backbone_model3_conv2_conv2_weight[64 * 9] =
{ // torch.Size([64, 3, 3, 1])
0x3, 0x5, 0x5, 0x3, 0x5, 0x5, 0xc, 0x5, 0x4,
0x6, 0xb, 0xe, 0xc, 0xe, 0x1, 0xc, 0x5, 0x5,
0x5, 0x5, 0x5, 0x4, 0x4, 0x5, 0xc, 0xd, 0xd,
0xd, 0xd, 0xc, 0xd, 0x9, 0xc, 0xe, 0xc, 0xa,
0x5, 0x5, 0xd, 0x4, 0x5, 0xd, 0x4, 0x1, 0xe,
0xd, 0xd, 0x2, 0xb, 0xd, 0xe, 0x3, 0x3, 0xc,
0x3, 0x4, 0xc, 0x5, 0xb, 0x5, 0x3, 0xf, 0x3,
0xd, 0xc, 0xb, 0xd, 0xe, 0xc, 0x5, 0x4, 0x1,
0x5, 0x6, 0xc, 0x0, 0x5, 0xe, 0x3, 0x6, 0xc,
0xb, 0xd, 0xd, 0x2, 0xd, 0xc, 0x2, 0xc, 0xc,
0x1, 0x4, 0x1, 0xc, 0xe, 0xd, 0xb, 0xc, 0x1,
0xc, 0xd, 0xd, 0xd, 0x5, 0x5, 0xe, 0x3, 0x4,
0xc, 0xd, 0x0, 0xd, 0xd, 0x5, 0xd, 0x4, 0x5,
0x3, 0xc, 0xc, 0x0, 0xe, 0xd, 0xc, 0x5, 0x5,
0x4, 0x2, 0x3, 0xc, 0xe, 0xb, 0xc, 0xd, 0xd,
0xd, 0xc, 0xc, 0xd, 0xd, 0xc, 0xb, 0xc, 0xd,
0x4, 0x4, 0x3, 0x3, 0xd, 0xf, 0x4, 0xd, 0xc,
0xd, 0xd, 0xd, 0xc, 0xd, 0xc, 0x4, 0x5, 0x5,
0x5, 0xc, 0xd, 0x6, 0x5, 0xd, 0x9, 0x5, 0x0,
0xd, 0x6, 0x5, 0xc, 0x5, 0xa, 0xd, 0x5, 0x5,
0xc, 0xf, 0xa, 0xc, 0x1, 0x4, 0x0, 0x1, 0x2,
0x4, 0x3, 0x4, 0x5, 0x4, 0x3, 0x4, 0x5, 0x3,
0xb, 0x5, 0x5, 0x4, 0x4, 0x5, 0x3, 0xe, 0xe,
0xc, 0xe, 0xe, 0x0, 0xc, 0xc, 0x4, 0xb, 0x1,
0x3, 0x5, 0xa, 0x5, 0x4, 0xc, 0xd, 0xf, 0xd,
0x4, 0x5, 0x5, 0xb, 0xb, 0xc, 0xd, 0xd, 0xd,
0x9, 0xd, 0x5, 0x4, 0xe, 0x4, 0xb, 0xb, 0x0,
0x5, 0x5, 0x5, 0x3, 0x3, 0x3, 0xd, 0xd, 0xc,
0x3, 0x3, 0xb, 0x1, 0xf, 0x1, 0xa, 0x3, 0x0,
0xc, 0xc, 0xd, 0xc, 0xb, 0xb, 0xd, 0xe, 0xc,
0x4, 0x5, 0x3, 0x5, 0x6, 0x5, 0x0, 0x4, 0x4,
0xa, 0x3, 0x4, 0x9, 0xd, 0xd, 0xd, 0xe, 0xe,
0x0, 0x7, 0x4, 0xc, 0x4, 0xc, 0xc, 0xc, 0xa,
0xa, 0xc, 0xa, 0xa, 0xc, 0xc, 0xd, 0xd, 0xd,
0xb, 0xc, 0x4, 0xd, 0xd, 0xb, 0xd, 0xd, 0xb,
0x4, 0x4, 0xc, 0x5, 0xd, 0xd, 0x5, 0xe, 0xc,
0xd, 0xd, 0xa, 0xd, 0x5, 0x5, 0xd, 0x6, 0x2,
0xe, 0xd, 0xa, 0xd, 0x5, 0x3, 0xc, 0x4, 0xa,
0xd, 0x2, 0x4, 0xd, 0x3, 0x6, 0xb, 0x5, 0x5,
0xc, 0x5, 0x5, 0xd, 0xc, 0x5, 0x9, 0xe, 0x5,
0xc, 0x5, 0x4, 0x3, 0x4, 0x5, 0x4, 0x5, 0x3,
0xa, 0x4, 0x5, 0xd, 0xb, 0x4, 0xe, 0xe, 0xc,
0xd, 0xd, 0x3, 0xd, 0xd, 0x4, 0xd, 0x3, 0x5,
0x3, 0x1, 0x4, 0x4, 0x4, 0x5, 0x0, 0x1, 0xb,
0x5, 0x5, 0xb, 0x4, 0x5, 0xd, 0x5, 0x5, 0xc,
0xd, 0xe, 0xd, 0xe, 0xc, 0x2, 0xb, 0x3, 0x4,
0x3, 0x6, 0x5, 0x0, 0xd, 0x6, 0x0, 0xd, 0x4,
0xd, 0xd, 0x1, 0x9, 0xe, 0xc, 0xc, 0xe, 0xc,
0x4, 0xd, 0xc, 0xd, 0x5, 0xd, 0xa, 0x6, 0xc,
0xc, 0x6, 0x6, 0xd, 0xb, 0xc, 0xb, 0x0, 0x0,
0x3, 0xd, 0xc, 0x5, 0xc, 0xd, 0x5, 0x5, 0xd,
0xb, 0x5, 0x4, 0xb, 0xd, 0x4, 0xb, 0xe, 0xc,
0xd, 0xe, 0xe, 0x2, 0xb, 0xb, 0x3, 0xb, 0xb,
0x2, 0xb, 0xd, 0xc, 0xb, 0xb, 0xc, 0xb, 0xc,
0x5, 0x4, 0xc, 0x5, 0x5, 0xa, 0x4, 0x2, 0x4,
0x2, 0x5, 0x6, 0xc, 0xa, 0x6, 0x1, 0xd, 0x4,
0x4, 0xa, 0x1, 0x5, 0x6, 0xb, 0x2, 0x5, 0x3,
0x1, 0x4, 0xb, 0x4, 0x6, 0x3, 0x4, 0x5, 0x3,
0x5, 0xa, 0xd, 0x4, 0x6, 0xc, 0xc, 0xc, 0x4,
0xc, 0xd, 0xd, 0xa, 0x4, 0x4, 0x4, 0x6, 0x5,
0x5, 0x5, 0x5, 0x6, 0xc, 0xc, 0x5, 0x5, 0xd,
0xd, 0x5, 0x4, 0xd, 0x6, 0x3, 0xa, 0x5, 0x3,
0xc, 0x3, 0x2, 0x2, 0x4, 0x5, 0x5, 0x5, 0x6,
0xc, 0x3, 0x0, 0xc, 0x6, 0x3, 0x3, 0x4, 0xa,
};

static int backbone_model3_conv2_relu2_threshold[64 * 7] =
{ // torch.Size([64, 7])
12, 67, 123, 178, 261, 372, 538,
26, 77, 129, 180, 257, 360, 515,
29, 64, 99, 134, 187, 257, 362,
28, 78, 128, 178, 254, 354, 504,
36, 80, 123, 167, 232, 319, 449,
26, 64, 102, 140, 197, 273, 386,
24, 91, 158, 225, 325, 458, 659,
12, 55, 97, 140, 204, 290, 418,
23, 81, 138, 196, 283, 399, 573,
19, 59, 99, 139, 199, 279, 399,
21, 59, 96, 134, 190, 266, 379,
14, 64, 113, 162, 236, 335, 483,
34, 71, 109, 146, 202, 277, 389,
20, 57, 94, 132, 187, 262, 373,
17, 59, 101, 144, 207, 292, 419,
20, 67, 114, 161, 231, 325, 465,
62, 119, 176, 233, 319, 433, 605,
32, 72, 112, 152, 212, 292, 412,
44, 86, 128, 171, 234, 319, 446,
31, 75, 120, 164, 231, 319, 453,
18, 61, 105, 148, 213, 299, 429,
16, 56, 96, 135, 195, 274, 392,
36, 72, 107, 143, 196, 267, 373,
28, 87, 146, 205, 294, 412, 589,
33, 90, 147, 203, 288, 401, 571,
27, 61, 96, 130, 181, 250, 353,
26, 62, 99, 136, 191, 265, 375,
18, 49, 80, 111, 158, 220, 314,
18, 69, 120, 171, 247, 349, 502,
11, 63, 114, 166, 244, 347, 502,
-5, 78, 161, 243, 368, 533, 782,
30, 83, 137, 190, 270, 377, 537,
32, 73, 113, 154, 215, 296, 418,
19, 64, 109, 154, 221, 311, 445,
17, 62, 107, 152, 219, 309, 443,
32, 62, 92, 122, 167, 227, 318,
40, 81, 123, 164, 226, 309, 433,
6, 50, 94, 138, 203, 291, 423,
33, 83, 133, 182, 257, 356, 506,
30, 69, 108, 147, 206, 285, 403,
19, 58, 96, 135, 193, 270, 386,
27, 74, 121, 168, 238, 332, 473,
21, 66, 111, 156, 224, 314, 449,
25, 52, 80, 107, 148, 203, 285,
24, 62, 101, 139, 197, 274, 390,
20, 69, 117, 166, 238, 335, 481,
23, 81, 138, 196, 282, 398, 571,
18, 67, 116, 165, 238, 336, 483,
3, 50, 96, 143, 212, 305, 444,
24, 61, 97, 133, 187, 259, 367,
27, 56, 86, 115, 159, 217, 305,
35, 73, 111, 149, 206, 282, 395,
33, 83, 134, 184, 259, 360, 511,
16, 52, 88, 124, 178, 250, 358,
11, 46, 82, 117, 170, 240, 346,
26, 70, 114, 158, 224, 312, 444,
6, 38, 70, 102, 149, 213, 308,
15, 73, 130, 188, 274, 389, 562,
15, 55, 96, 137, 197, 279, 400,
54, 107, 160, 213, 292, 398, 557,
38, 81, 124, 167, 232, 318, 447,
10, 60, 110, 160, 235, 335, 485,
38, 90, 143, 195, 273, 378, 535,
17, 46, 75, 104, 148, 206, 294,
};

static uint64_t backbone_model4_conv1_conv1_weight[64 * 1*4] =
{ // torch.Size([64, 1, 1, 64])
0xb4b5cccbd4abc502,0xc324be42243352d2,0x5cd3c0455ddce62c,0x425634bd243c24bc,
0xbcb1cbd443b5b34c,0x03c5a355c33ccbb0,0x5bcaca5ac1c45cc6,0x49ab4b62cc095ec5,
0x34cb92c333b64c49,0x435db545d54cd424,0xb13acc126325dc1c,0xc92db4db0c54dc24,
0x264bc9ddcdcdad0b,0xc2a1c93543ca4c2d,0xe653aa55d9dcb4dd,0xca94a53b3c445c2d,
0xa43b204344ebb12c,0x4c4d4bda24200de3,0x53d5b35359402393,0x55bcb5d354039b35,
0x3d5d45c451da2333,0x55bcc6bc535ccdd9,0xd03ab42cdaa25d34,0xcabda343aa55cdb4,
0x24b49cc53045cd4c,0x53341b45343b3c45,0xba125bd534c54a95,0x9d0b44c45ad64dc3,
0x0bbddcbcd64bd2cb,0x904c254544542ddc,0x5b3c6cbb245cdcd0,0x55444b5ad903cdcd,
0xc5e33452d245193a,0x34454d35d3525553,0x4ccad5cb4b24c254,0xd14b1333d9dc29c4,
0xd2ec5e3acddcd55d,0xcdb4c444e59d5cc5,0x2545dd4ab34464a5,0x4de31a3d4d253cf5,
0xc5cc1bc19dcdcbc3,0x31ba3c54abccb5b1,0x2545cc3c103cdbcd,0x4dad5c4d49ddc435,
0xcba3d4d44bd4a439,0x9abc9cbe5adbd550,0x55c2444cdb3444cc,0x5a2413a2a354ba93,
0xbbb59352cc420a10,0xc3db5d3accdd045c,0x5c9ab9424cda4393,0x0c01b3092a543cce,
0x2c4334c344db4342,0x432bd03b34334dd1,0x2134b4c292144404,0x150b40a5a333330b,
0xad4d445b45ab45bb,0xdbcc92e43db3d25d,0xdd4aaa2e0953a249,0x04c5bd5cbb5cd5a4,
0x253d303c4cca45c4,0xd3039d5c4d02a55d,0xd544356bbc0d433e,0x5a44a41c34cca445,
0x4d4341c50ddca045,0xd5acbdbd4d245535,0x42b59ca4b5ca3a34,0x0c9d53c051b4a4a6,
0x3e55d943bdcdaacb,0x5cc2b544c5bb5c35,0xa453cc339cd05345,0xedc4cdba4cd59cbb,
0xd5bb1c50c0b954d5,0xccd5c1b4d4ae5cbc,0x4c46dc5cdf5dcd5e,0x2cd4e45becbdd5b6,
0xdbccb34bb5234cc1,0xd1d02d4d4bcd1b5a,0x553434cb4c4ab43c,0x64cdcac40a4dd324,
0x4a61d554d355c634,0xbb4b14cb6bd64cdd,0x54d1c5ccdc4465cd,0xecc54c65d3c6dc4d,
0x2b93cc5c4a5db9c3,0xccb154e5ccc4a540,0xcd534345235b4cb5,0xc434c9d3bb431dbc,
0xc3c43c44db61c511,0x2b359ddc5bcc9543,0x4bdc4bac5a4b9344,0x4d15c4b0c1ba55b3,
0x4d4ac90caaaa05da,0x09a53cb455b54ebd,0x1db3c3cbdc4d05ce,0x3135ac5cd4a0cc4c,
0x4d43d4ba234dca31,0x52215305dda39532,0x4a6123abb0345cc9,0x943e4ec4cbd35e3d,
0x34abd5453245d62a,0xccd5b54c3eb9b2d0,0xdd20344b5aca4d4c,0x443d434ab31a54cc,
0x0baa09a31ca3c3bc,0xbcdb4dbd1ddab44b,0xbcbc9c4bca3bdd2b,0x1bc9b95cba4bd2ca,
0x34463bcdc2d321c2,0x525c0d09b3b3455d,0x59c4b2a04ca04459,0x3e2434ab4ab3db46,
0xd5c42d5454a3c243,0xad31a4cb45e394ce,0x1513ca04913b3a35,0x4d40cd30442b52d3,
0x9bcca3cdc4343dc4,0x4b95434533b45d03,0x952052445cb0c35b,0x300db4d449d41436,
0xa415c339cc90534b,0x4ae15dc105ed44c4,0x29c393c2dc33393c,0x1494d44bc3155d34,
0x3e4a235e5cc2c201,0xc4c335a52b3044cb,0xb223534c425d3333,0x3aba3b3c4b05d335,
0xc5bc3c5da4ba3e2c,0x91b43cd6cd34955b,0xd4ac2b6544ca54aa,0x5c3a10b35c4524ac,
0xdc4dda6e5429ca2a,0xdb4c2dd315c0c65d,0x241b54c1c2323193,0xc52bbc5cbb51ddbc,
0x34124c35cc33bcb3,0x5b0c35a5c593bd0b,0x4332b044e5904aa5,0xe0bccc43d3012a3e,
0x932334934125b34c,0x3334c344dd2b4b2a,0x34ee4c5b34db432c,0x3f244442a9444b5e,
0x9c5545656a3c5432,0xb3dc555e54baacba,0xd5b4406ebc4a63c4,0xddc33c445304c5cd,
0x5c4cd435b4434700,0xccd4a313ccabcd3c,0xecba39c93b31bb44,0x04d2444cb3b351bd,
0xbc2cc3dd3ced1acb,0xcc4b334cb4235c45,0xb5533bb4ecc43502,0xd4a432c002ba1dc5,
0x3b12ccac42ddbc3a,0x426cdcbdbc553b2b,0x4b533ab46bb0359d,0x42c9cbe04963accd,
0xa4339c3d4cc5c59c,0xcddbcd3333dda30d,0x34bcbd5bdc5c52c9,0x44c49c6ccd344dd5,
0x3d2b44cdba6dcca2,0xcd2644d214b4cde5,0x323c5a4adadc0ec5,0x35c4a49aa44b55ad,
0xc4add42bacdd5da3,0xb1c4c443cc2b504b,0xd243ca5059dc356a,0xad234d345b3bdc2d,
0x2440204acecb21c2,0xacc5521333d15ced,0x2241c4d0c9c15353,0xccc03b5454e43c25,
0x4bb43043dc45dcb3,0xbd43dbecd5bcc454,0x3d53c3dad4d54e03,0xe5bcd4ebc3e409bd,
0xc5cd10bdcac1c4d3,0xcd5a13b6cb35451d,0xc54a4bbcacc13c5e,0xdddbb36b0c24d5b5,
0xcccb3b45c5543bc2,0xda3baa41d3bcd44c,0x5cb3c44a4aab93cb,0xd392dd44d4cecacc,
0x35553d53ed0db243,0x4049b9c5cbc4a2ab,0x5c41ed44434ab5b4,0x3d443dbab4d464cb,
0xadcbb4d543ac454b,0xb46522ad44265cb5,0xdb4d62c255d3162c,0x4d4454b35b54354c,
0xcdd354d544db3dd3,0x5c436ccb44d24d33,0xc953cce4d4dadc25,0x15acc5dcccae5a06,
0x3019244454c45994,0xa422ca5944101a34,0xb445341bd3244413,0x555222242453aa34,
0x2cc4d2443f504cbb,0x0ccb595a450c9c45,0xda6213c5d53443d4,0xde4444c34ad53d2b,
0x4d4acba4d55bc1b2,0xa36b2ac62326b3dc,0xb2b35bc35b0b21cb,0xdca4944b43eb234a,
0x4544c32c4d15ccd4,0xccbc5c54bccbd55c,0xb5625259343abdc4,0xa34bdded3cdbae3d,
0x3c545d5d9cddca20,0xd95b4edc44c595bc,0x51b334309b335453,0x9502c5c544c50ab5,
0x4513c3bdcc541033,0x43035d31cc4c3b43,0x1d9b3db3431cebcd,0x02232a3d4a5dc2bc,
0x459deb433254b532,0xccc3b9353c3a45cc,0xcc4c13c53023b2bd,0x554e0c1bcbc354cd,
0x2cd55bd9cccd4435,0x5c31bccd46135dcc,0xdcb5c1dc3dcc105b,0xe395c4c35434e4d5,
0xbcc9d5aa5cd5c3b3,0x55eccc552cbdc4c3,0x5d5ce4dd52d440db,0x52ce4e63d44c3ccd,
0xc6a3c4144344bca9,0xb4ccdc6e23ccca4c,0xe53cb2ad44ccc4d3,0xccbc35dbb4c2a4ad,
0x444ca93cdd2444d1,0x4da3b4b3c4ca152d,0x4ca42bc9dcc3b93e,0xeb23d35cc1edc055,
0x3cb6eac5c39453d4,0x3bc4a9bb03a05c5c,0xcac4933baa9bc515,0xd0350b4bc2cb4eb2,
0xb44350c1ccb5d4c1,0xbcd3cd4999be4c44,0x5d3cde4cdd449c55,0x5ce3cb5dddcd49a5,
0x555dccc2b22d5d15,0x25353dd53934ddd5,0xcdd4cdc5dac2acbd,0xb33c4451c3b36152,
};

static int backbone_model4_conv1_quant1_threshold[64 * 14] =
{ // torch.Size([64, 14])
-1067, -746, -533, -372, -265, -158, -51, 55, 162, 269, 376, 537, 750, 1071,
-1074, -757, -545, -386, -280, -174, -68, 38, 144, 250, 355, 514, 726, 1044,
-957, -666, -471, -325, -228, -131, -34, 64, 161, 258, 355, 501, 696, 987,
-1021, -714, -508, -355, -252, -149, -47, 56, 158, 261, 363, 517, 722, 1030,
-995, -689, -485, -332, -230, -128, -26, 76, 178, 280, 382, 535, 738, 1044,
-1150, -791, -552, -372, -253, -133, -13, 107, 226, 346, 466, 645, 884, 1243,
-1155, -793, -552, -372, -251, -131, -10, 110, 231, 351, 472, 653, 894, 1255,
-1299, -912, -654, -460, -331, -202, -73, 56, 185, 314, 443, 637, 895, 1282,
-1220, -864, -627, -450, -331, -213, -94, 24, 143, 261, 379, 557, 794, 1149,
-1847, -1330, -985, -726, -554, -381, -209, -36, 136, 308, 481, 740, 1085, 1602,
-1254, -884, -637, -452, -328, -205, -81, 42, 166, 289, 413, 598, 845, 1215,
-938, -651, -459, -315, -220, -124, -28, 68, 163, 259, 355, 499, 690, 978,
-1041, -729, -520, -364, -260, -156, -52, 53, 157, 261, 365, 521, 730, 1042,
-1173, -811, -570, -389, -269, -148, -28, 93, 213, 333, 454, 635, 876, 1237,
-1238, -875, -633, -451, -330, -209, -88, 33, 154, 275, 396, 577, 819, 1182,
-1022, -709, -500, -343, -238, -134, -29, 75, 180, 284, 389, 545, 754, 1068,
-1034, -710, -494, -332, -223, -115, -7, 101, 209, 317, 425, 587, 804, 1128,
-1118, -780, -555, -386, -273, -161, -48, 64, 177, 289, 402, 571, 796, 1133,
-1759, -1256, -921, -669, -501, -333, -166, 2, 170, 338, 505, 757, 1093, 1596,
-912, -639, -457, -321, -230, -139, -48, 43, 134, 225, 316, 453, 635, 908,
-1288, -884, -614, -412, -277, -142, -7, 127, 262, 397, 532, 734, 1004, 1408,
-951, -667, -478, -336, -241, -147, -52, 42, 137, 232, 326, 468, 658, 942,
-1092, -774, -561, -402, -296, -190, -83, 23, 129, 235, 341, 501, 713, 1031,
-1182, -843, -617, -447, -334, -221, -108, 5, 119, 232, 345, 515, 741, 1080,
-964, -670, -475, -328, -230, -132, -35, 63, 161, 259, 357, 503, 699, 992,
-847, -591, -420, -292, -207, -122, -36, 49, 134, 220, 305, 433, 604, 860,
-1219, -871, -640, -466, -350, -234, -118, -3, 113, 229, 345, 519, 750, 1098,
-958, -661, -464, -316, -217, -118, -20, 79, 178, 277, 375, 524, 721, 1017,
-1049, -743, -538, -385, -283, -180, -78, 24, 126, 229, 331, 484, 689, 995,
-845, -577, -399, -265, -176, -87, 2, 91, 180, 269, 358, 492, 670, 938,
-935, -657, -471, -332, -239, -146, -53, 40, 132, 225, 318, 457, 643, 922,
-1052, -726, -509, -346, -237, -128, -20, 89, 198, 307, 415, 578, 796, 1122,
-1112, -774, -548, -379, -267, -154, -41, 71, 184, 297, 409, 578, 804, 1142,
-970, -673, -475, -326, -227, -128, -28, 71, 170, 269, 368, 517, 715, 1013,
-892, -630, -455, -324, -236, -149, -61, 26, 114, 201, 289, 420, 595, 857,
-1290, -908, -653, -461, -334, -207, -79, 48, 176, 303, 431, 622, 877, 1259,
-1279, -875, -605, -403, -269, -134, 1, 135, 270, 405, 539, 741, 1011, 1415,
-1012, -710, -509, -358, -257, -157, -56, 45, 145, 246, 347, 498, 699, 1001,
-1123, -788, -565, -397, -285, -174, -62, 50, 161, 273, 385, 552, 776, 1111,
-1156, -795, -554, -373, -252, -132, -11, 109, 230, 350, 471, 651, 892, 1254,
-1246, -885, -644, -464, -343, -223, -103, 17, 138, 258, 378, 559, 799, 1160,
-1015, -716, -517, -368, -268, -168, -69, 31, 131, 230, 330, 479, 679, 978,
-894, -623, -442, -307, -216, -126, -35, 55, 145, 236, 326, 462, 643, 914,
-950, -662, -470, -326, -230, -134, -38, 58, 154, 250, 346, 490, 681, 969,
-1458, -1044, -769, -562, -424, -286, -149, -11, 127, 265, 403, 609, 885, 1298,
-987, -691, -494, -346, -248, -149, -50, 48, 147, 245, 344, 492, 689, 985,
-1106, -788, -576, -417, -311, -205, -99, 8, 114, 220, 326, 485, 697, 1015,
-1112, -784, -565, -400, -291, -182, -72, 37, 147, 256, 366, 530, 749, 1077,
-1627, -1105, -756, -495, -321, -147, 28, 202, 376, 550, 724, 986, 1334, 1857,
-1204, -859, -629, -456, -341, -226, -111, 4, 119, 234, 349, 521, 751, 1096,
-1166, -792, -543, -356, -231, -106, 18, 143, 268, 392, 517, 704, 953, 1327,
-1028, -716, -508, -353, -249, -145, -41, 63, 167, 271, 374, 530, 738, 1050,
-978, -673, -469, -317, -215, -113, -12, 90, 192, 293, 395, 547, 751, 1056,
-1156, -812, -583, -411, -296, -182, -67, 48, 162, 277, 392, 564, 793, 1137,
-1163, -804, -564, -384, -264, -144, -24, 95, 215, 335, 455, 635, 874, 1234,
-1095, -775, -561, -401, -294, -188, -81, 26, 132, 239, 346, 506, 719, 1040,
-893, -623, -444, -309, -219, -130, -40, 50, 140, 229, 319, 454, 633, 902,
-1250, -871, -619, -430, -304, -178, -52, 75, 201, 327, 453, 642, 894, 1273,
-1170, -828, -599, -428, -314, -200, -86, 29, 143, 257, 371, 542, 771, 1113,
-1059, -741, -529, -370, -264, -158, -52, 54, 160, 266, 372, 531, 743, 1061,
-1322, -936, -678, -485, -356, -227, -99, 30, 159, 288, 417, 610, 867, 1254,
-809, -568, -407, -286, -206, -125, -45, 36, 116, 196, 277, 397, 558, 799,
-1376, -988, -729, -535, -406, -276, -147, -17, 112, 241, 371, 565, 823, 1212,
-1055, -731, -514, -352, -244, -136, -28, 80, 189, 297, 405, 567, 783, 1108,
};

static uint64_t backbone_model4_conv1_conv2_weight[64 * 9] =
{ // torch.Size([64, 3, 3, 1])
0x4, 0x5, 0x4, 0x5, 0x5, 0x4, 0x4, 0x5, 0xb,
0x5, 0x6, 0x4, 0x1, 0xa, 0xb, 0xc, 0xd, 0xb,
0x4, 0x6, 0x3, 0xc, 0x5, 0x4, 0xc, 0x4, 0x4,
0xd, 0xd, 0xb, 0xc, 0x5, 0x5, 0x4, 0x5, 0x5,
0x5, 0x5, 0x5, 0x0, 0xc, 0xc, 0xd, 0xd, 0xd,
0x6, 0x4, 0xd, 0x4, 0xd, 0xc, 0x4, 0x4, 0xb,
0x6, 0x5, 0xd, 0x5, 0xd, 0xc, 0xc, 0xb, 0xc,
0x2, 0x5, 0x5, 0x5, 0xa, 0x1, 0x6, 0x3, 0x3,
0x4, 0xd, 0xd, 0x2, 0x5, 0xe, 0x4, 0x4, 0xd,
0xb, 0xc, 0xc, 0x9, 0xe, 0xe, 0x3, 0xc, 0x1,
0xc, 0xc, 0xb, 0x3, 0x3, 0x4, 0x4, 0x5, 0x5,
0xe, 0x6, 0x5, 0xd, 0xc, 0x4, 0xb, 0xd, 0x2,
0x5, 0x5, 0x5, 0xb, 0x3, 0x5, 0xd, 0xd, 0x4,
0x3, 0x2, 0x4, 0xc, 0xc, 0xc, 0xd, 0xc, 0xc,
0xa, 0xd, 0xb, 0xb, 0xf, 0xc, 0x4, 0x3, 0x5,
0xb, 0x4, 0xc, 0xd, 0xc, 0x1, 0x3, 0xe, 0xd,
0x1, 0xb, 0x0, 0xc, 0x7, 0xb, 0x2, 0x4, 0x0,
0xb, 0x9, 0xd, 0x4, 0x2, 0xd, 0x6, 0x6, 0xb,
0x4, 0x4, 0xc, 0xe, 0xc, 0x5, 0xd, 0xb, 0xa,
0x3, 0xd, 0xe, 0x4, 0x5, 0xd, 0xb, 0xb, 0xb,
0xd, 0xe, 0x1, 0xc, 0xe, 0xa, 0x0, 0xb, 0x4,
0x4, 0x2, 0xc, 0xd, 0xc, 0x3, 0xe, 0xc, 0x2,
0x4, 0xc, 0xe, 0x5, 0x4, 0xd, 0x5, 0x4, 0xd,
0x5, 0x3, 0x2, 0x3, 0xd, 0xc, 0x0, 0xe, 0xc,
0xe, 0xe, 0xa, 0x3, 0x4, 0x9, 0x2, 0x4, 0x1,
0x4, 0x2, 0xc, 0x5, 0xc, 0xd, 0x6, 0xd, 0xd,
0x5, 0x4, 0xd, 0x4, 0x4, 0x4, 0x9, 0x3, 0x4,
0xd, 0x4, 0x5, 0xd, 0x1, 0x6, 0xc, 0x1, 0x3,
0xa, 0x4, 0xa, 0x4, 0xf, 0x3, 0x0, 0x3, 0x1,
0x6, 0x5, 0x3, 0xb, 0xd, 0xd, 0xc, 0xb, 0xb,
0x5, 0x9, 0xe, 0x5, 0xe, 0x3, 0x4, 0x9, 0x4,
0xc, 0xc, 0x9, 0xb, 0x2, 0xc, 0xe, 0xd, 0xb,
0xb, 0x5, 0x4, 0xc, 0xb, 0xc, 0xe, 0xe, 0xb,
0x6, 0xc, 0xd, 0x6, 0xd, 0xd, 0x5, 0x5, 0xc,
0xe, 0xd, 0x4, 0xb, 0xb, 0x5, 0x2, 0x5, 0x5,
0x5, 0x4, 0x6, 0xd, 0xc, 0xc, 0xe, 0xd, 0xe,
0x4, 0x4, 0x3, 0xd, 0xc, 0xc, 0xc, 0xd, 0xd,
0x3, 0xc, 0xc, 0xb, 0x6, 0x5, 0xe, 0xc, 0x5,
0xd, 0xd, 0xd, 0xb, 0xc, 0xc, 0xa, 0x3, 0xc,
0x5, 0x6, 0x5, 0xb, 0xc, 0xa, 0x0, 0xc, 0x4,
0xd, 0xb, 0x1, 0xe, 0x4, 0x1, 0xc, 0xc, 0xc,
0xd, 0x3, 0x5, 0xe, 0xb, 0x6, 0x2, 0x3, 0x3,
0x3, 0xa, 0x4, 0x5, 0x6, 0x3, 0xa, 0xd, 0xc,
0xd, 0xd, 0xd, 0x2, 0xc, 0x4, 0x5, 0x3, 0x5,
0x4, 0x5, 0x6, 0x3, 0x4, 0x5, 0xb, 0x1, 0x9,
0x4, 0xe, 0xe, 0xb, 0x4, 0x2, 0xc, 0xa, 0xb,
0x2, 0x4, 0x4, 0xe, 0x4, 0x4, 0xe, 0x4, 0x2,
0xb, 0x4, 0x3, 0xc, 0xb, 0x5, 0x3, 0xf, 0xc,
0x3, 0x6, 0x6, 0xc, 0x5, 0x4, 0x4, 0xb, 0x4,
0xc, 0xc, 0xd, 0xb, 0xc, 0xc, 0xb, 0xd, 0xc,
0x3, 0xd, 0xd, 0xd, 0xd, 0xc, 0xc, 0x4, 0x5,
0x6, 0x5, 0x5, 0xc, 0xd, 0x0, 0xd, 0xd, 0xd,
0x6, 0x5, 0xc, 0x5, 0xd, 0xd, 0x3, 0xc, 0x3,
0xa, 0xf, 0x3, 0x3, 0xc, 0x3, 0x2, 0xd, 0x0,
0xd, 0xd, 0xd, 0xb, 0xc, 0x1, 0xd, 0xb, 0xb,
0x1, 0xd, 0x1, 0x5, 0xe, 0x4, 0x4, 0xe, 0xa,
0xc, 0xa, 0x4, 0xe, 0x4, 0x2, 0xb, 0x5, 0x4,
0xa, 0x7, 0x5, 0x9, 0x4, 0x2, 0xb, 0x2, 0xb,
0x4, 0x4, 0x0, 0x4, 0x4, 0x5, 0x3, 0x4, 0x5,
0xc, 0xb, 0xc, 0x4, 0xc, 0xd, 0x7, 0x5, 0xa,
0xc, 0x5, 0x5, 0x5, 0xc, 0xd, 0x3, 0xd, 0xd,
0xa, 0xc, 0xb, 0xb, 0xd, 0xd, 0x5, 0x5, 0x5,
0x3, 0x4, 0x2, 0x4, 0xf, 0xb, 0xc, 0xa, 0x9,
0xa, 0xc, 0xb, 0xc, 0x7, 0xa, 0x4, 0x5, 0x2,
};

static int backbone_model4_conv1_relu2_threshold[64 * 7] =
{ // torch.Size([64, 7])
28, 78, 128, 178, 252, 352, 502,
13, 67, 120, 173, 253, 359, 518,
24, 76, 128, 181, 259, 363, 519,
18, 58, 99, 139, 199, 280, 400,
21, 54, 87, 120, 170, 236, 334,
13, 49, 86, 122, 177, 250, 359,
21, 52, 83, 114, 161, 224, 318,
19, 80, 140, 201, 292, 413, 594,
5, 42, 79, 115, 171, 244, 355,
20, 52, 84, 116, 165, 229, 326,
13, 46, 79, 111, 161, 226, 325,
19, 68, 117, 166, 240, 339, 487,
10, 40, 69, 99, 143, 201, 289,
14, 41, 68, 95, 136, 190, 271,
45, 101, 157, 213, 298, 410, 579,
12, 54, 96, 138, 202, 286, 412,
22, 84, 147, 209, 303, 428, 615,
13, 67, 122, 176, 257, 366, 529,
17, 43, 68, 93, 131, 182, 258,
14, 56, 98, 140, 203, 288, 415,
15, 87, 159, 231, 339, 483, 700,
20, 75, 130, 185, 267, 377, 542,
14, 51, 87, 123, 177, 249, 358,
11, 44, 76, 109, 157, 222, 319,
30, 79, 129, 178, 253, 352, 500,
25, 68, 111, 154, 218, 304, 432,
10, 31, 53, 75, 107, 150, 215,
25, 66, 107, 148, 210, 292, 415,
21, 76, 130, 184, 265, 373, 536,
16, 64, 112, 160, 232, 329, 473,
27, 73, 119, 165, 234, 326, 464,
24, 58, 91, 125, 176, 243, 344,
17, 65, 113, 161, 233, 330, 474,
29, 75, 121, 167, 235, 327, 464,
20, 65, 111, 157, 225, 317, 454,
37, 83, 128, 174, 242, 334, 471,
16, 56, 97, 138, 199, 281, 403,
36, 76, 117, 157, 218, 299, 420,
29, 69, 109, 149, 209, 289, 409,
-2, 45, 92, 139, 209, 303, 443,
14, 56, 97, 138, 200, 283, 407,
34, 71, 108, 145, 201, 275, 386,
16, 53, 90, 128, 184, 258, 371,
17, 55, 92, 130, 186, 260, 372,
32, 95, 158, 221, 315, 441, 630,
12, 66, 121, 176, 258, 368, 532,
20, 62, 105, 147, 210, 294, 421,
20, 81, 141, 202, 293, 414, 595,
2, 51, 100, 149, 223, 321, 468,
24, 61, 99, 137, 194, 269, 383,
15, 49, 83, 117, 168, 235, 337,
32, 77, 123, 168, 236, 326, 462,
21, 64, 107, 151, 216, 303, 433,
41, 106, 172, 237, 336, 467, 663,
29, 71, 113, 155, 217, 301, 426,
28, 81, 134, 186, 265, 370, 528,
24, 55, 86, 116, 163, 224, 317,
7, 73, 140, 207, 308, 441, 642,
22, 69, 116, 163, 234, 329, 471,
29, 91, 152, 214, 307, 431, 617,
16, 47, 79, 110, 157, 220, 314,
26, 67, 109, 150, 213, 296, 420,
27, 76, 125, 174, 247, 345, 491,
21, 81, 141, 202, 292, 412, 592,
};

static uint64_t backbone_model4_conv2_conv1_weight[64 * 1*4] =
{ // torch.Size([64, 1, 1, 64])
0x594ccbdad3d4bca3,0xcd4d24a34dadc0bc,0x59ca3d5db5559dda,0xbaca4ba6edcc01c3,
0x49e436ec4c3acc5c,0x3b2c2d4d95443954,0x924b3ca45a3ba53c,0x45b04445353bc55b,
0x44c94219cc0ccb0c,0xc4453335c319c4ec,0xbb34aa033344a251,0x0cb3ac24cbcac4c4,
0xa594ab436d3c94c5,0x34dbc99cb2bddd4c,0xb5dc3a2d25ddbb43,0x5bcddd45cb5dabcc,
0xd6accd4c540543d2,0x644d11bb4bbdcc2a,0xb1454dcc094ca3de,0xd4abc4564252a5dc,
0xde113244235ba43c,0xd35c140ccc3bc221,0x321245444444594d,0x4d4a32bdb14c4455,
0x9b5cca430d453d2b,0xcaedc0d20d2b3c3e,0x23c35ac4616d91c5,0xe2d0443ddcccb45d,
0x5ccd154b495dd434,0x52419c491b3cd202,0x1bba44acc54b5dc0,0xd4bcd3b0cc434344,
0x01033acd44d54cb3,0xab4d5d345bdb24bc,0xb553dbeb5dccda4c,0xbe1c55abc4c2355d,
0x3c55b4d33cd34cac,0xb45c53d5321b44a2,0xcdccac2c44b6d065,0x5c0451d6a3d23ac2,
0xb13d5392c492c415,0xcc3cd45340b42521,0xbb43d2e3bd05cb13,0xac4d24339ab63c43,
0x5d4b455b25dd443d,0xc2343d9c433a35c5,0x2c45455cd5a2be3e,0xbdb40c3c51532355,
0xcbbb2c26ad5bcb44,0x2cdb5acbaa69bd4a,0xdc5cbcc5cd3a4ba5,0xccb4cdc2cabb9dd2,
0x0133154c5cb9331d,0x43cd3d405ddd4943,0xd9035c9db5399153,0x43b254155253c44d,
0x34432acc4d9544c3,0x5edd20555bb30b44,0x4533abb25aa5dc1b,0x545d5535a52b4434,
0x5cd322ddbb31bccc,0xca54b9513cc3c62b,0x5c2ccc5dc4cbdade,0xd4dc5ddb44cb5d4a,
0x5c4a3144255dcca3,0xb55c03442449b4c1,0x4c3444d54b454255,0x443c3b33dadb9553,
0xdd534c12233e4bd5,0x616db433334e3da4,0x4dc195c4ac55d4c5,0xc154cbc5dc32ccbc,
0x34b19ad5144446d5,0xc5de334c305de55b,0xa343574bc94ea3cb,0xa454545553304ab4,
0x4ace3422435cb2ba,0xb454cd93c3b43b33,0x4da44333d4454a23,0xc53b133c4d123c65,
0xa3d9c44b435414b4,0x449240cb2b5d3da5,0xd0c14444dc4acb64,0x54d13d1453adb9b9,
0x39393c355c5cd433,0x95dbdb6dc54d5424,0xc4cb4555523d5ac4,0x933ac4baca5bdc3c,
0x4c3c314bc132ab43,0xcab39cad543ca902,0x9cc7c22b4a0bab13,0xb4ac11a34ddc02a3,
0x33234c432b4dd544,0x133642a6c5bb14c5,0x5bba25045bcb5a54,0x4345c349e3524544,
0x4db9c3b4943cb45b,0xc345a1bcbba4db52,0x423bb5adc2d34a3b,0x544041a3b4aa4d4d,
0x41bbcbc63b2243b4,0xc43bdbc4c25b35ce,0xccbcebd544b2b945,0x9c4b4324a9c4cd43,
0x55430203932044b5,0x544c03553b236935,0xc3b5c3bbc43cb5b4,0x053d455545394d2a,
0x6525cb1ad45465d6,0x3bdc2ba424c452c4,0x32cbc6c4bc54cbd1,0x5b55b54a54cf54da,
0x3dc423cbcbdddddc,0xd15adda6ccddddaa,0x32c4cccdc33e57bd,0x4c24cd6d43acdc3b,
0xcdc51c1ca35a643c,0xdd533dddd41b99c3,0xb254ad0b1c4d4ecd,0x1cdbb12d164cb94c,
0xc4c1ab44ccc390b4,0xac1cd55d5e6445d5,0x5453b4343dcdb4dc,0x4bc3bb2c93c3caa3,
0x3bdabc440d2cbdc4,0xbdbed2535c54b333,0xb96a0c5cd3cbd9bc,0x4cc4bdd3d4c0dcc4,
0x3e44b4ccb42234bb,0xc53d303435044344,0x4c49224a9d34c19b,0xa31c45edb451a43a,
0xb0b00d4a5d2c33c4,0x32cbbc9bbdcd3a64,0xdccabbbab5ad5544,0xd3c3cc3dbb5cb01d,
0xdc1433553cc9d540,0x5546db35c03002c5,0xc31b30ca5e9a3344,0x3b4cccac4c5324d3,
0x60bac34cbcd2aab1,0x49c3bc9d2cba3251,0xd3a6b2bcb3b9c915,0xb4290b4b2b4ccdac,
0xd25d6b53dc91dd5d,0x2ddcb3d3baeacde4,0xbb146d951c52abc4,0xd4dc1ccc0dc4a60b,
0x909acb19ab3a9403,0x90b2a12920939b3a,0x1a399510cc22b939,0x304ab30a40a1bb2a,
0xb0513c55ddd255dc,0x93ccc1b4bd05ac1c,0xcdc34d245434c444,0x32d2253d4a243bcc,
0x30039babcdbc545c,0x3a1b9bcb53c26cb2,0xa9ccb5cdb9c2cbc9,0x1c24bc9c4dcaaccb,
0x93b5dcc42cb443ad,0x2525dd4dc3c43dab,0xd655cbcc2dcdb04b,0xd304c90d3464ac4d,
0xedb1a3d33abad45d,0xd5d55c3bb5b44b41,0xa40d25121c43cc54,0xdc4445de1cb44bb3,
0xc0c3b43bc56eb554,0xc595cc0ce4324bba,0xbdc43443353c54db,0x3435ec6e4a5ddd43,
0x4cdd54454b22accb,0x51c9dd2ddda53b53,0xa4bc49a5054d5a9c,0x35caccd4c54b5954,
0x4b04a02bc40c4436,0xbc53dcac4435bc4a,0x4cd5450cd23452db,0xa4d4cc5555130a3c,
0xacacc424d55cdca4,0xcb3cc644dd5ccc46,0x4c244d4dd442cc00,0x5dcbbbcbb245ddd4,
0x3a4c45b93c5ddd3d,0xd130456cac44b5cd,0xcdcbdda2c4a45bd5,0xcbcc9cd5cce35dc4,
0xdd3b44435d312a46,0xddcdc43d5ea3d43d,0x124a34ca45a5394c,0x2a2d5bd35444255b,
0xc3cb6c43dab4cbb3,0xd3432c53b9c593d4,0x64bb4c443c5b93dc,0x23dcabcacddd5ab5,
0x1d52c2ed3542344b,0x32bb25b444d46925,0x33cc4b1cac3b42cc,0x9bb43ada2940c24d,
0xd45c2d43bdbcb415,0xaaddc3503ad1553b,0xcac144b4ccc53b44,0xc2cdba3ac903c4c4,
0xbbdcdd3d35cc4bd2,0x5a43cb3d1dcb1d5c,0xebc4bcdcd2a95ccc,0xe6d3ccd355141c5c,
0x23b4c4c4144caad3,0x45053cf1b4534d34,0x39dcd2543b4d03c5,0xac4cbbb3adbd44b4,
0xa64bc33b2414c445,0x5d24352d35354d34,0x43bb462b43c41db3,0x244d4353bdd59544,
0xd5a63bb2cdcdc40c,0xb9b54bcdd14bbddd,0x01cd314923bdb2b2,0x4bc4dd5bbcdcbc3a,
0xbc5ae4c543945c35,0xb34c34d2935c9c46,0xd052c354ccbbd9b4,0x5d43433055b3e2bc,
0x3ddc403ec56acdda,0xc3dcb540c3c2acb2,0x3b4a5c6cdc4c32db,0x5dbd4cd4bb4bc44b,
0xdcbdd4a55c5cdb33,0xb05445d4b14d5a24,0xcc4c4344d43ccd53,0xcdc5dcc5ad4dbcd5,
0x1cedbd55cc4bbdc5,0xdacdccc4cc529b33,0xcc55ddd5bd4d1ac3,0xcdd3db50cc2b4dc5,
0x90aab92aa43ba504,0x93a3ba2b09939d13,0x492aa530bc32b20a,0x414ba23a4a19bb2b,
0x4cb494349d4cd44b,0xc4552b41e5344cea,0x4d5b3455c433cbb1,0xc52cc153d4634c55,
0x0c2243415d5ddddb,0x43d3cc4ddb3a3a5c,0xc4cc4caa02ed3314,0x4ac4cdbbc49acd3d,
0x4b3344b4614ccd3c,0x3445cbd9cdcdb34a,0x51b3c33c25cc3311,0x3c4ccc25b04c2d4d,
0xdcb555dcc4dc4c9b,0x534ba0cc25ad1c5a,0x0cca25ba5943d312,0xdcb1d54d1c412a3c,
};

