static uint64_t backbone_model0_conv1_weight[16 * 9] =
{ // torch.Size([16, 3, 3, 3])
0x56e, 0xd6f, 0xd6d, 0xd6e, 0xd6f, 0xc7d, 0xc5e, 0xd6e, 0xd7d,
0x6e6, 0x4f5, 0x4f5, 0x4e5, 0x4f5, 0x4e6, 0x5e6, 0x4e5, 0x5e7,
0x5bc, 0x443, 0x555, 0x043, 0xca3, 0xcb4, 0x434, 0xedd, 0xfee,
0x446, 0x666, 0x456, 0x330, 0x534, 0x564, 0xdde, 0xffe, 0xcee,
0x667, 0x567, 0x347, 0x666, 0x556, 0x456, 0x635, 0x625, 0x7d4,
0x535, 0x53a, 0x4c9, 0x655, 0xccb, 0xefe, 0x655, 0xcb2, 0xefe,
0xd35, 0xe66, 0xe56, 0xe45, 0xe57, 0xe57, 0xd45, 0xe56, 0xe56,
0x677, 0x666, 0x666, 0x425, 0x6b4, 0x555, 0x5b2, 0x5c4, 0x625,
0xa6e, 0xb6e, 0x46e, 0xd6e, 0xd7d, 0xe6e, 0xc6d, 0xd7d, 0xe6d,
0xd54, 0xf54, 0xe55, 0xe55, 0xf45, 0xe45, 0xd66, 0xe56, 0xd55,
0xded, 0xffe, 0xce3, 0x4dd, 0x5d3, 0x555, 0x655, 0x666, 0x566,
0xa64, 0x175, 0xe5d, 0xd5b, 0xd61, 0xe4d, 0xe5d, 0xe4c, 0xc3c,
0x54b, 0xd5d, 0xede, 0x575, 0xe5b, 0xeee, 0x676, 0xd55, 0xede,
0x5a4, 0x64d, 0x4cd, 0x60c, 0x759, 0x6cd, 0x6dd, 0x7cc, 0x6dd,
0xefe, 0xddd, 0x654, 0xffe, 0xbc5, 0x666, 0x9cd, 0x656, 0x666,
0x414, 0xedd, 0xffe, 0x655, 0x444, 0xddd, 0x445, 0x656, 0x556,
};

static int backbone_model0_relu1_threshold[16 * 7] =
{ // torch.Size([16, 7])
-457, -320, -184, -48, 156, 429, 838,
114, 179, 244, 309, 406, 536, 731,
-259, -200, -142, -83, 5, 123, 299,
-142, -92, -41, 9, 85, 185, 336,
1526, 2521, 3516, 4511, 6004, 7994, 10980,
-343, -268, -193, -118, -6, 144, 369,
-197, -30, 138, 305, 556, 890, 1392,
2076, 2649, 3221, 3794, 4652, 5797, 7515,
-24, 55, 133, 212, 330, 487, 723,
-286, -184, -83, 19, 171, 374, 678,
-119, -46, 26, 99, 208, 354, 572,
-182, -86, 10, 106, 249, 441, 729,
-285, -209, -133, -57, 57, 209, 437,
467, 736, 1006, 1275, 1679, 2218, 3026,
-147, -78, -8, 61, 165, 304, 512,
-31, 42, 114, 187, 296, 441, 660,
};

static uint64_t backbone_model0_conv2_conv1_weight[16 * 1] =
{ // torch.Size([16, 1, 1, 16])
0xc9341c5bdc5d07cd,
0xc6de3d4025f15bc4,
0xc5dcdbde3e2cdafd,
0x45db1519acd2fca0,
0x674db7606bf5ee95,
0xf74e46246bf9ed51,
0x5563c69435c5df55,
0x526d46e176e7bf4c,
0xe73e5c9344ea7dc5,
0xc2ebdddd3e6dd2fd,
0xc4dc4956d65d9776,
0xccbceafeae3bddfe,
0x76d5a75c51c3fe5b,
0xdc7ed50c6ea64e0e,
0xee2eeebded1d75de,
0xcd7ddae53f62db76,
};

static int backbone_model0_conv2_quant1_threshold[16 * 14] =
{ // torch.Size([16, 14])
-506, -310, -180, -82, -16, 49, 114, 180, 245, 310, 376, 474, 604, 800,
-833, -620, -478, -371, -300, -229, -158, -87, -16, 55, 126, 232, 374, 587,
-1002, -809, -680, -584, -519, -455, -390, -326, -261, -197, -133, -36, 93, 286,
-779, -610, -498, -413, -357, -300, -244, -188, -131, -75, -18, 66, 179, 348,
-1196, -822, -573, -386, -262, -137, -13, 112, 236, 361, 485, 672, 921, 1295,
-1435, -1066, -820, -635, -512, -389, -266, -143, -20, 103, 227, 411, 657, 1027,
-878, -609, -429, -294, -204, -114, -24, 65, 155, 245, 335, 470, 650, 919,
-1588, -1086, -751, -500, -332, -165, 3, 170, 338, 505, 673, 924, 1259, 1761,
-700, -462, -302, -183, -103, -24, 56, 135, 215, 295, 374, 494, 653, 891,
-985, -775, -635, -529, -459, -389, -319, -249, -179, -109, -39, 66, 206, 416,
-448, -216, -61, 55, 133, 211, 288, 366, 443, 521, 598, 715, 870, 1102,
-1459, -1182, -998, -859, -767, -674, -582, -490, -397, -305, -213, -74, 111, 388,
-769, -514, -344, -216, -131, -46, 39, 124, 209, 294, 379, 506, 676, 931,
-1321, -960, -719, -539, -418, -298, -178, -57, 63, 184, 304, 484, 725, 1086,
-1197, -907, -714, -569, -472, -376, -279, -182, -86, 11, 107, 252, 445, 735,
-1627, -1209, -930, -721, -581, -442, -302, -163, -23, 116, 256, 465, 744, 1162,
};

static uint64_t backbone_model0_conv2_conv2_weight[16 * 9] =
{ // torch.Size([16, 3, 3, 1])
0x5, 0x4, 0xa, 0x5, 0x7, 0x6, 0x5, 0x7, 0x6,
0x5, 0xd, 0xe, 0x5, 0x7, 0xd, 0xd, 0x6, 0x5,
0x5, 0x6, 0x6, 0x7, 0x7, 0x6, 0x7, 0x7, 0x6,
0xc, 0xd, 0x9, 0xc, 0x7, 0x7, 0x5, 0x6, 0xd,
0x4, 0xe, 0xd, 0xe, 0xf, 0xc, 0xc, 0x7, 0x6,
0x1, 0xe, 0xc, 0x0, 0xf, 0x7, 0xe, 0xe, 0x7,
0x4, 0x4, 0x5, 0xd, 0xd, 0x5, 0xd, 0xf, 0xf,
0xd, 0xe, 0xe, 0x4, 0x2, 0xb, 0x5, 0x6, 0x7,
0xd, 0x4, 0x4, 0xe, 0xd, 0x6, 0xc, 0xf, 0x6,
0x6, 0x6, 0x6, 0x2, 0xc, 0x3, 0x6, 0x7, 0x7,
0xe, 0xf, 0xf, 0xe, 0xf, 0xe, 0x6, 0xe, 0xe,
0xe, 0x3, 0xd, 0xb, 0x7, 0x7, 0xb, 0x6, 0x7,
0x5, 0x5, 0x5, 0x5, 0x6, 0x6, 0xe, 0xf, 0xe,
0xe, 0xd, 0xe, 0x6, 0x7, 0x7, 0x6, 0x6, 0x7,
0xd, 0xd, 0xd, 0x5, 0x7, 0x7, 0xb, 0xb, 0x3,
0x7, 0x5, 0x5, 0x5, 0xe, 0xe, 0xe, 0xf, 0xf,
};

static int backbone_model0_conv2_relu2_threshold[16 * 7] =
{ // torch.Size([16, 7])
204, 385, 566, 747, 1019, 1381, 1925,
-140, -47, 45, 138, 278, 464, 743,
125, 409, 693, 977, 1403, 1971, 2823,
34, 165, 296, 428, 625, 887, 1281,
-31, 93, 217, 342, 528, 776, 1149,
179, 312, 445, 578, 777, 1043, 1442,
-259, -111, 38, 187, 410, 707, 1154,
-97, -30, 37, 103, 204, 337, 537,
146, 258, 370, 482, 650, 874, 1210,
-27, 166, 358, 551, 839, 1224, 1801,
154, 454, 753, 1053, 1503, 2102, 3001,
-207, -49, 110, 268, 506, 822, 1298,
147, 320, 494, 668, 929, 1277, 1799,
-34, 162, 357, 552, 846, 1236, 1823,
-12, 121, 254, 387, 587, 854, 1253,
-297, -120, 57, 234, 499, 853, 1384,
};

static uint64_t backbone_model1_conv1_conv1_weight[16 * 1] =
{ // torch.Size([16, 1, 1, 16])
0xebcc765ddaacb5ee,
0xdedf5dd73f220df6,
0xe745545eb56753fd,
0x44dcdc34d575ba55,
0x2495dcdc63967cc4,
0xfd3d6dbefd4ce3f4,
0xe56666d6dc1f357e,
0xd0105674355446d3,
0x1e3f56cf6ed566d5,
0xd07441dd4e33b42e,
0x0d3e4bcecb755443,
0xc5dd5e56e7a6d5e7,
0x3435314f94e342dd,
0x5ddcfeebb5c3cfc5,
0x74c45abfeb1ed565,
0xdf5544ac6d3f64b5,
};

static int backbone_model1_conv1_quant1_threshold[16 * 14] =
{ // torch.Size([16, 14])
-1142, -860, -672, -531, -438, -344, -250, -156, -62, 32, 126, 266, 454, 736,
-1750, -1381, -1135, -951, -828, -706, -583, -460, -337, -214, -91, 93, 338, 707,
-988, -618, -372, -187, -64, 60, 183, 306, 430, 553, 676, 861, 1108, 1478,
-524, -331, -202, -105, -40, 24, 89, 153, 217, 282, 346, 443, 572, 765,
-573, -325, -159, -35, 47, 130, 213, 295, 378, 461, 543, 667, 833, 1081,
-1952, -1555, -1290, -1091, -959, -826, -694, -561, -429, -296, -164, 35, 300, 697,
-1004, -670, -448, -281, -170, -58, 53, 164, 275, 387, 498, 665, 887, 1221,
-453, -225, -73, 41, 117, 192, 268, 344, 420, 496, 572, 686, 838, 1065,
-955, -672, -484, -342, -248, -153, -59, 35, 130, 224, 318, 460, 648, 931,
-709, -505, -370, -268, -200, -133, -65, 3, 71, 138, 206, 308, 443, 647,
-464, -306, -200, -121, -68, -15, 38, 91, 144, 197, 250, 329, 435, 594,
-1032, -668, -425, -243, -122, 0, 121, 242, 364, 485, 606, 788, 1031, 1395,
-691, -495, -364, -266, -201, -136, -70, -5, 60, 125, 191, 289, 419, 615,
-1519, -1199, -987, -827, -721, -615, -508, -402, -295, -189, -83, 77, 289, 608,
-733, -482, -315, -190, -106, -23, 61, 145, 228, 312, 396, 521, 688, 939,
-998, -721, -537, -399, -306, -214, -122, -30, 62, 155, 247, 385, 569, 846,
};

static uint64_t backbone_model1_conv1_conv2_weight[16 * 9] =
{ // torch.Size([16, 3, 3, 1])
0x2, 0xd, 0x4, 0x6, 0x5, 0xf, 0x5, 0xb, 0xf,
0xb, 0x4, 0xb, 0x3, 0xf, 0x0, 0xb, 0x3, 0xc,
0xd, 0xc, 0x6, 0xd, 0x4, 0x7, 0xc, 0xd, 0xc,
0x4, 0x4, 0x4, 0x9, 0xd, 0x3, 0xc, 0xf, 0xd,
0x1, 0x9, 0x0, 0xc, 0x7, 0x6, 0xc, 0x4, 0xc,
0xd, 0xf, 0xe, 0xb, 0x5, 0x5, 0x5, 0x6, 0x6,
0xb, 0xe, 0xc, 0x4, 0xf, 0x3, 0x4, 0x5, 0x6,
0x0, 0x5, 0x5, 0xb, 0x7, 0x6, 0xd, 0x4, 0x5,
0xb, 0x7, 0x3, 0x3, 0x4, 0xd, 0xa, 0xc, 0xa,
0xc, 0x7, 0x3, 0xc, 0x5, 0x1, 0xc, 0xc, 0xd,
0x4, 0x5, 0xd, 0x7, 0x3, 0xc, 0x6, 0x5, 0x3,
0xc, 0xd, 0xc, 0x1, 0x4, 0xd, 0x3, 0x7, 0xd,
0x1, 0x5, 0x6, 0xc, 0x7, 0x6, 0xa, 0x9, 0xa,
0x4, 0x3, 0x5, 0xb, 0xd, 0x3, 0xd, 0xf, 0x5,
0xd, 0xd, 0xd, 0xd, 0x7, 0x6, 0x2, 0x7, 0x6,
0x3, 0x5, 0xd, 0x4, 0x7, 0x7, 0x2, 0xc, 0xe,
};

static int backbone_model1_conv1_relu2_threshold[16 * 7] =
{ // torch.Size([16, 7])
-207, -93, 22, 137, 309, 538, 882,
-249, -171, -94, -16, 100, 255, 487,
-160, -70, 20, 110, 245, 424, 693,
-178, -84, 11, 105, 247, 437, 720,
-187, -103, -19, 65, 191, 359, 611,
-91, -10, 71, 152, 274, 436, 680,
-189, -106, -23, 59, 183, 349, 597,
-91, 37, 166, 294, 487, 744, 1129,
-95, -20, 56, 131, 245, 396, 623,
-196, -129, -62, 5, 105, 239, 440,
-223, -126, -30, 66, 211, 403, 692,
-96, -44, 9, 62, 141, 246, 404,
-314, -216, -119, -21, 125, 319, 612,
-162, -83, -4, 74, 193, 350, 587,
66, 212, 358, 505, 724, 1017, 1457,
-188, -60, 68, 196, 388, 644, 1028,
};

static uint64_t backbone_model1_conv2_conv1_weight[64 * 1] =
{ // torch.Size([64, 1, 1, 16])
0x3d24dafdc64264dd,
0xd54ca15e3c6545f3,
0xdd5dfddc552e6ee9,
0xf345035b3e6fe55b,
0x66e6d5c6e6447e4c,
0x5023c3c6d5372c6c,
0xc4555bed76c4ec6d,
0x6506de62ed5a6e7d,
0xd53d6c5e0f6fbe44,
0xdb46ed01545d76c5,
0x4e7deeed64e30fe4,
0xe1e6dddf4e4c664e,
0xecbd5deed3b7d615,
0x7b64e6e7d7fbdfea,
0xe354d43e6db6c57c,
0x556d9e6ec6c7cf76,
0xd46bd5f466de5cf4,
0xeee714deeddceb6e,
0xdbfeb55c6e34b6bc,
0x6d62ec62dea64567,
0x45dded605efeafd6,
0x3c69605c71bce506,
0xcb4f536a5fefe1d5,
0xc2d47d5bdcde0b51,
0xcdcb4f2ec432c2bc,
0xd4f565ccd442db6d,
0xd47ddbedbc6e56cd,
0x4464d66bef04566d,
0xed5cf3de5666663d,
0xfde6ede5d67d75fe,
0xedf40ded356e6cc5,
0xaa74c404613a4a6c,
0xb2dfbbd49b2d4cc5,
0x6ce6256756c457ae,
0x3c796cdcc4412a55,
0x756fe765e7665b47,
0xdc5ecfdd5de3d7ce,
0x39d554c5f55e3ed1,
0x25d52d753d15b472,
0xe54e56ede366b5d7,
0x4d7ed57ae4d65c45,
0xce63c46d7eee96ee,
0x63b677743b7dfc34,
0x49c0bb64cda4de57,
0xff744eed72dd5e5e,
0x4d5e3fdfb5d6cece,
0xe3d6657cb5dfd663,
0x5d5fcc9d325635db,
0xe9fc40eedb44ec65,
0xdccb7c6cbd5cdd49,
0x9c6c556cdd5b444f,
0x456d5eed55dbfce5,
0x75562ed33e6edf3c,
0x6bd706643ebe05c4,
0x6dacadd9d6d7de4c,
0x35dd5e4ecde5047e,
0x45444d04016d4376,
0x3c5bcddc7d2f5ce5,
0x4b7f5d5b5d4f5cce,
0x5565dc5d6f65b564,
0xd244ddc3d5ba5b67,
0xee7d76f4f7fefdcc,
0x25c6a67555b6d44d,
0xb357deda45a75253,
};

static int backbone_model1_conv2_quant1_threshold[64 * 14] =
{ // torch.Size([64, 14])
-942, -705, -546, -428, -348, -269, -190, -111, -32, 47, 126, 245, 403, 641,
-602, -452, -352, -277, -227, -177, -127, -77, -27, 23, 73, 148, 248, 398,
-1259, -1010, -844, -719, -636, -553, -470, -387, -304, -221, -138, -14, 153, 402,
-1083, -812, -631, -496, -405, -315, -224, -134, -44, 47, 137, 272, 453, 724,
-493, -229, -54, 78, 166, 254, 342, 429, 517, 605, 693, 825, 1000, 1264,
-385, -176, -36, 68, 138, 207, 277, 347, 416, 486, 555, 660, 799, 1008,
-723, -467, -296, -168, -83, 3, 88, 173, 259, 344, 430, 558, 728, 985,
-793, -474, -261, -101, 6, 112, 218, 325, 431, 538, 644, 804, 1017, 1336,
-1351, -1037, -828, -672, -567, -463, -358, -254, -149, -45, 59, 216, 425, 738,
-471, -249, -101, 9, 83, 157, 231, 305, 379, 452, 526, 637, 785, 1006,
-1414, -1131, -943, -802, -708, -614, -520, -425, -331, -237, -143, -2, 186, 468,
-984, -760, -610, -498, -423, -348, -273, -198, -123, -48, 26, 139, 288, 513,
-1212, -894, -682, -523, -417, -311, -205, -98, 8, 114, 220, 379, 591, 909,
-1209, -855, -620, -443, -325, -207, -89, 29, 147, 265, 383, 560, 796, 1150,
-567, -343, -194, -82, -7, 68, 142, 217, 292, 366, 441, 553, 702, 926,
-732, -402, -183, -18, 92, 201, 311, 421, 531, 641, 750, 915, 1134, 1464,
-1428, -1105, -890, -728, -620, -512, -405, -297, -189, -81, 26, 188, 403, 727,
-1137, -863, -681, -545, -454, -363, -272, -181, -90, 1, 92, 229, 411, 684,
-767, -597, -484, -399, -342, -286, -229, -173, -116, -59, -3, 82, 195, 365,
-607, -309, -110, 39, 138, 238, 337, 436, 536, 635, 735, 884, 1082, 1380,
-1398, -1120, -934, -794, -702, -609, -516, -423, -330, -237, -144, -5, 181, 460,
-433, -222, -82, 23, 93, 164, 234, 304, 374, 444, 515, 620, 760, 971,
-1384, -1113, -933, -797, -707, -617, -526, -436, -346, -256, -166, -30, 150, 421,
-683, -459, -310, -198, -124, -49, 26, 100, 175, 249, 324, 436, 585, 809,
-940, -742, -611, -512, -446, -380, -314, -249, -183, -117, -51, 48, 179, 377,
-822, -574, -408, -284, -201, -118, -36, 47, 130, 213, 296, 420, 585, 834,
-879, -664, -521, -413, -342, -270, -199, -127, -55, 16, 88, 195, 339, 553,
-777, -470, -265, -112, -9, 93, 195, 297, 400, 502, 604, 758, 962, 1269,
-978, -688, -495, -350, -253, -157, -60, 37, 133, 230, 327, 472, 665, 955,
-1695, -1256, -963, -744, -597, -451, -304, -158, -12, 135, 281, 501, 794, 1233,
-1170, -892, -707, -568, -475, -382, -290, -197, -104, -11, 81, 220, 406, 684,
-671, -346, -130, 33, 141, 249, 357, 466, 574, 682, 790, 953, 1169, 1494,
-976, -797, -678, -589, -529, -470, -410, -351, -291, -232, -172, -83, 36, 215,
-321, -50, 130, 265, 356, 446, 536, 626, 716, 807, 897, 1032, 1213, 1483,
-416, -194, -46, 65, 139, 213, 287, 361, 435, 509, 583, 694, 842, 1065,
-686, -281, -12, 190, 325, 459, 594, 729, 864, 998, 1133, 1335, 1604, 2009,
-1248, -1010, -852, -733, -653, -574, -495, -416, -337, -257, -178, -59, 99, 337,
-1067, -785, -597, -456, -362, -268, -174, -80, 14, 108, 202, 343, 531, 813,
-458, -176, 13, 154, 248, 343, 437, 531, 625, 720, 814, 955, 1144, 1427,
-1007, -695, -486, -330, -226, -122, -18, 86, 190, 294, 398, 554, 762, 1074,
-704, -394, -187, -32, 72, 175, 279, 382, 486, 589, 693, 848, 1055, 1366,
-1238, -898, -671, -501, -387, -274, -160, -47, 66, 180, 293, 464, 690, 1031,
-479, -139, 88, 258, 372, 485, 598, 712, 825, 939, 1052, 1222, 1449, 1789,
-529, -308, -161, -51, 22, 96, 169, 243, 316, 390, 463, 573, 720, 941,
-1473, -1122, -888, -712, -595, -478, -360, -243, -126, -9, 108, 284, 518, 870,
-1358, -1105, -936, -809, -725, -640, -556, -472, -387, -303, -219, -92, 77, 330,
-560, -290, -111, 24, 113, 203, 293, 383, 472, 562, 652, 786, 966, 1235,
-928, -710, -564, -455, -382, -309, -237, -164, -91, -18, 54, 164, 309, 527,
-1520, -1157, -914, -733, -611, -490, -369, -248, -127, -5, 116, 297, 540, 903,
-597, -396, -263, -162, -95, -29, 38, 105, 172, 239, 306, 406, 540, 741,
-682, -458, -308, -196, -122, -47, 28, 102, 177, 252, 326, 438, 588, 812,
-1124, -894, -741, -626, -549, -472, -395, -319, -242, -165, -89, 27, 180, 410,
-1039, -769, -590, -455, -366, -276, -186, -96, -7, 83, 173, 308, 487, 756,
-513, -257, -87, 41, 127, 212, 297, 383, 468, 553, 639, 766, 937, 1193,
-746, -518, -367, -253, -177, -101, -25, 51, 127, 202, 278, 392, 544, 771,
-741, -534, -396, -293, -224, -155, -86, -17, 52, 121, 190, 294, 432, 639,
-231, -41, 86, 181, 244, 308, 371, 434, 498, 561, 624, 719, 846, 1036,
-1127, -877, -710, -585, -502, -418, -335, -252, -168, -85, -2, 124, 290, 540,
-1350, -1032, -820, -661, -555, -449, -343, -237, -131, -25, 81, 240, 452, 770,
-828, -483, -253, -81, 34, 149, 264, 379, 494, 609, 724, 897, 1127, 1472,
-328, -174, -70, 7, 59, 111, 162, 214, 265, 317, 369, 446, 550, 705,
-1640, -1254, -997, -804, -675, -546, -417, -289, -160, -31, 97, 290, 548, 934,
-245, -15, 139, 254, 330, 407, 484, 560, 637, 714, 791, 906, 1059, 1289,
-395, -163, -8, 109, 186, 264, 341, 419, 496, 574, 652, 768, 923, 1156,
};

static uint64_t backbone_model1_conv2_conv2_weight[64 * 9] =
{ // torch.Size([64, 3, 3, 1])
0x6, 0x5, 0xc, 0x4, 0x7, 0x0, 0xb, 0xd, 0xc,
0xb, 0x5, 0x5, 0x4, 0xf, 0xf, 0x3, 0x7, 0x6,
0x4, 0xb, 0x4, 0x7, 0x4, 0xd, 0xd, 0xc, 0xc,
0x3, 0x4, 0x1, 0xd, 0x4, 0xb, 0x6, 0x7, 0xd,
0x6, 0x6, 0x6, 0x6, 0x7, 0xd, 0x5, 0x9, 0xf,
0x3, 0x5, 0xb, 0xb, 0xa, 0x4, 0x9, 0xf, 0x4,
0x4, 0x7, 0x5, 0x6, 0x6, 0xd, 0x6, 0x7, 0xa,
0x6, 0x4, 0xe, 0xb, 0x5, 0xf, 0x5, 0x4, 0xc,
0x6, 0xd, 0xe, 0x7, 0x4, 0xf, 0x6, 0x6, 0x4,
0x4, 0x7, 0x4, 0xc, 0x5, 0x6, 0x3, 0xd, 0xc,
0x6, 0x6, 0xf, 0x7, 0xd, 0xe, 0xd, 0xf, 0x5,
0xd, 0xe, 0xd, 0x5, 0xc, 0xd, 0x5, 0x6, 0x7,
0xb, 0xc, 0x5, 0xe, 0xf, 0x2, 0xe, 0xd, 0x4,
0xf, 0xf, 0xd, 0xe, 0xe, 0xf, 0x5, 0x6, 0xd,
0xe, 0xf, 0xf, 0xd, 0x6, 0xc, 0xb, 0x6, 0x6,
0xd, 0x6, 0x5, 0x4, 0x4, 0x4, 0xf, 0x9, 0x6,
0xb, 0xa, 0xe, 0xd, 0x7, 0x7, 0x2, 0x6, 0x7,
0xf, 0xc, 0x3, 0x4, 0x2, 0xd, 0x3, 0xb, 0x3,
0x3, 0x6, 0x3, 0x6, 0x6, 0x7, 0xc, 0xf, 0x0,
0xe, 0x6, 0x5, 0xf, 0xa, 0x6, 0xf, 0xe, 0x6,
0x6, 0x7, 0xb, 0x5, 0xd, 0xf, 0xe, 0xe, 0xe,
0xc, 0xf, 0xe, 0xd, 0xd, 0x4, 0x6, 0x5, 0x6,
0x5, 0x4, 0x4, 0xd, 0xf, 0xe, 0xd, 0xe, 0xc,
0x9, 0x7, 0x5, 0x4, 0x6, 0x6, 0xe, 0xe, 0x1,
0x4, 0xa, 0x2, 0xb, 0x6, 0xf, 0x4, 0xd, 0xe,
0xd, 0xd, 0x7, 0xf, 0x6, 0x7, 0xd, 0x5, 0x2,
0x3, 0x0, 0x1, 0xe, 0xf, 0x5, 0x5, 0x4, 0x4,
0x2, 0xe, 0x4, 0xc, 0xf, 0x6, 0xf, 0xd, 0x6,
0xd, 0xf, 0xc, 0x5, 0x5, 0x5, 0x3, 0x5, 0xd,
0x2, 0xf, 0x4, 0x5, 0xe, 0xc, 0xc, 0xd, 0x3,
0xc, 0xe, 0xd, 0x5, 0x6, 0xc, 0x5, 0x7, 0x6,
0x5, 0x6, 0xc, 0xb, 0x7, 0x4, 0xd, 0x5, 0x0,
0x5, 0x5, 0x4, 0xd, 0xd, 0xd, 0xd, 0xf, 0xf,
0x5, 0xd, 0xe, 0x6, 0xc, 0xf, 0x5, 0xb, 0xe,
0xc, 0xe, 0xe, 0x4, 0xe, 0xe, 0x7, 0x6, 0x5,
0xc, 0xc, 0x6, 0xb, 0xd, 0xf, 0x5, 0xe, 0xf,
0xe, 0xe, 0x3, 0xe, 0xf, 0x0, 0xf, 0xd, 0x6,
0xc, 0x4, 0xe, 0xd, 0xf, 0xd, 0x3, 0xf, 0xc,
0xb, 0xc, 0x5, 0xc, 0xd, 0xf, 0xd, 0x5, 0xd,
0xd, 0xe, 0xf, 0x5, 0x5, 0xd, 0x5, 0x5, 0xc,
0xe, 0xd, 0xb, 0xc, 0xd, 0xf, 0xe, 0x4, 0xf,
0xd, 0x2, 0x6, 0xe, 0xd, 0x7, 0xd, 0xd, 0x4,
0xa, 0xd, 0xc, 0x3, 0xe, 0xf, 0x5, 0x5, 0xb,
0xe, 0xf, 0xb, 0x4, 0xe, 0x6, 0x4, 0xd, 0xb,
0x6, 0x7, 0x5, 0xd, 0xc, 0xa, 0xe, 0xe, 0xe,
0xd, 0xe, 0x6, 0xe, 0x7, 0x3, 0x1, 0xc, 0xf,
0xc, 0x3, 0xd, 0x5, 0x6, 0xd, 0xf, 0xf, 0xf,
0xe, 0xc, 0xe, 0x4, 0xf, 0xf, 0x5, 0x6, 0x7,
0x6, 0x7, 0xc, 0x6, 0xb, 0xe, 0x4, 0xe, 0xe,
0xe, 0xb, 0x4, 0xd, 0xf, 0xd, 0xc, 0xe, 0xe,
0xd, 0xd, 0x4, 0xf, 0xd, 0x5, 0x3, 0x6, 0x6,
0x1, 0xd, 0x6, 0x4, 0xe, 0x7, 0x1, 0xc, 0x6,
0xb, 0xd, 0x3, 0x3, 0x5, 0x7, 0xe, 0xe, 0x5,
0xb, 0x7, 0x6, 0xe, 0x6, 0xe, 0x5, 0x6, 0xd,
0x3, 0x4, 0xc, 0xc, 0xf, 0x4, 0x3, 0xd, 0x5,
0x5, 0x6, 0xd, 0xe, 0x5, 0x6, 0xc, 0xf, 0x4,
0xe, 0xd, 0x5, 0xd, 0xd, 0xf, 0x9, 0x6, 0x5,
0x7, 0x6, 0xb, 0x3, 0xd, 0xd, 0xe, 0xe, 0x0,
0x4, 0xe, 0xf, 0x3, 0x5, 0xc, 0x6, 0x6, 0x6,
0x6, 0x6, 0x0, 0x6, 0xd, 0xd, 0x5, 0xf, 0xc,
0x5, 0xf, 0xc, 0x6, 0xd, 0xd, 0x6, 0x6, 0x3,
0xd, 0xf, 0xe, 0x4, 0xc, 0x3, 0x5, 0xb, 0xd,
0xd, 0xe, 0xd, 0x6, 0xb, 0xf, 0x6, 0x6, 0xe,
0x5, 0xd, 0x5, 0x3, 0xd, 0xd, 0xa, 0xe, 0xf,
};

static int backbone_model1_conv2_relu2_threshold[64 * 7] =
{ // torch.Size([64, 7])
-32, 43, 119, 195, 309, 460, 688,
75, 223, 372, 520, 743, 1040, 1486,
-63, 2, 67, 132, 230, 359, 554,
-17, 53, 123, 194, 299, 440, 651,
41, 193, 344, 496, 724, 1028, 1483,
-46, 1, 48, 96, 166, 261, 403,
140, 384, 628, 873, 1239, 1728, 2461,
18, 84, 151, 217, 316, 449, 648,
21, 117, 214, 310, 455, 648, 938,
20, 115, 210, 305, 448, 639, 924,
102, 207, 312, 417, 574, 785, 1100,
29, 134, 238, 343, 499, 708, 1022,
38, 146, 254, 362, 524, 740, 1063,
167, 375, 583, 790, 1102, 1517, 2140,
30, 146, 262, 378, 552, 785, 1133,
-2, 102, 207, 311, 468, 677, 991,
51, 204, 357, 509, 739, 1045, 1504,
57, 140, 223, 306, 430, 596, 845,
23, 145, 267, 389, 572, 816, 1182,
12, 134, 256, 379, 562, 807, 1174,
16, 134, 252, 369, 546, 781, 1134,
44, 127, 209, 291, 415, 580, 827,
90, 202, 315, 427, 596, 821, 1159,
-16, 84, 184, 283, 433, 632, 931,
-31, 39, 109, 179, 284, 424, 634,
77, 177, 277, 377, 527, 728, 1028,
37, 105, 174, 242, 345, 482, 687,
65, 183, 301, 419, 596, 831, 1185,
-16, 67, 151, 235, 360, 528, 779,
83, 167, 251, 335, 461, 630, 882,
28, 125, 222, 318, 464, 657, 947,
-37, 68, 174, 279, 437, 647, 963,
101, 236, 372, 507, 710, 980, 1386,
82, 214, 345, 476, 673, 935, 1329,
59, 144, 229, 313, 441, 610, 865,
89, 226, 363, 499, 704, 977, 1387,
65, 230, 395, 560, 807, 1137, 1632,
205, 387, 569, 751, 1024, 1389, 1935,
-53, 22, 97, 173, 285, 436, 661,
64, 152, 240, 328, 460, 637, 901,
193, 403, 614, 824, 1140, 1561, 2193,
38, 96, 154, 212, 299, 415, 588,
16, 98, 180, 262, 385, 549, 795,
39, 142, 244, 346, 499, 703, 1009,
30, 120, 209, 299, 433, 612, 881,
16, 119, 222, 326, 481, 687, 997,
-5, 141, 286, 432, 650, 941, 1377,
133, 265, 397, 529, 727, 991, 1387,
1, 58, 115, 171, 256, 369, 539,
26, 151, 277, 402, 591, 842, 1219,
58, 131, 205, 279, 390, 538, 760,
2, 96, 189, 283, 424, 611, 892,
-11, 66, 143, 220, 335, 489, 720,
15, 106, 196, 287, 422, 604, 875,
14, 69, 125, 180, 263, 374, 540,
13, 97, 182, 266, 392, 560, 813,
-24, 85, 195, 305, 470, 689, 1018,
-5, 65, 134, 204, 309, 449, 659,
13, 99, 185, 271, 400, 572, 831,
42, 106, 171, 235, 332, 461, 654,
19, 103, 187, 270, 396, 563, 814,
72, 191, 310, 430, 609, 847, 1205,
24, 113, 202, 292, 425, 604, 871,
65, 153, 242, 330, 462, 639, 903,
};

static uint64_t backbone_model2_conv1_conv1_weight[64 * 1*4] =
{ // torch.Size([64, 1, 1, 64])
0xf554ddedd46653de,0x4bcd45616b2c6b56,0x7dd5bdde4d4edc4a,0xdc56145a4546635c,
0x55cc6eed34effb46,0xf435c65cd5d6ed47,0x55a6b565b64d5676,0x6d67dc4dce56befd,
0xfd5cd6edd55d32ef,0xe3ef6ed34e5c5dde,0x64eede5fddcd6b6c,0x53d4cccdfd7536bd,
0x51e47fddc1b5c4be,0x4cc5d4d6e4e4df3e,0xa7ad6d656df06526,0xbebad524643ceccd,
0x525b0c26dd5cb55b,0xec0d43bde7d6e4d6,0xceeea475e534da55,0x64c5c5744b3c7ed5,
0x5edb3debec2d5dc4,0xde5d9e2cd96ddece,0x5d5eced5fe4b64ee,0x5eeeddde546d6eec,
0xdedeeddddddd3cd5,0x45a45eb34e4ebe5e,0x7c55cde55d3e6c5d,0x6d4dcced25ccdcd6,
0x2f4d6b4ed5415c4c,0x536bbed5ae6d44ee,0x410e5417eed5c5d2,0xe3bdd4db65eee53e,
0xed346d632e44ed5c,0x564656cb6a6b4526,0x35e6e4bf46d6d5c9,0xcd4ec94ee7dded64,
0xcdd5513d5dd3f14c,0xb56569ca5fd93c46,0xedd6259555c1cd3b,0xbdab32ddd1c9c536,
0xce443666d15c55be,0x4555dd52efbcbdec,0xeeddd365dd66edcf,0xd4b647406dd3d6cd,
0x6b3a4a374dfeaee4,0xf665bc3cc66de26e,0x4676cee55bfe4c67,0xee4edd07555ffce3,
0xe4e4e55361f4066e,0x5be6e4459b7bcfef,0x57356ace60da5c53,0x665e76e6556f556c,
0xcd9e2cb55b55ebb3,0xcb645df643544a26,0x52d4adb56c4bbcdd,0xc25dccbee5d35d34,
0xad55b5eeb6025ded,0xededdeabbe4c445c,0x5b5feedbedde150c,0x234b2dd4e54ccedf,
0xee555ecdc227e4d6,0x66335ddd6eb6a5e6,0x3556c45c576cdd4e,0x5cbd2ce4fc26de65,
0x5c59fde96dc3cdb6,0xd5da245c5dcca491,0x3cee14d0e4545ece,0x55b64b559e6667b3,
0x3ced5d53c6bf31a4,0xcd62edc5d36dcde5,0x5c144b0653a5cbb4,0xfb5edcc465cdedd0,
0xe3e4eb6c2dcee565,0x2701e35d453ed7e4,0xccedbc52bc66ccdc,0xd6eccadbcdd4c643,
0x661bdce47cffbd6c,0xd7e6c56025ddc66f,0x5d9e5f3cccee6dc5,0xdfe3fd516d6ec6e5,
0xe6ebef0bead5cc7b,0x56d667e356651e64,0x766ccdfed7ee7ec6,0x5deede55e74eac77,
0x5dccddb6ccd730db,0x530b6eeced6bdcc5,0xd36765c57545d5ee,0x645fcadeb5edd066,
0x54ed7fcee5ce5bdc,0xcbc4e224e4e5ee5d,0x65dd6d562d553bb5,0x5edde5ce6a445cee,
0xbcac5bde45155ce6,0xcc3eef55ca45556a,0x55626c664ee33565,0xd3cc55e0660c45de,
0x54b544e6ad654ddf,0x4bd44b3c5cd4566d,0x5560d4be5e4eb563,0xc536556d9d5505dd,
0x462eb5dc535c44d5,0xbe2d94d345e5cd7d,0x46653cc495c45dbc,0x4c4431c4dd6c4451,
0xacdd3dc6552eeccd,0xae355554df6bcfed,0x3e4c25543bde32c4,0x4d6ce753c6ccdd54,
0xdead56defd4d2416,0xec4d5eecc5a42b55,0x6eacad45e461ce35,0x9ee4dbddddc4bbed,
0xdd7d39decf0dfdec,0xcd4eed3c4ede53f6,0x64edd4c2e40ded6d,0xe5d64b5edde55e5d,
0x53c5654b475d54d6,0x1264b35ce5f54634,0xe5d24b66c6553605,0x15dd55466e7465f5,
0x5645dd26ce21516c,0xe19cd65b969dd3ce,0x64ac454d34db4643,0x56442a652dda6fa5,
0x6c46dd7d5664d6ed,0x4d39e6746fe6d666,0xe33ce54d31c5e749,0x5d14d45c3e355c1f,
0x46b44554c93524d5,0x4e1fdd4ab61445c5,0xe4a6255b6646b2c4,0xc55553dca3356c4c,
0xdc5d6b5de693cc6f,0x4c20c4f1e5cbc647,0x5cdddc0db554dc54,0x34445b6ccd550d5e,
0xfc5d25fbe76e544c,0x5e5bd4b3bb6cbdce,0x6eaeded5eece7cd4,0x6e35ed366c2dde4e,
0x7d6c66a6665a553c,0x6e64659e4bd9c6eb,0xe7d545696646c7cd,0x566e6763e3657976,
0xebdbe7ed59e54dce,0xd6eed5e4e64c5d64,0x6c31eede3acd3fb5,0x665d6db5c55d6c54,
0xedc5db4dddceec67,0xd6754d5d6645d3e6,0x4df6d2b6d6350e44,0xdbebdcbd55fceae4,
0xcb3b66d6ddcc5054,0x35666ce6c65e4dee,0x6ad56ce4033e6d67,0xd5ddcc3a77edee45,
0x13c40dbeedb4cd5e,0xd5eac5bdb4e4da6d,0x6d29e4f5d16dc664,0x456752ce50e66e4e,
0x665444ede77e7542,0x6cf3b5634ec1644c,0xa0dfed3ee125d5ee,0x5e5655576e7675ae,
0xd4dcd1d4eb7e4dd0,0xd654c2145c313c9c,0x4d664bcd0eddc9e4,0xdbeca4bd63f4e6f5,
0xe6e5ddbaec6765ee,0x3d6e62b66c666f6c,0x6a65cdcd2ece5d5c,0xa6d54cedc6daca6b,
0xb23d3dd5d6c03bbd,0xed555d55cb655f6c,0x5d9e0cc5dbed21b5,0x4d65c49e46349beb,
0x3deecfebd3eb6dcf,0xdfa3bef5c6555e1e,0x454cdf3dcb0d5ade,0x6d4f4efdc57e6eee,
0xed557372556df4cd,0x5366d5656ed5c5e5,0xf5d5e55dd5e3e65e,0x3dd34665eee2de5c,
0xb6e0ecb6df5d6a6e,0xc3d75544664d0c5f,0x5efce5cecedeec56,0xbbdaec5eeeeeabd7,
0xd35acdced6d15bcd,0xc0e3c5d9de5d1225,0x64ccadddc5bc34cd,0x566e3dddc5e0fb50,
0xfe4ff4d64575306e,0x76e5d6e536e5a4e6,0x6b56ebef674d64ce,0x746abd6dee656d56,
0xd5524d56de5c5554,0xe66c755ee673ecec,0x5e5c5555f553eca6,0xe4e3d45e34f5e4d6,
0x59e0dcdaef5d5ded,0xea6eed43436e24a9,0x5e6c2cdeeedc4eda,0x4eee3de051bd6bed,
0x26ecfeeecdcee5cf,0x4feee656b4f0dee1,0xf2ef4e3eae3d54e4,0xf5e73ec66c654dfd,
0xd59e56d66cf5ee6e,0x562b66efe65ce556,0xbdedeb6ed55ceb56,0xbb1dae63edaddd6c,
0xd5eeccdc5d135d4d,0x75dbc2d6545c6d5e,0x4cb54cbe6d3c5cd4,0x4d5ced3ed5d3de55,
0x7ccd54e9546e65d4,0x5ccb6d5e63fac4ac,0xbd1a6b464ee35215,0xeee6ee5c5ddcedfd,
0x44dec4d75e5d0c65,0x5645e53b473dad5c,0x9e9635cc45d3cbe6,0xc3cbd4d144fd1247,
0xbc5254cc261dd5dd,0x5c5b54cb4be545b0,0xbdfe4d1d4cbc0e33,0xdedac255d4695cdb,
0xc4dc9acd555ec3b1,0x4b1d45cc2afc623a,0xd5fd1b35bcbd6edb,0xccd6dd46d97454d3,
0xeec2ddd21ede4c4e,0x55cdcd444c6edede,0x6465add3dde0b324,0xd5d4cdee55fee55d,
0x6c262c7ca56c652e,0xad35de6c4d59566d,0xdb65a3ae5c97e45d,0xd4d434637d34462b,
0xec646f3eb5dddede,0xee436ca55e7e7d06,0x64ddcffcbbdd546e,0x4d605e3a666d5ced,
0xce5b51dd357beeed,0xedeace4b3fe6dcf5,0xeabe4ba6dddd544c,0xed3646d23d3496dd,
0xe5b5fd55fdd65ded,0x26459d227d7e2a63,0x6e56eacf52ddcdde,0x65ee5dfe36edce6d,
0xeddc52a6c4bc0eee,0xac5dbc3dceed55bd,0xbdf4e9beecdcc6dd,0xacdd59bbcc3d546c,
};

static int backbone_model2_conv1_quant1_threshold[64 * 14] =
{ // torch.Size([64, 14])
-1465, -977, -652, -408, -245, -83, 80, 243, 405, 568, 730, 974, 1299, 1787,
-1258, -818, -525, -305, -158, -11, 135, 282, 429, 576, 722, 942, 1236, 1676,
-2691, -2029, -1588, -1257, -1037, -816, -596, -376, -155, 65, 286, 617, 1058, 1719,
-1840, -1325, -981, -724, -552, -380, -209, -37, 135, 306, 478, 735, 1079, 1594,
-1190, -758, -470, -253, -109, 35, 179, 323, 467, 611, 755, 971, 1259, 1692,
-2329, -1854, -1537, -1299, -1141, -982, -824, -665, -507, -348, -190, 48, 365, 841,
-1657, -1306, -1072, -896, -779, -662, -544, -427, -310, -193, -76, 100, 334, 685,
-1733, -1319, -1044, -837, -699, -561, -423, -285, -148, -10, 128, 335, 611, 1024,
-1673, -1167, -831, -578, -410, -241, -73, 96, 264, 433, 601, 854, 1190, 1696,
-1168, -840, -622, -459, -350, -241, -132, -22, 87, 196, 305, 468, 686, 1014,
-1759, -1298, -990, -759, -605, -451, -298, -144, 10, 164, 318, 549, 856, 1318,
-2206, -1605, -1204, -903, -702, -502, -301, -101, 100, 301, 501, 802, 1203, 1805,
-1624, -1063, -689, -408, -221, -34, 153, 340, 527, 715, 902, 1182, 1557, 2118,
-1125, -802, -587, -425, -318, -210, -102, 5, 113, 221, 329, 490, 706, 1029,
-2293, -1828, -1518, -1285, -1130, -975, -820, -665, -510, -355, -200, 33, 343, 808,
-1891, -1303, -911, -617, -421, -226, -30, 166, 362, 558, 754, 1048, 1439, 2027,
-1054, -687, -442, -259, -136, -14, 108, 230, 353, 475, 597, 781, 1025, 1392,
-1419, -1073, -842, -669, -554, -439, -324, -208, -93, 22, 137, 310, 541, 887,
-1585, -1135, -836, -611, -461, -311, -161, -11, 139, 289, 439, 664, 964, 1414,
-2183, -1609, -1226, -939, -748, -556, -365, -174, 18, 209, 400, 687, 1070, 1644,
-1963, -1298, -855, -523, -301, -80, 142, 363, 585, 806, 1028, 1360, 1803, 2468,
-1641, -1138, -802, -550, -382, -214, -46, 121, 289, 457, 625, 877, 1213, 1716,
-1612, -1216, -951, -753, -621, -489, -356, -224, -92, 40, 172, 371, 635, 1032,
-1322, -880, -586, -365, -218, -70, 77, 224, 371, 519, 666, 887, 1181, 1623,
-1086, -715, -468, -282, -158, -34, 89, 213, 337, 461, 584, 770, 1017, 1389,
-732, -434, -235, -86, 13, 112, 212, 311, 410, 510, 609, 758, 957, 1255,
-1327, -1019, -815, -661, -558, -456, -353, -251, -149, -46, 56, 210, 415, 722,
-1719, -1343, -1092, -904, -779, -653, -528, -403, -277, -152, -27, 161, 412, 788,
-2536, -1999, -1641, -1372, -1193, -1014, -835, -656, -477, -298, -119, 150, 508, 1045,
-601, -201, 66, 266, 400, 533, 666, 800, 933, 1067, 1200, 1400, 1667, 2068,
-754, -468, -278, -135, -40, 55, 151, 246, 341, 436, 531, 674, 864, 1150,
-1734, -1185, -819, -544, -361, -178, 5, 188, 371, 554, 737, 1011, 1377, 1926,
-672, -357, -147, 11, 115, 220, 325, 430, 535, 640, 745, 903, 1113, 1428,
-1338, -948, -688, -492, -362, -232, -102, 29, 159, 289, 419, 614, 875, 1265,
-2209, -1684, -1334, -1071, -896, -721, -546, -371, -196, -21, 154, 417, 767, 1292,
-732, -187, 176, 449, 630, 812, 993, 1175, 1357, 1538, 1720, 1992, 2355, 2900,
-1864, -1351, -1009, -753, -582, -411, -240, -69, 102, 273, 443, 700, 1042, 1554,
-1806, -1309, -978, -729, -564, -398, -233, -67, 98, 264, 429, 678, 1009, 1506,
-1432, -958, -641, -404, -246, -88, 70, 229, 387, 545, 703, 941, 1257, 1731,
-1507, -1115, -854, -657, -527, -396, -265, -134, -4, 127, 258, 454, 715, 1108,
-1841, -1191, -757, -432, -215, 2, 218, 435, 652, 869, 1086, 1411, 1845, 2495,
-1407, -1069, -844, -675, -562, -449, -337, -224, -112, 1, 114, 283, 508, 846,
-1558, -1059, -726, -476, -309, -143, 24, 190, 357, 523, 690, 940, 1273, 1772,
-1329, -975, -738, -561, -443, -325, -207, -89, 30, 148, 266, 443, 680, 1034,
-3132, -2429, -1959, -1607, -1373, -1138, -904, -669, -434, -200, 35, 387, 856, 1560,
-1921, -1367, -998, -721, -536, -351, -167, 18, 202, 387, 572, 849, 1218, 1772,
-2323, -1737, -1346, -1053, -858, -662, -467, -271, -76, 119, 315, 608, 998, 1585,
-1298, -1026, -844, -708, -617, -526, -436, -345, -254, -163, -72, 64, 245, 518,
-1743, -1112, -691, -376, -166, 45, 255, 465, 676, 886, 1096, 1411, 1832, 2463,
-1925, -1351, -969, -682, -491, -299, -108, 83, 274, 465, 657, 944, 1326, 1900,
-1921, -1545, -1295, -1107, -982, -857, -732, -606, -481, -356, -231, -43, 208, 583,
-3234, -2510, -2028, -1666, -1425, -1184, -942, -701, -460, -218, 23, 385, 867, 1591,
-1662, -1233, -947, -733, -590, -447, -304, -162, -19, 124, 267, 481, 767, 1196,
-1570, -1153, -875, -666, -527, -388, -248, -109, 30, 169, 308, 517, 795, 1212,
-1582, -1173, -900, -696, -559, -423, -286, -150, -14, 123, 259, 464, 737, 1146,
-1360, -897, -589, -358, -203, -49, 105, 259, 414, 568, 722, 953, 1262, 1724,
-1213, -900, -691, -534, -430, -325, -221, -117, -12, 92, 197, 353, 562, 875,
-1286, -882, -612, -410, -276, -141, -6, 129, 263, 398, 533, 735, 1004, 1408,
-1859, -1507, -1272, -1096, -979, -862, -745, -627, -510, -393, -275, -99, 135, 487,
-1203, -737, -427, -194, -39, 116, 271, 426, 581, 736, 892, 1124, 1435, 1900,
-2134, -1556, -1172, -883, -690, -498, -306, -113, 79, 272, 464, 753, 1138, 1715,
-2148, -1617, -1263, -998, -821, -644, -467, -290, -113, 64, 241, 506, 860, 1391,
-2261, -1692, -1313, -1029, -839, -650, -461, -271, -82, 108, 297, 582, 961, 1529,
-1482, -1195, -1003, -860, -764, -668, -572, -477, -381, -285, -189, -46, 146, 433,
};

static uint64_t backbone_model2_conv1_conv2_weight[64 * 9] =
{ // torch.Size([64, 3, 3, 1])
0xc, 0x9, 0x6, 0xc, 0x9, 0x6, 0xc, 0x7, 0x7,
0x6, 0x7, 0x6, 0xc, 0xd, 0xd, 0xd, 0xe, 0xd,
0x5, 0x3, 0xe, 0x6, 0x2, 0xc, 0x7, 0x5, 0xc,
0x1, 0xb, 0x5, 0xb, 0x5, 0x7, 0x9, 0x7, 0x6,
0x1, 0x5, 0x5, 0x4, 0xf, 0xc, 0xc, 0x5, 0xd,
0x5, 0x0, 0xd, 0x5, 0x6, 0x7, 0xa, 0x5, 0x6,
0x6, 0x5, 0xe, 0x6, 0x6, 0xe, 0x6, 0x5, 0xf,
0xe, 0xe, 0xf, 0x7, 0xc, 0xe, 0x3, 0x3, 0x4,
0x5, 0x6, 0x7, 0x3, 0x5, 0x6, 0xd, 0x5, 0x6,
0x2, 0xe, 0x6, 0x5, 0xf, 0x6, 0x4, 0xd, 0xa,
0xc, 0x6, 0x5, 0x5, 0x5, 0xd, 0x6, 0x4, 0xf,
0x5, 0xc, 0xd, 0xf, 0xf, 0x6, 0xc, 0x5, 0x5,
0x6, 0x6, 0x5, 0xc, 0x0, 0xb, 0xf, 0xd, 0xe,
0xd, 0xf, 0xd, 0x3, 0xd, 0xd, 0x5, 0x6, 0xf,
0xb, 0xb, 0x0, 0xb, 0xb, 0xb, 0x5, 0x7, 0x5,
0x6, 0x4, 0x0, 0x6, 0x4, 0xe, 0x2, 0x4, 0xf,
0x6, 0x6, 0x4, 0x6, 0xc, 0xf, 0x0, 0xf, 0xd,
0xe, 0x0, 0x6, 0x5, 0x7, 0xd, 0x5, 0xd, 0xd,
0x3, 0x6, 0x5, 0xd, 0x5, 0x7, 0x6, 0x6, 0x6,
0xd, 0xf, 0xd, 0x0, 0xc, 0x5, 0xa, 0xe, 0xc,
0xd, 0xe, 0xf, 0xf, 0xb, 0xd, 0xd, 0x6, 0x6,
0x3, 0xe, 0xd, 0xd, 0xf, 0xc, 0x3, 0xe, 0xd,
0xf, 0x7, 0x6, 0xf, 0x7, 0x6, 0xf, 0x7, 0x6,
0x3, 0xb, 0x3, 0x6, 0xe, 0xf, 0x6, 0xd, 0xd,
0xe, 0xf, 0xc, 0xf, 0xf, 0x7, 0xe, 0x7, 0x7,
0xf, 0xe, 0x5, 0x6, 0xe, 0xe, 0x6, 0x7, 0xc,
0xf, 0xe, 0xe, 0xb, 0x1, 0x4, 0xd, 0x6, 0x5,
0xe, 0xf, 0x7, 0xd, 0xf, 0x5, 0x6, 0x5, 0xf,
0x9, 0xd, 0x0, 0x6, 0x6, 0x6, 0x7, 0x7, 0x7,
0x6, 0x6, 0x7, 0x6, 0x6, 0x6, 0x6, 0x5, 0x6,
0x1, 0xe, 0x4, 0x6, 0x4, 0xe, 0xd, 0x7, 0xc,
0x5, 0x5, 0x3, 0xd, 0xe, 0x2, 0xe, 0xf, 0xd,
0xe, 0xf, 0xf, 0xe, 0xe, 0x5, 0xe, 0x5, 0x5,
0xe, 0xc, 0x7, 0xe, 0xe, 0x6, 0xd, 0xe, 0x4,
0x2, 0x4, 0x7, 0xd, 0xe, 0x6, 0xe, 0xc, 0x4,
0x3, 0x5, 0x5, 0x2, 0x5, 0x4, 0x5, 0x7, 0x7,
0xf, 0xe, 0x5, 0xf, 0xf, 0xe, 0x3, 0x5, 0xf,
0x9, 0xe, 0xd, 0xb, 0x7, 0x5, 0x6, 0x7, 0xc,
0xe, 0xe, 0xe, 0xd, 0xd, 0x5, 0x5, 0x7, 0x6,
0x5, 0xd, 0xf, 0x5, 0x4, 0xe, 0x6, 0x6, 0xc,
0xb, 0x6, 0xe, 0x6, 0x5, 0xf, 0x6, 0xe, 0xb,
0x7, 0x6, 0x7, 0xe, 0xf, 0xe, 0x4, 0x5, 0x5,
0x4, 0x7, 0x7, 0x6, 0x7, 0x5, 0x4, 0x6, 0xe,
0xf, 0xe, 0xe, 0xe, 0xe, 0xd, 0xe, 0xf, 0xf,
0xc, 0xe, 0xa, 0xd, 0x6, 0x7, 0xe, 0x6, 0x6,
0x4, 0x5, 0x5, 0x3, 0xd, 0xd, 0xa, 0xf, 0xf,
0x5, 0x2, 0xd, 0x5, 0x7, 0xd, 0xe, 0x4, 0x7,
0xb, 0xc, 0xd, 0x3, 0x7, 0x6, 0xc, 0x3, 0xc,
0x0, 0xd, 0x5, 0x5, 0xd, 0x6, 0xc, 0xf, 0x6,
0xf, 0xd, 0xc, 0xe, 0xf, 0x9, 0x5, 0xc, 0xe,
0x3, 0xd, 0xd, 0xd, 0xc, 0xb, 0x5, 0x6, 0x7,
0x7, 0x6, 0x7, 0x0, 0x6, 0x7, 0x4, 0x6, 0x6,
0x7, 0x4, 0xb, 0x7, 0x5, 0xd, 0x6, 0x2, 0xc,
0xb, 0x5, 0xc, 0x5, 0x6, 0xc, 0x7, 0x7, 0x5,
0x6, 0x7, 0x6, 0x6, 0x6, 0x5, 0xe, 0xe, 0xf,
0x4, 0x7, 0x6, 0x4, 0xe, 0x4, 0xd, 0xe, 0xd,
0xe, 0x5, 0x4, 0xf, 0x3, 0x7, 0xe, 0xd, 0x7,
0x7, 0xc, 0xe, 0x6, 0x4, 0xe, 0x7, 0x5, 0xf,
0xe, 0xd, 0x5, 0xe, 0xd, 0xc, 0xf, 0xe, 0xf,
0xe, 0xe, 0xe, 0xf, 0xe, 0x1, 0xe, 0x4, 0xd,
0x7, 0x7, 0xb, 0x6, 0x6, 0xe, 0xd, 0xc, 0xe,
0xf, 0xd, 0x6, 0xd, 0x4, 0x6, 0xd, 0x5, 0x5,
0xc, 0xc, 0xa, 0xc, 0xb, 0x5, 0xd, 0x1, 0x7,
0x6, 0x7, 0x6, 0x0, 0x6, 0x5, 0xd, 0x7, 0x6,
};

static int backbone_model2_conv1_relu2_threshold[64 * 7] =
{ // torch.Size([64, 7])
218, 388, 558, 728, 982, 1322, 1831,
77, 193, 309, 425, 600, 832, 1181,
29, 117, 205, 293, 424, 600, 863,
22, 172, 322, 471, 696, 996, 1445,
5, 67, 129, 191, 284, 408, 594,
70, 188, 306, 424, 600, 836, 1189,
130, 256, 381, 507, 695, 946, 1322,
117, 224, 331, 439, 599, 814, 1135,
87, 237, 386, 536, 761, 1061, 1510,
98, 193, 288, 382, 524, 713, 997,
76, 172, 267, 363, 506, 698, 985,
61, 161, 261, 361, 511, 712, 1012,
78, 189, 300, 411, 578, 801, 1135,
133, 287, 441, 596, 827, 1136, 1599,
-25, 55, 135, 215, 335, 496, 736,
65, 137, 209, 281, 389, 533, 750,
132, 259, 387, 515, 706, 962, 1345,
41, 130, 219, 308, 441, 619, 886,
151, 308, 465, 623, 859, 1173, 1645,
17, 142, 267, 393, 581, 831, 1207,
90, 231, 371, 512, 722, 1003, 1424,
51, 175, 300, 425, 612, 861, 1235,
137, 317, 496, 676, 946, 1306, 1846,
58, 140, 222, 303, 426, 589, 835,
128, 313, 497, 682, 959, 1328, 1882,
116, 234, 353, 471, 649, 885, 1241,
215, 325, 434, 544, 708, 927, 1255,
65, 189, 313, 437, 623, 870, 1242,
154, 380, 606, 832, 1171, 1622, 2300,
251, 475, 700, 925, 1262, 1712, 2387,
36, 128, 221, 313, 452, 636, 914,
137, 268, 398, 528, 723, 983, 1374,
100, 287, 474, 661, 941, 1316, 1877,
116, 230, 343, 457, 627, 854, 1195,
19, 108, 196, 285, 418, 596, 862,
206, 383, 561, 738, 1005, 1360, 1893,
139, 341, 544, 746, 1050, 1454, 2061,
70, 212, 353, 495, 707, 991, 1415,
112, 229, 346, 463, 639, 873, 1225,
47, 155, 262, 370, 531, 747, 1070,
44, 141, 238, 335, 481, 676, 968,
184, 387, 590, 793, 1098, 1505, 2115,
260, 460, 661, 862, 1163, 1564, 2166,
312, 629, 946, 1263, 1738, 2372, 3323,
78, 189, 300, 411, 577, 799, 1132,
69, 193, 316, 439, 624, 870, 1240,
35, 137, 240, 342, 495, 700, 1007,
52, 141, 230, 318, 451, 629, 895,
46, 123, 200, 277, 392, 545, 776,
95, 245, 395, 545, 769, 1069, 1519,
25, 105, 184, 263, 381, 540, 777,
124, 384, 644, 904, 1294, 1814, 2594,
36, 175, 314, 453, 662, 940, 1357,
88, 231, 373, 515, 728, 1012, 1438,
49, 197, 346, 494, 717, 1014, 1460,
55, 151, 248, 345, 491, 685, 976,
96, 202, 308, 415, 574, 787, 1106,
81, 187, 294, 400, 559, 771, 1089,
243, 430, 618, 805, 1087, 1462, 2024,
21, 150, 280, 409, 604, 863, 1251,
-38, 113, 265, 416, 644, 947, 1401,
48, 128, 208, 289, 409, 570, 811,
76, 143, 209, 275, 375, 508, 707,
111, 297, 483, 669, 949, 1321, 1879,
};

static uint64_t backbone_model2_conv2_conv1_weight[64 * 1*4] =
{ // torch.Size([64, 1, 1, 64])
0xadcd213bc15c3d33,0xf326c2db3c4443a5,0x4d44dd0ca34bc4c9,0xc54133330b4d4513,
0x5e11c6e55dce95a4,0xc54635cb96e5b0ed,0xd35cdc67e4055e46,0x55b26693cec164cd,
0xd54644eeec035ec5,0xc65d9dd336545d55,0x54ad555541d5ea64,0xcd53d466e5cdcedf,
0xdfcddecead265bae,0x4665ed4c55a4eed4,0x55e2dedcd23dced2,0xccf6dae4eefdd4ec,
0xa52c3cc3b35b3a50,0xccb33c1d9c3bcad5,0x42d53106a24b5d7e,0xd243fdc3b0404d34,
0x6d6a6ab65cb9c443,0xc1c5bc003dcdad55,0x52b3ba2594143bb4,0x25ede44567246246,
0x53e4d556e17e7ede,0xe5de24335be96efe,0xe56ebe0e6b6d50de,0xe3cc65c6b9edb63c,
0x3054db2943fd34e5,0xd4c4dbc65da5db64,0xc536d3595555dd4d,0x45a0e56ed55c34d6,
0xe45565dcc4d64755,0xc64ddeec55b56d95,0x454c55665de41c64,0x5e556cd263e5cf6c,
0x66d46c5c54d5d5d3,0xc4469c39c46ddb49,0xcd55fde0b5d65953,0x0de645c45d5c0b65,
0x463a6ef533c446e6,0x5d550763d3cdef5d,0x5cedebd9d3e76c45,0xdbdc46d6dab55a46,
0x5f6256ccac245d6c,0xd555cfed35c3d7bb,0x5c565e1b4574edce,0x4cc3ccee5b5e65e0,
0x63f6665e1aee3dce,0x55ed5c5ced4d6d03,0xe947ee557b756543,0x96ebcdd64ded2646,
0xe4cd5bbe56e6dbf5,0x556e6e55c6656ddd,0x4a26144074665455,0x67c45556cd6eba4d,
0xeddccab144d5d44d,0x353f5ed5cb5653b5,0x56db5d7ccd4cd45e,0x44a4b3b534e4dcce,
0xbe66bcdccd4d5eda,0xc1ffd4d549d05b45,0xc4ce4b9426cdede7,0xdddeeabdc7ec6def,
0xb6d56b5dcbf3e676,0xc366eedd24556cc5,0x6b53deede5e55ec4,0xe4f6d45bd46075de,
0xd437bb6d6d3d364c,0x7dcdcd74d641de1a,0x50ee4542ddb6d4c4,0x4ec06cbc5de50e54,
0x6efedb5eded66e4d,0x44ed7e3ced5dbde4,0xdce5ccce6e4dd7ee,0xcb96edd35eeceedd,
0x2b56c5a6b6cddeb5,0xddfd25b32de4556c,0xe450554d25bd4ddb,0xeda5dcb9c54b6c0c,
0x324b4b54d5d34be5,0xbeed05b7c434b25a,0x5e44d3c9c504db56,0xcddc4c64e5ceb94b,
0xde5d51b379e6eecd,0xe5059d4c415dd4d5,0x5d345dbad42dd2dc,0x26c5cbdecca1dc5c,
0xb6e65edd5f4deced,0x644ded5ee5dc4db4,0x5ae6dd45de5d4ebc,0xd4dcd3d5ebc1e1b5,
0x556d7edd6e62cee3,0x65dee6c5e6656ecc,0x7e579dc6ddcdec76,0xefdd44e5dddd34d6,
0xad5ed5b6c52b3cb7,0xd44652cc4dd46664,0xd6555b5e5c564aed,0xe703e67cd45435eb,
0x645e55d5d5d4e4a4,0x3d45bdda45d6c451,0xb4665c46dd646e93,0x5d5664e54f5ded66,
0xa53dffd5f7e6d5e6,0xe7ff41c44d65e666,0xe5efedbe6c5ee6ee,0xdccdee6ccdddeece,
0x55d7d6661f63066d,0x73eb5d35cc15dcbc,0xda6fb6ad2c5694d6,0x5ee445b3dae76aec,
0xcccc63d55521d1cd,0x9b2643cf9dd5455d,0x55425b462c322bde,0x3545ec2b55544e56,
0x6e4ba742e1d65dbe,0x4dee6cbeddce4aee,0xff65d5e33c2dc6ec,0xdbe6ded65dadeeee,
0xeeee75df6ed65ebd,0xd666de1e5554eed6,0x5ca4ded5255eedd6,0x70d525fe5eed6c36,
0x6c4345e43e66d55d,0x54da555be5325deb,0x4c55b55e4ae465b5,0xe6ec2ce65f444b25,
0x3cdd5e3c7ccd0ec4,0xd5d74e6c3cebbc26,0x429cca4662c445dd,0x94cde335a353560d,
0x5f6eedc6d9051c30,0xdc03e5cecd6ee65e,0xdfcdddfcd55eee3d,0x7cabb94eb7de42d5,
0xc63f66c636aee642,0x5d456c4dedb74c63,0xb6666575ce55634e,0xc5c725c66d66bd46,
0xce45c5ccbad534d4,0x3c654eb45e42e753,0x94462d6c355ee43f,0x1642e06dd37dd5ed,
0xd5523d535456ae24,0x65ce4b652d66d564,0x56d56c60493edace,0xde6cde5b43c7dd4d,
0xe4ee7dcdddce5d16,0xb66dde4cd55eedc4,0x65ccde556ec42d3d,0xebcc35d04ad5eeb5,
0x6d67fc650637de2c,0xc5e5c6937de55731,0xd525776fd66dddd5,0x3365ef7dd5c466cd,
0x46b5ec66cdddd5e4,0x6ed416562fd4ec9e,0xe5ddede4edc56dd3,0x95deecace36d56d5,
0x6ebd20bed63e5cba,0x5dad3a1ddd55d754,0xed45cdc2b57b3bca,0x6d6d59cf695dc5d6,
0x56cf0545c565d65d,0x3d6555ae5bd453bd,0x536496d2be4964ee,0x46444c564d5ae646,
0x46e46d4ecd6e544d,0xbcedd50dbddbcd6d,0xeeede0e5c4cb2dd5,0x2fc16dfe66e33d67,
0x6756e262cc53ddbe,0x6ce0d516ddededed,0xe1e1d53bcceb6ec6,0xedbc5ceadeeb9536,
0xc1c3ddddde6dbe74,0xd3bdd0e2ddd34552,0x45de6a5c4ddedddd,0xdc3ddddd3bd7c4e4,
0x6e4545dfada7c465,0x3d40bbcefe534670,0x0ec55cb5e366acdc,0x7b35ddeda6334c96,
0x3ed5ee4deade4566,0xee53dee6966de5fd,0xdeabedddd5c5c377,0xcd4d66dcde5eedee,
0xde74cb254eb5cec6,0xdbefdcd562deecd3,0xcbde692cc5eced3b,0xde4cd56ee63d3dde,
0x4525655e643ed55b,0x5fc3a255dd560de6,0xef56ede526c565c9,0x65663b2d4e7d6461,
0xdd37c65df5454e64,0xe1ca5eed42236555,0xd5626544247be4bd,0xec654cde5eac2c5c,
0xc345455c5b63576e,0x566ec1d566475cec,0xa46d655643055165,0x6eb56cd56cf6de6c,
0x55e7d655e36e6666,0x25ed64cea6ec645e,0xa66e464e7c56653c,0xecde3cc67ce56c44,
0x75e62a34da6655d4,0x55544c6d65fd6bdd,0x5653d15f6e666cdd,0xda5d0566ce256543,
0xdedcb26666e6dddb,0x33655e56cd5bd5e6,0xcd464c5e6ac4d6d4,0xf6d6b65eed5ad6dc,
0xacedcd6564cc4fe5,0xd4374e74ccce55c6,0x23ebde4cb4ddd5ec,0xf7dedcc4de6e654d,
0x47dc5e46cd6345d9,0xc46a553454eeee6d,0x66eeddc4deddcd5c,0x2f9cbd4641d6fb5c,
0xa55deb35c44654dd,0x54145a4263d3465c,0x474d535eda0ddce3,0x5d5dcd7dc5d6abde,
0xeea66ded52c6dcd3,0xbcdd43d1dd66fbd6,0x2dd656725cbdc65c,0xeb5dccf513c4dd54,
0x45bf5653b3e4b5d5,0xcd66543d4c3bd24b,0x5c65a3ccdc5544cd,0x3652544d4d54d636,
0x2ed7f5d63456da3f,0x47de6564b4c465e6,0xa566677ec6ccd555,0x75463ed4e5fa553e,
0xed7e5db2dd5664ce,0x946bedbc56cc4edd,0x75de5de5fdedddc5,0xed304c55d6dcccde,
0x4efd2cd6545f6ac3,0xd6ac344cc2dedc7d,0x30d04dce6d6e5ddd,0x69dbd16555b5dd63,
0x34a4b6dc3ec50aed,0x64e4c45fcd4d2cde,0xed5b44d462dd5a0d,0xc554bce74cbcbd2c,
0xe4ddd3dd3edd6eb5,0xc51deedcbab6c464,0x93de5e55dccded5b,0xce63453ccef53ebd,
};

static int backbone_model2_conv2_quant1_threshold[64 * 14] =
{ // torch.Size([64, 14])
-717, -505, -364, -258, -187, -116, -45, 25, 96, 167, 237, 343, 485, 697,
-919, -593, -376, -213, -104, 5, 113, 222, 331, 439, 548, 711, 929, 1255,
-1357, -965, -703, -507, -376, -246, -115, 16, 147, 278, 408, 605, 866, 1258,
-2120, -1642, -1324, -1085, -926, -767, -608, -449, -290, -131, 28, 267, 585, 1063,
-871, -611, -438, -308, -221, -135, -48, 39, 125, 212, 298, 428, 602, 862,
-611, -345, -167, -34, 55, 143, 232, 321, 409, 498, 587, 720, 897, 1163,
-1456, -1055, -787, -587, -453, -319, -185, -51, 82, 216, 350, 551, 818, 1219,
-1104, -746, -507, -328, -208, -89, 30, 150, 269, 388, 508, 687, 926, 1284,
-1198, -770, -485, -271, -129, 14, 157, 299, 442, 584, 727, 941, 1226, 1654,
-944, -610, -387, -220, -109, 2, 114, 225, 336, 448, 559, 726, 949, 1283,
-1276, -881, -618, -420, -288, -157, -25, 107, 238, 370, 502, 699, 963, 1358,
-1407, -954, -651, -425, -274, -123, 28, 180, 331, 482, 633, 860, 1162, 1615,
-1750, -1172, -786, -497, -304, -111, 82, 274, 467, 660, 853, 1142, 1527, 2106,
-1301, -777, -428, -167, 8, 182, 357, 531, 706, 880, 1054, 1316, 1665, 2188,
-1290, -915, -665, -478, -353, -228, -103, 22, 146, 271, 396, 584, 834, 1208,
-1808, -1396, -1122, -916, -779, -642, -505, -368, -230, -93, 44, 250, 524, 935,
-1292, -868, -586, -374, -232, -91, 51, 192, 333, 475, 616, 828, 1111, 1535,
-1145, -795, -561, -386, -269, -153, -36, 81, 197, 314, 431, 606, 839, 1190,
-2362, -1816, -1451, -1178, -996, -814, -632, -450, -268, -86, 96, 369, 733, 1279,
-1210, -879, -658, -493, -382, -272, -162, -51, 59, 170, 280, 446, 666, 997,
-1036, -743, -548, -402, -304, -206, -109, -11, 86, 184, 281, 428, 623, 915,
-1162, -856, -652, -499, -397, -295, -193, -91, 11, 114, 216, 369, 573, 879,
-1810, -1397, -1122, -916, -779, -641, -504, -366, -229, -91, 46, 252, 527, 940,
-1393, -978, -702, -495, -357, -219, -81, 58, 196, 334, 472, 679, 955, 1370,
-1137, -698, -405, -185, -39, 107, 254, 400, 546, 693, 839, 1059, 1351, 1790,
-1065, -685, -433, -243, -117, 10, 136, 263, 389, 515, 642, 832, 1084, 1464,
-2767, -2120, -1688, -1365, -1149, -933, -718, -502, -286, -70, 145, 469, 900, 1547,
-1274, -835, -543, -324, -177, -31, 115, 262, 408, 554, 700, 920, 1212, 1651,
-1040, -700, -474, -304, -191, -78, 36, 149, 262, 375, 489, 658, 885, 1225,
-2099, -1638, -1330, -1100, -946, -792, -638, -484, -331, -177, -23, 208, 515, 976,
-1910, -1382, -1029, -764, -588, -412, -236, -59, 117, 293, 470, 734, 1087, 1616,
-1218, -825, -564, -367, -236, -105, 26, 157, 288, 419, 549, 746, 1008, 1401,
-877, -584, -388, -241, -144, -46, 52, 150, 248, 345, 443, 590, 785, 1079,
-2100, -1604, -1273, -1025, -860, -694, -529, -364, -198, -33, 132, 380, 711, 1207,
-1332, -780, -413, -137, 47, 231, 414, 598, 782, 966, 1150, 1425, 1793, 2344,
-1575, -1081, -751, -504, -340, -175, -10, 155, 320, 484, 649, 896, 1226, 1720,
-1092, -706, -449, -256, -127, 2, 130, 259, 387, 516, 645, 837, 1095, 1480,
-1353, -1011, -783, -611, -497, -383, -269, -155, -41, 73, 187, 358, 586, 928,
-1585, -996, -604, -309, -113, 83, 280, 476, 672, 868, 1064, 1359, 1751, 2340,
-1552, -1151, -883, -683, -549, -415, -281, -147, -14, 120, 254, 455, 722, 1124,
-1369, -947, -666, -455, -315, -174, -34, 107, 247, 388, 529, 739, 1020, 1442,
-904, -555, -323, -148, -32, 84, 200, 317, 433, 549, 665, 840, 1072, 1421,
-2050, -1546, -1210, -958, -791, -623, -455, -287, -119, 49, 217, 469, 805, 1309,
-1794, -1347, -1050, -827, -678, -529, -380, -232, -83, 66, 215, 438, 735, 1182,
-1527, -1157, -911, -727, -603, -480, -357, -234, -111, 12, 135, 320, 566, 935,
-1333, -891, -597, -377, -229, -82, 65, 212, 359, 506, 653, 874, 1168, 1609,
-1960, -1475, -1152, -910, -748, -586, -425, -263, -102, 60, 222, 464, 787, 1272,
-1726, -1357, -1110, -926, -803, -680, -557, -434, -311, -187, -64, 120, 366, 736,
-1085, -685, -419, -219, -85, 48, 181, 315, 448, 581, 714, 914, 1181, 1581,
-1300, -877, -594, -383, -242, -101, 40, 181, 322, 463, 604, 816, 1098, 1521,
-1214, -696, -351, -92, 80, 253, 425, 598, 770, 943, 1115, 1374, 1719, 2236,
-1174, -715, -410, -181, -28, 125, 278, 430, 583, 736, 889, 1118, 1424, 1882,
-849, -475, -227, -40, 84, 209, 333, 458, 582, 706, 831, 1017, 1266, 1639,
-1196, -799, -535, -337, -204, -72, 60, 192, 325, 457, 589, 788, 1052, 1449,
-1684, -1217, -907, -674, -518, -363, -208, -52, 103, 258, 414, 647, 957, 1424,
-1557, -1142, -866, -659, -521, -382, -244, -106, 32, 170, 308, 516, 792, 1207,
-1229, -826, -557, -355, -221, -87, 48, 182, 317, 451, 586, 787, 1056, 1459,
-1384, -996, -737, -543, -414, -284, -155, -25, 104, 234, 363, 557, 816, 1205,
-727, -442, -252, -110, -15, 80, 175, 269, 364, 459, 554, 696, 886, 1171,
-1410, -875, -518, -251, -72, 106, 285, 463, 641, 820, 998, 1266, 1623, 2158,
-1860, -1371, -1045, -801, -638, -475, -312, -150, 13, 176, 339, 583, 909, 1397,
-1249, -906, -677, -505, -390, -276, -161, -47, 67, 182, 296, 468, 697, 1040,
-1388, -1037, -803, -628, -511, -394, -277, -160, -43, 74, 191, 366, 600, 951,
-1415, -1110, -906, -753, -651, -550, -448, -346, -244, -142, -40, 112, 316, 622,
};

static uint64_t backbone_model2_conv2_conv2_weight[64 * 9] =
{ // torch.Size([64, 3, 3, 1])
0xc, 0x4, 0x5, 0x1, 0xf, 0xf, 0x5, 0x6, 0x6,
0xe, 0xe, 0x4, 0xf, 0x6, 0x7, 0x7, 0x7, 0x4,
0x4, 0xd, 0xd, 0xb, 0xf, 0xf, 0xa, 0xe, 0xf,
0x3, 0xb, 0x4, 0x3, 0x6, 0x7, 0xe, 0x5, 0x7,
0x6, 0xe, 0xd, 0xf, 0xe, 0x7, 0x4, 0x6, 0xc,
0xd, 0xc, 0x7, 0xe, 0x4, 0x6, 0xf, 0xd, 0x7,
0x6, 0x6, 0x4, 0x6, 0x5, 0xe, 0x6, 0xf, 0xe,
0x1, 0xc, 0xc, 0xe, 0xe, 0xb, 0xe, 0xf, 0xe,
0x5, 0x5, 0x4, 0xe, 0xf, 0xd, 0xd, 0xe, 0x4,
0xe, 0xd, 0x6, 0x6, 0xe, 0xd, 0x7, 0xe, 0xf,
0xe, 0x6, 0x7, 0xf, 0x5, 0x6, 0xf, 0xe, 0x6,
0xe, 0xe, 0xf, 0xc, 0x9, 0xd, 0xa, 0xd, 0x9,
0xf, 0xd, 0x7, 0xf, 0xb, 0x6, 0xf, 0xa, 0x7,
0x4, 0x6, 0x5, 0xe, 0xc, 0x6, 0xa, 0xf, 0xe,
0x9, 0xf, 0xe, 0x6, 0x6, 0x2, 0x5, 0x6, 0x7,
0xf, 0xa, 0x7, 0xe, 0x7, 0x5, 0x7, 0x7, 0xf,
0xb, 0xf, 0xe, 0x7, 0x3, 0xf, 0x7, 0x7, 0x4,
0x7, 0x6, 0x6, 0xe, 0xe, 0xe, 0x6, 0x6, 0x6,
0x7, 0x5, 0x4, 0x6, 0x3, 0xe, 0x5, 0xc, 0xe,
0x2, 0xc, 0x4, 0xe, 0xe, 0x5, 0x4, 0xf, 0x3,
0xd, 0xe, 0xc, 0xd, 0xe, 0xf, 0xc, 0xd, 0xd,
0xe, 0xd, 0x6, 0x5, 0x6, 0x7, 0x6, 0x6, 0xe,
0xd, 0xe, 0xd, 0xb, 0xe, 0xf, 0xf, 0xe, 0xf,
0xf, 0xe, 0x6, 0xe, 0xf, 0x5, 0xf, 0xe, 0xe,
0xd, 0xc, 0xd, 0xf, 0xf, 0xf, 0x6, 0x4, 0xe,
0xd, 0xc, 0x3, 0xf, 0xd, 0x4, 0xf, 0x4, 0xb,
0x5, 0x5, 0x5, 0x7, 0x6, 0x6, 0x7, 0x6, 0x6,
0xe, 0xf, 0xf, 0xb, 0x6, 0x7, 0x6, 0x5, 0x6,
0xd, 0xd, 0x5, 0xf, 0x6, 0x3, 0xd, 0x6, 0xd,
0x6, 0x6, 0x6, 0x6, 0x6, 0x7, 0x0, 0x5, 0xc,
0x7, 0x6, 0x6, 0xc, 0x4, 0x6, 0xd, 0xc, 0xb,
0x5, 0x4, 0xe, 0x6, 0x4, 0xf, 0x6, 0xd, 0xf,
0x6, 0xd, 0xe, 0xe, 0xd, 0xd, 0x7, 0x6, 0x5,
0xd, 0x6, 0x4, 0x7, 0x7, 0x5, 0x6, 0x5, 0xc,
0x5, 0xc, 0xb, 0x5, 0xe, 0xd, 0x4, 0xf, 0xe,
0xe, 0xd, 0xd, 0xf, 0xe, 0xf, 0x2, 0xd, 0x6,
0xe, 0xe, 0xe, 0xe, 0xf, 0x9, 0xe, 0xe, 0xc,
0x6, 0x7, 0x6, 0x5, 0x6, 0x5, 0x5, 0x4, 0xf,
0xd, 0xe, 0xd, 0x4, 0xf, 0xd, 0x4, 0xe, 0xb,
0xa, 0xa, 0x3, 0x4, 0x7, 0x7, 0x5, 0x7, 0x6,
0x6, 0x5, 0xe, 0x6, 0x5, 0xe, 0x6, 0x5, 0xf,
0x5, 0xe, 0xf, 0xe, 0xe, 0xd, 0xd, 0xe, 0xb,
0x6, 0x5, 0x3, 0x6, 0x7, 0x7, 0xc, 0xd, 0xd,
0x2, 0xe, 0xd, 0x7, 0x6, 0x4, 0x5, 0x7, 0x6,
0x1, 0x5, 0xc, 0xe, 0x7, 0x5, 0xe, 0x3, 0x7,
0x5, 0xe, 0x2, 0x5, 0xf, 0x6, 0xd, 0xf, 0x5,
0x5, 0x3, 0x7, 0x3, 0x6, 0x6, 0x7, 0x7, 0xe,
0xd, 0x7, 0xb, 0xe, 0x7, 0xe, 0x5, 0x6, 0xf,
0x4, 0xe, 0xc, 0x6, 0xd, 0xe, 0x5, 0x6, 0xf,
0x4, 0xe, 0xe, 0x5, 0xf, 0xf, 0x5, 0xe, 0xf,
0xd, 0x5, 0x5, 0xc, 0x5, 0x6, 0xf, 0xf, 0xe,
0xc, 0xa, 0xd, 0x3, 0xe, 0xe, 0xd, 0xf, 0xe,
0xd, 0xe, 0xd, 0xf, 0xe, 0xb, 0xf, 0xd, 0x5,
0xf, 0xe, 0xe, 0xd, 0xd, 0x4, 0x7, 0x6, 0x6,
0xd, 0xe, 0xf, 0x7, 0x6, 0x6, 0x3, 0x5, 0x9,
0xc, 0x2, 0x4, 0x5, 0x6, 0x7, 0x6, 0x6, 0x3,
0xe, 0xd, 0xc, 0xe, 0xe, 0xd, 0xe, 0xe, 0xf,
0x6, 0x7, 0x6, 0x1, 0x4, 0x7, 0xc, 0x2, 0x6,
0x6, 0x6, 0xd, 0x5, 0xc, 0xf, 0xe, 0xf, 0xe,
0xc, 0xe, 0xe, 0x5, 0xf, 0xf, 0x6, 0xf, 0xe,
0x5, 0x6, 0xd, 0xc, 0x7, 0x1, 0xd, 0x6, 0x4,
0x6, 0x6, 0x0, 0xe, 0x6, 0x4, 0xf, 0x5, 0x7,
0x5, 0xc, 0x0, 0x7, 0x7, 0x5, 0x7, 0x7, 0x6,
0x5, 0xd, 0xf, 0x6, 0x6, 0xd, 0x5, 0x6, 0x4,
};

static int backbone_model2_conv2_relu2_threshold[64 * 7] =
{ // torch.Size([64, 7])
154, 307, 460, 613, 842, 1148, 1607,
219, 419, 618, 818, 1117, 1516, 2114,
167, 360, 553, 746, 1035, 1421, 1999,
65, 212, 359, 506, 727, 1021, 1463,
123, 259, 395, 530, 734, 1005, 1412,
176, 348, 520, 692, 951, 1295, 1811,
93, 224, 355, 486, 682, 944, 1337,
168, 354, 539, 724, 1002, 1373, 1928,
127, 215, 303, 392, 524, 701, 965,
193, 339, 484, 630, 848, 1139, 1576,
199, 371, 543, 715, 974, 1318, 1835,
34, 196, 357, 518, 759, 1082, 1565,
194, 376, 558, 740, 1013, 1376, 1922,
83, 175, 267, 360, 498, 683, 959,
120, 262, 405, 547, 760, 1044, 1471,
293, 485, 677, 870, 1158, 1543, 2120,
148, 332, 516, 701, 977, 1345, 1897,
127, 313, 499, 685, 965, 1337, 1895,
106, 214, 322, 430, 592, 808, 1132,
72, 169, 265, 362, 507, 700, 990,
130, 254, 378, 502, 688, 936, 1309,
99, 239, 378, 518, 727, 1006, 1425,
290, 537, 785, 1032, 1403, 1898, 2640,
259, 501, 743, 985, 1348, 1832, 2558,
70, 235, 400, 566, 813, 1144, 1639,
124, 271, 418, 565, 785, 1078, 1519,
79, 272, 466, 659, 949, 1336, 1917,
240, 438, 635, 833, 1130, 1525, 2118,
82, 204, 325, 447, 629, 873, 1238,
114, 290, 465, 641, 905, 1256, 1784,
66, 175, 284, 394, 558, 777, 1105,
139, 265, 392, 519, 709, 962, 1342,
143, 279, 414, 549, 753, 1023, 1430,
11, 161, 311, 461, 685, 985, 1434,
55, 164, 273, 381, 545, 762, 1088,
129, 298, 467, 636, 889, 1226, 1732,
70, 242, 414, 585, 843, 1186, 1701,
120, 259, 397, 535, 742, 1019, 1433,
70, 197, 323, 450, 639, 892, 1271,
124, 309, 494, 679, 957, 1327, 1882,
142, 253, 363, 473, 639, 860, 1191,
117, 279, 440, 602, 844, 1167, 1651,
196, 354, 512, 669, 906, 1222, 1695,
151, 297, 443, 589, 809, 1101, 1540,
112, 231, 349, 467, 645, 882, 1237,
198, 348, 497, 647, 872, 1172, 1621,
51, 235, 420, 604, 881, 1250, 1803,
173, 327, 481, 635, 866, 1175, 1637,
95, 212, 330, 447, 623, 858, 1210,
222, 419, 615, 812, 1106, 1499, 2088,
118, 237, 356, 475, 654, 892, 1249,
66, 215, 364, 514, 737, 1035, 1483,
86, 287, 487, 687, 987, 1387, 1987,
236, 407, 578, 749, 1005, 1346, 1859,
177, 306, 435, 563, 756, 1014, 1400,
71, 222, 372, 522, 748, 1048, 1499,
56, 208, 359, 511, 738, 1042, 1497,
101, 302, 504, 705, 1007, 1410, 2014,
240, 422, 605, 788, 1062, 1427, 1975,
124, 338, 552, 766, 1087, 1515, 2157,
59, 174, 290, 405, 578, 809, 1156,
130, 258, 385, 513, 704, 959, 1341,
239, 468, 697, 926, 1270, 1728, 2416,
178, 291, 403, 516, 686, 911, 1250,
};

static uint64_t backbone_model3_conv1_conv1_weight[64 * 1*4] =
{ // torch.Size([64, 1, 1, 64])
0xd45c2f30ddec55ec,0xc953eeddecd5ee5d,0xca5de59d654553e5,0xddc6ee05db1bd3ce,
0x1c76b23d44cdcde6,0x4466ddc7d446357d,0x64c3c45da5d335eb,0x5b55db6c5664446e,
0xb7de1ddbc30cc9ae,0xddce29ddcbed555d,0x5a6f95b6453dd95c,0xddd46de46eefdde5,
0x65564d5a445c3c24,0x4e04e4cee66fedac,0x365dedbe4a564cb6,0xd256db5d444d63f9,
0xac652eeedabdc5d4,0x5e64c1e7acd3e26e,0x744bdbcd54e4bcb5,0x3c56b5621d9e55ac,
0xe54254c5ded5b5be,0x5c6f5dc655d4566e,0x6cc3d64d56fb1642,0x4ee76cdb546eed3d,
0x5ed5664c3de65c55,0x5646ec6c4776e4cc,0x4dd6be7eddee6d54,0x655bd57de644dd6c,
0x44db3d66dda65c69,0xb4dbcbce46475cd5,0xdca4aba5945dc3cb,0x4dd15530cdc5b473,
0x64545de2dddc55c4,0xd1544ce5551bd43e,0x66cfe6c276d665e1,0xdda4bb6d9d5fdbee,
0x6d5cd444e5dcdfed,0xdc466f525ffde55e,0xaccc650f2d24ed0e,0xa54cdd6dee2c055e,
0x34dccceea6dde63e,0xcc3454e465d3bdde,0xee5ddccc4de4425c,0xcc7c54d64eded6e6,
0x5bdc7546dee5cbdc,0x653a5b553464eadd,0xa5eb92d15ac5dcd3,0x2d56e54e90455c43,
0x33b42cabd4ded656,0x03d554dc5b555cd3,0xc5dcbedd54d75145,0x9d6c5565d3ad55c0,
0xea326cd5d5bc3bcc,0xdd3a6ded5423d3d2,0xd7da3bdbbbdc3cbd,0xde35fedb5d44c4dc,
0x465ddc4d22b4adeb,0xae4c4ae3ddcd5d44,0x6dc9404d554adc46,0xd544195f535bc362,
0x5444e534c34e4656,0x5e6553d6519f5eb6,0x5b7766de3d655656,0x44b5656d45665756,
0x455ad5b5dcdc4e56,0xc4d55ea54efde55e,0x6ba4c4bd66d656d5,0xaddd5654ed4d5395,
0xbc6c5db4ed534443,0x43d3e454052ce46d,0x35daeeeacdadcdee,0x5bd4c4b5fca4abe1,
0xecedb754fe0574d4,0xd7dec465ec62c665,0x661b15d7eb6d4c2a,0x53edefd425e42cbe,
0xd6e5de454ddedcdd,0xcaccdddedde1ddd2,0xdb5dd65b56d56544,0xe5d35c5e5dfe4faa,
0x33534ecbc5ceb646,0x4d6341e5544d6e47,0xcc416cfd4e54b255,0xee5665a5bd5a0645,
0xfae556d7e7c66fdc,0x55cedf6de556646e,0x54556d6f46653b55,0x6d5fdbd66669e56e,
0x5dc7ce4d6dde5446,0xdee4add42dddd65e,0xd4ded4cdc3e46dd6,0xdc353d6dceae53fa,
0xdd665ee55dd63fe9,0x5666cdb6d5d6c57e,0x7e97dd4ec45c3ce5,0x5b36ed6e2657de6e,
0x56f936564dd20dc5,0x35e5e26bc556d5dd,0xd54c9b3345e5435d,0x54bdc44d53db5c45,
0x5d66164e7653e636,0x656466d66d6e6ec6,0x5be67edcddac4d65,0x9575675dd656c556,
0xe6ec5e56deeec92d,0xe6e3ee5ee567d3ee,0xe3dee6d494e64cbc,0xeeeefee36cfd6cce,
0xcd56c64d5a567cd2,0xad5d15c6e45b5044,0x65dc2bc5bc6c2344,0xdb3db9bd66bb5d94,
0x6364d56cd4459ce6,0xdbc7d405eeeccde3,0x55ddc65d994bc5d6,0x36addc5ecbdc3e55,
0x5de6b5ee4ddb6cd6,0x35e5dfed3253d7a5,0x27d5b5c5ee4571de,0xcdb6e5596bc47e4b,
0x5b46c44d5de555d7,0x54c5eecdc454d4c6,0xd535d56bdecb6356,0x64a5ce66dcdb5355,
0x6f555feded9466ec,0x4c5acdd5befee37e,0x64ebf7cd57dce2ed,0x3ea3deccec4e42ee,
0x624db606d595cf5b,0xa9c59d444bd5d4bd,0xdcd25cbedd43dbcc,0x365d2d35dc1cc59d,
0xdee54d655ed596cd,0x5ceadb4c246ded5c,0x25cea0eede445de4,0x3656fe5622bda65d,
0xec5ccbb6e4d6ebce,0x54b66e4c55d4de63,0x5f0d5ecc5dd60d57,0x4e65de60654cf63d,
0x534ee6c42625fded,0xe0b665dd2dcd7fdd,0x5d2b639b5dd7d035,0x325e640d5314d66d,
0xdedbc524c55d555c,0xed3c7bed535d5219,0x06dc6ed6ddccc46c,0xdf6e3cd641dc9746,
0x5ec67be44de26661,0x666cfbb67636c55e,0x5cc3cdbd55de634d,0x5dd646c5e65b4cdd,
0xb6d4f556666dcc6d,0xbec4b64ee2356ee6,0xcd6c6435d555e36b,0xb76a75e472e54566,
0x2c4c1b5ccd36bde0,0xdab3356ce3c45cd2,0x45b2a6545524c510,0xd4a3db4f43c45d6b,
0x7cc17dbd4dcaad66,0x5ac6c4c15d2ee23d,0xbbc4d44e5ccddbcc,0xd544e64edc6d53ec,
0xe5e4445bd52c6d6e,0x945e1d5d65eb15ec,0x7d364e4464ccc676,0x5bfe666c64d4ef56,
0x6d5136e14f15eee4,0xb6c56666dee2d655,0x6ed4edd5dddfee9d,0xdc3bc5cf32564d65,
0x61a6ba46a3cd5666,0x6b746a566e5f5b45,0x646776cdce665766,0x5455466666675666,
0x6f4566a36dcdd656,0x6d76d20562b35e51,0x3cf56e2e9e6ede5d,0x45567765f167d655,
0xa56e4e656c5bdc4f,0xcb5db5de4b4ccfde,0xdc62456e55cce5cd,0xc53556ee4542d6cb,
0xb0ee54d5dc4a63ee,0xd6ccd305d556e56b,0x765beedc4c5645e2,0x0b6cfd47c6ede74e,
0x6c664a0eb17666ab,0x3d4dd641f0cc4462,0x6c6da635ec4eb5b5,0xc5e4dda6665d9c32,
0x4cd4cddb7d553ebe,0xd4bc5dbed6d15ddd,0xeeeeccb6ddec2d6e,0xdcdd6ebe73d5ef23,
0xd3db7cd5ede62555,0x664ccc535506e63b,0x6e65d55dc3dec2e0,0x50d4e434d16bed6d,
0xdddde55662dd566d,0xebda66dc656c51ee,0xd1eb34e7eeb76a29,0xc04e6c645459c6d7,
0xdc452adf544d9055,0xc24c35d54eedc460,0x5e440c05abcda93b,0xc1c3c334421b3dd2,
0xed6eeecb377d5d6e,0xdd5d65ee344e6e56,0xdd63c13add7f565b,0xedbc5ee5e4d516bd,
0xd2bd44d5eba6bd5d,0x6c6fbe16c5354566,0x5c456332d34fd45d,0x4ee544ddd565cd79,
0x7ddee7b5465bd55d,0xe6ed464e665345d6,0xfc976ed5eec4ce75,0x555d5dd53dd73716,
0xbc504e6c634c5b55,0x55d5e56eda7db4d4,0xd536e525cd565e45,0xc55cdc6f65756bdc,
0x46de4065d555355a,0x6edec55f5c7ddbd7,0xb5500440ce75cb64,0x4425dddadd53b646,
0xe3c3525305b45b5c,0x535ecbb5c46245d9,0x36465404c55d3554,0x01f452dcc5145c55,
0x5d24d6bde56c553d,0x3e11323c2dddc644,0x34dbdcbd942dbd53,0x54b3edd7ddab4ddc,
0xad465e4e59bd4954,0x4566fcd6d45bcd0c,0x44d4d5bd67c564e6,0xdd55566ec5455dde,
0xce2756ecdbd5ade6,0x71655d64dee9d545,0xccdccb72d4cddc0d,0x7c66e5e2d653cf5d,
0x24633e0e5febd445,0x6c634bb76bade46f,0x6a65e60d64ccd5d9,0x4d55d6d3eb66b53c,
0x6dc665eeddced405,0x6455e0565cebe64a,0x6f44356cd6ee4440,0x7535cb37e454dda9,
0xe4de6556dfd76dae,0xc5de4d5d6646444d,0x9d27e1e435c2d6db,0x5ffc0ed5c537c66e,
};

static int backbone_model3_conv1_quant1_threshold[64 * 14] =
{ // torch.Size([64, 14])
-2960, -2246, -1770, -1412, -1174, -936, -698, -460, -222, 16, 254, 612, 1088, 1802,
-1182, -633, -266, 8, 191, 375, 558, 741, 924, 1107, 1290, 1565, 1932, 2481,
-2560, -1971, -1579, -1284, -1088, -892, -696, -499, -303, -107, 89, 384, 776, 1365,
-2016, -1440, -1057, -769, -577, -385, -193, -1, 191, 383, 574, 862, 1246, 1822,
-1918, -1350, -971, -687, -498, -308, -119, 70, 260, 449, 638, 923, 1301, 1869,
-1652, -1157, -827, -579, -414, -249, -84, 81, 246, 411, 576, 823, 1153, 1648,
-1675, -1017, -579, -250, -30, 189, 408, 627, 847, 1066, 1285, 1614, 2053, 2710,
-1104, -678, -394, -182, -40, 102, 244, 386, 528, 670, 812, 1025, 1309, 1735,
-2083, -1510, -1127, -841, -649, -458, -267, -76, 115, 307, 498, 785, 1167, 1741,
-3488, -2672, -2128, -1721, -1449, -1177, -905, -633, -361, -89, 182, 590, 1134, 1950,
-2222, -1684, -1325, -1055, -876, -696, -516, -337, -157, 22, 202, 471, 830, 1369,
-1236, -834, -566, -365, -231, -97, 37, 171, 305, 439, 572, 773, 1041, 1443,
-1275, -823, -522, -297, -146, 4, 155, 305, 456, 606, 757, 982, 1283, 1735,
-1909, -1448, -1141, -911, -758, -604, -451, -297, -144, 10, 163, 394, 700, 1161,
-1527, -1087, -794, -573, -427, -280, -133, 14, 160, 307, 454, 674, 968, 1408,
-1827, -983, -420, 2, 283, 564, 846, 1127, 1408, 1690, 1971, 2393, 2956, 3800,
-1473, -1015, -710, -482, -329, -177, -25, 128, 280, 433, 585, 814, 1119, 1576,
-2028, -1551, -1233, -994, -835, -676, -517, -358, -199, -40, 120, 358, 676, 1154,
-2107, -1439, -994, -660, -437, -215, 8, 231, 453, 676, 899, 1232, 1678, 2346,
-2884, -2228, -1791, -1463, -1244, -1025, -806, -588, -369, -150, 68, 397, 834, 1490,
-1414, -909, -572, -319, -150, 18, 187, 356, 524, 693, 861, 1114, 1451, 1957,
-1555, -953, -551, -250, -49, 151, 352, 553, 754, 954, 1155, 1456, 1858, 2460,
-2474, -1876, -1477, -1178, -978, -779, -579, -380, -180, 19, 219, 518, 917, 1515,
-1994, -1285, -813, -458, -222, 14, 251, 487, 723, 960, 1196, 1551, 2023, 2732,
-1121, -733, -475, -281, -152, -22, 107, 236, 365, 494, 623, 817, 1076, 1463,
-2049, -1091, -452, 27, 347, 666, 986, 1305, 1624, 1944, 2263, 2743, 3382, 4340,
-3911, -3008, -2405, -1954, -1653, -1351, -1050, -749, -448, -147, 154, 606, 1208, 2111,
-939, -510, -224, -10, 133, 276, 419, 562, 705, 848, 991, 1205, 1491, 1920,
-1596, -1111, -788, -546, -385, -223, -62, 100, 261, 423, 584, 826, 1149, 1634,
-1765, -1143, -729, -418, -211, -4, 203, 410, 618, 825, 1032, 1343, 1757, 2378,
-954, -510, -213, 9, 157, 305, 453, 601, 749, 897, 1046, 1268, 1564, 2008,
-3791, -2871, -2257, -1797, -1491, -1184, -877, -571, -264, 43, 349, 809, 1423, 2343,
-1193, -879, -670, -513, -408, -304, -199, -94, 10, 115, 219, 376, 586, 899,
-1844, -1359, -1035, -792, -630, -468, -306, -144, 18, 179, 341, 584, 908, 1394,
-1871, -1314, -943, -664, -478, -293, -107, 79, 264, 450, 636, 914, 1285, 1842,
-2179, -1537, -1110, -789, -575, -362, -148, 66, 280, 493, 707, 1028, 1455, 2097,
-2069, -1477, -1083, -787, -589, -392, -195, 2, 200, 397, 594, 890, 1285, 1877,
-1955, -1257, -792, -443, -210, 22, 255, 487, 720, 953, 1185, 1534, 1999, 2697,
-2182, -1339, -777, -356, -75, 206, 487, 768, 1049, 1330, 1611, 2032, 2594, 3437,
-1232, -833, -567, -367, -234, -101, 33, 166, 299, 432, 565, 765, 1031, 1431,
-1808, -1320, -995, -751, -589, -426, -264, -101, 62, 224, 387, 631, 956, 1444,
-1917, -1315, -914, -614, -413, -213, -13, 188, 388, 589, 789, 1090, 1491, 2092,
-1947, -1421, -1071, -808, -633, -458, -282, -107, 68, 243, 418, 681, 1032, 1557,
-1502, -541, 99, 580, 900, 1220, 1541, 1861, 2181, 2501, 2822, 3302, 3943, 4903,
-2042, -1240, -706, -305, -37, 230, 497, 765, 1032, 1299, 1567, 1968, 2503, 3305,
-1711, -1265, -968, -744, -596, -447, -298, -150, -1, 148, 296, 519, 817, 1263,
-2079, -1408, -962, -627, -403, -180, 44, 267, 490, 714, 937, 1272, 1719, 2389,
-1025, -601, -319, -107, 35, 176, 317, 459, 600, 741, 882, 1094, 1377, 1801,
-2512, -1951, -1576, -1296, -1108, -921, -734, -547, -360, -173, 15, 295, 670, 1231,
-1651, -1095, -724, -445, -260, -74, 111, 297, 482, 668, 853, 1131, 1502, 2059,
-2232, -1495, -1003, -635, -389, -143, 103, 348, 594, 840, 1086, 1454, 1946, 2683,
-1348, -1002, -772, -599, -484, -368, -253, -138, -23, 93, 208, 381, 611, 957,
-2412, -1732, -1278, -938, -711, -485, -258, -31, 196, 423, 649, 990, 1443, 2124,
-1788, -1203, -813, -521, -326, -131, 64, 259, 454, 649, 844, 1137, 1526, 2111,
-2443, -1600, -1038, -616, -335, -53, 228, 509, 790, 1071, 1352, 1774, 2337, 3180,
-1289, -761, -409, -146, 30, 206, 382, 558, 733, 909, 1085, 1349, 1701, 2228,
-1584, -990, -594, -297, -100, 98, 296, 494, 692, 890, 1088, 1385, 1781, 2375,
-984, -585, -319, -119, 14, 147, 280, 413, 546, 679, 812, 1012, 1278, 1678,
-1471, -1098, -850, -664, -539, -415, -291, -166, -42, 82, 206, 393, 641, 1014,
-1660, -1072, -680, -386, -190, 6, 202, 398, 594, 790, 986, 1280, 1672, 2260,
-2141, -1453, -994, -649, -420, -191, 39, 268, 498, 727, 957, 1301, 1760, 2448,
-1796, -1200, -803, -504, -306, -107, 92, 290, 489, 688, 887, 1185, 1582, 2178,
-1960, -1311, -878, -553, -337, -120, 96, 313, 529, 745, 962, 1287, 1720, 2369,
-2246, -1537, -1064, -709, -473, -236, 0, 237, 473, 710, 946, 1301, 1774, 2483,
};

static uint64_t backbone_model3_conv1_conv2_weight[64 * 9] =
{ // torch.Size([64, 3, 3, 1])
0x6, 0xe, 0xd, 0x5, 0xf, 0xe, 0x6, 0x4, 0xd,
0x2, 0xf, 0xd, 0xe, 0xf, 0x4, 0xb, 0x4, 0x6,
0x7, 0x6, 0xc, 0x6, 0x7, 0xc, 0xb, 0x5, 0xe,
0xe, 0xf, 0xd, 0xe, 0xe, 0x5, 0x4, 0x5, 0x6,
0xd, 0xe, 0xf, 0xe, 0xe, 0xd, 0x6, 0x7, 0x6,
0xe, 0x0, 0xc, 0x5, 0x6, 0x5, 0x6, 0x7, 0x6,
0xd, 0x6, 0xb, 0x4, 0x7, 0xb, 0x6, 0x6, 0xd,
0xe, 0x4, 0x9, 0xa, 0x9, 0x0, 0x7, 0xc, 0xa,
0xd, 0x4, 0xc, 0x1, 0x6, 0x4, 0x6, 0x7, 0x6,
0x2, 0xf, 0x3, 0x4, 0x6, 0x5, 0xb, 0x5, 0xb,
0x6, 0xd, 0x5, 0x5, 0x5, 0xd, 0x6, 0x7, 0x4,
0x2, 0x5, 0x6, 0x7, 0x9, 0x5, 0x4, 0xf, 0xe,
0x5, 0xd, 0xe, 0xc, 0xd, 0x6, 0xe, 0x6, 0x7,
0x6, 0x7, 0x6, 0xe, 0xd, 0xe, 0xd, 0xf, 0xf,
0x5, 0x7, 0x4, 0xe, 0xe, 0x6, 0x5, 0xe, 0x7,
0xf, 0xe, 0xd, 0xf, 0xe, 0xe, 0xd, 0x5, 0x6,
0xe, 0x6, 0x5, 0xf, 0xc, 0xe, 0xc, 0x5, 0x2,
0x5, 0x6, 0x5, 0x5, 0x3, 0xb, 0xc, 0xf, 0xc,
0xf, 0x5, 0x5, 0xe, 0x4, 0x4, 0xb, 0x7, 0x4,
0xa, 0xf, 0xd, 0x5, 0xe, 0xd, 0xc, 0x4, 0x2,
0xf, 0xf, 0x6, 0xe, 0xf, 0x6, 0xf, 0xf, 0x7,
0xe, 0xf, 0x6, 0xe, 0x6, 0x6, 0xe, 0xa, 0xd,
0x6, 0x6, 0xe, 0x6, 0x7, 0x5, 0x4, 0x6, 0x3,
0x4, 0xd, 0x5, 0xc, 0xf, 0xe, 0x5, 0xc, 0xb,
0xb, 0x6, 0x5, 0xf, 0xf, 0xd, 0xe, 0xe, 0x5,
0x6, 0x4, 0xd, 0x7, 0x6, 0xd, 0xa, 0x5, 0xd,
0x6, 0x3, 0xd, 0x5, 0xe, 0xd, 0x5, 0xf, 0xe,
0x5, 0x6, 0x7, 0x5, 0x5, 0x6, 0xe, 0xe, 0xe,
0x4, 0xe, 0xd, 0x6, 0xd, 0xd, 0x3, 0x7, 0x4,
0xe, 0x7, 0x7, 0xe, 0x6, 0x6, 0xe, 0xe, 0xb,
0x4, 0x4, 0xd, 0xd, 0x7, 0xd, 0x5, 0x5, 0x5,
0x6, 0x7, 0x5, 0x6, 0x6, 0x6, 0xd, 0xf, 0xe,
0x4, 0x4, 0x9, 0xe, 0xe, 0xb, 0x5, 0x7, 0xd,
0x7, 0x2, 0xe, 0x6, 0x6, 0xd, 0x5, 0x6, 0xd,
0x3, 0x6, 0xb, 0xf, 0x6, 0x7, 0xe, 0xe, 0x6,
0x5, 0x7, 0x5, 0xc, 0x5, 0x6, 0xf, 0xe, 0xe,
0x5, 0x4, 0xb, 0x7, 0x4, 0xc, 0x6, 0xe, 0xd,
0xe, 0xc, 0xb, 0xd, 0x6, 0x5, 0xc, 0x7, 0x6,
0xe, 0xc, 0x6, 0xe, 0xe, 0x7, 0xd, 0xe, 0x6,
0xd, 0xf, 0x3, 0x5, 0x5, 0x5, 0x5, 0x2, 0x5,
0x5, 0x6, 0xd, 0xe, 0x7, 0xa, 0xf, 0x4, 0x3,
0xc, 0x5, 0x5, 0xd, 0x4, 0x5, 0xf, 0xe, 0x6,
0x4, 0xe, 0x2, 0x5, 0xd, 0xd, 0x4, 0x7, 0x7,
0xe, 0xe, 0x5, 0xf, 0xe, 0xe, 0xf, 0x5, 0xd,
0xf, 0x5, 0x6, 0xe, 0xd, 0x6, 0xd, 0xe, 0x5,
0x5, 0xe, 0x9, 0x6, 0xf, 0x4, 0x4, 0xe, 0x4,
0xe, 0xa, 0x5, 0xf, 0x5, 0x6, 0xf, 0x5, 0x7,
0x7, 0x6, 0x6, 0xd, 0xd, 0xe, 0xe, 0xe, 0xc,
0x6, 0x3, 0x6, 0x7, 0x0, 0xe, 0xa, 0x7, 0xd,
0xe, 0xf, 0x0, 0xd, 0xd, 0x5, 0xe, 0x5, 0x2,
0x6, 0xd, 0xd, 0x7, 0xe, 0xe, 0x5, 0xe, 0x1,
0xf, 0xe, 0x3, 0x9, 0x5, 0x6, 0x5, 0x6, 0x5,
0x4, 0x3, 0xc, 0xa, 0xd, 0x0, 0x7, 0x7, 0x4,
0x5, 0x5, 0xd, 0x4, 0xf, 0xf, 0xf, 0xe, 0xb,
0x6, 0xa, 0xc, 0x7, 0xd, 0x6, 0x6, 0xa, 0x3,
0xd, 0xe, 0x3, 0xe, 0x5, 0x7, 0xd, 0x6, 0xd,
0xd, 0xb, 0x7, 0xd, 0x4, 0x6, 0x6, 0x6, 0xb,
0xe, 0xf, 0xd, 0x5, 0xe, 0xd, 0x6, 0x6, 0xb,
0x9, 0xd, 0x4, 0xf, 0xd, 0x3, 0xb, 0x7, 0xc,
0xe, 0xe, 0xc, 0xd, 0xd, 0x5, 0x6, 0x7, 0x7,
0xd, 0x7, 0xf, 0x5, 0x6, 0xe, 0x5, 0x0, 0xd,
0xd, 0xe, 0xe, 0x6, 0xd, 0xa, 0x5, 0xf, 0xf,
0x6, 0x7, 0x6, 0x9, 0x6, 0xa, 0xe, 0xe, 0x4,
0x5, 0x4, 0xc, 0x7, 0x6, 0xd, 0x3, 0x4, 0x5,
};

static int backbone_model3_conv1_relu2_threshold[64 * 7] =
{ // torch.Size([64, 7])
110, 242, 374, 507, 705, 970, 1367,
41, 162, 283, 404, 585, 827, 1189,
30, 150, 270, 390, 569, 809, 1169,
59, 173, 288, 402, 574, 802, 1145,
149, 273, 397, 521, 707, 956, 1328,
65, 184, 304, 423, 602, 841, 1199,
54, 173, 292, 411, 590, 829, 1187,
35, 93, 152, 210, 297, 413, 588,
92, 206, 319, 433, 603, 829, 1170,
33, 84, 134, 185, 261, 363, 515,
56, 166, 277, 387, 553, 774, 1105,
163, 267, 372, 477, 634, 844, 1159,
33, 119, 205, 291, 420, 592, 850,
122, 276, 430, 584, 815, 1122, 1584,
-13, 101, 216, 330, 501, 730, 1072,
153, 358, 563, 768, 1076, 1486, 2101,
99, 184, 269, 353, 481, 650, 904,
35, 118, 202, 285, 411, 578, 829,
83, 165, 247, 329, 452, 616, 861,
11, 103, 196, 288, 427, 612, 890,
179, 397, 616, 835, 1163, 1601, 2257,
56, 178, 299, 421, 603, 846, 1211,
63, 208, 353, 498, 715, 1005, 1439,
8, 91, 173, 256, 380, 545, 793,
184, 338, 493, 647, 879, 1188, 1651,
134, 272, 409, 546, 752, 1026, 1438,
156, 271, 385, 500, 672, 901, 1244,
75, 192, 310, 427, 603, 838, 1190,
48, 134, 220, 306, 436, 608, 867,
156, 279, 402, 526, 710, 956, 1326,
45, 134, 224, 314, 448, 627, 896,
78, 210, 342, 474, 671, 935, 1331,
71, 162, 254, 345, 483, 665, 940,
41, 152, 263, 373, 539, 761, 1093,
86, 202, 318, 434, 608, 840, 1188,
123, 248, 374, 500, 688, 939, 1316,
141, 228, 315, 403, 534, 708, 970,
-35, 71, 177, 283, 442, 653, 971,
66, 158, 250, 342, 480, 664, 940,
6, 82, 158, 234, 348, 500, 728,
40, 139, 238, 338, 486, 684, 982,
95, 183, 271, 359, 491, 667, 931,
82, 190, 299, 407, 569, 786, 1111,
163, 370, 576, 782, 1092, 1504, 2123,
62, 155, 248, 341, 481, 667, 946,
145, 276, 407, 539, 736, 998, 1392,
79, 178, 278, 378, 527, 726, 1025,
134, 245, 357, 468, 635, 858, 1192,
53, 183, 313, 443, 639, 899, 1290,
65, 176, 288, 400, 567, 790, 1125,
75, 157, 239, 321, 443, 607, 853,
129, 218, 306, 394, 527, 703, 968,
146, 255, 364, 474, 638, 857, 1185,
74, 211, 347, 484, 689, 962, 1372,
42, 145, 249, 352, 508, 715, 1026,
46, 134, 223, 311, 444, 621, 887,
42, 150, 257, 364, 525, 740, 1062,
66, 180, 293, 406, 577, 803, 1144,
14, 124, 233, 343, 507, 727, 1056,
72, 201, 330, 458, 651, 909, 1295,
76, 176, 276, 375, 525, 724, 1023,
-20, 113, 246, 379, 579, 845, 1244,
68, 176, 285, 393, 556, 772, 1097,
78, 167, 255, 344, 477, 654, 920,
};

static uint64_t backbone_model3_conv2_conv1_weight[64 * 1*4] =
{ // torch.Size([64, 1, 1, 64])
0xcce70db5d3ede7ce,0xee744ed54257e64d,0xe64ee03ceda445e3,0x52d59dacd5db9bdd,
0xe55a5c5c55d5eac2,0xe3b53d5cacbdc4e5,0xd1d3e674ddb355ed,0x45cd35cde5ec43c7,
0x5c53da4de7435655,0x9533265df5564d55,0xabed92663643b9d5,0xc6d345c5dc6c3c45,
0x46556c35d025e4d4,0xd4e54de43d4e6afc,0x33e4e5613c554c3c,0x56a42cd5266416bd,
0xf43dceccc5eaeb4d,0x6ed263ed6eeb1443,0xf366ad6d3d5ceedd,0x5bccd4dedcedbdd5,
0x35a60b6465edf4c5,0xac565de6646555dc,0x56e6f54edc34ed5d,0x66d5e5ec564566c5,
0x344643ceedbdb54e,0x645454d4e5455004,0x6dbde5545ddadf3d,0x463c3554426f4655,
0x65eb64ede5e35d35,0x4266cecdb655eeac,0x3bdcd6e9cc53ddd9,0x3b55c1ac5b46577b,
0x46356eee4b5c4ed4,0x5fd3ddbf54653c6c,0x56c4d6c755cc4e24,0xd5d556e696796ac7,
0xde66ead4054b5cee,0xfe6d4ee3fc55e3b6,0xd674b0dddcbbfed4,0x455566ede6ded4cc,
0x74ca55cccd6e4de3,0x6caeb654cc9d41dc,0xdae6cddab1de3bdc,0xbb452b365cd36d45,
0x545ccbe4bef55ed3,0xccb542be444dee64,0xbe4d5536444c6954,0x3ecf5c65d5344655,
0x4ee4e32ddacc4454,0xd4c2b64cf2c4f447,0xd5c54c056535dc56,0xb56ed4ddca5cdc34,
0xdbd1cddd4edcedcd,0x530cd95ad4cd4212,0x34ed7dd64d6c43dc,0xd5e1ee954d4eddcb,
0xce54e6ac464b3a54,0x24ccd224fd5653d5,0xd454c365d94e7d24,0xfafd355ab3eb5ed6,
0xe6cd5d55cee3cadd,0xd646eda662eecced,0x4bc4ddfd4d4ce25e,0xe95519d46e52c65d,
0x597ede6ee66ddd6c,0xdce34c7d65e35d55,0x1ee6fe7e66756454,0x4deb261ede25fd27,
0xd56642cc5dcd6cde,0xea54c56556c3df6d,0xe5654dd47533fde4,0xcd9ce465be435646,
0x15bd1dddd6e5dc6d,0xbb5dd7dd6de5ece1,0x5d9b5cec5cc337d0,0xae4dbc5ceee5655d,
0x56655455d36c262b,0xee4535d5656b5445,0x6637edee64a4d65d,0xc53594555665456a,
0x56966ec552b36cd2,0x4de54f9d4b345cdb,0x04ebd6515a2b3f26,0x06b665cce6666d46,
0xc54dde34ee6edcf4,0xdcc0656375dfe66a,0x35d646ecb66662b5,0x7e6c5dbcdcc5c75e,
0x2c7ebdd3e4cedc57,0xdddccbccda3ed5de,0x4edceeed62bdeed4,0x15ce2de6de62169c,
0xde4dd725ef963de4,0xf95c36d44edec3d6,0xc646bdcc64c55dd4,0x53df645e66ddee5d,
0xefbdf6d6e5c651ed,0xec45ded6ec6cae47,0xe6566dd43df4cdf7,0xb4ee54de66dddcd0,
0x5a5edede5e2c4ee4,0xce465465945db35c,0x3de654ec66e56da6,0x55a566c3cd256927,
0x5553352665736e44,0xbd1ad36e6bdc654a,0xaecdeffbaedcf9c4,0xd6b536e14d354abd,
0x5b369ed555aed5dc,0xcdd455dcd4c5dd4c,0x1bcc4044e54cd46d,0x3d47cc3ccea26cd5,
0x5e7e750d2b557c66,0xe5625db4c42c46d6,0x1655f64db4e6ee55,0x535f5aeceedbc4ad,
0xb6f5ddd6dde4e5de,0xfe56dc64665dfd65,0x56d56744696b666b,0xbe65cd5e5654f566,
0x6d56e1ef4cdc5ee3,0x4e4b6c6ed4e4cd55,0x4eed56ed3dd34f55,0x465265ddc5cb6dd7,
0x55cbece5d45d6ddd,0xdcb5d7bbeb66ee5b,0x4a6ed4cc6c4c1e2b,0xddd06664b563d365,
0x5535d3d50fed95e1,0xc2c16b32c43deebc,0x6dececd32555e6cd,0x6d555cee6552cb4d,
0x6dded5ccad05493d,0x5cce1dcde555ce57,0x355c55453564ebc3,0x465569d6e4532cbd,
0x5ec5acd56edfd3ed,0x45abd3c5e46c04dc,0x9b35bcccedceeb4e,0xddddcdcd43cc6ed4,
0x0e43b4c4d5c66653,0xdd523dddcc46ccd0,0xe96ea3b34bb3f2d5,0xa4d364d24544b45d,
0xd16235ec50dd5504,0xbd4425c4513054a4,0xc953475ddc1b5a04,0x156d5e0ca6d54cc6,
0x43f5e1dbdec3d5cd,0x55656a65dcc3e464,0xc45655a6d54663dd,0x64c5c4eb551ee6ee,
0x6ceda55c3c545536,0x555d26d6a275b550,0xd03dd634e6eb7ad5,0x44b6e2d5755d549c,
0x56964d33bd90b5e5,0xdbc6b4bc3650ad4e,0x6dcbddfc43b5d66d,0x3cd364d6cd54566b,
0xc5dc54e555c6d3bd,0x4345cc96cde5ef44,0x56445353b4cc5431,0xcc36b4335cd1454d,
0xe9e749ee55ed07df,0x2455dcd66056d5ec,0xbd5dde6feb43d5db,0xc0edce5dc05e6ede,
0xdcd4e5d61ce5a45e,0x6553e555ccc52a45,0x42555d554d6e543d,0xe4c2d154dd4ef3c5,
0x7da6a4db3d3e64ed,0xdd4dccc102c1dcdd,0xdcb94edddec35505,0xcbd54d4ac6d66ed4,
0x1a3dda6bae7aaced,0xddcc3d7b26ee4465,0x45c75ed666620d5d,0xac35555edcd3c4e6,
0xb3acece4cd4e5dd2,0xde3cd4c54af4dd63,0x63765df16cdcde75,0xd4c595514e53e15e,
0x442b5cdd56556f7c,0x4d749bdd5dd56cbb,0x565f4bde4b43e5c5,0xb65655444505645d,
0xc5454ddc1ad4f653,0x36654d65d539c5cc,0x69ead766c6465b45,0x65545cdb145ef6d5,
0xa454cd5abe4c4ab5,0xd3d535c63dccc4cd,0xcfad41b555b3765d,0x3dcc436439534b54,
0xe5e15bce5c9ce66d,0x3656dcd54656ebed,0x054545dcd44356cf,0xcdcde145e43dd4bb,
0xd455ee6c34dce45d,0xede3594b76f5c49c,0x5d15e5b3b065226f,0x34125acecd0ee3c4,
0x35f6236db1c5c65b,0xdd553bf2a556ce9b,0x4c6cdbe3cddbd5c9,0x3ad53d5c55dee1b3,
0xe4616eed245dedd6,0x44ed5ecdcd1edccd,0x46d7dd6e2505fc65,0x6b6a29d5dcd3a4cb,
0xd6cc55d47bcebbec,0x4cddb1ee6d5bb5c5,0xb6b0d25dde4cfbbd,0x1046ebbd37ec5cb0,
0x5d6563d6d7c6666c,0x65d24e5ddc565e5c,0x6dfe6de6cfd5d556,0x435e6ddc4365654e,
0xad5dcec4ed6dcd9c,0xed9a5dcda1dcee5e,0x3edecde47653edee,0x435ed2e6ed60c76c,
0xcd53d5cd65c6544c,0xed556fc3255db3e5,0xda5e4654d3e6dcb5,0x6c2e6bebe9dcd4ab,
0xc4bed4bcbfdb3ce3,0xdf44566559cedc64,0xda45d3d46de35ecc,0x5c3ce66e44ea4436,
0xe556ede6c2d5e4ce,0xd3439d5573f6deb5,0x64e4db5d5e4b655e,0x0d05446e6dd4d546,
0x563c5445b34cc5e4,0xe5acacccb55dbda4,0x353cdfcc5bc4e6cd,0x3ee4e4455144d36e,
0xd254b614502cc635,0xf5c5535c65c4d604,0x52d4ec4fc4cac64f,0x535455dde5ddd6c3,
0xe7957eb5b5db9eeb,0x4cedddad52cec53e,0x54e4dbcc9e4d4d6c,0xbd07cde5ded4e55c,
0x635451d6657deddc,0x7cee66bf3eed6dd4,0xc5dc3e5d5e047649,0x5d56dc4d54c45446,
0xb535566ee7257673,0x5c664d3f5de6545e,0xd65cdd2ccd66d446,0x364e55e45d44c74b,
};

static int backbone_model3_conv2_quant1_threshold[64 * 14] =
{ // torch.Size([64, 14])
-1709, -1252, -948, -719, -567, -415, -262, -110, 42, 194, 346, 575, 879, 1336,
-1126, -824, -623, -472, -371, -270, -170, -69, 32, 132, 233, 384, 585, 887,
-1020, -620, -353, -153, -19, 114, 248, 381, 514, 648, 781, 981, 1248, 1649,
-1082, -702, -448, -258, -131, -5, 122, 249, 376, 502, 629, 819, 1073, 1453,
-1750, -1380, -1134, -949, -826, -703, -580, -457, -334, -211, -87, 97, 344, 713,
-1093, -652, -358, -137, 10, 157, 305, 452, 599, 746, 893, 1114, 1408, 1850,
-938, -627, -419, -264, -160, -56, 48, 151, 255, 359, 463, 618, 826, 1137,
-1007, -661, -429, -256, -140, -25, 91, 206, 322, 437, 553, 726, 958, 1304,
-1422, -926, -595, -347, -182, -16, 149, 314, 480, 645, 811, 1059, 1389, 1885,
-1793, -1341, -1040, -815, -664, -514, -363, -213, -62, 88, 239, 465, 766, 1217,
-1077, -765, -557, -401, -297, -193, -89, 15, 119, 223, 327, 484, 692, 1004,
-1436, -1029, -757, -554, -418, -282, -146, -11, 125, 261, 397, 600, 872, 1279,
-1218, -873, -642, -470, -355, -240, -124, -9, 106, 221, 336, 509, 739, 1084,
-1373, -1063, -856, -701, -598, -495, -391, -288, -185, -81, 22, 177, 384, 694,
-1453, -1059, -797, -600, -468, -337, -205, -74, 57, 189, 320, 517, 780, 1174,
-1411, -1056, -820, -643, -524, -406, -288, -170, -52, 67, 185, 362, 598, 953,
-1668, -1123, -759, -487, -305, -124, 58, 240, 422, 603, 785, 1057, 1421, 1966,
-1220, -816, -547, -344, -210, -75, 60, 194, 329, 464, 599, 801, 1070, 1474,
-1308, -969, -743, -573, -460, -347, -233, -120, -7, 106, 219, 389, 615, 955,
-672, -264, 9, 213, 349, 485, 621, 757, 893, 1029, 1165, 1369, 1641, 2049,
-1167, -760, -490, -286, -151, -16, 120, 255, 391, 526, 662, 865, 1136, 1542,
-1380, -899, -579, -338, -178, -18, 143, 303, 463, 624, 784, 1025, 1345, 1826,
-1684, -1233, -932, -706, -556, -406, -255, -105, 46, 196, 347, 572, 873, 1325,
-1571, -1157, -881, -674, -536, -398, -260, -122, 17, 155, 293, 500, 776, 1190,
-1893, -1406, -1081, -838, -676, -514, -351, -189, -27, 136, 298, 541, 866, 1353,
-1037, -655, -401, -210, -83, 44, 172, 299, 426, 553, 680, 871, 1125, 1507,
-1452, -1014, -722, -503, -357, -211, -65, 81, 228, 374, 520, 739, 1031, 1469,
-1021, -733, -541, -397, -301, -205, -109, -13, 83, 179, 275, 419, 611, 899,
-1273, -827, -529, -306, -157, -8, 141, 290, 439, 588, 737, 960, 1258, 1705,
-1521, -1009, -668, -412, -241, -71, 100, 271, 441, 612, 783, 1039, 1380, 1892,
-1682, -1223, -917, -688, -535, -382, -229, -76, 77, 230, 383, 612, 918, 1377,
-1147, -786, -545, -365, -244, -124, -3, 117, 237, 358, 478, 659, 900, 1261,
-1417, -1030, -773, -579, -450, -322, -193, -64, 65, 194, 323, 516, 773, 1160,
-1011, -689, -474, -313, -205, -98, 10, 117, 225, 332, 440, 601, 816, 1139,
-1505, -1184, -970, -809, -702, -595, -488, -380, -273, -166, -59, 102, 316, 637,
-1321, -935, -678, -485, -356, -228, -99, 30, 158, 287, 416, 609, 866, 1252,
-1052, -667, -411, -219, -91, 37, 165, 293, 422, 550, 678, 870, 1126, 1510,
-1315, -907, -635, -431, -295, -159, -23, 113, 249, 385, 520, 724, 996, 1404,
-920, -527, -265, -68, 63, 194, 326, 457, 588, 719, 850, 1047, 1309, 1703,
-1116, -733, -477, -285, -157, -29, 98, 226, 354, 482, 610, 802, 1057, 1441,
-856, -571, -382, -240, -145, -50, 44, 139, 234, 329, 423, 565, 755, 1039,
-2032, -1517, -1173, -915, -744, -572, -400, -228, -56, 115, 287, 545, 888, 1404,
-1321, -951, -704, -519, -396, -273, -149, -26, 97, 220, 344, 529, 775, 1145,
-1225, -920, -718, -566, -464, -363, -262, -160, -59, 43, 144, 296, 499, 803,
-1322, -874, -575, -351, -202, -52, 97, 246, 396, 545, 695, 919, 1217, 1666,
-1630, -1180, -880, -656, -506, -356, -206, -56, 94, 244, 394, 618, 918, 1368,
-1014, -619, -356, -158, -27, 105, 237, 368, 500, 632, 763, 961, 1224, 1619,
-873, -516, -277, -99, 20, 139, 258, 377, 496, 616, 735, 913, 1151, 1508,
-887, -580, -375, -222, -120, -18, 85, 187, 289, 391, 494, 647, 852, 1158,
-1330, -943, -685, -492, -363, -234, -106, 23, 152, 281, 410, 603, 861, 1247,
-1432, -1042, -782, -587, -457, -327, -197, -67, 63, 193, 323, 518, 778, 1168,
-1119, -823, -626, -478, -380, -281, -183, -84, 15, 113, 212, 360, 557, 853,
-1476, -1049, -764, -550, -408, -265, -123, 20, 162, 305, 447, 661, 946, 1373,
-1227, -896, -675, -509, -398, -288, -177, -67, 44, 155, 265, 431, 652, 984,
-1241, -787, -484, -257, -106, 45, 197, 348, 499, 651, 802, 1029, 1332, 1785,
-1969, -1416, -1047, -770, -585, -401, -216, -32, 153, 337, 522, 799, 1168, 1721,
-1394, -976, -698, -489, -350, -211, -72, 68, 207, 346, 485, 694, 972, 1390,
-1422, -1041, -786, -596, -468, -341, -214, -87, 40, 167, 295, 485, 740, 1121,
-1489, -1056, -768, -551, -407, -263, -118, 26, 170, 315, 459, 676, 964, 1397,
-1411, -1013, -748, -549, -416, -283, -151, -18, 115, 247, 380, 579, 844, 1242,
-827, -537, -343, -198, -101, -4, 93, 190, 287, 383, 480, 626, 819, 1110,
-1417, -1039, -788, -599, -473, -347, -221, -96, 30, 156, 282, 471, 722, 1100,
-1315, -869, -571, -348, -200, -51, 98, 246, 395, 544, 692, 915, 1213, 1659,
-1185, -696, -370, -126, 37, 200, 363, 526, 689, 852, 1015, 1259, 1585, 2074,
};

static uint64_t backbone_model3_conv2_conv2_weight[64 * 9] =
{ // torch.Size([64, 3, 3, 1])
0xd, 0x6, 0x5, 0xe, 0x6, 0x5, 0xd, 0x7, 0xd,
0xe, 0xe, 0xf, 0x5, 0x4, 0xb, 0x5, 0x3, 0x5,
0xd, 0x5, 0x7, 0xf, 0x5, 0x5, 0xf, 0xf, 0xe,
0xd, 0xe, 0xe, 0x9, 0xf, 0xf, 0x5, 0xf, 0xf,
0xe, 0xe, 0xf, 0xd, 0xe, 0xf, 0xe, 0xd, 0xe,
0xf, 0xb, 0x3, 0xd, 0xb, 0xa, 0x4, 0x5, 0xb,
0xc, 0xe, 0x1, 0xd, 0xe, 0xd, 0xe, 0xf, 0xd,
0x7, 0x6, 0x5, 0x7, 0x3, 0xd, 0x6, 0x1, 0xe,
0x5, 0xc, 0xf, 0x4, 0xf, 0xe, 0xd, 0xf, 0xc,
0x5, 0x6, 0xd, 0x4, 0x5, 0x7, 0x4, 0xf, 0x5,
0xf, 0xd, 0x5, 0xc, 0x5, 0x5, 0x6, 0x7, 0x5,
0xf, 0xe, 0x4, 0x2, 0xe, 0xd, 0x4, 0xb, 0xd,
0xd, 0xe, 0xb, 0x4, 0x7, 0x5, 0xd, 0xe, 0xc,
0xc, 0xd, 0xd, 0x4, 0xe, 0xd, 0x7, 0x7, 0x6,
0x5, 0xe, 0xe, 0xd, 0xf, 0xf, 0xe, 0xd, 0xc,
0x6, 0xc, 0xd, 0x6, 0x5, 0xc, 0x6, 0x7, 0x5,
0xa, 0x5, 0x1, 0x4, 0x7, 0x4, 0x5, 0x7, 0x6,
0xf, 0x6, 0x6, 0xe, 0xe, 0x7, 0x5, 0xf, 0x2,
0x5, 0x9, 0xd, 0x6, 0x5, 0xc, 0x7, 0x4, 0xb,
0xa, 0x4, 0xc, 0xf, 0xe, 0xe, 0xe, 0xf, 0xd,
0xd, 0xf, 0xb, 0xf, 0xf, 0x6, 0xf, 0xd, 0x6,
0x1, 0x5, 0x6, 0x5, 0x6, 0x7, 0x4, 0x5, 0x5,
0x5, 0x4, 0x5, 0x6, 0x6, 0x7, 0x4, 0x5, 0x6,
0xe, 0xb, 0xa, 0xb, 0x7, 0xd, 0x5, 0xc, 0xc,
0x9, 0x7, 0x7, 0x6, 0xc, 0xc, 0x7, 0xf, 0xc,
0x5, 0x5, 0xe, 0x6, 0x6, 0xf, 0x6, 0x4, 0xe,
0x6, 0x4, 0xf, 0x6, 0x6, 0xe, 0x5, 0x5, 0xe,
0x5, 0x6, 0xf, 0x6, 0xe, 0xb, 0x5, 0xd, 0x6,
0xc, 0x7, 0x5, 0xd, 0x5, 0x2, 0xd, 0xe, 0xd,
0xe, 0xf, 0xb, 0xf, 0xe, 0x4, 0xd, 0xd, 0x5,
0x5, 0xe, 0x3, 0xc, 0x6, 0x6, 0x4, 0x7, 0x2,
0x6, 0x6, 0x5, 0x2, 0xc, 0xd, 0xe, 0xe, 0xf,
0xd, 0x5, 0x6, 0xe, 0x5, 0x7, 0xe, 0x3, 0x7,
0xc, 0xe, 0x5, 0x6, 0xc, 0xf, 0x5, 0x6, 0x3,
0x7, 0x7, 0xd, 0x6, 0xd, 0xe, 0x6, 0xe, 0xe,
0x4, 0xa, 0xd, 0x7, 0x5, 0x4, 0x5, 0x7, 0x7,
0x5, 0x7, 0x4, 0x6, 0x7, 0x5, 0x3, 0xb, 0x2,
0xd, 0xd, 0xe, 0xe, 0xd, 0xf, 0xe, 0xf, 0xf,
0x6, 0x4, 0x6, 0xe, 0xd, 0x5, 0xf, 0xf, 0x6,
0xa, 0xd, 0xe, 0xe, 0xf, 0xe, 0xe, 0xd, 0xc,
0xb, 0x6, 0x6, 0xf, 0xe, 0xb, 0x1, 0xe, 0xe,
0x6, 0x7, 0xd, 0x5, 0x6, 0xe, 0x7, 0x4, 0xf,
0xa, 0xf, 0xf, 0xe, 0xd, 0xd, 0xf, 0xe, 0xe,
0x7, 0x6, 0x4, 0x6, 0x5, 0xc, 0x5, 0xe, 0xd,
0x4, 0x5, 0xe, 0x5, 0x7, 0x4, 0x6, 0x7, 0x5,
0x4, 0x5, 0x6, 0x6, 0x6, 0x7, 0xe, 0xe, 0xe,
0x5, 0xf, 0x4, 0x5, 0xd, 0x9, 0x5, 0x3, 0xf,
0xf, 0xf, 0xe, 0xe, 0xf, 0xe, 0x5, 0x6, 0xd,
0xe, 0x6, 0xc, 0xd, 0xe, 0x5, 0x7, 0xe, 0xc,
0x6, 0xe, 0xf, 0x5, 0xd, 0xe, 0x6, 0x3, 0xb,
0xc, 0x6, 0x4, 0x7, 0x6, 0xc, 0x3, 0xe, 0xd,
0xe, 0x6, 0x6, 0xe, 0xb, 0x4, 0xf, 0xd, 0x7,
0xe, 0xc, 0xc, 0xd, 0x7, 0x7, 0x5, 0x5, 0x7,
0x2, 0x7, 0x6, 0x5, 0x5, 0xb, 0x4, 0xd, 0xb,
0xe, 0xd, 0x5, 0xc, 0xf, 0xb, 0x6, 0xd, 0xe,
0x6, 0x6, 0x7, 0x7, 0x6, 0x7, 0x6, 0x7, 0xd,
0x6, 0x7, 0x6, 0xd, 0xe, 0xc, 0x2, 0xb, 0x3,
0x1, 0xc, 0xa, 0x6, 0xe, 0xc, 0x7, 0xd, 0xc,
0x7, 0x7, 0x6, 0xa, 0xc, 0x9, 0xd, 0xd, 0xd,
0x0, 0xe, 0xf, 0x3, 0xd, 0xe, 0xd, 0xe, 0xc,
0x4, 0xe, 0xe, 0xb, 0xe, 0x3, 0x5, 0x7, 0x6,
0xe, 0xb, 0x4, 0xb, 0x7, 0x4, 0x6, 0xd, 0xe,
0x6, 0xe, 0xf, 0xd, 0xf, 0xe, 0xe, 0xf, 0xf,
0x5, 0xe, 0x5, 0x5, 0xf, 0x5, 0x5, 0xe, 0x4,
};

static int backbone_model3_conv2_relu2_threshold[64 * 7] =
{ // torch.Size([64, 7])
37, 138, 240, 341, 493, 696, 1000,
122, 268, 415, 561, 780, 1072, 1510,
111, 263, 415, 568, 796, 1100, 1557,
124, 365, 606, 846, 1208, 1689, 2411,
199, 433, 668, 902, 1254, 1723, 2426,
81, 159, 236, 314, 430, 585, 817,
154, 344, 533, 722, 1007, 1386, 1954,
129, 285, 441, 597, 831, 1143, 1610,
151, 306, 460, 615, 848, 1157, 1622,
70, 174, 278, 382, 538, 746, 1057,
97, 210, 323, 436, 605, 831, 1169,
8, 132, 256, 380, 566, 814, 1186,
16, 109, 203, 297, 437, 624, 905,
139, 243, 348, 453, 609, 819, 1132,
107, 340, 572, 805, 1154, 1619, 2316,
74, 216, 358, 500, 713, 996, 1422,
75, 233, 390, 548, 784, 1100, 1573,
147, 286, 426, 566, 775, 1054, 1472,
117, 222, 328, 434, 592, 804, 1121,
187, 342, 497, 653, 886, 1196, 1662,
61, 249, 437, 625, 907, 1283, 1847,
76, 240, 403, 567, 813, 1140, 1631,
129, 324, 519, 714, 1007, 1397, 1982,
49, 130, 211, 292, 413, 575, 818,
74, 206, 338, 470, 668, 932, 1328,
146, 294, 442, 589, 811, 1106, 1549,
99, 192, 285, 378, 517, 703, 982,
123, 232, 341, 450, 613, 830, 1157,
143, 237, 331, 425, 566, 754, 1035,
101, 263, 425, 586, 829, 1153, 1638,
57, 143, 228, 314, 443, 614, 872,
189, 342, 494, 647, 875, 1180, 1638,
61, 184, 306, 429, 612, 857, 1224,
28, 110, 193, 275, 399, 564, 811,
122, 257, 392, 527, 730, 1000, 1406,
43, 182, 321, 460, 668, 946, 1363,
-4, 198, 401, 604, 908, 1313, 1921,
121, 409, 697, 984, 1416, 1991, 2854,
124, 228, 331, 435, 591, 799, 1110,
50, 239, 428, 616, 899, 1277, 1843,
95, 218, 340, 463, 646, 891, 1259,
84, 212, 339, 467, 658, 913, 1295,
190, 473, 757, 1041, 1467, 2035, 2887,
93, 238, 383, 528, 746, 1036, 1471,
139, 291, 443, 595, 823, 1127, 1582,
123, 244, 364, 485, 666, 907, 1268,
45, 142, 238, 335, 480, 673, 963,
148, 351, 554, 757, 1062, 1468, 2077,
48, 141, 234, 326, 465, 651, 929,
98, 212, 325, 439, 610, 838, 1179,
69, 177, 285, 393, 556, 773, 1097,
156, 324, 492, 660, 912, 1248, 1752,
152, 327, 502, 677, 940, 1290, 1815,
12, 128, 245, 362, 537, 770, 1120,
54, 163, 271, 379, 541, 757, 1081,
193, 507, 822, 1136, 1607, 2236, 3179,
59, 153, 247, 341, 481, 669, 951,
81, 178, 274, 371, 516, 710, 1000,
92, 210, 327, 445, 621, 857, 1209,
228, 384, 541, 697, 932, 1245, 1715,
82, 217, 352, 487, 689, 959, 1364,
57, 152, 246, 341, 483, 673, 957,
216, 455, 694, 933, 1291, 1770, 2487,
40, 139, 238, 337, 485, 682, 978,
};

static uint64_t backbone_model4_conv1_conv1_weight[64 * 1*4] =
{ // torch.Size([64, 1, 1, 64])
0x6654547c665e60b6,0x465c55554b6b6671,0x4054767665e45b55,0xcea44e66bc5e7f16,
0xe5ded5944535e57d,0x54d635454c6e74c5,0xec4de3d5d36dd5f7,0x55ed544d26c3d6ed,
0xe5e36dde4efb6b6e,0x5d66e3ec567d5eda,0x5539d9dfe4d56bb7,0xcc5d53d6c44d4e5d,
0xccb4acc5b5c924dc,0xcae41b5545dddd1a,0x6ed0cbb5dd459604,0x6545240dc44c57e5,
0x5f5c3c5d0ed5e645,0x4d647c4dea67e65b,0x66edde4db45d3c5c,0x65ccf5d56dc6ed39,
0x495de5ce46a436d4,0x657bd3d6c44c0d6d,0x6edcbcd5344ee445,0x0554b3ac67e536cd,
0xcc966656c6d0e53c,0xbdc6d5ed45554f5e,0x55d6c0cadc55e6f6,0x646dd2e556c547cd,
0x56b4dd4c06cdecd4,0xa5e1bd4eecff3424,0xeedcc4b63e55a2e4,0xcced5b5dd45b56d5,
0xdee45eeecc563cec,0x0f45444e04d7edec,0x54dceebddc4b4b3a,0xd36eddd02544bd3d,
0x56cead6eb6666dd4,0xd6cd5b414ee6c6d4,0xc63e597435154d6d,0xedec144d55d3ced5,
0xebeedfcee7d64dc6,0xd6e73de466cc6e5e,0xceddddceec5decc7,0xbd5e6d5e26d6ebdd,
0x53c56d6b5dce6b59,0x6e5dd5ee44635c5c,0x6655c5566246442b,0x5bc5d34066657556,
0xb5ddfcdc441b4c1c,0x4ce4e4d5dddf5de6,0xee3dcdc2335d4bc3,0x354d4dbe4bdaebec,
0x5f6ee6ce3e5cd5dc,0xcd6d5e56f65ce4cd,0x5bfe4cdebcdcd62e,0x234bd6e95d6ce4cc,
0x565ddbdeddcf3dd0,0xe65eedd246ecefd6,0xde0e36ce3eed5e7f,0x5beb63e5aeddcd55,
0x97e0ed3e54cd5c5d,0x6b25ed6dd5cb7dcd,0x3dcde4dbbd35e5d6,0x3d60ee5d457555c5,
0x9543715cc14bd303,0xcb253cac44464c0b,0xd61c345d9ccdc3cc,0x3c4bdcbe4b1adc52,
0xb523c6db5ddbeb4d,0x312d452ad14e5b2c,0xdb5fa4ddd55dc414,0x54edcaed5cb5decd,
0xe4edc0ecdfe6b45f,0xdecac53cd42deef5,0xc4bcfdeef569c3e4,0x562e46dd43c7d6a4,
0xcbc2edddcb546bda,0x504d65dadc4dbdcc,0x4c4c3cc55c45335c,0xcccc2b5bc5437a52,
0x569cde933dac4d51,0x53c95333d3dcd4b5,0xd4b54a4c04344e4f,0x3453ec412d37a545,
0x65c7655456ed3d53,0xc27dee0bdedd6c54,0x25d6dbb545566564,0xc225456eee5c6c66,
0xe5e565e4de21636e,0x5d656154b5564ada,0x653bf6ddfed56bdd,0xcd6db5e5c4655344,
0x4d53c7a65fa5d55c,0x6d6df5c56d666e65,0x64765d4446cc9dee,0x5565ee44d1bec56d,
0x56335e45d4542cd4,0xe5dd4470cde545c5,0x309a5b559c3555cd,0xdba1495edd5d42c5,
0xd43ce5ded25546dc,0x6cca6c56f5b2dccd,0x4e4e2cced0c3e51b,0xec7054ddd5bd3312,
0xc7de4ddeeed3dcd4,0xea0eb5d64c165b25,0x6564264ebc3bc55c,0xd2627cdacce51e25,
0xedd2533cd4c45b4c,0xcc5665d53357cb5d,0x76553e5dd4c6ec66,0xdd5c55e6db4d6c6d,
0x5ecd5137533c03c3,0xebe2c45d6cece25b,0xedd65acdbd5a725d,0x466bdad652d0d2d4,
0xdc6dcdee5d56c30e,0xbdfd559dea44dbd4,0xc4ddb5eed45edddd,0x65cec5df54cdf5c5,
0x4a9b4c6537ec5dec,0xb554fedd7ef4decd,0xddd6dd55cc5c7d5e,0x6459cc694cbe566c,
0xdd5c52c45d2e56ea,0xbe5cece0e433df44,0xc44dc5ac5adce65c,0x65e3463d4d46d0d4,
0x4c53e69dabeec4d5,0x5a4c5eedc55f5ebd,0xeeec3cc5bbd445b1,0xddecd5c6d46e5b4a,
0x4bccedd39dac65c4,0xb3c33bdb973249b4,0x4d3244c32cbab6cd,0xc44cc3b646c553d5,
0xc13b3a0c354eedc0,0x5dd5a5c3eeee4d4d,0x36a405e52d56533d,0x595cb64f5b5575dd,
0xec39e6dacd0356eb,0x7e3dddef4d5c5ee4,0x5d49ded65dd556be,0xd2d0c606b753615b,
0x453dd5d53565d44a,0x65ee455d5c656555,0xee6dc5e6543de6fb,0x46e4364e66d6e6e5,
0xbad2d5c3c55b5244,0xb9263c256a3c4555,0x0d5656b45ddae9db,0xd3a476b6554cd4a4,
0x562c66455aee3d55,0xe464fd5765e55b6a,0xcb06946dd5accd52,0x54652f50de5ecd63,
0xce52223dc1cdcc15,0x5d564bdcd9ddad5d,0xc5ec44b64db64962,0xadcbd534c54e7c3c,
0x5d6b6564c65b56b6,0xd65d1d3146c7ca51,0x5ce465765ce5e45c,0x3db6b255edde4655,
0x51525ceb5aa5163e,0xead6b5c6f65cdd41,0xd60eedfefa61e5c4,0x3543d6df4d4acecc,
0x56eded0de6dd7eed,0xb536edee255c6d4b,0xde45d6aedbb4dd56,0xbd4d6e6ebe452d35,
0x364d5464cf15cd44,0x3bdd4bd335664bc5,0xd775463d5ced554e,0x33a45ccde243ee54,
0xc4296b55c2555b33,0xe5e5465565575b04,0x5a51bd5bc591e1e5,0xb34bdcc455d4e5e5,
0x66dddd5e55d57553,0xd6c61055e5ec55c6,0xd54c456b1666d265,0x53ce56a45c4653c5,
0xeed5eb5cd534ddc5,0x5d55d4e55d5d4e6d,0x6d45dda3d45dccd5,0xbb544d4cc54e440f,
0x4eb35e555ddc6d6e,0x4cee4ccf5b49e5d3,0x46c6df3564e756fc,0x4bebfe463456d69c,
0x65cb5565c66255d7,0xe64264665be55766,0x55356c7a6be5c566,0xedd36c6ccccf3d55,
0x430ddef5467a4dcc,0xb5ee696cd546b5c4,0xddbdd6d305c4d5ef,0x4b31db6bbcecf2e6,
0xdbcd34ccc5ec65d5,0x5c36ecfd66543fdd,0x5dc4dd4cbddbda66,0x3d643d46eb2d4c6e,
0x545eb64ddddeed46,0xe50becf7265dfd60,0xc64d662c5dedfe6c,0xddf56cc52ec6ec54,
0x9e5d3564c4655532,0x0a449c455a66c443,0x7d363d2554c1e352,0xdc655553c2dcd645,
0x5ba1ce645bd3de41,0x1cc5d55d6d43dada,0x6c534fc554455546,0xd903bf46c6535c55,
0x565df44655454b24,0xc5dd2475eedd2606,0xb4656dc4565544dd,0x255cd54d4cd6cde5,
0xcf23f4d6cf62cc5b,0x6dee7c45de6046ca,0xd96ddfd65b3d5ede,0xd4dbd5d5654bcdc2,
0x37065ed5464d6e6c,0xc6ecdad46c0e6435,0xd635355565b46e25,0x6de46e46de3e392d,
0x55b5c05ddc594add,0x5d3d3c4eed4cc0dc,0xd43e9bc62dc6655b,0xecfceba314556dba,
0x246cd5d43b5dedb5,0x3d623e63ee4e5a54,0xbdc4ace6bea5d9d9,0x44c5696fdd4d54d4,
0x4a6bf5eddeb5ec46,0x607c4d35c06cd55c,0x2c355ded3ceced4d,0xec556544d256dc6a,
0x565cd6a5eddd544d,0x494dec6dd55044db,0xbd33d3c49dddbcda,0x2b55efcc9ba5d4c5,
0xd41ef5e6eee5446d,0x6dbdfee9e76e7ded,0xce2bd2eba6eee6de,0xdf63fddd5e45f6dd,
0xe16bcddc4de45ddd,0xfc46ddbdd65beedb,0x34eece4eebc5e055,0x993d5eebcd56de4d,
0x563c46d5cdce646e,0x99c5526ee75936d3,0xdab536dacd4ce5e6,0x5545ddd07c47d5d5,
};

static int backbone_model4_conv1_quant1_threshold[64 * 14] =
{ // torch.Size([64, 14])
-1276, -492, 31, 424, 685, 947, 1209, 1470, 1732, 1993, 2255, 2647, 3171, 3955,
-1528, -987, -626, -355, -174, 6, 187, 367, 548, 728, 909, 1179, 1540, 2082,
-2898, -2146, -1645, -1269, -1018, -768, -517, -267, -16, 234, 485, 861, 1362, 2114,
-1030, -675, -439, -261, -143, -25, 93, 211, 330, 448, 566, 743, 980, 1335,
-2030, -1420, -1014, -709, -506, -303, -100, 103, 306, 509, 712, 1017, 1423, 2032,
-971, -539, -250, -34, 110, 254, 398, 543, 687, 831, 975, 1191, 1480, 1912,
-1414, -914, -581, -331, -164, 2, 169, 335, 502, 668, 835, 1085, 1418, 1917,
-2351, -1761, -1368, -1073, -877, -680, -484, -287, -90, 106, 303, 598, 991, 1581,
-2301, -1878, -1595, -1384, -1243, -1101, -960, -819, -678, -537, -396, -184, 98, 521,
-1484, -985, -653, -403, -237, -71, 95, 262, 428, 594, 761, 1010, 1342, 1841,
-2513, -1919, -1522, -1225, -1027, -829, -631, -432, -234, -36, 162, 459, 856, 1450,
-1109, -556, -186, 90, 275, 459, 644, 829, 1013, 1198, 1382, 1659, 2028, 2582,
-3129, -2434, -1971, -1623, -1391, -1160, -928, -696, -465, -233, -1, 346, 810, 1505,
-2632, -1997, -1573, -1256, -1044, -832, -621, -409, -197, 15, 226, 544, 967, 1603,
-2910, -2265, -1835, -1512, -1297, -1082, -867, -651, -436, -221, -6, 317, 747, 1392,
-1276, -858, -579, -370, -230, -91, 48, 188, 327, 466, 606, 815, 1094, 1512,
-927, -642, -452, -310, -215, -120, -25, 70, 165, 260, 355, 497, 687, 972,
-2650, -1926, -1443, -1081, -839, -598, -356, -115, 126, 368, 609, 971, 1454, 2178,
-3500, -2716, -2193, -1800, -1539, -1277, -1016, -754, -493, -232, 30, 422, 945, 1730,
-896, -615, -427, -286, -193, -99, -5, 89, 183, 277, 370, 511, 699, 980,
-1527, -1070, -766, -538, -385, -233, -81, 71, 223, 376, 528, 756, 1060, 1517,
-858, -403, -101, 127, 278, 429, 581, 732, 884, 1035, 1187, 1414, 1717, 2171,
-1690, -1184, -846, -593, -424, -255, -86, 83, 252, 421, 590, 843, 1181, 1687,
-1571, -960, -552, -247, -43, 161, 365, 569, 772, 976, 1180, 1486, 1893, 2505,
-1327, -858, -546, -312, -155, 1, 157, 313, 469, 625, 781, 1016, 1328, 1796,
-1432, -1046, -788, -594, -466, -337, -208, -79, 50, 179, 308, 501, 759, 1145,
-1606, -1142, -832, -600, -446, -291, -136, 19, 174, 328, 483, 715, 1025, 1489,
-1547, -949, -550, -251, -52, 147, 347, 546, 745, 944, 1144, 1443, 1841, 2439,
-1508, -1075, -785, -568, -424, -279, -135, 10, 154, 299, 444, 661, 950, 1383,
-2861, -2237, -1821, -1509, -1301, -1093, -886, -678, -470, -262, -54, 258, 674, 1297,
-2283, -1661, -1246, -935, -727, -520, -312, -105, 103, 310, 517, 829, 1244, 1866,
-1539, -1115, -833, -621, -480, -339, -197, -56, 85, 226, 367, 579, 861, 1285,
-1980, -1543, -1251, -1032, -886, -740, -594, -448, -302, -157, -11, 208, 500, 938,
-961, -608, -372, -195, -77, 41, 159, 277, 395, 513, 631, 808, 1043, 1397,
-1282, -904, -652, -463, -337, -211, -86, 40, 166, 292, 418, 607, 859, 1237,
-1972, -1436, -1079, -811, -633, -454, -276, -97, 81, 260, 438, 706, 1063, 1599,
-1147, -652, -321, -74, 91, 256, 421, 587, 752, 917, 1082, 1330, 1660, 2155,
-1125, -582, -220, 51, 232, 413, 594, 775, 956, 1137, 1318, 1590, 1952, 2495,
-1500, -968, -614, -348, -171, 7, 184, 361, 538, 716, 893, 1159, 1513, 2045,
-1304, -933, -685, -500, -376, -252, -129, -5, 119, 243, 366, 552, 799, 1170,
-1990, -1142, -576, -152, 131, 414, 697, 980, 1263, 1545, 1828, 2253, 2818, 3667,
-3011, -2213, -1681, -1282, -1016, -750, -484, -218, 48, 314, 580, 979, 1511, 2310,
-1998, -1478, -1130, -870, -696, -523, -349, -176, -2, 171, 345, 605, 952, 1473,
-1276, -831, -535, -313, -165, -17, 131, 279, 427, 575, 724, 946, 1242, 1686,
-979, -571, -299, -95, 41, 177, 313, 449, 585, 721, 857, 1061, 1333, 1741,
-548, -122, 163, 376, 518, 660, 802, 944, 1086, 1229, 1371, 1584, 1868, 2295,
-2010, -1501, -1162, -907, -737, -568, -398, -228, -59, 111, 281, 535, 874, 1383,
-2587, -1922, -1478, -1146, -924, -702, -480, -259, -37, 185, 407, 739, 1183, 1848,
-1407, -649, -144, 234, 487, 739, 992, 1244, 1497, 1749, 2002, 2380, 2885, 3643,
-2169, -1544, -1127, -814, -605, -397, -188, 20, 229, 437, 646, 959, 1376, 2001,
-2317, -1751, -1374, -1091, -902, -714, -525, -336, -148, 41, 230, 513, 890, 1456,
-1926, -1391, -1034, -767, -588, -410, -232, -54, 125, 303, 481, 749, 1105, 1640,
-1245, -643, -242, 59, 259, 460, 660, 861, 1062, 1262, 1463, 1764, 2165, 2766,
-1190, -811, -558, -368, -242, -116, 11, 137, 263, 390, 516, 706, 959, 1338,
-984, -512, -198, 38, 195, 352, 510, 667, 824, 981, 1138, 1374, 1688, 2160,
-2294, -1675, -1263, -954, -748, -541, -335, -129, 77, 283, 489, 799, 1211, 1830,
-1006, -580, -296, -83, 58, 200, 342, 484, 626, 768, 910, 1123, 1406, 1832,
-1589, -1201, -943, -749, -620, -491, -361, -232, -103, 26, 156, 350, 608, 996,
-1161, -807, -571, -394, -276, -158, -40, 78, 197, 315, 433, 610, 846, 1200,
-1499, -990, -651, -396, -227, -57, 112, 282, 451, 621, 791, 1045, 1384, 1893,
-1377, -1044, -822, -655, -544, -433, -322, -211, -100, 11, 122, 289, 511, 844,
-3216, -2516, -2049, -1699, -1465, -1232, -999, -765, -532, -298, -65, 285, 752, 1452,
-2619, -2076, -1714, -1442, -1261, -1080, -899, -718, -537, -356, -174, 97, 459, 1003,
-1289, -753, -396, -128, 50, 228, 407, 585, 764, 942, 1121, 1389, 1746, 2281,
};

static uint64_t backbone_model4_conv1_conv2_weight[64 * 9] =
{ // torch.Size([64, 3, 3, 1])
0xf, 0xe, 0xe, 0xf, 0xf, 0xf, 0xb, 0xe, 0x5,
0xe, 0xf, 0xc, 0xd, 0xe, 0xb, 0x4, 0x5, 0x3,
0x6, 0xd, 0xd, 0x5, 0xf, 0xe, 0x5, 0xe, 0xb,
0x6, 0x7, 0x7, 0x6, 0x3, 0x5, 0xc, 0xe, 0xd,
0x7, 0xd, 0xf, 0x6, 0xe, 0xe, 0x5, 0xb, 0x2,
0xd, 0xf, 0xc, 0x6, 0xd, 0xe, 0x6, 0x5, 0x6,
0x1, 0x7, 0x6, 0xe, 0x5, 0x9, 0xe, 0xf, 0x4,
0x6, 0x6, 0x6, 0xe, 0xe, 0x2, 0xe, 0xf, 0xb,
0xe, 0xf, 0xd, 0x4, 0xe, 0xf, 0x4, 0xd, 0xf,
0xb, 0x4, 0x4, 0xb, 0xd, 0xd, 0xe, 0xf, 0xe,
0x7, 0x7, 0xd, 0x6, 0x7, 0x4, 0x6, 0x7, 0x6,
0x5, 0x5, 0xe, 0x5, 0x6, 0xf, 0x4, 0xd, 0xf,
0x5, 0xe, 0xf, 0x5, 0xe, 0xf, 0x5, 0x3, 0xa,
0xf, 0x3, 0x7, 0xd, 0x6, 0xd, 0x5, 0x4, 0xe,
0x5, 0x5, 0xe, 0xe, 0x5, 0x7, 0xe, 0xe, 0x6,
0xd, 0x6, 0x5, 0x4, 0x6, 0x6, 0xf, 0xc, 0x3,
0x5, 0xd, 0xe, 0x7, 0xd, 0xe, 0x4, 0x2, 0xe,
0x5, 0x5, 0x5, 0x5, 0xf, 0xd, 0x3, 0x4, 0xc,
0xc, 0x6, 0x6, 0x6, 0x6, 0x6, 0x7, 0x6, 0x5,
0xc, 0x7, 0x6, 0xe, 0x0, 0x1, 0xf, 0xd, 0x7,
0xe, 0xf, 0xf, 0x6, 0xb, 0xd, 0x7, 0x6, 0x7,
0x5, 0xb, 0xe, 0x6, 0xc, 0xf, 0x6, 0x9, 0xd,
0xe, 0xd, 0x9, 0xd, 0xf, 0xf, 0xb, 0x5, 0x3,
0xe, 0xf, 0xc, 0xb, 0xc, 0x4, 0x4, 0x3, 0x2,
0x7, 0x7, 0xf, 0x6, 0x6, 0xf, 0xb, 0x6, 0xe,
0xd, 0xe, 0x5, 0xc, 0x7, 0x5, 0x6, 0x5, 0x5,
0xc, 0x4, 0xd, 0x5, 0x7, 0xd, 0xd, 0xc, 0xf,
0x7, 0x5, 0x5, 0x6, 0xd, 0x1, 0x5, 0xe, 0x0,
0xe, 0xc, 0xe, 0xd, 0xf, 0xd, 0x7, 0x5, 0x6,
0x5, 0x6, 0x6, 0x4, 0x6, 0x5, 0x4, 0xa, 0xf,
0x4, 0xd, 0xc, 0xd, 0x3, 0x4, 0x5, 0x7, 0x0,
0x5, 0xf, 0xd, 0x5, 0xe, 0xb, 0x6, 0x1, 0xb,
0x7, 0x7, 0x7, 0x5, 0xb, 0x9, 0x6, 0xb, 0xd,
0x4, 0xd, 0x3, 0xd, 0x4, 0x1, 0x9, 0x7, 0x6,
0xc, 0x5, 0xd, 0x7, 0x4, 0xf, 0x6, 0xe, 0xe,
0x5, 0xd, 0xd, 0x6, 0x5, 0xd, 0x7, 0x7, 0x9,
0x5, 0xe, 0xe, 0x5, 0xf, 0xe, 0x5, 0xd, 0xd,
0x7, 0x6, 0x3, 0x4, 0xc, 0xd, 0xd, 0xb, 0xd,
0xd, 0xd, 0xc, 0xf, 0xe, 0xe, 0xf, 0xf, 0xe,
0x7, 0x5, 0x2, 0x5, 0xc, 0xd, 0x5, 0x4, 0x3,
0xb, 0x3, 0xe, 0x5, 0x7, 0xb, 0x4, 0x4, 0x9,
0x5, 0xf, 0x5, 0x3, 0xc, 0x4, 0x4, 0x6, 0x3,
0x2, 0x3, 0xe, 0x6, 0x6, 0x4, 0x6, 0x7, 0x6,
0xc, 0x6, 0x6, 0xd, 0xd, 0x5, 0xd, 0xf, 0x3,
0xc, 0x5, 0x7, 0xd, 0x5, 0x5, 0xe, 0xe, 0xe,
0xe, 0xf, 0xe, 0x4, 0xd, 0xc, 0x0, 0xe, 0xd,
0xe, 0x1, 0x6, 0x6, 0x7, 0xc, 0x7, 0x7, 0x6,
0xe, 0x7, 0x5, 0xd, 0xc, 0x6, 0x6, 0xf, 0x3,
0xd, 0xe, 0xd, 0xe, 0xf, 0xe, 0x6, 0xd, 0x6,
0x7, 0xc, 0x2, 0x7, 0xf, 0xe, 0x6, 0xf, 0xe,
0x7, 0x6, 0xb, 0x5, 0x5, 0xd, 0x6, 0x4, 0xc,
0xd, 0x7, 0x6, 0xf, 0xe, 0x6, 0x0, 0xf, 0xc,
0x5, 0xd, 0xd, 0x7, 0x6, 0x4, 0xd, 0xe, 0xd,
0xf, 0x4, 0x5, 0xe, 0xc, 0x6, 0xd, 0xe, 0x9,
0x5, 0x4, 0xd, 0x4, 0x3, 0xd, 0xc, 0xe, 0xf,
0x7, 0x6, 0xe, 0x5, 0x4, 0xe, 0x3, 0xa, 0xc,
0xe, 0x6, 0x5, 0x7, 0x5, 0xd, 0xc, 0xe, 0xc,
0xe, 0xd, 0x6, 0x2, 0x7, 0x7, 0xa, 0x5, 0x7,
0xe, 0x2, 0x5, 0xf, 0xa, 0x6, 0xe, 0x2, 0x4,
0xe, 0xf, 0x6, 0x3, 0xe, 0x6, 0x0, 0xd, 0x5,
0x6, 0x7, 0x6, 0x7, 0x7, 0x6, 0x6, 0x6, 0x6,
0x7, 0x7, 0x7, 0x5, 0x4, 0x7, 0xd, 0xd, 0x5,
0x6, 0x3, 0x2, 0x9, 0xf, 0x4, 0xf, 0xd, 0x3,
0x4, 0x7, 0x5, 0x3, 0x6, 0x5, 0x4, 0x4, 0x3,
};

static int backbone_model4_conv1_relu2_threshold[64 * 7] =
{ // torch.Size([64, 7])
231, 511, 791, 1071, 1491, 2052, 2892,
159, 283, 406, 530, 715, 962, 1332,
78, 192, 306, 420, 592, 820, 1162,
123, 266, 409, 552, 766, 1052, 1481,
39, 146, 253, 360, 520, 734, 1055,
98, 193, 288, 383, 525, 715, 1000,
75, 196, 316, 436, 617, 858, 1219,
90, 196, 301, 406, 564, 774, 1090,
124, 314, 503, 693, 977, 1357, 1925,
71, 191, 310, 430, 609, 848, 1207,
141, 371, 602, 832, 1178, 1639, 2330,
45, 163, 280, 398, 574, 809, 1162,
132, 289, 447, 604, 841, 1156, 1629,
62, 141, 220, 300, 418, 577, 814,
62, 146, 229, 313, 438, 604, 855,
62, 153, 244, 335, 472, 655, 928,
113, 195, 276, 358, 481, 645, 890,
44, 88, 133, 177, 244, 333, 467,
152, 360, 569, 778, 1091, 1508, 2134,
142, 258, 375, 491, 666, 899, 1248,
67, 216, 365, 514, 738, 1036, 1483,
55, 150, 244, 339, 481, 670, 954,
103, 229, 354, 480, 668, 919, 1295,
72, 154, 235, 317, 440, 603, 849,
19, 164, 308, 452, 669, 957, 1390,
72, 165, 258, 352, 491, 677, 956,
45, 129, 214, 299, 425, 595, 849,
126, 226, 326, 426, 576, 776, 1076,
167, 288, 408, 529, 710, 952, 1314,
54, 149, 243, 338, 480, 669, 952,
51, 130, 210, 289, 408, 566, 804,
115, 198, 281, 364, 489, 655, 904,
153, 312, 471, 630, 868, 1186, 1662,
49, 124, 199, 274, 387, 537, 763,
163, 279, 395, 511, 685, 918, 1266,
88, 211, 334, 457, 641, 887, 1256,
152, 298, 444, 589, 808, 1099, 1536,
29, 107, 186, 264, 382, 539, 775,
98, 319, 539, 760, 1091, 1532, 2193,
80, 179, 279, 379, 528, 727, 1026,
74, 150, 225, 300, 413, 563, 789,
68, 121, 174, 227, 306, 412, 570,
73, 204, 335, 466, 663, 925, 1318,
75, 160, 246, 331, 459, 630, 887,
94, 186, 278, 370, 508, 692, 967,
33, 169, 306, 443, 649, 922, 1333,
36, 215, 393, 572, 839, 1196, 1732,
65, 164, 264, 363, 513, 712, 1010,
69, 196, 323, 450, 640, 894, 1275,
191, 326, 462, 597, 801, 1071, 1478,
144, 255, 365, 476, 642, 864, 1196,
155, 280, 404, 529, 715, 964, 1338,
32, 105, 179, 253, 363, 511, 732,
54, 154, 255, 355, 506, 707, 1008,
45, 143, 241, 339, 486, 682, 976,
23, 107, 191, 275, 401, 569, 820,
86, 176, 267, 358, 494, 675, 947,
140, 303, 466, 629, 873, 1198, 1687,
164, 270, 376, 482, 641, 852, 1170,
113, 202, 291, 381, 515, 693, 961,
123, 368, 613, 858, 1226, 1715, 2450,
100, 305, 511, 717, 1025, 1437, 2054,
96, 192, 288, 384, 528, 720, 1008,
80, 204, 329, 454, 642, 892, 1267,
};

static uint64_t backbone_model4_conv2_conv1_weight[64 * 1*4] =
{ // torch.Size([64, 1, 1, 64])
0x4d44e55514e5e6e9,0xc44cada54345a662,0xeeb574bf3ccd514d,0xe4e5b05d69bcde5a,
0xe3dedcd47ccd632c,0xe42b24ddd65ddced,0xbbd4c4b3d4a5d1bc,0xc5cd55dc5be6d2db,
0xd56cd4dd59d5dd53,0x95c10de6a4f5dd4d,0xd6d7d5cdd6bd5b6b,0x5ded51d35c9cd6c3,
0x3aecc5c276d6dd4e,0xe5635dc306bcd465,0xed467d6ecda74c05,0xdeb6cdbe5bbceddd,
0x55454cbc42555443,0xdd56d269d51d4fdc,0x6546d4660466355e,0x4d641a6459cb65d4,
0xc60ead4365616d4d,0x66f9344356c24255,0xce5d635c6b245d54,0xeb56d54552d55d9c,
0x6eb6b932ecccb565,0xe36645efec2d25ea,0x52b5544ceed6e6ee,0x6cd5bd4ee65ecfe6,
0xccdeee5e35d2dced,0xc644e44ec66d4d3c,0xe5d455dec5455ddd,0xe3ece54d76fd3d5d,
0x4e4655b42ada36e5,0x9145b5ce7cbe5446,0xefd25bad0dc4e3dd,0xa65e1b3465c55ea0,
0x53425eb5593e53c6,0x545d5dddd5590366,0xc454b57e5dd5d4f2,0x46540c54446d6cc5,
0xeecddd9c6dcb5ded,0xd3a455d40c544b6b,0xdcc43b4edbd59934,0xc6de13e47cd64deb,
0x6e16ab0d57dd6d55,0xa55e56feebc5d50c,0x3654b2ed5e6c34e5,0x4c59e24d434dced4,
0xaddcdccca5ed5e53,0x59d76d2c6bdde6d5,0xd31cd3d5bd5dd451,0xcec4babdd55dde42,
0x6445a45d616f4546,0xd55b9d5cc5dd5d56,0xb4549dbe49343341,0x5dd5b56461c3c4d4,
0x3dc556bbc46da65a,0xbeeb3ca4cdc6d54d,0x4ecf59525a0cb4c5,0xc4b54cbdd2404553,
0x5c66eeddd9ec4bdb,0xc52cdede75dd6c06,0xee56dd4ddc5d56e4,0x2aaece3e5ace4ed5,
0xd552c2b456de3265,0xeb7cceddbb4bcc4a,0x545addddad25461d,0x5ddc244d65465ef6,
0xc5d5d65ba0b5c45c,0xdeaee514e5a56fe6,0x56becad634c46da6,0xb45eeee350e5334e,
0x34b4cc4354bdcc54,0xd679d40ec69b5c9d,0xcc449d3b6d34d5eb,0xc2cd563d5354dbe4,
0x47595e59510dbe20,0xc072dacdf5cf546e,0xde5efedcf5d6e1dc,0xd644edd5d34ee5a3,
0xdbe4bd5d7cafdb6e,0xd52daa6d53bb2df6,0xa40feda543c46eee,0x6dde5bc54b46235e,
0xea6ac444e5c4bdb5,0xdc0dcd36fd55d46d,0x545e5d1dd55d66c7,0x46a34d40cd3a1c66,
0x4e69c5ba3c35dd5b,0xcdc555c43e36e5c1,0x45d4dc54ecc5c535,0x36d45da6edd6fe64,
0xb5ed546644d5455c,0xd575de5d55bd7e6c,0xbd5dd56cbbbed0ad,0xde640dcfdc7ed5a3,
0xdeeddd55deedb5ec,0x06652c1f50555cd6,0xddd9ed5fc4dacddd,0xcdb5c4ddd35b1cad,
0xd455e66e1efa6563,0xef9c5ed663e6565d,0x464e5ec66b5e4475,0x3edf56ff5fbbd445,
0x3d5c364b2c555a66,0x54f4634d5a650cc6,0x5d516559de2a55e5,0x545cc155cbd45ef5,
0x56decee56ce4ced5,0xd5545e45b9574d55,0xff1d6e6d36ceedee,0xd6d6ccb6c65d4e04,
0xc5ed45f576543d3e,0xc6566266dc4ae45e,0x45b66422b6d53e64,0x46c6b51635c7246e,
0x55bbbcdceed6ebec,0x0d3ddd66cacbdab1,0xcddccd494729cdc4,0x910e52d642ce465d,
