static uint64_t backbone_model0_conv1_weight[16 * 9] =
{ // torch.Size([16, 3, 3, 3])
0xc33, 0xc34, 0xc33, 0xc33, 0xc44, 0xc33, 0xb32, 0xc33, 0xc33,
0xbc9, 0xddc, 0xbcb, 0x3a2, 0x3c1, 0x3c4, 0x4a4, 0x534, 0x425,
0xb48, 0x853, 0x249, 0xc4a, 0xd59, 0xb59, 0xb4a, 0xd4c, 0xb5b,
0xc23, 0xd33, 0xc33, 0xd32, 0xd44, 0xc33, 0xc4a, 0xc54, 0xc33,
0x32a, 0x323, 0x433, 0x322, 0xbc8, 0xbc1, 0x234, 0xcdb, 0xcdc,
0x433, 0x443, 0x443, 0xbcb, 0x91b, 0x443, 0xdcb, 0xddc, 0x111,
0x433, 0x432, 0x222, 0x444, 0x392, 0xdcc, 0x423, 0xbbb, 0xddc,
0x33b, 0x41c, 0x30c, 0x42c, 0x4ac, 0x43c, 0x31c, 0x39c, 0x42c,
0x94c, 0xc4c, 0xc4c, 0xb4b, 0xb4c, 0xb4c, 0xb4b, 0x34b, 0x24b,
0xb18, 0xdcc, 0xddd, 0x433, 0xab1, 0xccb, 0x433, 0x444, 0x434,
0xb22, 0x913, 0x922, 0x022, 0x4b3, 0x4a2, 0x3b1, 0x4c0, 0x4b0,
0x344, 0x555, 0x544, 0x223, 0x303, 0x182, 0xccc, 0xded, 0xcdc,
0x432, 0xaa9, 0xccc, 0x445, 0x23b, 0xddd, 0x444, 0x334, 0xbab,
0x0b4, 0x3c4, 0x2c4, 0x3c4, 0x4c4, 0x4d4, 0x3c3, 0x4c3, 0x4c4,
0x2c4, 0x3c3, 0x3c4, 0x0c4, 0x3d3, 0x3d3, 0x2c3, 0x3d3, 0x4c4,
0xccc, 0xccc, 0x322, 0xcdc, 0xb9b, 0x444, 0xb03, 0x434, 0x544,
};

static int backbone_model0_relu1_threshold[16 * 7] =
{ // torch.Size([16, 7])
-399, -139, 120, 381, 771, 1292, 2333,
-158, -31, 94, 220, 409, 662, 1167,
-5, 370, 746, 1122, 1687, 2439, 3944,
-1167, -841, -515, -188, 300, 952, 2257,
-480, -335, -190, -45, 171, 460, 1039,
-416, -242, -68, 105, 366, 713, 1409,
-490, -349, -209, -68, 142, 423, 986,
18, 375, 733, 1091, 1628, 2344, 3775,
-742, -492, -243, 6, 380, 879, 1877,
-1404, -1036, -668, -300, 251, 987, 2459,
831, 1013, 1195, 1377, 1650, 2014, 2741,
-425, -280, -135, 10, 227, 517, 1098,
-367, -264, -160, -56, 98, 306, 721,
-224, -12, 199, 410, 728, 1152, 2000,
-771, -544, -318, -92, 247, 699, 1605,
-312, -177, -43, 91, 293, 562, 1101,
};

static uint64_t backbone_model0_conv2_conv1_weight[16 * 1] =
{ // torch.Size([16, 1, 1, 16])
0x4884d0433ccb8343,
0x4b81ba408bbe8b30,
0xca3c4bda335283c2,
0xcb155b0b253322b3,
0x1eea1d35483b44a4,
0x330d4bdbac4390ca,
0xd824b14014c51121,
0x418bca419cac2138,
0x4558323d32134344,
0x502daab01d4c2021,
0x39c0aa24c1346586,
0x428cc0221c1c0140,
0x941aaa946ab0dcbc,
0xa804d3420bdbaa48,
0x294906295b2b8433,
0x5ba2c3531cca3343,
};

static int backbone_model0_conv2_quant1_threshold[16 * 14] =
{ // torch.Size([16, 14])
-434, -273, -192, -132, -92, -51, -11, 28, 69, 109, 149, 209, 290, 451,
-782, -561, -450, -367, -312, -257, -201, -146, -91, -35, 19, 102, 213, 434,
-366, -225, -154, -100, -65, -30, 5, 40, 76, 111, 147, 200, 271, 413,
-403, -184, -74, 8, 63, 117, 172, 227, 282, 337, 392, 474, 584, 804,
-757, -514, -393, -302, -241, -180, -120, -59, 1, 62, 122, 213, 335, 577,
-739, -506, -389, -302, -243, -185, -126, -68, -10, 48, 106, 194, 310, 544,
-390, -214, -127, -61, -17, 25, 69, 113, 157, 200, 244, 310, 397, 573,
-612, -431, -340, -272, -227, -182, -136, -91, -46, 0, 44, 112, 203, 384,
-507, -121, 71, 216, 313, 409, 506, 602, 699, 796, 892, 1037, 1230, 1616,
-943, -688, -560, -464, -401, -337, -273, -209, -145, -81, -17, 77, 205, 461,
-651, -317, -150, -25, 58, 141, 225, 308, 392, 475, 559, 684, 851, 1185,
-563, -386, -297, -231, -186, -142, -98, -54, -9, 34, 78, 145, 233, 410,
-730, -478, -353, -258, -195, -132, -70, -7, 55, 118, 181, 275, 401, 653,
-648, -408, -288, -198, -138, -78, -18, 41, 101, 161, 221, 311, 431, 671,
-616, -292, -130, -8, 72, 153, 234, 315, 396, 477, 558, 679, 842, 1166,
-546, -329, -220, -139, -84, -30, 23, 78, 132, 186, 241, 322, 431, 648,
};

static uint64_t backbone_model0_conv2_conv2_weight[16 * 9] =
{ // torch.Size([16, 3, 3, 1])
0x2, 0x3, 0x3, 0xb, 0xd, 0xd, 0x3, 0x3, 0x3,
0x0, 0x9, 0xa, 0x2, 0xc, 0xc, 0x8, 0xc, 0xc,
0x0, 0x2, 0x4, 0xa, 0xa, 0x3, 0xa, 0xd, 0xd,
0x2, 0x1, 0xa, 0x3, 0xa, 0xd, 0x3, 0xe, 0xa,
0xb, 0x8, 0xa, 0x8, 0x3, 0x4, 0x2, 0x4, 0x5,
0x3, 0x8, 0xb, 0xa, 0x6, 0xb, 0xb, 0x2, 0x5,
0x2, 0x0, 0xa, 0x3, 0x4, 0xd, 0x1, 0x5, 0xd,
0xa, 0xb, 0x3, 0x3, 0x5, 0x3, 0x2, 0xc, 0xd,
0xb, 0xa, 0x2, 0x9, 0x4, 0x4, 0x0, 0x4, 0x5,
0x2, 0x1, 0xb, 0x3, 0x4, 0xd, 0x4, 0x4, 0xd,
0x3, 0x3, 0x4, 0x3, 0xb, 0xc, 0x3, 0xc, 0xe,
0x2, 0xa, 0xb, 0xa, 0xd, 0x3, 0xb, 0x3, 0x5,
0x4, 0x2, 0x4, 0x2, 0xb, 0xc, 0x3, 0xd, 0xd,
0x0, 0x3, 0xb, 0x0, 0x3, 0x6, 0xb, 0xb, 0x3,
0xa, 0xa, 0xb, 0x2, 0x3, 0x4, 0x3, 0x4, 0x4,
0x2, 0x2, 0x3, 0x2, 0xb, 0xc, 0x1, 0xd, 0xd,
};

static int backbone_model0_conv2_relu2_threshold[16 * 7] =
{ // torch.Size([16, 7])
51, 133, 216, 298, 422, 587, 916,
-103, -51, 0, 52, 131, 235, 443,
40, 148, 255, 363, 524, 739, 1169,
-62, 16, 94, 173, 291, 448, 763,
-84, -13, 56, 127, 233, 375, 658,
-11, 55, 121, 187, 286, 418, 682,
88, 152, 216, 280, 376, 504, 760,
44, 96, 148, 201, 279, 383, 592,
45, 77, 110, 142, 191, 255, 385,
25, 102, 179, 256, 371, 524, 831,
-153, -82, -10, 61, 169, 312, 599,
51, 114, 178, 241, 336, 463, 716,
-102, -46, 10, 66, 151, 263, 489,
-80, -16, 46, 110, 205, 332, 586,
-114, -58, -1, 54, 138, 250, 475,
-102, -29, 43, 117, 227, 373, 666,
};

static uint64_t backbone_model1_conv1_conv1_weight[16 * 1] =
{ // torch.Size([16, 1, 1, 16])
0x4c9c059d209da939,
0x2abb58b05bcb5b03,
0x0543020b3a3333b9,
0x330300ca4ec39289,
0xcb1db38bcb999ac9,
0x3bd8b3bac34bca31,
0x31c8986b3acbbb9b,
0x31d1413931d34c2b,
0x343ad4022aa0c2c9,
0xca1a2219b0db403d,
0x232d130d2a2d33c4,
0xa5aa1424ba9baaaa,
0x432023b319122153,
0xc3041341a4485b1d,
0x040cb513099420ca,
0xca3a3aaba0cb2533,
};

static int backbone_model1_conv1_quant1_threshold[16 * 14] =
{ // torch.Size([16, 14])
-609, -405, -303, -226, -175, -124, -73, -22, 28, 79, 130, 206, 308, 513,
-518, -306, -200, -121, -68, -15, 37, 90, 142, 195, 248, 328, 433, 645,
-331, -129, -27, 47, 98, 149, 199, 250, 301, 351, 402, 478, 579, 782,
-561, -368, -272, -199, -151, -103, -55, -7, 40, 89, 137, 209, 305, 498,
-751, -567, -475, -406, -359, -313, -267, -221, -175, -129, -83, -14, 77, 261,
-557, -372, -280, -211, -165, -119, -72, -26, 19, 65, 111, 181, 273, 458,
-415, -258, -180, -121, -82, -42, -3, 35, 74, 114, 153, 212, 290, 447,
-630, -423, -319, -242, -190, -138, -87, -35, 16, 67, 119, 197, 300, 507,
-484, -306, -217, -151, -106, -62, -18, 26, 70, 115, 159, 226, 314, 492,
-605, -419, -326, -256, -210, -163, -117, -70, -24, 22, 68, 138, 231, 417,
-724, -458, -325, -225, -158, -92, -25, 40, 107, 173, 240, 339, 472, 738,
-529, -308, -198, -115, -60, -5, 50, 105, 160, 215, 270, 353, 463, 684,
-347, -122, -10, 73, 129, 186, 242, 298, 354, 410, 466, 551, 663, 888,
-453, -245, -141, -62, -10, 41, 93, 145, 197, 249, 302, 380, 484, 693,
-556, -335, -224, -141, -86, -31, 24, 79, 134, 189, 245, 327, 438, 659,
-441, -265, -178, -112, -68, -24, 19, 62, 106, 150, 194, 260, 347, 523,
};

static uint64_t backbone_model1_conv1_conv2_weight[16 * 9] =
{ // torch.Size([16, 3, 3, 1])
0x2, 0x9, 0xb, 0x0, 0x6, 0xa, 0xb, 0x4, 0xb,
0x3, 0x4, 0xa, 0x3, 0x6, 0x9, 0x9, 0x1, 0x2,
0xb, 0xc, 0xb, 0xb, 0xc, 0xc, 0xa, 0x6, 0x1,
0x9, 0x2, 0x0, 0xb, 0xe, 0xb, 0x2, 0xc, 0x2,
0xb, 0xa, 0xa, 0x2, 0x6, 0xa, 0xb, 0x3, 0xb,
0x8, 0xa, 0x1, 0x8, 0x2, 0xb, 0xb, 0x6, 0x3,
0x0, 0xa, 0x1, 0x9, 0x6, 0xb, 0x3, 0x3, 0xa,
0xa, 0x3, 0xb, 0x0, 0xd, 0xa, 0x0, 0xd, 0x9,
0xb, 0x0, 0x0, 0xb, 0xb, 0x2, 0xb, 0x5, 0x5,
0x2, 0x3, 0x2, 0x9, 0x6, 0x2, 0xb, 0x9, 0x8,
0x0, 0x3, 0xa, 0xb, 0x6, 0x1, 0x0, 0x3, 0xb,
0x3, 0x5, 0x5, 0xa, 0x3, 0x1, 0xc, 0xc, 0xc,
0x9, 0xc, 0xa, 0x8, 0x9, 0x0, 0x3, 0x6, 0x2,
0x0, 0x3, 0xa, 0xb, 0x6, 0x0, 0x2, 0x3, 0x9,
0xc, 0xd, 0x4, 0xc, 0xe, 0x0, 0x3, 0x3, 0x3,
0x0, 0x1, 0x1, 0xa, 0x6, 0x1, 0xa, 0xc, 0x3,
};

static int backbone_model1_conv1_relu2_threshold[16 * 7] =
{ // torch.Size([16, 7])
-227, -153, -80, -7, 102, 249, 542,
-226, -130, -34, 61, 205, 397, 781,
-112, -59, -5, 47, 127, 234, 448,
-238, -129, -21, 87, 249, 466, 900,
-309, -226, -143, -60, 64, 229, 561,
-151, -86, -21, 44, 142, 273, 534,
-180, -74, 32, 138, 297, 510, 935,
-167, -102, -36, 29, 127, 259, 521,
-133, -69, -5, 58, 155, 283, 539,
-271, -187, -102, -18, 107, 276, 613,
-86, -31, 22, 76, 158, 266, 483,
-127, -79, -31, 16, 87, 183, 375,
-28, 25, 79, 133, 214, 322, 538,
-267, -175, -83, 7, 145, 328, 695,
-147, -60, 26, 113, 243, 416, 763,
-121, -56, 8, 73, 171, 301, 562,
};

static uint64_t backbone_model1_conv2_conv1_weight[64 * 1] =
{ // torch.Size([64, 1, 1, 16])
0xc13113ba9d413b02,
0x3bc222ab43a2d9ab,
0x483a1241cdb4c332,
0xa3b32cdaa23b904b,
0x43c1abbcc3cbab59,
0xabca22b3cba3dbb1,
0x233cc3520a343c39,
0xbb40aa4d3144bb80,
0x210ba4b41d33b333,
0x4140a141bb551b2b,
0xb250cb42d228229b,
0xc1c13b2ed330ab13,
0x4543293249bc432c,
0x3a33a35038c3b609,
0xc3b45c1bc04ca4bb,
0x4acab41ad3bbc358,
0x0301abcc248b5310,
0xad3b348384241c24,
0xbc533394b2bb209e,
0x2a912a1b40b43ae2,
0xc003b32bd0a29b40,
0xd2333108da320b00,
0xcb392b9b24a069c2,
0xac2a359a82123095,
0x2699cc0b294c232b,
0x9b14eab50a1aa3b2,
0xd3104aca9c5b3c4a,
0x3ab40cbcb4ad11ba,
0x3c2ba220aa59bda9,
0xbdaa242229343115,
0xa4898aaa323e3c48,
0x33bbb3d34b2c3c8b,
0x432cc2a4b1c4343a,
0x33420c3a4abbaabe,
0xd8433b2d4a09ca81,
0x511392c34acb025b,
0xa4d420bb4c80c002,
0xca3cbd39c4b2483c,
0xcb3328d14c5c41c2,
0xd10c83bbc3244c32,
0x3231b3a2d3adaa43,
0xc0449843c34ccd49,
0xac32a12915a2a2ca,
0x425299342cb18440,
0x2bb134caa0dc9052,
0x4b3412503391043b,
0x1b243425229ab38d,
0xcc235bcb245cadab,
0x29210b00b6aab81a,
0x4ac889043d83d2bb,
0x0ca435c323938a45,
0x2c8bc3c9823b0d4a,
0x44a52a9c430b3324,
0x2aac5b3b3bb30a3c,
0xc2d13ab92c41d422,
0x443db9243aa3314b,
0x22343220100d293d,
0x0b4333341090ba5b,
0xa382bdbc2cbc941d,
0xbb2bb35bd3c30c32,
0x25a2bb3a29bc83bc,
0xb254a8a1055b5232,
0xc4333c53b033b2c2,
0xbb18ab13bbb2b2cd,
};

static int backbone_model1_conv2_quant1_threshold[64 * 14] =
{ // torch.Size([64, 14])
-599, -395, -293, -216, -165, -114, -63, -12, 38, 89, 140, 216, 318, 523,
-757, -535, -424, -340, -285, -229, -174, -118, -63, -7, 47, 131, 242, 464,
-579, -333, -210, -118, -57, 3, 65, 126, 187, 249, 310, 402, 525, 770,
-926, -600, -437, -315, -233, -151, -70, 11, 92, 174, 255, 378, 541, 867,
-713, -506, -402, -325, -273, -221, -169, -117, -66, -14, 37, 114, 218, 425,
-1013, -736, -597, -494, -424, -355, -286, -216, -147, -78, -8, 95, 233, 510,
-535, -260, -122, -19, 49, 117, 186, 255, 324, 392, 461, 564, 702, 976,
-526, -304, -193, -110, -54, 0, 56, 112, 167, 223, 278, 362, 473, 695,
-615, -364, -238, -144, -81, -19, 43, 106, 169, 231, 294, 388, 514, 765,
-397, -158, -39, 50, 110, 169, 229, 289, 349, 409, 468, 558, 678, 917,
-636, -388, -263, -170, -108, -46, 15, 77, 140, 202, 264, 357, 481, 730,
-1335, -922, -716, -561, -458, -355, -252, -149, -46, 57, 160, 315, 521, 933,
-570, -305, -173, -74, -8, 58, 124, 190, 256, 322, 388, 487, 619, 884,
-711, -345, -162, -25, 65, 157, 248, 340, 431, 522, 614, 751, 934, 1300,
-1078, -725, -549, -416, -328, -240, -152, -63, 24, 112, 200, 333, 509, 862,
-853, -593, -463, -365, -300, -235, -170, -105, -40, 24, 89, 187, 317, 577,
-674, -424, -299, -205, -143, -80, -18, 44, 106, 169, 231, 325, 450, 700,
-728, -436, -289, -180, -107, -34, 38, 112, 185, 258, 331, 440, 587, 879,
-1356, -935, -725, -567, -462, -357, -252, -147, -41, 63, 168, 326, 536, 957,
-826, -532, -385, -275, -201, -128, -55, 18, 91, 165, 238, 349, 496, 790,
-733, -508, -396, -312, -256, -199, -143, -87, -31, 24, 80, 165, 277, 502,
-833, -555, -416, -312, -242, -172, -103, -33, 35, 105, 174, 279, 418, 696,
-882, -541, -371, -243, -157, -72, 12, 97, 183, 268, 353, 481, 652, 993,
-695, -379, -222, -103, -24, 53, 132, 211, 290, 369, 448, 566, 724, 1039,
-1025, -611, -404, -248, -145, -41, 61, 165, 268, 372, 475, 630, 838, 1252,
-953, -652, -501, -388, -312, -237, -161, -86, -10, 64, 140, 253, 404, 705,
-873, -582, -436, -327, -254, -182, -109, -36, 36, 109, 182, 291, 436, 728,
-946, -665, -525, -419, -349, -279, -209, -138, -68, 1, 71, 177, 317, 598,
-663, -444, -334, -252, -197, -142, -87, -32, 21, 76, 131, 213, 323, 542,
-530, -266, -134, -35, 30, 96, 162, 228, 294, 360, 426, 525, 657, 921,
-1121, -773, -600, -470, -383, -296, -209, -122, -35, 50, 137, 268, 441, 788,
-886, -637, -513, -420, -358, -295, -233, -171, -109, -47, 15, 108, 232, 481,
-554, -301, -175, -80, -17, 45, 108, 171, 235, 298, 361, 456, 582, 835,
-1126, -752, -566, -426, -332, -239, -146, -52, 40, 134, 227, 367, 554, 927,
-685, -464, -354, -271, -215, -160, -105, -50, 5, 60, 115, 198, 309, 530,
-804, -514, -369, -260, -187, -115, -42, 29, 102, 174, 247, 356, 501, 791,
-810, -564, -441, -349, -288, -227, -165, -104, -43, 18, 79, 171, 294, 539,
-815, -539, -401, -298, -229, -160, -91, -22, 45, 114, 183, 287, 424, 700,
-871, -576, -429, -318, -244, -170, -97, -23, 50, 124, 197, 308, 456, 751,
-688, -452, -334, -246, -187, -128, -69, -10, 48, 107, 166, 254, 372, 608,
-782, -533, -409, -316, -254, -192, -129, -67, -5, 56, 118, 211, 336, 584,
-925, -595, -430, -307, -224, -142, -59, 22, 105, 187, 270, 393, 558, 888,
-493, -297, -198, -125, -76, -27, 22, 71, 120, 169, 218, 292, 390, 586,
-469, -194, -56, 46, 114, 183, 252, 321, 389, 458, 527, 630, 767, 1042,
-1122, -767, -590, -457, -368, -279, -190, -102, -13, 75, 164, 297, 474, 829,
-382, -152, -37, 48, 105, 163, 220, 278, 335, 393, 450, 537, 652, 882,
-608, -367, -246, -156, -96, -36, 23, 84, 144, 204, 264, 355, 475, 716,
-1022, -710, -553, -436, -358, -280, -201, -123, -45, 32, 110, 228, 384, 697,
-707, -425, -283, -177, -107, -36, 34, 104, 175, 246, 316, 422, 564, 846,
-825, -563, -432, -334, -269, -203, -138, -73, -7, 57, 122, 221, 351, 613,
-837, -500, -332, -205, -121, -37, 46, 131, 215, 299, 383, 510, 678, 1015,
-892, -654, -535, -446, -386, -327, -267, -208, -148, -89, -29, 59, 178, 416,
-505, -253, -128, -34, 28, 91, 154, 216, 279, 342, 405, 499, 624, 875,
-455, -267, -172, -102, -55, -7, 39, 86, 133, 180, 227, 298, 392, 581,
-907, -609, -459, -347, -273, -198, -123, -49, 25, 100, 174, 286, 436, 734,
-565, -310, -182, -86, -23, 40, 104, 168, 231, 295, 359, 455, 582, 837,
-876, -598, -460, -356, -286, -217, -148, -78, -9, 59, 129, 233, 371, 649,
-421, -208, -102, -23, 29, 83, 136, 189, 242, 295, 348, 427, 534, 746,
-1174, -855, -695, -575, -496, -416, -336, -256, -176, -97, -17, 102, 262, 581,
-691, -441, -316, -222, -159, -97, -34, 27, 90, 152, 215, 309, 434, 684,
-837, -548, -404, -295, -223, -151, -79, -7, 65, 137, 209, 317, 462, 751,
-668, -322, -149, -20, 66, 152, 239, 325, 412, 498, 585, 714, 887, 1233,
-659, -365, -218, -107, -34, 39, 112, 186, 259, 333, 406, 516, 663, 958,
-859, -611, -487, -393, -331, -269, -207, -145, -83, -21, 40, 133, 257, 505,
};

static uint64_t backbone_model1_conv2_conv2_weight[64 * 9] =
{ // torch.Size([64, 3, 3, 1])
0x4, 0xc, 0x9, 0x5, 0x3, 0xc, 0xb, 0x5, 0xc,
0x2, 0xc, 0x2, 0x3, 0xd, 0x3, 0x1, 0xc, 0x3,
0x1, 0xb, 0x4, 0x4, 0x5, 0x9, 0x5, 0xc, 0xc,
0x4, 0x5, 0x4, 0x4, 0xc, 0xb, 0xc, 0xc, 0xc,
0xb, 0x4, 0x4, 0xb, 0xc, 0x3, 0xb, 0xe, 0xb,
0x4, 0xd, 0xd, 0x4, 0xc, 0xb, 0x4, 0x3, 0x9,
0x3, 0x0, 0x4, 0x4, 0x4, 0x4, 0xa, 0xc, 0xb,
0xa, 0xc, 0xa, 0x5, 0x4, 0x4, 0xb, 0xd, 0xc,
0xb, 0x4, 0x4, 0x8, 0x5, 0xb, 0x4, 0x9, 0x8,
0x4, 0x4, 0x2, 0xb, 0xd, 0xc, 0x2, 0x4, 0x3,
0xa, 0xa, 0xb, 0x1, 0xd, 0x1, 0xb, 0xd, 0x4,
0x9, 0xa, 0x3, 0x2, 0x5, 0x3, 0x5, 0x4, 0xc,
0x3, 0x2, 0x4, 0x3, 0x0, 0xa, 0x8, 0xe, 0x9,
0xa, 0xc, 0xb, 0x2, 0xc, 0xd, 0x9, 0xb, 0xb,
0xa, 0xa, 0xc, 0x0, 0xd, 0xc, 0x8, 0xc, 0x9,
0x2, 0xa, 0xc, 0x1, 0x2, 0xd, 0xb, 0xb, 0xb,
0xd, 0xd, 0xd, 0x9, 0x2, 0xb, 0x3, 0x4, 0x0,
0xc, 0x2, 0x3, 0xd, 0xa, 0x5, 0xd, 0x1, 0x4,
0x9, 0xb, 0xd, 0x2, 0xa, 0xa, 0x3, 0xc, 0xc,
0x1, 0x3, 0xc, 0xb, 0x4, 0x1, 0xc, 0x5, 0x5,
0xc, 0x1, 0x4, 0xa, 0xc, 0x3, 0x4, 0x9, 0xd,
0x4, 0xc, 0xc, 0x5, 0x2, 0xb, 0x3, 0x4, 0x3,
0x3, 0x3, 0x3, 0x3, 0xc, 0xc, 0xc, 0xe, 0xc,
0xc, 0xc, 0xc, 0x0, 0xc, 0xb, 0x2, 0x6, 0x4,
0xb, 0x2, 0x3, 0xd, 0x4, 0x4, 0xc, 0x4, 0x5,
0x8, 0x2, 0x9, 0x2, 0x5, 0x4, 0x9, 0x3, 0x3,
0xc, 0x3, 0x3, 0xd, 0xb, 0x4, 0x3, 0xd, 0x2,
0x0, 0x4, 0x0, 0x5, 0xc, 0xb, 0x5, 0xc, 0x9,
0xa, 0xd, 0xb, 0x2, 0x6, 0x4, 0xb, 0x0, 0x3,
0xb, 0x4, 0x4, 0xc, 0x3, 0x6, 0xc, 0xd, 0x3,
0xa, 0xb, 0xb, 0xb, 0x2, 0xa, 0x9, 0x6, 0x5,
0x4, 0x4, 0xa, 0x4, 0x3, 0xc, 0x2, 0xd, 0xc,
0x2, 0x3, 0x5, 0xc, 0xd, 0xc, 0x9, 0x3, 0xb,
0xb, 0xd, 0xc, 0x1, 0x1, 0x3, 0x4, 0x5, 0x4,
0x4, 0x4, 0x4, 0xb, 0xd, 0xc, 0xa, 0x3, 0x2,
0x2, 0x8, 0xc, 0x3, 0x2, 0xd, 0x4, 0x2, 0xd,
0x2, 0xb, 0xa, 0x9, 0x3, 0x3, 0xb, 0x5, 0x5,
0x3, 0x5, 0x4, 0x0, 0x3, 0x4, 0xc, 0xc, 0xb,
0x4, 0x1, 0xc, 0xb, 0x6, 0x8, 0xb, 0xb, 0x4,
0x4, 0xb, 0x0, 0x2, 0x9, 0x0, 0x1, 0x6, 0x3,
0xb, 0xb, 0x4, 0xc, 0x4, 0x4, 0x2, 0x5, 0xc,
0xb, 0x2, 0x5, 0x2, 0x5, 0x4, 0x3, 0x2, 0x0,
0x1, 0x3, 0x2, 0xc, 0x4, 0xb, 0xb, 0x5, 0xc,
0x9, 0xb, 0x3, 0xc, 0xb, 0x5, 0x3, 0x5, 0xb,
0xb, 0x3, 0x3, 0xb, 0x4, 0x4, 0xc, 0xc, 0x5,
0x2, 0x2, 0xa, 0xb, 0x5, 0x4, 0xc, 0xd, 0xb,
0xb, 0x9, 0x4, 0xd, 0x8, 0x5, 0xc, 0x2, 0x2,
0x8, 0x3, 0xb, 0xb, 0xb, 0x2, 0xb, 0xe, 0xb,
0x0, 0xc, 0x0, 0x2, 0xd, 0xb, 0xa, 0xc, 0x1,
0x2, 0x0, 0x3, 0xc, 0x5, 0x6, 0xb, 0xc, 0x9,
0x2, 0xc, 0xd, 0x4, 0x1, 0xd, 0x6, 0x4, 0x8,
0xb, 0xa, 0xa, 0xb, 0xd, 0xc, 0x9, 0x0, 0x0,
0x4, 0x3, 0xd, 0x5, 0x2, 0xd, 0x0, 0x3, 0xd,
0xc, 0xc, 0xb, 0xb, 0x3, 0x2, 0x3, 0x5, 0x3,
0x4, 0x5, 0x4, 0x4, 0x2, 0x3, 0xa, 0xd, 0xc,
0x0, 0x0, 0xd, 0xb, 0xd, 0xb, 0xa, 0x4, 0x5,
0x3, 0x4, 0x4, 0x2, 0x3, 0x2, 0x9, 0xd, 0xc,
0x9, 0xc, 0xb, 0xb, 0xc, 0x4, 0xb, 0x3, 0x5,
0xc, 0xd, 0xc, 0x8, 0xb, 0xc, 0x3, 0x3, 0x4,
0x2, 0x4, 0xc, 0x1, 0x3, 0xb, 0x5, 0x5, 0x0,
0x3, 0x5, 0x4, 0x4, 0x2, 0xa, 0x4, 0xd, 0xc,
0x4, 0x4, 0x2, 0x4, 0x3, 0x3, 0xc, 0xd, 0xd,
0x8, 0x2, 0x1, 0x3, 0xc, 0x3, 0x1, 0xe, 0xc,
0x5, 0x5, 0xb, 0x5, 0x8, 0xc, 0x5, 0xb, 0xd,
};

static int backbone_model1_conv2_relu2_threshold[64 * 7] =
{ // torch.Size([64, 7])
-13, 37, 88, 139, 216, 318, 523,
27, 72, 116, 161, 227, 316, 494,
-1, 45, 92, 139, 210, 304, 491,
27, 63, 98, 134, 187, 258, 401,
-100, -4, 92, 188, 333, 526, 912,
-45, 12, 71, 129, 217, 333, 567,
-15, 25, 66, 108, 170, 252, 418,
52, 106, 159, 212, 292, 398, 611,
-2, 40, 83, 126, 191, 277, 449,
53, 97, 141, 185, 250, 338, 514,
28, 94, 160, 226, 325, 457, 721,
8, 59, 110, 161, 237, 339, 543,
-6, 41, 89, 137, 209, 305, 498,
42, 83, 124, 164, 225, 306, 468,
-17, 44, 105, 167, 259, 382, 628,
-77, -16, 43, 104, 194, 315, 557,
18, 72, 126, 181, 262, 371, 589,
55, 92, 128, 165, 220, 294, 440,
-24, 33, 90, 148, 235, 350, 581,
-57, 11, 79, 147, 250, 386, 659,
-36, 10, 58, 105, 176, 271, 460,
34, 76, 117, 158, 220, 303, 468,
-26, 37, 102, 167, 264, 393, 652,
6, 64, 122, 179, 266, 381, 612,
5, 43, 80, 117, 173, 248, 397,
34, 69, 104, 139, 191, 261, 401,
12, 56, 100, 143, 209, 297, 472,
34, 73, 111, 149, 207, 283, 436,
51, 123, 194, 266, 373, 516, 802,
81, 133, 186, 238, 317, 422, 632,
37, 99, 161, 223, 316, 439, 687,
-15, 37, 89, 141, 219, 324, 533,
45, 87, 130, 173, 238, 324, 495,
0, 52, 104, 156, 233, 337, 544,
15, 62, 109, 156, 226, 320, 507,
-26, 19, 66, 113, 183, 276, 463,
-12, 48, 108, 169, 260, 382, 625,
41, 85, 129, 173, 240, 328, 505,
48, 100, 152, 203, 281, 385, 592,
-83, 4, 92, 179, 311, 486, 836,
8, 53, 98, 144, 212, 303, 484,
-8, 39, 87, 134, 206, 302, 493,
37, 75, 112, 150, 207, 282, 433,
22, 68, 114, 160, 229, 320, 504,
56, 95, 133, 171, 229, 306, 460,
40, 85, 130, 175, 242, 332, 512,
50, 87, 123, 159, 213, 285, 429,
-63, 24, 111, 198, 329, 503, 851,
-48, 10, 68, 126, 213, 330, 562,
-21, 46, 113, 181, 282, 417, 687,
10, 97, 183, 270, 400, 573, 919,
-6, 38, 83, 128, 195, 284, 463,
11, 68, 125, 181, 266, 380, 607,
111, 149, 188, 226, 284, 361, 515,
-28, 32, 92, 152, 243, 364, 605,
47, 96, 145, 195, 269, 367, 565,
46, 76, 105, 135, 180, 239, 358,
40, 80, 121, 161, 222, 302, 464,
25, 90, 155, 220, 317, 448, 708,
-34, 36, 107, 177, 283, 425, 707,
39, 81, 123, 165, 228, 312, 479,
25, 65, 105, 145, 205, 284, 444,
26, 101, 177, 252, 366, 517, 819,
21, 70, 120, 169, 243, 341, 538,
};

static uint64_t backbone_model2_conv1_conv1_weight[64 * 1*4] =
{ // torch.Size([64, 1, 1, 64])
0xb393c323ad35b802,0xc443bb58443381c4,0xa3333cab24c1cb53,0x4cb44339432bbb41,
0xc0334c34a449524b,0x4c3a3cc8334bbb4b,0x29a2c45144b349c1,0x243410c2bba439b0,
0x02423cb44a4a24cd,0x2485a9cbc8c4a21b,0xc30c333203abc42c,0x5039b92c2b4b1343,
0x3bba03abca85a4dc,0x1abc23b33bad4abb,0x1a9c92b33cc22c3b,0x39c91ccbbb4b9320,
0xc3444c44455a4c44,0x433133343244db52,0xc5cb4c43b4333ca2,0x2a4c2b43cc3b444a,
0x1b1b35bc54bcb3cc,0x1b3b33c4db9cc43b,0xb3cbc302bc1bb4b3,0x2cbbb34a2dabbbbb,
0x24bb4c4cba241b3a,0xa2234534bbcdc33c,0x42b944b3c294841d,0xc4cccb032c44c442,
0x1542ac43344382bb,0x48434132bcabb423,0x54b21a1232bba9a1,0x343b434b4a5d40cb,
0xb34abbc8cc33bbc2,0x4d24ae31cbb23c3a,0x4c84c222b42a33cc,0x9441b3a3c1442cdd,
0x3cc53c24134b4c0a,0x4b3c4b4443ba28c4,0x34b5223244418294,0x93443ca5b43b443c,
0x204b09a4bd254352,0xb4a22d204a323cb0,0x914c3424245c3b9c,0x424a35cc045ab2bc,
0x3c0c4b4b34244343,0x44225534c4bc1a93,0xb44ab4b59b343448,0x48cc2cac3034c324,
0x444ca30c435bb28b,0x3840b33ac433a3b4,0xd429b49c4b8ba3b4,0x3dcc235a43bda32b,
0x53c24c4ca1343bc2,0xa4ca4435331a3bdc,0x120c3083c2a18c5c,0x4a1c3bc9cb4ab352,
0xcbccc43bb2cbb2ba,0xa2b4ccccc1802dbc,0x1aadc4cc3ecc33b3,0x3b2c04bcbc92bd83,
0xcc0b4d43b3abb9ac,0x2a3ab2bbb4cbb3bb,0x1bcbc4b23c3a44c8,0x4330c43bc2824acc,
0xb14ab0b4b3a04434,0x0c4bc3dca43b25a4,0x3340c43a2b334c9a,0x53a3a44c4a4abc44,
0x8c4b342b3a44bc52,0xa282424584034b44,0x433a0433c5434b31,0xcb014c9bd234c34c,
0x3c95bca4b3b43513,0x434cc40ccd4b45b4,0xc344b95a5abbbc43,0xc3c3dc4043b03b3c,
0xc9abc4dc43ccb03c,0xb11bb3daa1aac389,0xcc023b9cac3344b2,0xc3dad19b9bd49d04,
0xb8c4228482305542,0xc820a350b2425294,0x94c1bc324444a1c4,0x3c3a9a2ba40493c4,
0xb45b3a23324b204c,0x5d4bb308c3403351,0x354bc15c04b45c93,0x3c1324493c4cc1bb,
0xb9cc3bbcc3434940,0x43bcb4cc3c415cac,0x43cc3ab5c03a2bb0,0x3dcc4bcc23b33c51,
0xcc300039b1443b94,0x4cd4bbc0dc23842c,0x49cc3acc0bbcb23c,0x84cbc803cb3333bc,
0x43b3492b1cca34c0,0x12dab39a3cccb421,0x4c1c33b29a280319,0x05c3bd10b23c244b,
0xcc8c02b3c01c9945,0x1c2cc2bab40c8933,0x2393d32b40882cc4,0x5338c2c499a4c380,
0xac5404c12c4c4234,0x3b3c4db39945d420,0xbc33cb3a35c543ab,0x44b4b4383c4a0bbc,
0xbbcca34cbab134bc,0x23bd3aaa83b14049,0x4cb0c1243ccac3cb,0x3b4538bc1bbd9b9b,
0x3d405b33acacbc34,0xb5acb83233b1344a,0x3b334223b3444942,0x4ab42c02c4b344bc,
0xab0b0c5825a42d85,0x43bc30c931cb2c2b,0x3c0b4da0bbbbcb38,0xbb3b4cc4cb0b3c11,
0x4cc44cb39c2d4b1d,0xa24243acbb3accb3,0xc4aa424441533243,0x80513bccb234233b,
0xa5acccbc43ca4d4a,0x4c44321bcb31b5b4,0xc4d413cbd09bb4c9,0xb3c83b5442bb33ab,
0xdc443b34434a5c3a,0x4c4d394439bcc345,0x14b3a242a23bbbb4,0x25239c50249944bb,
0xab2cbb3cc9b333b2,0x234848ccc1b0a2b3,0xdb3944c3bb2a33ad,0x54bdbb2b2a59ab38,
0xaccbcabb4a04a34c,0xc00cb213542d4930,0x4b434202b4434193,0x38054ba583c52394,
0xd4410db314c4b53b,0x44bd3a2304848ab3,0xa2e9b34298212cda,0x3340b84b333c333a,
0xbbacb20ccbb33433,0xa33ca52145433ca3,0xc85ab4203c355b40,0x394cccbab333cc54,
0x3bb02c4ba39303db,0xbbba3a13a3cc4ccc,0x3b4db3c230a8534c,0x32a433ccba5aca42,
0xad99943b4bac23b3,0x0bcd4b393c3b3c4b,0x2cca3d21c3aaccab,0xbbc550c3c33ca393,
0x1c33c95454303842,0x538c5944c5232a44,0x0c34354404244c94,0x3c535bc4433b44c4,
0x3ab43cc4cbac4442,0xaabaa24b2030bbd3,0xcb913aa35931ab44,0x34c3a8bc15304a29,
0x0b4cb3b2cda43b93,0xcd3aac03332ba4b1,0x3b44d3bc249413ad,0xb4c4bbad3445aca0,
0xaacab4cd21bba1c8,0xdc4ccbca48a2b403,0xb1a3cdcc0cbcc4a3,0xcaa3b2545abbbac0,
0x53c4b04333bc44ab,0xbdc403224d0ca4c9,0x2daa13ac543cb4c9,0xcc3444413caa33b3,
0xcc2c292b322bbc43,0x2a4b2c44c1b5bb44,0x94c9cb54d3421890,0x0c410cbbaa84cb3b,
0xaa2c324b2494b2c4,0x52a0cb4ac4a22ad3,0x42cbc3b423b2ab9b,0x2bbba0200c3bb40d,
0xabbc344bbc02acb3,0x92c43234bd4c3bcc,0xaacc3cd9c30cca4c,0xccc234b21b02c159,
0x9c403dbbb230435a,0xccb2cb2b295a2cbc,0x4c9c0cbac33b4da3,0xab24bbcaa0c5cb0b,
0x19ac4ccbc233452b,0xa542b4aa443c4cbc,0x2a4b9494c2443a40,0x32411bccbc52cc44,
0x2c234ac4442b232b,0x3ccba3aacdb402b4,0x3cc033c22cc125db,0xcb4ba23ca8c04cbc,
0x42a24b5c4b312bb8,0x240344253d29089a,0x4ab31b12c2c2cc4c,0xc3245dc9c848b458,
0x4c440a2335535441,0x045b4549335b4343,0x3244c54443333c44,0xada54b313024b344,
0xa9b002ca3b4ac8cd,0xdc0ada4349b449bb,0x213441b3a12233a3,0x1b43a0b13202b23b,
0x3c1432343b901a3b,0xcacbbb0349bac3c1,0xbdc442b0333bc3b2,0xa02502a4a4ac3333,
0x44c2334a3b3c902c,0xd2b30424225b4c92,0x3440b344c5423c24,0x9b04443b2c5ad3b4,
0xcb32c59301425343,0xc03c3d333514b345,0xb344c95884443b14,0x3c5a4b0c449ba4d5,
0x3b4914442b44a3c2,0x49a429b324443d3c,0x438db52484b4334d,0x4ba054cbdc40102b,
0xbca243a0c2b211a2,0x3aca10bc33a8accc,0x0c1b38ca3a4b324d,0x554bccd4d2941033,
0xcb3da3bcbabb8445,0x1b2393adc9a33323,0x4c8c03cb9a103bcb,0x4acbc93933232d34,
0x2b33402349ac1c4a,0xac1c0c542c30d234,0x44ca0a3b43b2bcb3,0xcb452b34941c45cc,
0x3bbbd3b233b34440,0xb35433ab9a4d3a40,0xa443c4441cc5ac44,0xdacaabbcab30cc33,
0x4b9833cbb4c9c2c1,0xc42323da44cccc2c,0xcc432302ae34494c,0x933cabccab05bc44,
0x8233cdb2ac34045c,0xb349a22301443c2b,0x23384445c4933a43,0xbd2b3d1c2cacb92a,
0x39044a242a31333b,0xa2b4bc4a4b0b44c8,0x4bc33dc443abc9c3,0x3a25a533a4b143a3,
};

static int backbone_model2_conv1_quant1_threshold[64 * 14] =
{ // torch.Size([64, 14])
-1071, -664, -461, -308, -207, -105, -3, 98, 199, 301, 403, 556, 759, 1166,
-978, -538, -319, -154, -44, 65, 175, 285, 395, 505, 614, 779, 999, 1439,
-970, -638, -472, -347, -264, -181, -98, -15, 67, 150, 233, 358, 524, 856,
-1220, -809, -604, -450, -347, -245, -142, -39, 62, 165, 268, 422, 627, 1038,
-991, -554, -336, -173, -64, 44, 153, 262, 371, 480, 589, 753, 971, 1407,
-1269, -880, -685, -539, -442, -345, -248, -150, -53, 43, 140, 286, 481, 870,
-1128, -714, -507, -352, -248, -145, -41, 61, 164, 268, 371, 527, 733, 1147,
-1036, -637, -438, -288, -189, -89, 10, 109, 209, 309, 408, 558, 757, 1156,
-1328, -888, -667, -502, -392, -282, -171, -61, 48, 158, 268, 434, 654, 1095,
-769, -397, -212, -72, 19, 112, 205, 298, 391, 484, 577, 716, 902, 1273,
-867, -507, -327, -192, -102, -12, 77, 167, 257, 348, 438, 573, 753, 1113,
-724, -341, -149, -6, 89, 185, 281, 377, 472, 568, 664, 808, 1000, 1383,
-1220, -776, -553, -387, -275, -164, -53, 57, 168, 279, 391, 557, 780, 1224,
-1023, -611, -404, -250, -147, -43, 59, 162, 265, 368, 471, 626, 832, 1244,
-1390, -1010, -820, -678, -583, -488, -393, -298, -203, -108, -13, 128, 318, 698,
-970, -627, -456, -327, -242, -156, -70, 14, 100, 186, 271, 400, 571, 914,
-988, -586, -384, -233, -132, -32, 68, 169, 269, 370, 471, 622, 823, 1226,
-729, -377, -201, -69, 19, 107, 195, 283, 371, 459, 547, 679, 855, 1207,
-1108, -675, -459, -297, -188, -80, 27, 135, 243, 351, 460, 622, 838, 1271,
-1408, -975, -759, -596, -488, -380, -272, -164, -56, 52, 160, 322, 538, 971,
-868, -444, -232, -74, 31, 137, 243, 349, 455, 561, 666, 825, 1037, 1460,
-1101, -654, -430, -262, -150, -38, 72, 184, 296, 408, 520, 688, 911, 1359,
-1126, -702, -491, -332, -226, -121, -15, 90, 196, 301, 407, 566, 778, 1201,
-1183, -793, -598, -452, -355, -257, -160, -62, 34, 132, 229, 375, 570, 960,
-1037, -676, -495, -359, -268, -178, -88, 2, 92, 183, 273, 409, 590, 952,
-1079, -676, -475, -324, -223, -122, -22, 78, 179, 279, 380, 531, 732, 1135,
-1034, -611, -399, -241, -135, -29, 76, 182, 288, 394, 499, 658, 870, 1293,
-1004, -670, -504, -378, -295, -212, -128, -45, 38, 121, 205, 330, 497, 830,
-666, -340, -176, -54, 27, 108, 190, 271, 353, 435, 516, 639, 802, 1128,
-1138, -732, -528, -376, -274, -172, -70, 30, 132, 234, 335, 488, 691, 1098,
-952, -592, -412, -277, -187, -97, -7, 82, 172, 262, 352, 487, 667, 1028,
-1194, -774, -564, -406, -302, -197, -92, 12, 117, 222, 327, 485, 694, 1114,
-732, -397, -230, -105, -21, 61, 145, 228, 312, 395, 479, 604, 771, 1105,
-1317, -833, -591, -409, -288, -167, -46, 74, 195, 316, 437, 619, 861, 1345,
-862, -465, -267, -118, -19, 80, 179, 278, 377, 477, 576, 725, 923, 1320,
-1194, -759, -541, -377, -269, -160, -51, 57, 166, 275, 384, 547, 765, 1201,
-1036, -605, -389, -227, -120, -12, 95, 203, 311, 419, 526, 688, 904, 1335,
-964, -613, -438, -306, -218, -130, -43, 44, 132, 220, 308, 439, 615, 966,
-1001, -660, -490, -363, -277, -192, -107, -22, 62, 147, 232, 360, 530, 871,
-758, -336, -125, 33, 138, 244, 350, 455, 561, 666, 772, 930, 1141, 1564,
-1030, -641, -447, -301, -204, -106, -9, 87, 184, 282, 379, 525, 720, 1109,
-962, -607, -430, -296, -208, -119, -30, 58, 146, 235, 324, 457, 635, 990,
-1351, -941, -736, -583, -480, -378, -275, -173, -71, 31, 133, 287, 491, 901,
-1317, -848, -613, -437, -320, -202, -85, 31, 149, 266, 383, 559, 794, 1263,
-1168, -752, -545, -389, -285, -181, -77, 26, 130, 234, 338, 494, 701, 1117,
-844, -533, -377, -261, -183, -105, -28, 49, 127, 205, 282, 399, 555, 866,
-1264, -887, -698, -557, -463, -369, -274, -180, -86, 7, 102, 243, 432, 809,
-1498, -977, -716, -520, -390, -259, -129, 1, 131, 261, 392, 588, 848, 1370,
-840, -458, -267, -124, -28, 66, 162, 257, 352, 448, 543, 687, 878, 1259,
-1185, -776, -572, -419, -316, -214, -112, -10, 91, 194, 296, 449, 654, 1063,
-1115, -693, -483, -324, -219, -114, -8, 96, 202, 307, 412, 570, 781, 1203,
-642, -226, -18, 138, 242, 346, 450, 554, 658, 762, 866, 1022, 1231, 1647,
-529, -336, -240, -168, -119, -71, -23, 24, 73, 121, 169, 241, 338, 531,
-1017, -641, -454, -313, -219, -125, -31, 61, 155, 249, 343, 484, 671, 1046,
-946, -578, -395, -257, -165, -73, 18, 110, 201, 293, 385, 523, 707, 1074,
-976, -539, -321, -157, -48, 61, 170, 279, 388, 497, 607, 770, 989, 1426,
-1241, -748, -502, -317, -194, -70, 52, 175, 298, 422, 545, 730, 976, 1469,
-1004, -638, -455, -317, -226, -134, -43, 48, 139, 231, 322, 460, 643, 1009,
-1104, -717, -524, -379, -282, -186, -89, 6, 103, 200, 296, 441, 635, 1021,
-942, -558, -367, -223, -127, -31, 64, 160, 255, 351, 447, 591, 782, 1166,
-1078, -684, -487, -340, -241, -143, -45, 53, 151, 249, 348, 495, 692, 1086,
-1316, -855, -625, -452, -337, -222, -107, 7, 122, 237, 353, 525, 755, 1216,
-931, -565, -382, -245, -154, -62, 28, 119, 211, 302, 393, 530, 713, 1079,
-860, -497, -316, -179, -88, 1, 92, 183, 274, 365, 455, 592, 773, 1137,
};

static uint64_t backbone_model2_conv1_conv2_weight[64 * 9] =
{ // torch.Size([64, 3, 3, 1])
0x1, 0xa, 0xb, 0x0, 0xb, 0xd, 0x1, 0xb, 0xd,
0xb, 0xc, 0xc, 0x3, 0xc, 0x1, 0x2, 0xc, 0xc,
0x3, 0xb, 0xc, 0x4, 0x8, 0xe, 0x4, 0x3, 0xc,
0x4, 0x3, 0xc, 0x3, 0x4, 0xd, 0x3, 0x4, 0xe,
0xa, 0x3, 0xc, 0xa, 0x2, 0xc, 0xb, 0xd, 0xd,
0xa, 0xc, 0x4, 0xa, 0x5, 0x4, 0x0, 0x4, 0xc,
0xc, 0xc, 0xa, 0x9, 0xc, 0x3, 0xb, 0xd, 0xc,
0xc, 0x1, 0x5, 0xd, 0x2, 0x4, 0xd, 0xb, 0x2,
0x2, 0x4, 0x4, 0x3, 0x5, 0x4, 0x0, 0xb, 0x3,
0x3, 0xb, 0x4, 0xb, 0xc, 0x3, 0xe, 0xc, 0x3,
0x0, 0xd, 0xd, 0x1, 0xb, 0x3, 0xc, 0x3, 0x4,
0x3, 0x0, 0x9, 0x2, 0x3, 0xb, 0x4, 0xa, 0xe,
0x1, 0x0, 0x1, 0xb, 0x5, 0x5, 0xb, 0x4, 0x5,
0xd, 0xb, 0x3, 0xc, 0xb, 0x1, 0xd, 0xb, 0x1,
0xb, 0x0, 0x4, 0xb, 0xc, 0x4, 0xb, 0x4, 0x6,
0x0, 0xb, 0x4, 0x3, 0x2, 0x6, 0xb, 0xc, 0x1,
0xe, 0xd, 0x4, 0xc, 0xc, 0x2, 0x3, 0x0, 0x1,
0x0, 0x3, 0x3, 0xb, 0x0, 0xd, 0xb, 0x2, 0xd,
0xc, 0xc, 0xc, 0xa, 0xd, 0xb, 0xc, 0xa, 0x0,
0xb, 0x3, 0x4, 0xb, 0xb, 0x5, 0x0, 0xc, 0x4,
0x8, 0xd, 0xc, 0x0, 0xb, 0xc, 0xa, 0x2, 0xc,
0xc, 0xc, 0x2, 0x9, 0xd, 0xc, 0x4, 0x2, 0x9,
0xc, 0xb, 0xc, 0x2, 0x3, 0x3, 0x5, 0x6, 0x4,
0x3, 0x2, 0xa, 0xc, 0xa, 0x3, 0xb, 0x5, 0x5,
0xc, 0xc, 0xb, 0xb, 0xc, 0xc, 0x4, 0x4, 0x3,
0x5, 0x5, 0x3, 0x4, 0x3, 0xc, 0x3, 0xc, 0xc,
0x3, 0x3, 0x4, 0xb, 0x4, 0x6, 0xb, 0xc, 0x3,
0xa, 0x8, 0x4, 0xc, 0x5, 0x4, 0xc, 0x5, 0x1,
0x0, 0x2, 0x3, 0x4, 0x5, 0x4, 0x3, 0xc, 0xd,
0x5, 0x5, 0xb, 0x4, 0x4, 0xc, 0x4, 0xa, 0xd,
0xd, 0xd, 0x3, 0xc, 0xd, 0x4, 0x9, 0xa, 0x3,
0xc, 0xc, 0x0, 0xc, 0xc, 0x8, 0xb, 0xa, 0xb,
0x3, 0x4, 0x4, 0xb, 0xb, 0xb, 0xd, 0xd, 0xb,
0x9, 0x9, 0xd, 0x3, 0x9, 0xc, 0xb, 0xc, 0x0,
0x3, 0x2, 0xb, 0x2, 0x5, 0xd, 0x4, 0x2, 0xd,
0x5, 0x3, 0x0, 0x3, 0x4, 0x2, 0x4, 0x5, 0x3,
0xb, 0xd, 0x8, 0x3, 0xc, 0xc, 0x3, 0xa, 0xc,
0xb, 0xc, 0x5, 0xa, 0xc, 0x5, 0xa, 0x0, 0x3,
0xd, 0xb, 0x0, 0xb, 0x4, 0x5, 0xc, 0x2, 0x5,
0x8, 0xe, 0xd, 0x8, 0xb, 0x9, 0xa, 0xb, 0x2,
0x2, 0x2, 0x3, 0xa, 0x3, 0x4, 0xb, 0xd, 0xe,
0x9, 0xb, 0xb, 0xa, 0xc, 0xb, 0x4, 0x5, 0x5,
0xc, 0x3, 0x9, 0xc, 0x5, 0x5, 0x2, 0x3, 0x5,
0x4, 0xb, 0xc, 0x9, 0xb, 0xc, 0xc, 0xc, 0xc,
0x0, 0x4, 0x0, 0xa, 0xd, 0x9, 0xc, 0xd, 0x4,
0x9, 0x5, 0xc, 0xc, 0xc, 0x5, 0x1, 0xc, 0x3,
0x3, 0x5, 0x5, 0xb, 0xb, 0x4, 0xc, 0xc, 0xc,
0x2, 0xb, 0x9, 0x2, 0xc, 0xb, 0xa, 0xd, 0xd,
0x3, 0xb, 0xb, 0x3, 0xb, 0xd, 0x2, 0x3, 0xe,
0x8, 0x0, 0x2, 0xb, 0x0, 0x4, 0x0, 0x5, 0x5,
0x3, 0xc, 0xd, 0x1, 0xd, 0x1, 0xb, 0xc, 0x3,
0x2, 0x3, 0x3, 0x3, 0x4, 0x3, 0x0, 0x5, 0x4,
0x4, 0xb, 0xb, 0xb, 0xd, 0x4, 0xc, 0x5, 0x5,
0x3, 0x1, 0xa, 0x5, 0x4, 0xd, 0xb, 0xc, 0xb,
0xb, 0xb, 0x3, 0xd, 0xb, 0x3, 0xd, 0xd, 0x0,
0xb, 0x4, 0xb, 0xd, 0xd, 0xc, 0xa, 0xb, 0xa,
0x3, 0xd, 0xa, 0x3, 0xc, 0xc, 0xc, 0xb, 0xd,
0x2, 0x9, 0x2, 0x0, 0x2, 0x4, 0xb, 0x5, 0x5,
0x4, 0x3, 0xb, 0x3, 0xc, 0xd, 0xd, 0xc, 0x2,
0xc, 0xd, 0xc, 0xc, 0x9, 0x3, 0x2, 0x5, 0x3,
0x4, 0x5, 0x4, 0xb, 0xb, 0x4, 0xb, 0xc, 0x4,
0xc, 0x3, 0x4, 0xc, 0xa, 0x4, 0xd, 0xc, 0x3,
0xd, 0x2, 0x4, 0xc, 0xb, 0x5, 0xc, 0x3, 0x5,
0xb, 0x3, 0x4, 0xc, 0xc, 0x4, 0x4, 0xd, 0xc,
};

static int backbone_model2_conv1_relu2_threshold[64 * 7] =
{ // torch.Size([64, 7])
-56, 1, 59, 117, 204, 321, 553,
-5, 50, 105, 161, 244, 356, 578,
1, 91, 180, 270, 405, 584, 943,
-53, 37, 129, 221, 358, 542, 909,
-53, 30, 115, 200, 327, 497, 836,
41, 85, 130, 174, 241, 330, 508,
0, 66, 133, 199, 299, 433, 699,
-17, 37, 92, 148, 230, 341, 561,
15, 66, 116, 166, 242, 343, 544,
-74, 22, 119, 216, 361, 555, 942,
43, 83, 123, 163, 222, 302, 461,
-15, 39, 94, 149, 232, 342, 563,
23, 98, 173, 249, 362, 513, 815,
5, 79, 153, 227, 338, 486, 782,
-52, 21, 96, 170, 282, 431, 730,
16, 81, 145, 209, 306, 435, 692,
-49, 46, 141, 237, 380, 571, 952,
31, 77, 124, 171, 240, 334, 520,
-9, 74, 159, 243, 370, 538, 876,
8, 48, 87, 127, 186, 265, 424,
6, 74, 143, 211, 313, 450, 723,
-43, 2, 49, 95, 165, 259, 445,
44, 118, 192, 266, 377, 526, 822,
-29, 17, 64, 111, 181, 275, 463,
41, 83, 125, 167, 230, 314, 482,
8, 68, 128, 188, 278, 398, 639,
40, 99, 158, 217, 305, 423, 658,
-32, 36, 104, 173, 276, 413, 687,
28, 69, 110, 152, 213, 296, 460,
1, 69, 137, 205, 307, 442, 714,
-16, 57, 130, 203, 313, 460, 753,
52, 103, 154, 205, 281, 383, 587,
-43, 23, 91, 158, 259, 394, 664,
51, 97, 143, 189, 257, 349, 531,
58, 93, 128, 163, 215, 284, 423,
-14, 87, 189, 291, 444, 648, 1055,
-38, 22, 83, 144, 236, 358, 603,
-5, 43, 91, 139, 212, 308, 502,
-5, 45, 96, 147, 224, 326, 530,
47, 117, 188, 258, 364, 506, 788,
12, 99, 187, 274, 405, 579, 928,
-18, 36, 91, 146, 228, 338, 559,
73, 131, 188, 246, 332, 447, 678,
8, 49, 91, 133, 195, 279, 446,
5, 68, 132, 195, 290, 416, 669,
41, 90, 139, 187, 260, 358, 552,
-2, 48, 99, 149, 226, 327, 530,
86, 152, 217, 282, 380, 511, 772,
-47, 58, 163, 269, 428, 639, 1062,
-26, 28, 83, 138, 221, 331, 551,
-91, -18, 54, 128, 238, 385, 679,
66, 120, 174, 228, 309, 417, 633,
86, 180, 274, 369, 510, 698, 1075,
17, 53, 90, 127, 182, 256, 403,
-100, -34, 31, 97, 196, 328, 592,
-82, -12, 56, 126, 231, 370, 648,
34, 88, 143, 198, 280, 390, 609,
-16, 47, 112, 176, 272, 400, 657,
40, 93, 146, 199, 278, 384, 596,
0, 62, 124, 187, 281, 407, 658,
40, 90, 140, 190, 264, 364, 564,
-45, 17, 81, 144, 239, 366, 620,
69, 119, 168, 218, 293, 392, 591,
40, 87, 134, 181, 252, 347, 536,
};

static uint64_t backbone_model2_conv2_conv1_weight[64 * 1*4] =
{ // torch.Size([64, 1, 1, 64])
0x0bdcdcac0c2ba854,0x3a3ccc4acdb4c5c3,0x3b19ca8c3b82b304,0xcc93c34c5b305c23,
0xa228cc4343bc35c2,0x33312aaca4442234,0x34233cba83544415,0x34c9c34b2c33b420,
0x4143495432c3322b,0xa4cb433ab3433d5c,0x443aa4a4c33a3a34,0x0a9bdcc5b54b51d4,
0xc4363348d22ab1cd,0xad3b90b3a02c0ac4,0x4cbab234daac343a,0x4cb9b2bc22b0bc04,
0x44cc4003ab934c44,0xabb3aca023cc3244,0x224383bd23403c11,0xbad1404c2da03142,
0xbc9acbd41cc1303c,0x4bc09b8d3cbb44cc,0xc8512bc43bb4444b,0xb2b6b54c914d2c4b,
0x2ca235bccc34bb92,0x313d4222dabcdb22,0xbd039bca42c544c0,0x14dbb9ccb42ab34b,
0x324b31abc9423b2b,0xbab432ca044443a5,0x3015a554845cd333,0x254abc41a3bcabb0,
0x32ca3d323525ccd4,0xa8334c33cb092ccc,0x843102cc3d24cc02,0xaccaa0cacb0ab4ec,
0x314445cb9c4c543c,0x4348b29954ab422b,0x2acc43433ac332bb,0x3460c3344039b224,
0xa913c933b2332c4c,0x2ac323c20b2c9342,0xc4411333c84d448a,0x33d2354dcab3bc85,
0x03c4ccd4bc0c83b1,0xcc3bc4a323a45044,0x34d2a344c3bbc419,0x3c442032494a0322,
0xc243531c399b4c9b,0xb5ab3a3c3b504ab1,0x4344c45344c225b4,0xcb54b942443cba94,
0xdb3c34ab4a453c43,0x4cd4cab20432a3bb,0xc0558c1b53b918c3,0xcd2444ba4b4b5a3b,
0xb4b32c5b2b449bb1,0x344a3ca0cdcd59bd,0xba33b3a354a29443,0xb0b42bc32a3d38a3,
0x134bd480c04c343a,0x33b8c1c24ccb2c44,0x2b5a355094430522,0x24a4c34ac43b4044,
0x11ccbc4241a03534,0x2345448b04934013,0x9a3248b4391cbb34,0x40b15103c385a4bc,
0xb5b3b3b4ac2c413b,0x3312231c4c8c4895,0x2c29b543d44b9382,0x4443a39442c44cb5,
0xdb2ccbb434cac3ab,0x4bd2b4a408dcad41,0xc4b43ccb3bcc4bb2,0x5c3b063bcacad44a,
0x1d44dca1d301b4cc,0xb4acc3b40c1db8ca,0xdbbc99c30bcc2cbd,0x324acab3d5c8d204,
0xc84a25449b223a1c,0xcb00394cedac3b2a,0x3b84c34843d45931,0x0834a1c3bc9c39a2,
0xb94b431a5b2b4b53,0x3b124c48b3b2920b,0xb384332b54c4ca33,0x3a358134ac49baa5,
0xb44424c24c22343a,0x3abcbbdc2c34b4bb,0x4144c32444c22443,0xc344a3c2444dcb34,
0xb353c3524d483acd,0x4db84c8d23bb44b4,0x2b4db4cdc22b3c33,0xb4cc13cbaca4b328,
0x1abcd9d8b38ac544,0x549222a5bbc2bb28,0xcaa393c5292dbdb4,0x4234c93cc1aac45c,
0x23b51310b5c149c4,0x35ac42c434a24c4a,0x854cc4cb343aa541,0xccc253c33b2c154d,
0x2c44325514cc4920,0xd3cc3bcd24243c42,0xb40ca3a32405422b,0xb21d52b424c242c5,
0xa5cbbccbca54cc3d,0x22ac5bd091cb9cad,0xd42b49cc0c4b24cc,0xcc4c134d2c5dab23,
0xcccca9b514ac840a,0x3cca054bd25bbca3,0xab1d4baab2cb4122,0x2d249b0b1b45bbb1,
0xa93b03454403444a,0xc123343bdc5b4c3b,0x2a43a04494ca3244,0x5b45bcb9d34c1ca3,
0x1c34cd42333d35c3,0xa4202b42bba143d4,0x2cc094c425123434,0x5321cb44b4c03225,
0x4442425a3cdb5a88,0x45b23c8a44bc4c3c,0x450205c54524832a,0x3ca4ca55bcac3444,
0x5b33c3b033d8c4b3,0x2ac4d424b938aba3,0xca1cca33ba830a03,0x44dc31e0b8b3c02b,
0x94cc33b2bc4a0d04,0xb1cab1223ac3c4ac,0x1311b42dccbca888,0xbcb89a4d3c3c4a19,
0xdac52c335a4c453c,0xb345352ba4545136,0x21301425c4bbb1b3,0x3c44a41343c5083c,
0x54443c13a3db43ab,0x555bbb43035da3ab,0xb1cb2cb49a424c9e,0x3c5a213258c4b343,
0xb0bb039b3b30d44b,0x0a5b5c49d1bcd0bc,0xab2343cc0cb34c2c,0x3bcbc32a1b3138c4,
0x22ba43cbcba414c9,0x443434324b3444d9,0x2dd3433c4013d424,0xa2454d333ab0251c,
0x2aba443d5382105a,0x4915bd9c2cb353c8,0xbbca41253dc20d4a,0x3203d2cacabbabd4,
0x02a13bd200ccc4b2,0xa48a24bb3424ba04,0x4a243b2ccc4cccc3,0xa30b5c9344c50a4c,
0x24412b4454ba3302,0x21b0433ac03a3d0d,0x43430cb3b3a35a34,0x5c0ab9c3c3484d30,
0xc44ba34c41bcd2ba,0xccc331dd144ba4bb,0x524a2b3dcd4223a5,0x34cdbc0c4ca3a951,
0x449acb2c23c4a44c,0x3d3b1cdbcc9c2534,0x18324d3abc524aa4,0x33ccc11c51b21332,
0xc25ca44d1404c294,0x42443c23c135b03b,0x9b3ab9a03c4ba434,0x4933cba8834abc0d,
0x582b113323c23bb4,0x1ccd2454b224c02a,0x3939d33b234bb353,0x3c8b4b2933a30b42,
0x4c4344abcb43043c,0x024a31c3431a3223,0x34b583382022aaba,0x4649d283a4abc3ba,
0xb5c9acc1c43bcbaa,0x3dbbc504dc4cacc4,0x3d45ac3cbc5b9cb2,0x3ac3baad3b03d32d,
0xc4405142ab2a421b,0xb3ca4bbc052c5042,0x45cb544484c03abb,0xc15a1044c41903c2,
0x3b34440ccd494939,0x13521cc449ca3593,0x22b5c5334233c3bb,0x163cb833a4cc24a2,
0x2ccd8c2c95b3d35a,0x8c41cb3cb2b330dc,0xcd4443c41a32cd32,0x59acbac439bb0cd4,
0x24ab34035baa4c54,0xa2cc444902469ac1,0x4b88b42bb443b455,0x4cb45031434b4ca4,
0x9c414529c995435c,0x544b2b44b38aca89,0xbc0c4c533a3db435,0x04a0c1c23432bc3b,
0x49224ad0caa0cc44,0x313c12931429d38b,0xb2134cabdc3339cc,0x342aa3d023944dbc,
0xa0c3323153b23b44,0x35a3a54440d2255a,0xb3ac3db3049a92c2,0xdcb4818bac4c444c,
0x9a5a3354d0b44a15,0x94bbc33bbbba3324,0x52b4b24144c4a450,0xcb4454a3a35233b3,
0x1adacc2353c2c3cb,0xbc44c42bdc43cad3,0xbc0c8cb2dc043a51,0x43db39bc3c34cbbc,
0x339bb1cdc3c5b3cc,0x2c331bb334285d34,0xbbccbbbdcb2cdabb,0xcb4c4d5bbca4a52c,
0x4b4c2b4122b38c35,0x3bcc9a44a4a3c30a,0x3493aa3b3324b453,0x9c485441a2331a5c,
0xbc3bcc42b3abc83a,0x5c1b34da9dd3bcac,0xd3cbbbd1bdc048b2,0xb81acb94c895b033,
0xd4a23bdb28a4ac31,0x42c2d4d423bcb21d,0x0ac04d549bc2d24c,0xcb494cb4daa3d132,
0xa399a2315b334a13,0x1c344d4bb495342c,0x3cba831b41c38434,0xb9a2bca54c48a924,
0x06a3bc2b4a3bbd4d,0x30241c8bbc3d11c2,0xab434db0b2443d8d,0x2a40cc9d3c3c4a4b,
0x23c4c323aabb4295,0x34ca1aca4dc1bc44,0x2d43c4bc14b40353,0xc804b424532c594a,
0x1958033a32b34a4a,0xb4c4b3cb418c3053,0xa5425b45b53b33ac,0xa4c40d8cd4bba549,
};

static int backbone_model2_conv2_quant1_threshold[64 * 14] =
{ // torch.Size([64, 14])
-1516, -965, -689, -482, -344, -207, -69, 68, 206, 344, 481, 688, 964, 1515,
-1083, -598, -356, -174, -53, 68, 189, 310, 431, 553, 674, 856, 1098, 1583,
-987, -578, -374, -221, -118, -16, 85, 187, 290, 392, 494, 647, 852, 1261,
-1546, -1047, -797, -610, -485, -361, -236, -111, 13, 137, 262, 449, 699, 1198,
-1106, -677, -463, -302, -195, -88, 19, 126, 233, 340, 448, 609, 823, 1252,
-1534, -1044, -800, -616, -494, -371, -249, -127, -4, 117, 239, 423, 667, 1157,
-1360, -918, -696, -531, -420, -310, -199, -89, 21, 131, 242, 408, 629, 1071,
-943, -498, -276, -109, 1, 112, 223, 334, 445, 557, 668, 834, 1057, 1501,
-1398, -939, -709, -537, -422, -307, -193, -78, 36, 151, 266, 438, 667, 1126,
-1343, -781, -500, -289, -148, -8, 132, 272, 413, 553, 694, 905, 1186, 1748,
-1052, -683, -499, -361, -269, -177, -85, 6, 98, 190, 282, 420, 604, 973,
-1393, -882, -626, -435, -307, -180, -52, 75, 202, 330, 458, 649, 905, 1416,
-786, -384, -183, -32, 67, 168, 268, 369, 469, 570, 670, 821, 1022, 1424,
-1290, -805, -563, -381, -260, -138, -17, 103, 224, 345, 467, 648, 891, 1376,
-1163, -729, -512, -349, -240, -132, -23, 84, 193, 301, 410, 573, 790, 1224,
-811, -432, -243, -101, -7, 87, 181, 276, 371, 465, 560, 702, 891, 1269,
-808, -423, -230, -86, 10, 106, 203, 299, 395, 492, 588, 733, 925, 1311,
-985, -569, -361, -204, -100, 3, 107, 211, 315, 419, 524, 680, 888, 1305,
-1271, -839, -623, -461, -353, -245, -137, -29, 78, 186, 294, 456, 672, 1104,
-1541, -1091, -867, -698, -585, -473, -361, -248, -136, -23, 88, 257, 482, 931,
-1378, -911, -677, -502, -385, -268, -151, -34, 81, 198, 315, 490, 724, 1192,
-869, -470, -271, -121, -22, 77, 177, 276, 376, 476, 575, 725, 924, 1323,
-1058, -656, -455, -305, -204, -104, -3, 96, 196, 297, 397, 548, 749, 1150,
-1427, -962, -730, -555, -439, -323, -207, -90, 25, 141, 257, 432, 664, 1129,
-1743, -1084, -755, -508, -344, -179, -15, 149, 313, 478, 643, 889, 1219, 1877,
-1386, -872, -615, -422, -294, -165, -37, 91, 219, 348, 476, 669, 926, 1439,
-1204, -709, -461, -275, -151, -28, 95, 219, 343, 467, 591, 777, 1024, 1520,
-1451, -993, -764, -593, -478, -364, -250, -135, -21, 92, 207, 378, 607, 1065,
-1207, -781, -569, -409, -303, -196, -90, 15, 122, 228, 334, 494, 706, 1132,
-913, -549, -367, -231, -140, -49, 41, 132, 223, 314, 405, 541, 723, 1087,
-457, -190, -57, 42, 109, 176, 243, 309, 376, 443, 509, 609, 743, 1010,
-1133, -638, -390, -204, -80, 43, 167, 291, 414, 538, 662, 848, 1096, 1591,
-1246, -849, -651, -503, -404, -304, -205, -106, -7, 91, 190, 339, 537, 933,
-1494, -1024, -788, -612, -494, -376, -259, -141, -23, 93, 211, 388, 623, 1094,
-1101, -594, -341, -151, -24, 102, 228, 355, 482, 609, 735, 925, 1179, 1686,
-1371, -846, -584, -387, -256, -124, 6, 137, 268, 400, 531, 728, 990, 1515,
-1175, -811, -628, -492, -400, -309, -218, -127, -36, 54, 146, 282, 465, 829,
-981, -587, -390, -242, -144, -45, 52, 151, 249, 348, 446, 594, 791, 1185,
-1673, -1056, -748, -517, -363, -209, -54, 99, 253, 407, 561, 792, 1101, 1717,
-1141, -671, -435, -259, -141, -23, 93, 211, 329, 446, 564, 741, 976, 1447,
-949, -559, -365, -219, -121, -24, 73, 170, 267, 365, 462, 608, 803, 1192,
-1354, -866, -622, -439, -317, -195, -73, 48, 170, 292, 414, 597, 841, 1330,
-1529, -992, -723, -522, -388, -253, -119, 14, 148, 283, 417, 618, 887, 1424,
-1067, -608, -379, -208, -93, 21, 135, 250, 364, 479, 593, 765, 994, 1452,
-822, -473, -299, -168, -81, 6, 93, 180, 268, 355, 442, 573, 748, 1097,
-1072, -632, -412, -247, -137, -27, 82, 193, 303, 413, 523, 688, 908, 1348,
-1608, -1109, -860, -673, -549, -424, -299, -175, -50, 73, 198, 385, 634, 1132,
-988, -557, -342, -181, -73, 34, 141, 249, 356, 464, 572, 733, 948, 1378,
-1125, -667, -438, -266, -151, -37, 77, 191, 306, 421, 535, 707, 936, 1395,
-1619, -1015, -712, -486, -335, -183, -32, 118, 269, 420, 571, 798, 1100, 1705,
-934, -478, -250, -79, 34, 148, 263, 377, 491, 605, 719, 890, 1118, 1575,
-1078, -638, -418, -253, -143, -34, 75, 185, 295, 405, 515, 680, 900, 1339,
-1101, -762, -592, -465, -380, -296, -211, -126, -41, 43, 128, 255, 424, 764,
-1369, -858, -602, -410, -282, -154, -26, 101, 229, 356, 484, 676, 932, 1444,
-845, -431, -224, -68, 34, 138, 242, 345, 449, 552, 656, 811, 1018, 1433,
-1661, -1122, -852, -650, -515, -380, -245, -110, 24, 159, 294, 496, 766, 1305,
-1151, -766, -573, -428, -332, -236, -139, -43, 52, 149, 245, 390, 582, 968,
-786, -414, -228, -89, 3, 96, 189, 282, 375, 468, 561, 700, 886, 1258,
-1596, -1128, -894, -718, -601, -484, -367, -250, -132, -15, 101, 276, 511, 979,
-1755, -1208, -935, -730, -593, -456, -320, -183, -46, 90, 226, 431, 705, 1251,
-940, -542, -344, -195, -95, 3, 102, 202, 301, 401, 500, 649, 848, 1245,
-1671, -1131, -861, -658, -523, -388, -253, -118, 16, 151, 286, 489, 759, 1299,
-1221, -760, -529, -356, -241, -125, -10, 104, 220, 335, 450, 623, 854, 1315,
-1310, -793, -534, -339, -210, -81, 48, 177, 307, 436, 566, 760, 1019, 1537,
};

static uint64_t backbone_model2_conv2_conv2_weight[64 * 9] =
{ // torch.Size([64, 3, 3, 1])
0xa, 0x4, 0x4, 0x4, 0x5, 0x4, 0x4, 0x4, 0x3,
0xc, 0xc, 0xd, 0xc, 0xc, 0xb, 0x3, 0x3, 0x3,
0xb, 0x3, 0xb, 0xc, 0xd, 0xc, 0xc, 0xd, 0xb,
0x4, 0xb, 0xd, 0x3, 0x4, 0xa, 0x2, 0x4, 0x5,
0xc, 0xc, 0x5, 0xc, 0xb, 0x5, 0xc, 0x3, 0x5,
0xa, 0xb, 0xc, 0xb, 0xa, 0xc, 0xb, 0xc, 0xd,
0x4, 0x4, 0xb, 0x3, 0x5, 0x2, 0x3, 0x4, 0x4,
0x3, 0x4, 0x5, 0xd, 0xb, 0x0, 0xc, 0xd, 0xc,
0x3, 0x4, 0x5, 0x4, 0x4, 0x3, 0x4, 0x3, 0x2,
0xc, 0xd, 0x2, 0xc, 0xd, 0x2, 0xa, 0xa, 0x4,
0x9, 0xa, 0x4, 0xd, 0x0, 0x5, 0xd, 0xb, 0x5,
0xb, 0x9, 0xb, 0xb, 0xc, 0xc, 0xb, 0xc, 0xd,
0x4, 0xb, 0xd, 0x3, 0xd, 0xc, 0x4, 0xb, 0xd,
0xc, 0xb, 0xa, 0xc, 0xb, 0xc, 0xa, 0xb, 0xd,
0xc, 0xb, 0x4, 0xe, 0xd, 0x5, 0xc, 0x3, 0x5,
0x3, 0x4, 0x0, 0xa, 0xd, 0xe, 0x2, 0xc, 0xc,
0xd, 0x8, 0x5, 0xc, 0xc, 0x4, 0xb, 0xd, 0xb,
0xc, 0x0, 0x4, 0xb, 0xc, 0x9, 0xc, 0xd, 0xd,
0x2, 0x5, 0xd, 0xc, 0x5, 0x4, 0xc, 0x0, 0x5,
0x4, 0x6, 0x5, 0x0, 0x4, 0x4, 0xb, 0xb, 0x2,
0x3, 0xc, 0xc, 0x5, 0xd, 0xd, 0x5, 0x4, 0x3,
0x9, 0xd, 0xc, 0x4, 0xb, 0xe, 0x5, 0x4, 0xc,
0xc, 0xb, 0x3, 0xd, 0xc, 0x3, 0xd, 0xd, 0x3,
0x4, 0x0, 0x3, 0x3, 0xd, 0xc, 0x1, 0xd, 0xe,
0x5, 0x5, 0x4, 0x4, 0x5, 0x3, 0x2, 0x9, 0x8,
0x0, 0xd, 0xc, 0x9, 0xc, 0xd, 0x8, 0x9, 0xd,
0xa, 0xb, 0x3, 0xb, 0xd, 0xd, 0xb, 0xc, 0xd,
0xc, 0x4, 0x3, 0x3, 0x6, 0x4, 0x4, 0x5, 0x2,
0x9, 0x6, 0x6, 0x0, 0xc, 0x0, 0xb, 0xb, 0xa,
0xc, 0x4, 0x4, 0x2, 0x4, 0x4, 0xc, 0xe, 0xe,
0x2, 0xd, 0xc, 0xc, 0xc, 0x4, 0xd, 0x3, 0x5,
0xb, 0xa, 0xc, 0xc, 0xd, 0xd, 0x3, 0xd, 0x3,
0xc, 0x9, 0x3, 0xb, 0x6, 0xb, 0x4, 0x4, 0xe,
0x4, 0x4, 0x3, 0x5, 0x4, 0xc, 0x4, 0xa, 0xd,
0xc, 0x4, 0x4, 0xd, 0x4, 0x5, 0xe, 0xe, 0xc,
0xc, 0xc, 0xa, 0xd, 0xc, 0xc, 0xc, 0xb, 0xb,
0x3, 0xb, 0xa, 0x4, 0x5, 0xc, 0x3, 0x5, 0x4,
0xb, 0xe, 0xd, 0x9, 0xd, 0xc, 0x4, 0x5, 0x3,
0x4, 0x3, 0x1, 0x4, 0x4, 0x1, 0x3, 0x5, 0x5,
0x5, 0x4, 0x5, 0x4, 0x4, 0x4, 0xc, 0xc, 0xd,
0x5, 0x3, 0x5, 0xb, 0xe, 0xc, 0xa, 0xd, 0xb,
0x3, 0x4, 0x4, 0x3, 0x4, 0x4, 0x0, 0x4, 0x4,
0xb, 0xb, 0xb, 0xd, 0xc, 0xb, 0xc, 0xc, 0xb,
0x3, 0x0, 0x3, 0x3, 0x3, 0x5, 0x4, 0x4, 0x4,
0x0, 0xb, 0x3, 0x2, 0xe, 0x3, 0x6, 0xd, 0x4,
0xb, 0xc, 0x3, 0xd, 0x4, 0x6, 0xd, 0xc, 0xc,
0x4, 0x5, 0x5, 0x3, 0x4, 0x3, 0x2, 0x9, 0x9,
0xc, 0xb, 0x9, 0xd, 0x8, 0x0, 0xe, 0x4, 0x4,
0xb, 0x4, 0x5, 0xd, 0xe, 0xc, 0x4, 0x3, 0xb,
0x4, 0x5, 0x4, 0x5, 0x4, 0x4, 0x9, 0xa, 0xa,
0x0, 0xb, 0xd, 0x5, 0x9, 0xd, 0x4, 0x4, 0xd,
0xc, 0xa, 0xb, 0xc, 0xb, 0xb, 0xc, 0xc, 0xc,
0xc, 0xd, 0xb, 0xc, 0x2, 0x5, 0x5, 0x5, 0x2,
0xb, 0xd, 0xd, 0x9, 0x4, 0xd, 0x4, 0x4, 0x9,
0x3, 0xb, 0x0, 0x5, 0xc, 0x3, 0xb, 0xe, 0xc,
0xa, 0x9, 0x3, 0xb, 0x5, 0x0, 0x3, 0x6, 0x4,
0xb, 0xc, 0x5, 0xc, 0xb, 0x6, 0x9, 0x5, 0x5,
0xb, 0xb, 0xc, 0x2, 0x4, 0xd, 0x3, 0x5, 0xd,
0xb, 0xb, 0xc, 0xb, 0xc, 0xd, 0xa, 0xc, 0xd,
0xb, 0xb, 0xc, 0xb, 0xc, 0xc, 0xc, 0xc, 0xc,
0xb, 0x3, 0x5, 0xc, 0xc, 0x4, 0xb, 0xd, 0xd,
0x4, 0x3, 0xc, 0x4, 0x4, 0xb, 0x5, 0x5, 0xb,
0xd, 0xc, 0xc, 0xc, 0xd, 0xc, 0xc, 0xc, 0x2,
0xc, 0xc, 0xc, 0xd, 0xc, 0xb, 0xd, 0xc, 0xc,
};

static int backbone_model2_conv2_relu2_threshold[64 * 7] =
{ // torch.Size([64, 7])
25, 86, 148, 210, 302, 425, 672,
21, 82, 143, 204, 295, 417, 660,
131, 215, 298, 382, 507, 674, 1007,
116, 166, 216, 265, 340, 440, 640,
75, 142, 208, 275, 374, 507, 774,
37, 106, 175, 244, 348, 486, 762,
55, 121, 188, 254, 353, 485, 750,
152, 224, 295, 367, 475, 618, 905,
-20, 42, 104, 167, 261, 386, 637,
38, 95, 151, 207, 292, 404, 629,
164, 216, 267, 319, 397, 500, 707,
1, 63, 125, 187, 281, 405, 654,
111, 191, 272, 353, 474, 636, 960,
59, 125, 192, 258, 358, 491, 757,
212, 303, 393, 483, 618, 798, 1158,
201, 281, 361, 441, 562, 722, 1043,
148, 211, 274, 338, 433, 559, 812,
79, 156, 232, 309, 424, 577, 883,
157, 213, 268, 324, 408, 519, 741,
110, 205, 301, 396, 539, 729, 1110,
182, 245, 308, 372, 467, 594, 848,
162, 244, 327, 410, 534, 699, 1029,
61, 127, 193, 259, 359, 491, 756,
108, 192, 276, 360, 486, 654, 990,
-43, 32, 108, 185, 299, 452, 758,
-14, 43, 100, 158, 245, 361, 592,
26, 146, 267, 388, 569, 810, 1293,
35, 124, 213, 302, 435, 613, 969,
221, 290, 358, 426, 529, 666, 939,
149, 255, 361, 466, 625, 836, 1258,
170, 302, 435, 567, 765, 1030, 1559,
-27, 40, 107, 174, 275, 410, 679,
148, 226, 304, 383, 500, 656, 969,
126, 187, 248, 309, 400, 522, 766,
108, 213, 318, 424, 582, 792, 1213,
35, 117, 199, 280, 403, 566, 893,
74, 139, 204, 269, 366, 496, 756,
178, 245, 313, 380, 481, 616, 885,
2, 68, 134, 201, 300, 432, 697,
115, 175, 234, 293, 382, 501, 738,
206, 281, 355, 430, 541, 690, 988,
-23, 53, 129, 206, 322, 475, 783,
63, 126, 189, 252, 346, 472, 724,
85, 147, 209, 271, 364, 487, 735,
140, 211, 282, 353, 460, 602, 886,
210, 282, 354, 427, 535, 680, 969,
6, 71, 136, 202, 300, 430, 692,
21, 113, 205, 297, 436, 620, 988,
154, 224, 294, 363, 468, 607, 886,
-107, -48, 11, 70, 159, 278, 516,
152, 226, 301, 375, 486, 635, 932,
23, 82, 141, 201, 290, 408, 645,
113, 183, 252, 322, 426, 566, 844,
97, 146, 195, 243, 316, 413, 607,
141, 207, 273, 339, 438, 570, 834,
31, 110, 188, 267, 385, 542, 856,
198, 282, 366, 450, 576, 744, 1080,
118, 185, 251, 318, 419, 552, 820,
68, 134, 200, 267, 366, 498, 762,
72, 118, 163, 209, 277, 368, 550,
94, 166, 238, 311, 419, 563, 851,
63, 146, 228, 311, 434, 600, 930,
53, 131, 208, 286, 402, 558, 869,
-13, 55, 124, 194, 298, 437, 714,
};

static uint64_t backbone_model3_conv1_conv1_weight[64 * 1*4] =
{ // torch.Size([64, 1, 1, 64])
0x853da3a33aa33440,0xb1129234c34c0430,0xcb93cb38d0bb4444,0x4ba334a4b4b1332c,
0x4a15415ac13ac44b,0x0304ccb3ba45b40a,0xcb9bc283c36444b4,0x2aaac41c42a16c24,
0x42ac3bba28a99043,0x9c0943d191c44c3b,0x3b31a3c04c09bb99,0x54bbbbc434cbd321,
0x33193cc9cc315a40,0xa32b4852bb43c0cc,0xbd141c34443421aa,0x3b4b401a3349abcc,
0x243c44ac191c3ab8,0xacab353c40d14b3b,0xc2329d3394b11b9b,0x33292c2c1b4b1c28,
0x49233bc2aaa3023c,0x20b2c2d322d424a8,0x9c39c2cb9103a0b4,0x5942dbc3234c3234,
0xc4a4c4b98323b531,0x3a0b0bba3bccb834,0x3bb0bb24da536c4a,0x4b3a8ac2a003cc2c,
0x4149543d225d39a3,0x2c3325abc84b40ac,0xcd44d9c433c43bc4,0xab43ba4dbc543293,
0x3c13a0423820bdb4,0xc43c34384bbcb4c3,0x3b44131930b5ca14,0x3a54b24134bc3a28,
0x21cc304b2baad03b,0xbc3a534ca3b35c34,0x36ac04a9bb51bc8c,0xcb594c24c22b60c3,
0x2da241a59cab41ca,0x4ba030aa4d2c849a,0xc3b1a3d43283b448,0x3bb4c003434a312a,
0x81c4cb00a3b3cab3,0x0b3ac9d34dc1a212,0x333291a52a234192,0xa320cccc334b3a43,
0xaaaccd4ba3c2032a,0xb33a3a2b4aa3d524,0x3c044cbb90a5cc44,0xb1d4494a1ba09bc2,
0xda92a8b112321bb3,0x88341c42aa3ab3c9,0x2c34c943a43943c1,0xb449a31d392144c2,
0x20dabba13b3003c9,0xbcc303bcd9d441b4,0xc244bbb9b8249333,0xbd53bda4863c52cc,
0xd4333b8c4ba89b02,0x134a439ba1c241c2,0xba39ccbb452acc82,0xca249c5512291cb9,
0x22301ccb4599333a,0x5c95c92ba424b435,0x4243bc4848242b92,0xa983a1b3cb30ab9c,
0x4b0cc8b592919434,0x44484323032c8ccb,0xbba82993cbbcb5a1,0xa21cc2bb2ca4459b,
0x4bc412b3a84c28b3,0x434c19bcad04ba12,0xbb2324a45b049cc8,0x0abccb312adbbbc5,
0x22b0a43a42331034,0x30393309d2acb234,0x0c54c9a0c5dc13b0,0x3a31cc334c8024b4,
0xbc992322dc51a33d,0x44393c405d232042,0x14db45443c33b243,0xb329334a33214cca,
0x844a44c1a2ba3bc0,0x8342b34bcdaa4ba9,0xc1bbbbcab0abcb42,0x4ab2324093b2c3d3,
0x3a030a31ab0c3b40,0xb2a15421b2bbc0cb,0xce1293bb413b3b34,0x225bba1300b880da,
0x234342c2ccc03d20,0x23ccc42444234cdc,0xd234b3c444c3d43a,0x4112449b43ac3340,
0xb3bc3ac334bbcbaa,0x488aa04a13b95a22,0x343b3a9b12a9d93c,0x38c0b0219b09ea32,
0x4bda43533a4bba4a,0x842d3c4b043c4bba,0x432a9b8cacd9213b,0x243cc5bbacad3aa9,
0x23c9b0381c093a2c,0xdc2b40330a393c23,0xaa24eb8442c4a412,0x0b03103a344c92c4,
0x2da4a4a5494c3384,0x333323c3db2a3a3a,0xab33b3a4bb2c84cb,0x3d342cb33233c431,
0x2ac8301dc29bb1b9,0xdc8004bc4413b143,0xc1814c135c340db4,0xb04bbbccc5124c38,
0xc3bcc40393b4c0c8,0xa0324442ca0b5b42,0x139335a4dcbb5341,0x9442a412c8041414,
0xd2b92b1529b0b232,0x43903ca48454c0c4,0x354405443214c428,0x03b343b324c2b3ac,
0xbc3bbbc8224c21c5,0x942bbb4c2cdc34ca,0x4b452b3bb884aab3,0xc423bc4b44b3baac,
0x343cc9cac2d3cb8b,0x3219a82a42ca2a93,0x140c5acb28b3c84a,0x41c02313a03bbb3c,
0x2bac32ba92cb2c2a,0xcb9043a0a434c3b0,0xbcabbcc940ccbb2a,0xbb0bc1c4ccaa1b5c,
0xc3b4b3cadda4ac4d,0x090bb492344bcabc,0xccbbb4a121a54b03,0x093024c93b4b4b4b,
0xb12ab0ac5a4ba33b,0x04633acc32b31c4a,0x11cea33b4c0c0b8a,0xbcb2bb334b830da4,
0x53bbbc3aaa8c303a,0x2b3a0ad3a4c4c410,0xa9844cbb0cb34245,0x23a93bd3441b1084,
0x13cb522024313443,0x4b13513aba4b1bcb,0xac9c8ab1342b04ad,0x3b4d33c3a34d119c,
0xacbb2bbccb4b4b40,0xb4bc034bbcab32bb,0x4b2c4c5b3cb98ca9,0xdb392d38c21ac98d,
0x33d4a9c9ba932442,0x042b93c34cd802a1,0x124330c44543b13c,0x3b22cc35494bcb3c,
0x4c9b3204babb94ad,0x4c23a835a20ab333,0x48c4acca34230438,0xcc202aa2d03b34b3,
0xcb3c15ba34bc4ddb,0xccc9a52bb33a53b9,0xcbc2488b3cd4ca3b,0xc53babc1b3c3b35a,
0x923a44cbbdad42cb,0xdc4dda4b3d3c3cad,0xbac0bdbc2ba828aa,0xba4caaacca1433ab,
0x25a4422ca34cbbaa,0xcbbbb23b3adb38b0,0x49a8bb5013304d3a,0x540a2184bc32ac32,
0x34434c4b43443b44,0x0bc93cab54440bc9,0xb3903b323cac814b,0x5ccb453330c24d9c,
0xc4c43db0cbc504cb,0x49921cb33c4bab30,0x42bcbccb42acb43c,0x1bccb4acac4bb4d4,
0x1ccc3bcc0ba3cb42,0x434c2ad433ac5349,0x420333c412b0220c,0xcccacb443abdcb53,
0xd95b3409cbca4acc,0xb302334c2b4daa42,0xb5bc0ccd3bbbccb4,0xa2c55444c3558b34,
0xbbba5a993c21b22c,0xb32a24abc3b3b39a,0x0220dbccbb024c43,0x2b025a45c3cbad31,
0xd41b01cbc12b8b44,0x9403843b4a31a3da,0x13493143c9c0c9a4,0xcb442b338a130a2d,
0x0ab203c343441384,0xb2ba5420248c3d3b,0x3b54d333a32c20c3,0xabc04c1ccc43c234,
0x3bc4c139b24049cb,0xc291358bac4c3b9a,0x4bcc3004ccbc201c,0xbb3bc9cbbd5a3a4c,
0x9cd32aba2b43c24b,0xac3343b3494213a3,0x5b22cca15ab3523b,0xbc8b30020b5cb813,
0xb44cb92b924433c3,0x414a13da492ba139,0xcb3303335ba43c44,0x3cccbb3ba3d4a0a1,
0x3c33432b31bb44c4,0x1408cbb03d4ca043,0x5bc253dccc3983cc,0xc2cb4344acc5c3a3,
0xb9cb9c49cba3cb09,0x3b0c4c423dbca4a3,0xb4345bbab02b8052,0xc4c3b444ccbd3ac3,
0xccc2c40930a30842,0x813323c2424a4941,0x31cc24d4bccc3a0d,0xbbcb92342d321c5b,
0x9aab32dabccb5cbb,0x9bc2b30432ba1cbc,0x00b222b290cbd21c,0x02cc24ba3a41b3b9,
0xc1032114c3c0ab94,0xccdba1a5a33c9892,0xa94482bd22130bd3,0xa3aa3dc9ca32b43b,
0x44b035bb228494cc,0x2423935bcccc2943,0xa3ac333b25c23b3b,0x0438c42dc00bc3c3,
0xbbac1ab8b90cbb0b,0xa19bb43aca8bca0c,0x8caab0c2b3bbbbbb,0xbb9b09acbabccaa0,
0x23b2333bb5c2a409,0x3cc39b4c21c33b22,0xc3cc323ab4429d4b,0x34394339c3b40cc4,
0xabc3cac89a93ca3c,0xc3b225d3214b101a,0xbbaac2b44daa223a,0x3bb23ac3b39bb25c,
0x52b2abbab8c2ab43,0x203c3bb3b3c22448,0x4331444bcabb9cc0,0x35ccbc320c3a2325,
};

static int backbone_model3_conv1_quant1_threshold[64 * 14] =
{ // torch.Size([64, 14])
-963, -604, -425, -290, -201, -111, -22, 67, 157, 246, 336, 470, 649, 1008,
-1086, -620, -387, -212, -95, 21, 137, 254, 370, 487, 604, 779, 1012, 1478,
-1152, -771, -581, -438, -343, -248, -153, -58, 36, 131, 227, 369, 560, 940,
-847, -524, -362, -241, -160, -79, 1, 82, 163, 244, 325, 446, 608, 931,
-834, -539, -392, -281, -208, -134, -60, 12, 86, 159, 233, 344, 491, 785,
-979, -644, -477, -351, -267, -183, -100, -16, 67, 151, 234, 360, 527, 862,
-922, -571, -395, -263, -175, -87, 0, 88, 176, 263, 351, 483, 659, 1011,
-1114, -718, -521, -373, -274, -175, -76, 22, 121, 219, 318, 466, 664, 1059,
-776, -477, -327, -215, -140, -65, 9, 84, 159, 233, 308, 420, 570, 869,
-952, -579, -392, -252, -159, -66, 27, 120, 213, 307, 400, 540, 726, 1100,
-811, -534, -395, -291, -222, -152, -83, -14, 55, 124, 193, 297, 436, 714,
-1090, -712, -523, -381, -286, -192, -97, -3, 91, 186, 280, 422, 611, 989,
-888, -572, -415, -296, -217, -138, -59, 18, 97, 176, 255, 374, 531, 847,
-939, -600, -431, -304, -219, -134, -49, 35, 119, 204, 289, 416, 586, 925,
-981, -659, -498, -378, -297, -217, -136, -56, 24, 104, 185, 305, 466, 788,
-677, -411, -279, -179, -113, -46, 19, 85, 152, 218, 285, 384, 517, 783,
-731, -416, -259, -141, -63, 15, 93, 172, 251, 329, 408, 526, 683, 997,
-685, -432, -305, -210, -147, -84, -20, 42, 105, 168, 232, 327, 453, 707,
-977, -636, -465, -337, -251, -166, -81, 4, 89, 175, 260, 388, 559, 900,
-1001, -633, -449, -310, -218, -126, -34, 57, 149, 241, 333, 472, 656, 1024,
-776, -434, -263, -134, -48, 36, 122, 207, 293, 379, 464, 593, 764, 1106,
-962, -630, -464, -340, -257, -174, -91, -8, 74, 157, 240, 365, 530, 862,
-974, -648, -485, -363, -281, -200, -118, -37, 44, 125, 207, 329, 492, 818,
-834, -525, -371, -255, -177, -100, -23, 53, 130, 208, 285, 401, 555, 864,
-996, -646, -471, -339, -252, -164, -77, 10, 97, 185, 272, 404, 579, 929,
-1066, -705, -525, -390, -300, -209, -119, -29, 60, 150, 241, 376, 556, 917,
-1107, -740, -556, -418, -327, -235, -143, -51, 40, 132, 223, 361, 545, 912,
-767, -484, -342, -236, -166, -95, -24, 45, 116, 187, 257, 363, 505, 787,
-1112, -732, -542, -400, -305, -210, -115, -20, 74, 169, 264, 406, 596, 975,
-827, -496, -330, -206, -123, -40, 41, 124, 207, 290, 373, 497, 662, 994,
-862, -501, -321, -185, -95, -4, 85, 175, 265, 356, 446, 582, 762, 1123,
-976, -616, -436, -302, -212, -122, -32, 57, 147, 237, 327, 461, 641, 1001,
-781, -499, -358, -253, -182, -112, -41, 28, 99, 169, 240, 345, 486, 768,
-1092, -731, -550, -415, -324, -234, -143, -53, 36, 127, 217, 353, 533, 895,
-986, -650, -482, -356, -272, -188, -104, -20, 63, 147, 231, 357, 525, 861,
-852, -540, -383, -266, -188, -110, -32, 46, 124, 202, 280, 397, 554, 866,
-902, -566, -398, -272, -188, -104, -20, 63, 147, 231, 315, 441, 609, 945,
-1014, -665, -491, -360, -273, -186, -99, -12, 74, 162, 249, 379, 554, 902,
-1060, -707, -530, -397, -308, -220, -131, -43, 45, 133, 222, 354, 531, 885,
-915, -563, -387, -254, -166, -78, 9, 97, 185, 273, 362, 494, 670, 1022,
-676, -416, -287, -189, -124, -60, 4, 69, 134, 199, 264, 361, 491, 750,
-1231, -845, -653, -509, -412, -316, -220, -123, -27, 68, 164, 309, 501, 886,
-1455, -1013, -792, -626, -516, -406, -295, -185, -74, 35, 146, 311, 532, 974,
-722, -443, -304, -199, -129, -60, 9, 79, 149, 218, 288, 393, 532, 811,
-783, -443, -273, -146, -61, 23, 108, 193, 278, 363, 448, 575, 745, 1084,
-996, -661, -493, -367, -283, -199, -115, -31, 52, 136, 220, 346, 514, 850,
-1083, -693, -498, -351, -254, -156, -58, 38, 136, 233, 331, 477, 672, 1063,
-1070, -667, -466, -315, -214, -114, -13, 87, 187, 288, 389, 540, 741, 1144,
-851, -529, -368, -247, -167, -87, -6, 73, 154, 234, 315, 435, 596, 918,
-726, -460, -327, -227, -160, -94, -28, 38, 104, 171, 237, 337, 470, 736,
-807, -512, -364, -253, -179, -105, -32, 41, 115, 189, 263, 374, 521, 817,
-1041, -694, -520, -390, -303, -216, -129, -42, 43, 130, 217, 347, 521, 868,
-959, -606, -429, -296, -208, -120, -31, 56, 144, 233, 321, 453, 630, 983,
-915, -576, -407, -280, -195, -111, -26, 57, 142, 227, 311, 438, 608, 946,
-1060, -693, -509, -371, -279, -187, -95, -3, 88, 180, 272, 409, 593, 961,
-832, -542, -397, -288, -216, -143, -71, 1, 73, 146, 218, 327, 472, 762,
-897, -553, -382, -253, -167, -81, 4, 90, 176, 262, 348, 477, 649, 992,
-952, -641, -486, -369, -292, -214, -136, -59, 18, 96, 173, 290, 445, 756,
-1030, -709, -549, -428, -348, -268, -188, -108, -27, 52, 132, 252, 413, 733,
-812, -487, -324, -203, -121, -40, 40, 121, 202, 284, 365, 487, 649, 974,
-1116, -765, -590, -458, -370, -282, -195, -107, -19, 68, 155, 287, 463, 814,
-763, -461, -309, -196, -120, -44, 31, 106, 182, 258, 333, 447, 598, 901,
-1171, -778, -582, -435, -337, -239, -141, -43, 54, 152, 250, 397, 593, 985,
-901, -547, -369, -236, -148, -59, 29, 117, 206, 294, 383, 516, 693, 1048,
};

static uint64_t backbone_model3_conv1_conv2_weight[64 * 9] =
{ // torch.Size([64, 3, 3, 1])
0x9, 0x0, 0xa, 0xc, 0xc, 0x0, 0xc, 0xc, 0xa,
0xa, 0xa, 0xc, 0xa, 0xc, 0xc, 0xb, 0xc, 0x9,
0x1, 0xc, 0x2, 0x4, 0xb, 0xc, 0x3, 0x3, 0xc,
0x4, 0x3, 0xb, 0xb, 0xd, 0x1, 0xb, 0xc, 0x2,
0x4, 0xa, 0x2, 0x3, 0xc, 0xd, 0x3, 0xa, 0xc,
0xc, 0xb, 0x3, 0xc, 0xb, 0x4, 0xb, 0xb, 0x4,
0xb, 0x4, 0x5, 0xc, 0x4, 0x4, 0xa, 0x2, 0xa,
0x4, 0x3, 0x3, 0x3, 0x4, 0x2, 0x0, 0x4, 0x3,
0xc, 0xa, 0xa, 0x4, 0xd, 0xb, 0x4, 0x2, 0x2,
0xb, 0x3, 0xc, 0xb, 0xd, 0xb, 0x2, 0xc, 0x3,
0x3, 0xb, 0xd, 0xa, 0x4, 0xc, 0x3, 0x4, 0xa,
0x4, 0x4, 0x4, 0x1, 0xb, 0x9, 0xc, 0xc, 0xc,
0x0, 0x4, 0x9, 0xc, 0x5, 0x3, 0xc, 0xd, 0xb,
0xc, 0xc, 0x3, 0xb, 0x3, 0x4, 0x3, 0x4, 0x2,
0xc, 0x9, 0xc, 0x2, 0xc, 0xc, 0x0, 0xc, 0x1,
0x5, 0x2, 0xb, 0x4, 0xc, 0xb, 0x2, 0xc, 0xa,
0xb, 0xa, 0x2, 0xa, 0x6, 0xb, 0x2, 0xa, 0x2,
0xc, 0x2, 0x5, 0x0, 0xc, 0x5, 0xa, 0xc, 0xa,
0x3, 0xa, 0xb, 0x9, 0xc, 0x4, 0x9, 0x5, 0x5,
0x1, 0x5, 0x9, 0xc, 0xb, 0xb, 0xc, 0xb, 0xa,
0x4, 0x5, 0x3, 0x0, 0x3, 0x9, 0xb, 0x1, 0xa,
0xb, 0x4, 0x5, 0xb, 0x2, 0x3, 0xc, 0xb, 0xc,
0xe, 0xb, 0x1, 0xb, 0x4, 0x2, 0x1, 0x3, 0x2,
0xa, 0xe, 0x0, 0xa, 0xa, 0x2, 0x2, 0x2, 0x9,
0x4, 0xb, 0xd, 0x4, 0x2, 0xb, 0x2, 0x3, 0x3,
0x3, 0xd, 0x9, 0x3, 0xc, 0xb, 0xa, 0x9, 0xc,
0x9, 0x2, 0x2, 0x3, 0xd, 0x3, 0x1, 0xd, 0x3,
0x4, 0x4, 0xc, 0x3, 0xc, 0xc, 0xc, 0xc, 0xb,
0xa, 0x2, 0xb, 0xb, 0xb, 0xb, 0xc, 0xd, 0xa,
0x0, 0x4, 0x4, 0xb, 0xc, 0x3, 0xc, 0xd, 0x9,
0x5, 0x4, 0xb, 0x5, 0xb, 0xb, 0xb, 0xb, 0xb,
0x2, 0xb, 0x0, 0x1, 0x6, 0x1, 0x0, 0x3, 0xb,
0x0, 0x4, 0x3, 0x2, 0x1, 0xd, 0x0, 0xc, 0xc,
0xa, 0x2, 0x3, 0x3, 0x4, 0x5, 0xa, 0x2, 0x8,
0x0, 0xe, 0xb, 0x0, 0x3, 0x9, 0xc, 0xa, 0x2,
0x1, 0x2, 0xa, 0x3, 0x5, 0x3, 0x8, 0xd, 0x1,
0x3, 0x4, 0x5, 0xb, 0x3, 0x3, 0xc, 0xc, 0xb,
0xb, 0xb, 0xa, 0xd, 0x4, 0x0, 0xd, 0x0, 0xa,
0x4, 0x4, 0x4, 0x4, 0x3, 0x3, 0xd, 0xc, 0xc,
0xc, 0xb, 0x4, 0x0, 0x3, 0x5, 0x3, 0x2, 0x3,
0x2, 0x0, 0x1, 0x8, 0xc, 0xc, 0x2, 0x5, 0xb,
0xb, 0xd, 0x8, 0xc, 0x2, 0x3, 0x1, 0x3, 0xb,
0x2, 0x1, 0x4, 0xc, 0xe, 0x0, 0x8, 0x0, 0x0,
0x9, 0x4, 0x3, 0xd, 0x4, 0x3, 0xc, 0xa, 0x4,
0x1, 0x2, 0x4, 0x3, 0x5, 0x3, 0xc, 0xd, 0xc,
0x2, 0x2, 0x8, 0x0, 0x4, 0x0, 0xa, 0x5, 0x4,
0x3, 0x5, 0x3, 0xb, 0x4, 0x0, 0xb, 0x3, 0xb,
0x2, 0xc, 0xc, 0x9, 0xd, 0x0, 0xa, 0xc, 0x0,
0x1, 0x3, 0x3, 0x3, 0x4, 0xc, 0x5, 0x3, 0xb,
0x3, 0xa, 0x8, 0x0, 0xd, 0x1, 0xa, 0x3, 0x4,
0x4, 0x3, 0x1, 0x0, 0xd, 0xc, 0xc, 0x0, 0xa,
0x4, 0xa, 0xc, 0x4, 0x3, 0xc, 0x4, 0x2, 0xd,
0x4, 0x3, 0xd, 0x3, 0x3, 0xc, 0x4, 0x9, 0xc,
0x3, 0xc, 0xc, 0x3, 0x1, 0xb, 0x5, 0x4, 0x0,
0xa, 0xd, 0x0, 0xb, 0xc, 0x3, 0xa, 0xb, 0xa,
0x2, 0x0, 0xc, 0xb, 0x5, 0x4, 0xa, 0xb, 0x5,
0xd, 0xc, 0x0, 0xc, 0xa, 0x3, 0x2, 0x3, 0x3,
0xb, 0x4, 0x4, 0x4, 0x8, 0x0, 0x3, 0xd, 0xb,
0xc, 0xd, 0x3, 0x3, 0x5, 0x3, 0x2, 0xa, 0xa,
0xb, 0x3, 0xb, 0x0, 0x0, 0xa, 0x2, 0x5, 0x5,
0x3, 0x3, 0x2, 0x2, 0x4, 0x1, 0x2, 0x4, 0x0,
0xd, 0x1, 0x3, 0xd, 0x3, 0x1, 0xa, 0x2, 0x9,
0xc, 0x1, 0x3, 0xc, 0x8, 0x3, 0xc, 0x2, 0x5,
0x3, 0x3, 0xb, 0x2, 0x4, 0xb, 0xa, 0x4, 0x5,
};

static int backbone_model3_conv1_relu2_threshold[64 * 7] =
{ // torch.Size([64, 7])
15, 57, 99, 141, 203, 287, 454,
28, 79, 131, 182, 259, 362, 568,
14, 50, 87, 123, 177, 249, 393,
-14, 28, 71, 114, 179, 265, 437,
11, 62, 114, 165, 243, 346, 552,
32, 65, 99, 132, 183, 250, 384,
-1, 50, 103, 156, 235, 340, 551,
27, 78, 129, 180, 256, 357, 561,
-3, 36, 76, 115, 175, 254, 413,
-63, -12, 38, 88, 165, 266, 469,
7, 47, 88, 128, 189, 269, 431,
35, 68, 101, 134, 183, 249, 381,
17, 58, 98, 139, 201, 282, 445,
19, 53, 88, 122, 174, 243, 381,
-18, 37, 94, 150, 235, 348, 573,
82, 127, 173, 219, 288, 379, 562,
-76, -15, 45, 107, 199, 322, 568,
86, 125, 163, 202, 261, 338, 493,
-2, 38, 79, 120, 181, 263, 427,
13, 50, 87, 124, 179, 253, 400,
36, 98, 160, 222, 315, 439, 687,
-55, -10, 34, 80, 147, 238, 418,
30, 69, 108, 147, 206, 284, 440,
16, 70, 125, 179, 261, 370, 588,
4, 46, 87, 128, 190, 272, 437,
-15, 29, 74, 120, 187, 278, 458,
17, 65, 113, 161, 233, 328, 520,
51, 89, 127, 166, 223, 299, 451,
9, 59, 109, 159, 234, 334, 533,
20, 70, 121, 171, 247, 347, 548,
-26, 31, 88, 145, 232, 347, 577,
4, 58, 112, 166, 248, 356, 572,
-60, -8, 43, 95, 173, 277, 486,
0, 37, 73, 109, 164, 237, 382,
-2, 55, 113, 170, 257, 372, 603,
48, 93, 137, 181, 248, 337, 514,
24, 62, 99, 137, 193, 269, 419,
-28, 21, 71, 121, 197, 297, 498,
4, 48, 91, 134, 198, 285, 457,
-4, 43, 91, 139, 211, 308, 500,
55, 86, 117, 147, 193, 255, 377,
-33, 12, 58, 104, 173, 265, 450,
-7, 65, 139, 213, 324, 472, 768,
68, 103, 137, 172, 224, 294, 433,
-6, 42, 92, 141, 215, 314, 512,
4, 48, 93, 137, 204, 293, 471,
-20, 51, 124, 196, 305, 450, 739,
-71, -11, 49, 110, 201, 322, 565,
-17, 27, 72, 117, 185, 275, 455,
37, 79, 121, 164, 227, 312, 481,
4, 43, 83, 123, 182, 261, 420,
-38, 14, 68, 122, 203, 310, 525,
6, 52, 98, 144, 214, 306, 490,
-17, 31, 80, 130, 203, 301, 497,
1, 40, 80, 120, 179, 259, 417,
-36, 16, 69, 122, 201, 307, 519,
-3, 40, 84, 128, 194, 282, 458,
24, 56, 87, 118, 164, 227, 351,
43, 74, 105, 136, 183, 245, 369,
-5, 41, 89, 137, 208, 304, 495,
13, 38, 64, 90, 129, 180, 284,
41, 80, 119, 158, 216, 295, 451,
-21, 19, 60, 100, 161, 243, 406,
-18, 25, 68, 112, 177, 264, 438,
};

static uint64_t backbone_model3_conv2_conv1_weight[64 * 1*4] =
{ // torch.Size([64, 1, 1, 64])
0x0cbd2ca343c403a5,0x2bb80bac3ccda4c3,0xa2a4aa14a4402331,0x4c3bd3ba3a5bb34a,
0xccaba313338242a3,0xbc33291ac90c0a24,0x0bd130a02a9203b0,0x23432094cba41258,
0xad4c8a4cbb82abba,0x5bb2bc39a2d4bcc4,0x4b8bab052aac2b23,0xcd3242bba2c3b2da,
0xa452b0b9bbba30a3,0x24ab1cc0aa9aa133,0x3c444bc9314cbcb9,0xbaa94b33532c1a4c,
0xc43a3283bc414baa,0xcc120abb3bbbcbc0,0xc2bab38ccd23bbbb,0x34cac0ba4c0242a3,
0xabc421922b214023,0xaca024b1b4ac14c2,0xa3b23334a423829a,0x93a994c1b33249b1,
0xcb2c831bb1c1aa4c,0x33245893cb90b8ac,0xb0b3c8ab3ba522bb,0x22b9034cc39aac9b,
0xc0c308bca232b9a3,0xba23334243bc0aa8,0xc5a43832b9383ab1,0xcb399193a3bcb3bc,
0x33cc33099ac3ba3b,0x0334bb49bdabc2b9,0xac09cbc2bbc3a230,0x33a9cc091ca4a4c2,
0x43a1c2bc9d90bb1b,0x34b0cccbc94c4aca,0x1b1a222434c0b390,0xc22b2bb8c4c804b4,
0x34040bb4abc504a3,0x0acad0b3b3c31934,0x0c33b3224b3b234b,0x43934d903da43234,
0xa3b3bbbcccc13b34,0x239ccca234bb0324,0xbba3d40a304a0349,0x42100d801c142234,
0x2bb4a34a33bca343,0x3c33234323caa831,0xba3a42c435938a0b,0xabbacbd302b14ca3,
0x434313ab24bb4412,0x4482b403b19b3432,0x039429caa4bbaa04,0x3481b3443a0b3c52,
0xb9a50b40194283a4,0x3adb00a2a44a2844,0xa9c9c449b2c3a3ab,0xa4b45cbbab5301bb,
0x38334253cb2a2b43,0x23411cb392294caa,0xb3030292c228a32b,0x1a2d2b02928a4b19,
0x40cd33cb30c3c240,0x45a9c038cbbb33ba,0x0b4bc0c2b1b0235b,0x339bdc0a1cb880c4,
0x123ac91b14b233c3,0x3b1a024a833ba59b,0x4cc243bc4a1c4324,0xa3a8c243a2403b33,
0x23c4ab3ababc9aba,0x33c533b4a5144043,0x9cb4cba34311c2c1,0x9a444a9a32aa932a,
0xbb20bb228b923424,0xcbc090aa30c903a1,0x1bac932bb8aa3249,0xcca322bbb83030bc,
0xb303913243ba4333,0xc3b31c9303c2b332,0x142a2db3a329383e,0x2192232c0a22baaa,
0xc0c113b984a2c3c3,0x422324311a13a942,0x243112323a323204,0x3b3334433b1bc24a,
0x4229a313badc10aa,0xbb349a42d3abba24,0x4c99bcb299a21580,0x223a4bb32d2423a2,
0xb9a3bb2b33888402,0x441cb2b2b12939b9,0xc39a1a3a1ac4cb3a,0x0bc24b2b141cb4b2,
0xac42a0322a134222,0xacab3bb2ab3023c9,0x92343ab1343da912,0xda00b033a03b424b,
0x943c0944933d344a,0xaabbc29c48a3c4b2,0xc43b4340c34c3433,0xb2c34cc129324010,
0x2bb382bb3bb4b32a,0x3223b24bcb213420,0x4b8c33b0502a4ba4,0x34a4bb41c4999232,
0xab0aa4cb32b2aad4,0x1193b4344322ba4c,0x49ac020c4b39b133,0x3233b832b118b88b,
0x940cdb25cb9cc1b3,0x428c2a294baa93bb,0x315bbc9baa3a54a3,0xccc9bbb31a03bac3,
0x1a443a24a43b123d,0x422a3b21c33bc4b3,0xb4ac282c9c453abb,0x423b9b4b39414333,
0x0b99323bb8aac408,0x28220548aaaa43a2,0x04c4942433c89b03,0x303824b392b221bb,
0xcbca0b922bbacca2,0xcb4aac5aa8ccaac3,0x3491b81bac0c9caa,0x4b00bcbbc999b492,
0x2a9b2ab93bc23399,0xb4bbcab3394392a3,0x42aa3bb9b5b335ab,0x10523accac2b4d44,
0xa280dc331b2b234b,0xba8bbaac84b333b4,0xc04a3b23c12c4344,0xc1844ab3802b3392,
0xa0332cb9323334b1,0x193ca291332d3ba9,0x209ba0503bc3039c,0xaa12b93043d43834,
0x3ab3cb4bcc2b094a,0xabcba90daa3a3ca3,0xda30a231a31cc033,0xc9322dc484ab42ab,
0x94ac34ac0a1cc9a1,0x21532123232bb233,0xb1c9aabbcbb3c3b3,0x44b9cb43c0c429a3,
0x39c48b20cacb3294,0xab82bb4b11940a02,0x093bc24a1388b343,0xaa33ab2139a394d1,
0x33b21d01cc093a01,0x900321b532215b42,0x3b049b301090baaa,0x8b4b20a2048a2110,
0xb29b5b4b4223c8a2,0xb3d33cbcb894bab2,0x3c4b22a442c21210,0x4a3834b4531d3123,
0x89aa4a94b3a45ca0,0x9b2b4232c03c83b9,0x3a84333b2b8abc04,0xb30bc42b9c40b3cb,
0x258b903cc0babb22,0x2bc0a91bb1323ca9,0x9a933480b523c1c3,0xa13c9bc4913c2a09,
0xbbbcbb3dc0b3943a,0x33c0c6baa20bbaac,0xc322c330bacbbbb3,0xcab830c283b440b0,
0xc335bb323c4bc3bb,0x01adcbba5b3c21c4,0x442b34523031321b,0xbac34ca2492b3214,
0x2b34991abab52a23,0xbcc3a433a3b13bbc,0x2a0495313c22199c,0x12aaa2bbbb1313c2,
0x0bd138422bc23b44,0x2439c3c3a8a23339,0x4c12b9c12bb44a22,0xa2b4312d20a940b0,
0xb29c0a8cc20bcbb0,0x44403294a5334c43,0x4ba4ccb30abb2b9a,0x5a49313203c0cc89,
0x482490a214842b03,0xd9c4393a38a32c31,0x004c38328c44330c,0x15241483232cc4c2,
0xcc9a333c4c5aa1cc,0x9a33b93b4a880931,0xb3cb40cbb1c0bcca,0xa4ca4b33c242b4bc,
0xbb2cbcb2244108c4,0x40bca31bb5112b22,0xaccca3a28ba3292a,0x3102b5bbb2ab3304,
0xb23230a3ccb84a22,0xccc30cb80c840cc9,0xac20923313b3b01a,0xcc2300cb2a3433cb,
0xb213a398221cbaa2,0x343aa32449134443,0x31300bbabbc83a43,0xab92804b2cb0bcba,
0x3333aa829342090b,0x43bb11a240b5330b,0xb140a34a23339d8b,0x4cc9cb33340a2c20,
0x533b4a10cab422ab,0x3bb3aacacb334b44,0xb224a424c332db9b,0x333caba333383230,
0x42225329caac4ac3,0x9bb323ba3b033a34,0x44c5c94322b4c2bb,0xac4a0aca4833224c,
0xa3cac9bc0b3cb2b9,0x953c189c8343b2c1,0x3b038bc4c5bd20c2,0x4a3004c3c339bba0,
0xb043ab82194341b3,0x2bacc29ac3393ab2,0x4aca11314b91320b,0xbc88b31840aa3a45,
0xaa2544cca1203d33,0x3439333b38ab4c8a,0x3c9342a3b0930433,0xba2c8c2944334243,
0x8158b229cab1340b,0x3cb84ba4b4394a32,0x30b3339232aba2db,0x23000a2cb38bbbb0,
0xc9bc281a0ccbb43b,0xcba3a290acc3a4cb,0x839bcc9a34b8aa3a,0xcd95b2cbd2b240cb,
0xab3403c234032a93,0x404b8a49a0b3c32d,0x8900223c03c04032,0x33b3a3493b82ba33,
0x234c2341cb334b22,0xc2c9accab33909b2,0xbd2cc32bbb4abba0,0x24039250233341bb,
0x14ba02089b2cc22a,0xb2b8bccc0b43cac4,0x23ba4ab4b4aa18b0,0xb9382bc0c3b03393,
0x3b3bb3d334244c33,0x4331134a03333bbc,0x3c3a1ab543c392ab,0xb4bb4b2314a33b0b,
};

static int backbone_model3_conv2_quant1_threshold[64 * 14] =
{ // torch.Size([64, 14])
-1148, -718, -504, -343, -235, -128, -21, 86, 193, 301, 408, 569, 784, 1213,
-779, -482, -334, -223, -148, -74, 0, 73, 148, 222, 296, 407, 556, 853,
-1171, -777, -579, -431, -332, -234, -135, -36, 62, 160, 259, 407, 605, 1000,
-832, -508, -347, -226, -145, -64, 16, 97, 177, 258, 339, 460, 622, 945,
-1156, -778, -589, -447, -353, -258, -164, -69, 24, 119, 213, 355, 544, 922,
-866, -533, -366, -241, -158, -75, 8, 91, 174, 258, 341, 466, 632, 965,
-1093, -719, -532, -391, -298, -204, -111, -17, 75, 169, 262, 403, 590, 964,
-796, -494, -343, -230, -154, -79, -3, 71, 147, 222, 298, 411, 562, 864,
-996, -682, -525, -407, -328, -250, -171, -93, -14, 63, 142, 260, 417, 731,
-1152, -695, -467, -296, -181, -67, 46, 160, 274, 388, 502, 674, 902, 1358,
-979, -598, -408, -265, -170, -75, 20, 115, 210, 305, 400, 543, 733, 1114,
-894, -573, -413, -293, -213, -133, -53, 26, 106, 187, 267, 387, 547, 867,
-1019, -651, -468, -330, -238, -147, -55, 36, 128, 220, 311, 449, 633, 1000,
-599, -310, -165, -56, 15, 87, 160, 232, 305, 377, 449, 558, 703, 992,
-1075, -675, -475, -325, -225, -125, -25, 74, 174, 274, 374, 524, 724, 1124,
-732, -453, -313, -208, -138, -68, 0, 70, 140, 210, 280, 385, 524, 804,
-976, -662, -505, -388, -309, -231, -153, -74, 3, 81, 160, 277, 434, 748,
-807, -480, -317, -194, -113, -31, 50, 131, 213, 295, 376, 499, 662, 989,
-764, -461, -309, -195, -119, -43, 32, 108, 184, 260, 336, 449, 601, 905,
-820, -538, -397, -291, -221, -150, -80, -9, 60, 131, 201, 307, 448, 730,
-1246, -838, -633, -480, -378, -275, -173, -71, 30, 132, 235, 388, 592, 1001,
-553, -281, -144, -42, 25, 93, 161, 230, 298, 366, 434, 536, 673, 945,
-760, -473, -330, -223, -151, -80, -8, 63, 134, 206, 277, 385, 528, 814,
-806, -516, -371, -262, -189, -116, -44, 28, 101, 173, 246, 355, 500, 791,
-754, -471, -330, -225, -154, -83, -13, 57, 127, 198, 268, 374, 515, 797,
-891, -551, -381, -254, -169, -84, 0, 85, 170, 255, 340, 468, 638, 978,
-903, -509, -312, -164, -66, 31, 130, 228, 327, 425, 524, 671, 868, 1262,
-692, -424, -291, -191, -124, -57, 8, 75, 142, 209, 275, 376, 509, 776,
-1209, -779, -564, -403, -295, -188, -80, 26, 134, 241, 349, 510, 725, 1155,
-827, -507, -346, -226, -146, -66, 13, 94, 174, 254, 334, 454, 615, 935,
-941, -612, -448, -325, -243, -161, -79, 3, 85, 167, 249, 372, 536, 865,
-1010, -705, -553, -438, -362, -286, -210, -134, -57, 18, 94, 208, 361, 665,
-906, -572, -405, -279, -195, -112, -28, 54, 138, 222, 305, 431, 598, 932,
-823, -514, -359, -244, -166, -89, -12, 65, 142, 219, 296, 412, 567, 876,
-909, -578, -412, -288, -205, -122, -39, 43, 126, 208, 291, 416, 581, 913,
-924, -597, -434, -311, -230, -148, -66, 14, 96, 178, 259, 382, 545, 872,
-904, -563, -393, -265, -180, -94, -9, 75, 160, 245, 331, 458, 629, 970,
-915, -585, -420, -297, -214, -131, -49, 33, 115, 198, 280, 404, 569, 899,
-564, -338, -226, -141, -85, -29, 27, 83, 139, 196, 252, 337, 449, 675,
-1025, -626, -427, -278, -179, -79, 20, 119, 219, 318, 418, 567, 766, 1164,
-967, -593, -407, -267, -173, -80, 13, 106, 199, 293, 386, 526, 713, 1086,
-854, -563, -417, -308, -236, -163, -90, -18, 54, 127, 200, 309, 454, 745,
-1336, -785, -510, -304, -166, -28, 108, 246, 384, 521, 659, 865, 1141, 1691,
-1028, -642, -448, -304, -207, -110, -14, 82, 178, 275, 372, 517, 710, 1096,
-964, -652, -496, -379, -301, -223, -145, -67, 10, 88, 166, 283, 439, 751,
-759, -480, -341, -236, -166, -97, -27, 42, 111, 181, 251, 355, 494, 773,
-1079, -683, -485, -336, -237, -138, -39, 59, 158, 257, 356, 504, 702, 1098,
-784, -466, -307, -187, -108, -28, 50, 130, 209, 289, 369, 488, 647, 965,
-819, -535, -393, -287, -216, -145, -74, -3, 67, 137, 208, 315, 456, 740,
-878, -551, -388, -265, -183, -102, -20, 61, 143, 224, 306, 429, 592, 919,
-1147, -759, -564, -419, -321, -224, -127, -30, 66, 163, 260, 406, 600, 989,
-914, -543, -358, -219, -127, -34, 57, 150, 243, 335, 428, 567, 752, 1122,
-645, -381, -249, -150, -84, -18, 47, 113, 179, 245, 311, 411, 543, 807,
-842, -513, -349, -226, -144, -62, 20, 102, 184, 266, 348, 472, 636, 965,
-901, -563, -393, -266, -182, -97, -12, 71, 156, 241, 326, 453, 622, 961,
-990, -623, -439, -302, -210, -118, -26, 64, 156, 248, 340, 477, 661, 1028,
-841, -505, -337, -211, -127, -43, 40, 124, 209, 293, 377, 503, 671, 1007,
-693, -404, -259, -151, -79, -6, 65, 137, 210, 282, 354, 463, 607, 896,
-803, -510, -363, -253, -180, -106, -33, 40, 113, 186, 260, 370, 516, 810,
-1112, -801, -646, -529, -451, -374, -296, -218, -140, -63, 14, 131, 286, 597,
-737, -445, -299, -189, -116, -43, 29, 102, 175, 248, 321, 431, 577, 869,
-902, -543, -364, -229, -139, -49, 39, 129, 219, 309, 398, 533, 713, 1072,
-808, -538, -403, -302, -235, -167, -100, -33, 34, 101, 169, 270, 405, 674,
-630, -381, -256, -162, -100, -37, 24, 87, 149, 211, 274, 367, 492, 742,
};

static uint64_t backbone_model3_conv2_conv2_weight[64 * 9] =
{ // torch.Size([64, 3, 3, 1])
0x4, 0x3, 0x4, 0x3, 0x3, 0x4, 0x4, 0x2, 0x3,
0x0, 0xb, 0x0, 0xd, 0xb, 0x4, 0xc, 0xb, 0x5,
0x3, 0x5, 0x5, 0x3, 0x3, 0x5, 0xa, 0x9, 0x2,
0x3, 0x1, 0x1, 0x9, 0xc, 0xc, 0xb, 0xd, 0xd,
0x4, 0x5, 0xd, 0x4, 0x9, 0xd, 0x4, 0x3, 0xb,
0xc, 0xb, 0xc, 0x9, 0xa, 0xa, 0xa, 0xb, 0xb,
0xc, 0x5, 0x6, 0xa, 0xb, 0x0, 0x2, 0xa, 0xb,
0x4, 0x2, 0xa, 0x4, 0x3, 0xc, 0x5, 0x3, 0xc,
0xa, 0x5, 0x4, 0x9, 0x4, 0x9, 0x9, 0x2, 0xa,
0x4, 0x6, 0x5, 0xa, 0xa, 0x0, 0xb, 0xc, 0xa,
0x0, 0xc, 0xc, 0xa, 0xd, 0xa, 0xb, 0xd, 0xb,
0xd, 0xb, 0xa, 0xc, 0xa, 0x2, 0xc, 0x9, 0xb,
0xb, 0xb, 0xc, 0xa, 0xa, 0xa, 0xc, 0xb, 0xc,
0xb, 0xd, 0xc, 0x3, 0x9, 0xc, 0x2, 0x2, 0xc,
0xc, 0x3, 0xb, 0xc, 0xc, 0xc, 0xc, 0xc, 0x0,
0x1, 0x5, 0xb, 0x8, 0xd, 0x3, 0x3, 0xa, 0x2,
0x4, 0x0, 0x9, 0x5, 0x3, 0x0, 0x5, 0x3, 0x9,
0x8, 0x4, 0x9, 0x4, 0x5, 0xc, 0xd, 0xd, 0xc,
0xd, 0xd, 0xc, 0xb, 0xb, 0xc, 0x2, 0xb, 0x1,
0x3, 0xc, 0xb, 0x4, 0xc, 0x9, 0x5, 0x2, 0x0,
0x3, 0xe, 0x2, 0x3, 0x3, 0x2, 0x0, 0xa, 0x9,
0x3, 0xd, 0xb, 0xa, 0xd, 0x4, 0xc, 0x3, 0x4,
0x9, 0x5, 0x0, 0x4, 0x4, 0xc, 0x5, 0xa, 0xd,
0x4, 0x4, 0x4, 0x3, 0x1, 0x3, 0xc, 0xc, 0xb,
0xd, 0xc, 0x2, 0xc, 0xb, 0x1, 0x1, 0x3, 0x2,
0xa, 0xc, 0xa, 0xb, 0xe, 0x1, 0x3, 0x1, 0x3,
0xb, 0xa, 0xb, 0x5, 0xb, 0x1, 0x5, 0xc, 0x8,
0x8, 0xb, 0x0, 0xc, 0xc, 0x2, 0x4, 0x6, 0x3,
0x4, 0xa, 0x1, 0x4, 0x4, 0x3, 0x2, 0x4, 0x5,
0xd, 0xd, 0xb, 0xd, 0x5, 0x2, 0xb, 0x3, 0x3,
0xb, 0xd, 0xb, 0xb, 0xd, 0xc, 0x4, 0x9, 0xa,
0x4, 0x3, 0xb, 0x4, 0x3, 0x2, 0x3, 0x3, 0x3,
0x4, 0x4, 0x4, 0x4, 0x4, 0x4, 0x3, 0x0, 0xa,
0xc, 0xd, 0x2, 0x4, 0x3, 0x2, 0x2, 0x2, 0x3,
0xc, 0xd, 0xc, 0xa, 0xa, 0xb, 0x4, 0x3, 0x4,
0x4, 0x5, 0x0, 0x9, 0xb, 0x4, 0x3, 0xd, 0x3,
0x3, 0xb, 0xb, 0x5, 0xa, 0x3, 0x5, 0x1, 0x2,
0x8, 0x4, 0x3, 0xa, 0xa, 0xc, 0xd, 0xc, 0x9,
0x3, 0x5, 0x9, 0xb, 0xd, 0xa, 0x0, 0xb, 0x3,
0x3, 0x3, 0x1, 0x4, 0x4, 0x4, 0x3, 0x3, 0x3,
0x4, 0x4, 0x1, 0x2, 0x3, 0x2, 0x1, 0x4, 0x2,
0x8, 0xd, 0xb, 0x5, 0x4, 0x9, 0x9, 0x4, 0x0,
0x4, 0x5, 0x4, 0x3, 0x3, 0x4, 0x8, 0x2, 0x2,
0x0, 0xb, 0xa, 0xb, 0xc, 0xc, 0x1, 0xc, 0xd,
0x5, 0x3, 0xc, 0x4, 0x3, 0xc, 0x5, 0x3, 0xb,
0xa, 0x4, 0xc, 0x0, 0x4, 0xd, 0x1, 0x4, 0xb,
0xa, 0x8, 0x3, 0xb, 0x3, 0x4, 0xa, 0x5, 0x4,
0xb, 0xa, 0xb, 0xd, 0xb, 0xb, 0xb, 0xb, 0xa,
0x4, 0x5, 0xc, 0xb, 0x4, 0x4, 0xc, 0x2, 0x4,
0x3, 0x4, 0x5, 0x2, 0x4, 0x5, 0x9, 0xb, 0xc,
0x5, 0xb, 0xc, 0x4, 0x4, 0xb, 0x1, 0x5, 0x4,
0xb, 0xa, 0x5, 0x2, 0x0, 0x5, 0x2, 0xc, 0x3,
0x4, 0x2, 0xd, 0x4, 0xb, 0xc, 0xa, 0xc, 0xb,
0x1, 0x9, 0x0, 0x1, 0x4, 0x9, 0xe, 0xa, 0x2,
0xa, 0x4, 0x0, 0x1, 0x3, 0x9, 0x8, 0xe, 0xc,
0x5, 0x5, 0x3, 0x3, 0xb, 0xc, 0x2, 0x9, 0xb,
0xa, 0x4, 0x4, 0xc, 0xc, 0xb, 0xb, 0xb, 0xb,
0x9, 0x3, 0xc, 0xc, 0xd, 0x9, 0xb, 0x3, 0x9,
0x3, 0xb, 0xb, 0x2, 0x4, 0xb, 0xc, 0x5, 0x3,
0xb, 0x2, 0xc, 0x0, 0x5, 0xb, 0x4, 0x4, 0x4,
0x5, 0x4, 0xd, 0x3, 0xb, 0xb, 0x3, 0xb, 0xb,
0x0, 0x0, 0x4, 0x3, 0x4, 0x4, 0x0, 0x3, 0x3,
0x4, 0x4, 0x3, 0x5, 0x4, 0xb, 0xb, 0xc, 0xc,
0x3, 0x4, 0xc, 0x4, 0x5, 0xd, 0xa, 0xb, 0xd,
};

static int backbone_model3_conv2_relu2_threshold[64 * 7] =
{ // torch.Size([64, 7])
29, 76, 124, 171, 242, 336, 525,
136, 177, 218, 260, 322, 405, 571,
16, 78, 141, 204, 297, 423, 673,
32, 113, 193, 274, 395, 556, 878,
114, 162, 210, 259, 331, 428, 621,
7, 42, 77, 112, 164, 234, 373,
69, 115, 162, 208, 278, 371, 558,
28, 73, 117, 161, 227, 316, 493,
76, 112, 148, 184, 238, 309, 452,
-62, -18, 26, 71, 137, 227, 405,
72, 122, 172, 222, 297, 397, 597,
31, 73, 116, 158, 222, 306, 476,
58, 100, 141, 183, 246, 329, 496,
-41, 8, 58, 109, 184, 285, 486,
18, 67, 116, 165, 238, 336, 531,
38, 73, 108, 142, 194, 264, 403,
65, 119, 173, 227, 308, 416, 631,
25, 76, 126, 177, 252, 353, 555,
68, 128, 187, 246, 334, 453, 689,
42, 77, 112, 147, 200, 270, 411,
-90, -28, 32, 94, 186, 310, 557,
11, 63, 115, 167, 246, 350, 558,
100, 149, 197, 246, 319, 416, 611,
36, 75, 114, 153, 211, 289, 444,
61, 107, 154, 201, 270, 364, 550,
0, 60, 122, 184, 276, 399, 646,
33, 70, 108, 145, 201, 275, 424,
71, 137, 203, 269, 368, 501, 765,
32, 78, 123, 168, 236, 327, 508,
-6, 42, 91, 140, 214, 312, 509,
-201, -128, -54, 19, 130, 278, 573,
5, 46, 87, 129, 191, 273, 439,
27, 78, 130, 181, 259, 362, 568,
65, 109, 153, 197, 263, 351, 527,
28, 71, 113, 156, 220, 305, 475,
-54, 7, 69, 130, 223, 346, 593,
56, 101, 147, 192, 260, 350, 531,
37, 72, 107, 143, 195, 266, 406,
22, 80, 138, 196, 284, 400, 634,
69, 106, 143, 180, 236, 310, 458,
-7, 32, 71, 110, 169, 248, 405,
46, 84, 122, 159, 216, 292, 444,
-197, -151, -105, -58, 10, 102, 287,
4, 49, 94, 138, 205, 294, 472,
81, 121, 162, 202, 263, 343, 505,
-53, 18, 90, 162, 270, 413, 701,
53, 85, 118, 151, 200, 266, 397,
14, 78, 142, 206, 302, 429, 685,
81, 128, 176, 223, 294, 388, 577,
67, 125, 182, 240, 327, 442, 673,
42, 85, 129, 173, 239, 326, 502,
-4, 42, 88, 135, 205, 299, 486,
58, 102, 147, 192, 258, 348, 526,
5, 65, 126, 186, 277, 398, 640,
13, 67, 120, 173, 253, 360, 574,
20, 60, 100, 140, 200, 279, 439,
48, 89, 130, 171, 233, 315, 480,
-12, 24, 62, 100, 157, 233, 384,
60, 93, 125, 158, 207, 272, 402,
18, 58, 98, 139, 199, 280, 441,
62, 103, 145, 186, 248, 331, 497,
-10, 22, 55, 88, 137, 203, 335,
76, 123, 171, 218, 289, 384, 574,
95, 159, 223, 287, 383, 510, 766,
};

static uint64_t backbone_model4_conv1_conv1_weight[64 * 1*4] =
{ // torch.Size([64, 1, 1, 64])
0xbb921a2c91283cb4,0x200bbbc3b24314ac,0x0b1ca09aba91c38c,0x2c3a82b949c253c4,
0xa030482b3b35bc90,0x5a2a4ba03ab03823,0x3a3db24dc3321bb9,0xa3cbb28449b4bbc3,
0x2133b30c412ca3bc,0x80bbbcc550430ba4,0x2cb58343ca9a22a8,0x3bb12abacb023435,
0xa433132938384bbb,0x04213343b32b2b94,0x02ab4c2bb9401bb9,0x11bac04babc5bb8b,
0x034abacc1c40bc23,0x9433a3c42a45a3b3,0x1acc343038438c2a,0x322443cc2a30b42b,
0xb021bbabbba99b32,0x302ccc2c4180bb20,0xaacb98ca9ab2b93b,0x1483ba0b8a09c09c,
0xabb0ab23aa3ac842,0xcb2a5bc42b33a3a3,0xc8289b0313801a02,0x13d243ca2a483c29,
0xa32a2abb04bd3a30,0x3410acb34b32bb01,0xbbb2ac32cb3ab4c8,0x8c91b2db220bb3c1,
0x302212a991ab925b,0xab822104aa4b0d13,0xb31893248b300122,0x0b913babac28b142,
0x34c24438321a043c,0x881a2b41c2492a34,0xa24baa3bac0b323a,0xaa3c3341bad303c9,
0xbbbb2cab9434d329,0xac9b43babb4b9120,0x320b2c3b4c42832b,0x05ac40ca3cbb1a1c,
0xb39022c232293324,0x22a0d39ba09bbc04,0x8cb09bb439102334,0x1b39043382aac4ac,
0xc3b0bb14543abca8,0x339a30bbca24213b,0x43338a0903bbb9a2,0x13ab3b424cbbb01b,
0x4842a3ac38b32530,0x9214cc445bcb31bb,0x44a2c0440ca94bc2,0xac532b304b35331b,
0x229a22ab00294104,0x83b3c0adb134331b,0x20bca0b3b9a03222,0xbd4ab402201349bb,
0x3c22483baa2942b3,0x4b03ba0032ca9242,0x33a28203921a32a3,0xb2c433a44443adb3,
0xbbd0bbba2c284cbb,0x203b323a33bb3333,0x5a43189bc9b93bb4,0x34ba29b84b424014,
0xb1234b44adc3244b,0xb22a329b41a3b310,0xca0cbbc89ababa4c,0x3c2a1cabc1aa33a9,
0x302a922542a3cb4b,0xd1a24484b2002a9a,0xa0142a3343ba2c23,0xaaa802208acacb43,
0x8bacba988a3a2a89,0x29cc12c04c29c01b,0x3c8bba002bcbacbb,0xbac4ab4aca2bbbb3,
0x551394a93330a9bb,0xa5232cc8c3a32c3c,0x314b3158cbba4b13,0xb14bb24ab924c3c2,
0x1139133b840b89cc,0x44a24295393c1d32,0x4433283cbd3993a1,0xb5ba4c924b2bd223,
0xa84bbbb032b4bb45,0x9b4cba9a59aa24bb,0xbb1ab3bb25233aa4,0x02939338bad3c05b,
0x43d322b83444b042,0xb0390d30c922248a,0x421b434333392c0b,0xb84c394933c449bc,
0x221b4c3330a3a420,0x2c433423baab24b3,0x001a09ba3453232c,0x482db3b432c24d29,
0x0b343c4ab094daa8,0x4b3bab213b889a12,0x232bb3c83432a33b,0x24cabec38ccb3cb8,
0x315bc23333229c32,0xc384b305cab492cb,0xc39822a82a23382c,0x1b44cc3b39a33c1d,
0x933c323a2ac8a3c9,0x43abcc1c00c23b0c,0xbaa39aa81ca12cac,0x9c84a49ba832dbbb,
0x42b410cc9a04b423,0x1c24c9243abcab02,0x42c9a433233232aa,0x0a2b3bb03b234040,
0xc328aab9b43d8a3c,0x92bbba2abac4b9a4,0xb29492bcd4322a3a,0x3a9ab39ab2cb3bcc,
0x320319c4bbb43343,0xbb2ac41bc3bc1bb2,0xb3da22b242b92a33,0x9bab014244b1ac48,
0xab214b333131421c,0x498b9c114a8b2293,0x54841a9bbba8132d,0x2422b8422c22b4b3,
0xbc2caac998023392,0x22b0bbbb3bb3c194,0x83ba8914422b0ba9,0x9ad3b0b33133bc4b,
0xcc3c0b9a89333ab4,0x2b1a8cb4aba3b41b,0x42b2b20bc481aabb,0x1930b2c33cac41c4,
0xa43930903398b090,0x5c83bb830233ba24,0xb3dbb2339a2aaaa3,0x23ab3344b3c9d1ac,
0x45a4c1c334b344b0,0xc238bd4b4a4c4425,0x354c3333423c3a52,0xaa2b414a9c45db45,
0xc12caab5334c3b4c,0x0abc34ac30b12433,0xbb041cc23b2b1a39,0x22abcc4ab3bb33bc,
0x1822ab0141118922,0x4202c9bb31a2b324,0x1ab429a4b330101a,0x3cc213a92a342e34,
0xbb03283bca4c34db,0xd920aa03b203aa2d,0x12c32b030c92243b,0x2a483932028a3b3b,
0xb4b3cb302cc2a4aa,0x93b44aa33b32c334,0xbc3acac233cbc8b0,0xbbba2ac282ca2932,
0x9b4c8b4113a3a022,0xbb0333343bcb23bd,0x330aa3ac29b2adb8,0x2c2310ab3d00b143,
0xc3ab29248b1c4418,0x449a0b2441322b1a,0x434219aacdba243b,0x232931984a23c334,
0x13b1b3a023318423,0xc1b423b200a39238,0x4334029403104413,0xa33b24a434b34ba3,
0xb32389c293b33b30,0x20ab211b0c33c3b3,0xa3ca2b24244dc2ca,0xc3ba0ab443b13123,
0x32a4323bb3ab22bc,0x183bcc2cb4cb4b41,0x4ab38492bb34a143,0x440b2239aa43ca3d,
0x90985b1bb32ab432,0xbb4aa40ab9bb338b,0xcc9a4c30224b3ba8,0x0cbbb31b2a234c3b,
0x4b994b40ca5aa912,0x014c9c52b3b83cc2,0x32aa56baba44bc52,0x540ac3421b43c1c0,
0x9502a32c5a828ccc,0x54a40bbba99b2324,0x9c30babcac3ba00b,0x0aabca3ccbc3c3bc,
0x0b3b110b1883cbb2,0x33032b9b3a1ab00b,0x4b1b10334dc392cb,0x24b333ac4c02ba43,
0x1129bbc31bab3c29,0xc3ac20b220239182,0xc3982bb439a9bbac,0x1ba4a88ba24c94bc,
0xc32980abbb3923a3,0x4b9c3ba33a31a2a2,0xb0c2333030322a0c,0x3903434dd0a4b32c,
0x322411492a9acbc8,0x32b2ba30ba0a0b32,0xb2aca4b0bb0ab433,0xbc3c2bbabababc2a,
0x3343a22433ab2439,0xb3a3353239123a83,0xd393913342aaa813,0xaacb234aa3b2433b,
0x09b9380c3b2849ba,0x42293ca43901939d,0x5c2b124a0baa2ccb,0x0c44bb91212333c3,
0xba31b3c201a03a22,0xc4322cb23134b1a3,0x82a29b3331baa4a8,0xb325a838b14bc332,
0xb34aaab03a2043aa,0x2082bc334c2289da,0x04c4308b2b2aa0cb,0xa344abac9943b33a,
0x38530240cbaca4bc,0x9225ac0548923c1c,0xa3cb023bca334429,0x0934baa49433bada,
0x0cbc23a3b4aba5b4,0xa9a2ba10b0ccacbd,0x82a5abbbb1b143b4,0x933b348430cabc2a,
0xa330243433c134b9,0xa4333ba5c2841c2c,0x930bb342c33b35b2,0xa233b3b4b5a3c0cb,
0xa439290d29b22023,0xab80c305391a9c12,0x5cbdb229b3389b94,0xac0833a03bd34093,
0xca9c99c324333b34,0xabad4ab9a99aa0ba,0x33931b481389a201,0xa4c01334214aa33c,
0x031a31333b0ba442,0x32b9a32b513033c4,0x2b9aa31320abbca1,0x9c4a9a0b2ab0d593,
0x39140a30cbb20baa,0xa41491b0c24ca222,0x922c909c9c29b38a,0xa13b0caa2ac1ac42,
0x883babb12314ad2b,0x3830a93bb2b2cb24,0x283c42133b44049c,0x31d4cbb34343bd41,
};

static int backbone_model4_conv1_quant1_threshold[64 * 14] =
{ // torch.Size([64, 14])
-1041, -698, -527, -398, -313, -227, -141, -56, 29, 115, 201, 329, 500, 843,
-936, -572, -391, -254, -163, -73, 17, 108, 199, 290, 381, 517, 699, 1062,
-1304, -824, -584, -404, -284, -164, -44, 75, 195, 315, 435, 615, 855, 1335,
-889, -521, -336, -198, -106, -14, 77, 170, 262, 354, 446, 584, 769, 1137,
-952, -576, -388, -247, -152, -58, 35, 129, 223, 317, 411, 552, 740, 1116,
-1582, -1081, -831, -643, -518, -393, -268, -142, -17, 107, 232, 420, 670, 1171,
-1179, -791, -597, -451, -354, -257, -160, -63, 33, 130, 227, 373, 567, 956,
-1241, -828, -621, -466, -363, -259, -156, -53, 50, 153, 257, 412, 618, 1032,
-843, -518, -356, -234, -153, -72, 9, 90, 171, 252, 333, 455, 618, 943,
-977, -597, -406, -264, -169, -74, 20, 115, 211, 306, 401, 543, 733, 1114,
-1139, -735, -533, -382, -281, -180, -79, 21, 122, 223, 324, 476, 677, 1081,
-1070, -703, -519, -381, -289, -197, -105, -13, 78, 170, 262, 399, 583, 951,
-1198, -769, -555, -395, -287, -180, -73, 33, 140, 247, 354, 515, 729, 1158,
-1187, -694, -447, -262, -139, -15, 107, 230, 354, 477, 600, 785, 1032, 1525,
-820, -525, -378, -267, -194, -120, -46, 26, 100, 174, 247, 358, 505, 800,
-830, -493, -324, -197, -113, -28, 55, 140, 224, 308, 393, 519, 688, 1026,
-1080, -676, -474, -322, -221, -120, -19, 81, 183, 284, 385, 536, 739, 1143,
-1333, -903, -688, -526, -419, -311, -203, -96, 11, 118, 226, 387, 602, 1033,
-750, -458, -312, -203, -130, -57, 15, 88, 161, 234, 307, 416, 562, 854,
-1552, -1092, -861, -689, -574, -459, -343, -228, -113, 1, 116, 289, 519, 979,
-927, -518, -314, -161, -58, 43, 145, 247, 350, 452, 554, 708, 912, 1321,
-995, -596, -397, -247, -147, -48, 51, 151, 251, 351, 450, 600, 799, 1198,
-1108, -712, -513, -365, -266, -167, -68, 31, 130, 229, 328, 476, 675, 1071,
-1005, -571, -353, -190, -82, 26, 135, 243, 352, 461, 569, 732, 950, 1384,
-1088, -607, -366, -186, -65, 54, 174, 294, 415, 535, 655, 835, 1076, 1557,
-1315, -868, -644, -476, -365, -253, -141, -29, 82, 193, 305, 473, 696, 1144,
-1338, -758, -468, -250, -105, 39, 184, 329, 474, 619, 764, 982, 1272, 1852,
-1278, -858, -648, -491, -386, -281, -176, -71, 33, 138, 243, 400, 610, 1030,
-858, -507, -332, -200, -113, -25, 61, 149, 237, 324, 412, 544, 719, 1069,
-1147, -788, -609, -475, -385, -296, -206, -116, -27, 62, 152, 286, 465, 824,
-960, -601, -421, -287, -197, -107, -18, 71, 161, 251, 340, 475, 655, 1014,
-712, -394, -236, -117, -38, 41, 120, 199, 278, 358, 437, 556, 714, 1032,
-1464, -1009, -781, -610, -496, -382, -268, -155, -41, 72, 186, 357, 585, 1040,
-1117, -722, -525, -377, -278, -180, -81, 17, 115, 214, 312, 460, 658, 1052,
-1068, -688, -498, -355, -260, -165, -70, 24, 119, 214, 309, 452, 642, 1022,
-1056, -566, -321, -137, -15, 107, 229, 352, 474, 597, 719, 903, 1148, 1638,
-1235, -819, -611, -456, -352, -248, -144, -40, 63, 167, 270, 426, 634, 1049,
-1085, -695, -499, -353, -255, -158, -60, 37, 134, 232, 329, 476, 671, 1061,
-1164, -723, -502, -337, -227, -116, -6, 103, 213, 324, 434, 599, 820, 1261,
-1389, -964, -752, -593, -487, -381, -275, -168, -62, 43, 149, 308, 520, 945,
-1245, -767, -528, -349, -229, -110, 9, 128, 247, 367, 486, 666, 904, 1382,
-850, -499, -324, -192, -104, -17, 70, 158, 246, 333, 421, 553, 728, 1079,
-1088, -589, -340, -153, -28, 96, 220, 345, 470, 594, 719, 906, 1155, 1654,
-1546, -1067, -827, -647, -527, -407, -288, -168, -48, 71, 191, 371, 610, 1090,
-1034, -616, -407, -250, -146, -41, 62, 167, 271, 376, 480, 637, 846, 1265,
-1007, -638, -454, -315, -223, -131, -39, 52, 144, 237, 329, 467, 651, 1020,
-1447, -717, -352, -78, 103, 286, 468, 650, 833, 1015, 1198, 1472, 1837, 2567,
-1061, -707, -529, -396, -308, -219, -130, -41, 46, 135, 224, 357, 534, 889,
-1002, -652, -478, -347, -259, -172, -85, 2, 89, 176, 264, 395, 569, 919,
-1352, -896, -668, -497, -383, -269, -155, -41, 72, 186, 300, 471, 699, 1155,
-928, -591, -422, -295, -211, -127, -42, 41, 125, 210, 294, 420, 589, 926,
-984, -642, -470, -342, -256, -171, -85, 0, 85, 171, 257, 385, 556, 899,
-1029, -588, -368, -203, -93, 16, 126, 236, 346, 456, 566, 732, 952, 1392,
-1160, -752, -547, -394, -292, -190, -87, 14, 116, 218, 320, 474, 678, 1087,
-951, -581, -396, -257, -165, -72, 19, 112, 204, 297, 389, 528, 713, 1083,
-1113, -715, -516, -367, -267, -167, -68, 31, 130, 230, 329, 479, 678, 1076,
-1358, -826, -560, -361, -228, -95, 37, 170, 303, 435, 568, 768, 1034, 1565,
-1212, -807, -605, -453, -352, -251, -150, -49, 52, 153, 254, 406, 608, 1012,
-1185, -693, -447, -263, -140, -17, 104, 227, 350, 473, 596, 780, 1026, 1517,
-1300, -867, -651, -489, -380, -272, -164, -56, 51, 160, 268, 430, 647, 1080,
-1620, -1080, -810, -608, -473, -338, -203, -68, 66, 201, 336, 539, 809, 1349,
-1056, -666, -470, -324, -226, -128, -31, 66, 164, 261, 359, 505, 701, 1091,
-932, -590, -419, -291, -206, -120, -35, 49, 135, 220, 305, 434, 604, 946,
-1374, -882, -636, -452, -329, -206, -83, 39, 162, 285, 408, 593, 839, 1330,
};

static uint64_t backbone_model4_conv1_conv2_weight[64 * 9] =
{ // torch.Size([64, 3, 3, 1])
0xa, 0x2, 0xd, 0xb, 0x4, 0x4, 0xc, 0xc, 0x4,
0xc, 0xc, 0x2, 0xd, 0xb, 0x4, 0x0, 0x3, 0x4,
0x4, 0x3, 0x4, 0x4, 0x2, 0x3, 0x2, 0x2, 0x2,
0xc, 0x3, 0x4, 0xc, 0x5, 0x4, 0x3, 0x2, 0xb,
0xb, 0x3, 0x2, 0xa, 0xd, 0x1, 0x0, 0xc, 0xa,
0x3, 0x4, 0x4, 0x4, 0x4, 0x2, 0xb, 0xc, 0xc,
0x9, 0xd, 0xb, 0x5, 0x1, 0xc, 0x4, 0x4, 0xa,
0x3, 0x4, 0x0, 0xe, 0xb, 0xc, 0xa, 0x8, 0x3,
0xb, 0xa, 0x2, 0x3, 0x3, 0x4, 0xd, 0xc, 0xb,
0xc, 0xc, 0xa, 0xc, 0xa, 0x4, 0xc, 0x4, 0x5,
0x9, 0x9, 0x3, 0x2, 0x4, 0x3, 0x2, 0x4, 0x3,
0x4, 0x4, 0x5, 0xb, 0x9, 0xa, 0xc, 0xc, 0xc,
0xc, 0x5, 0x3, 0xc, 0x4, 0x2, 0xc, 0x9, 0x0,
0x3, 0x9, 0x3, 0x1, 0xc, 0xa, 0xc, 0xd, 0xc,
0x3, 0xb, 0xc, 0x4, 0xc, 0xc, 0x4, 0x4, 0xb,
0xc, 0x0, 0x3, 0xd, 0xa, 0x4, 0x3, 0x3, 0x0,
0x5, 0xa, 0x3, 0x3, 0x2, 0x3, 0x4, 0x3, 0x2,
0xb, 0xe, 0x2, 0x3, 0x4, 0x3, 0x0, 0x9, 0x2,
0x2, 0x5, 0x4, 0xb, 0xa, 0x3, 0xa, 0xc, 0xc,
0x4, 0x3, 0x3, 0x4, 0x3, 0x4, 0xb, 0x3, 0x0,
0x0, 0x9, 0x2, 0x6, 0x2, 0xb, 0x8, 0x3, 0xa,
0xd, 0xb, 0x4, 0xd, 0xb, 0x4, 0x3, 0x3, 0x1,
0x3, 0x4, 0x3, 0x4, 0x3, 0x9, 0x4, 0x5, 0x3,
0x4, 0x5, 0x0, 0x0, 0x2, 0x4, 0x2, 0x3, 0x3,
0xc, 0x1, 0x3, 0xc, 0x4, 0x5, 0x1, 0x4, 0x4,
0xb, 0xd, 0x8, 0xc, 0x9, 0x4, 0xb, 0x2, 0x4,
0xc, 0xa, 0xa, 0x2, 0xa, 0x3, 0x4, 0x5, 0x5,
0xc, 0xc, 0x5, 0xc, 0xb, 0x4, 0xb, 0xa, 0x5,
0xc, 0xc, 0x0, 0xc, 0xb, 0x3, 0x3, 0x3, 0x5,
0xd, 0xd, 0x2, 0x8, 0x4, 0xa, 0x4, 0x4, 0xb,
0xd, 0xc, 0xc, 0xb, 0xb, 0xa, 0x4, 0x5, 0x3,
0x3, 0xb, 0x8, 0x4, 0xa, 0xd, 0x4, 0x4, 0xb,
0xb, 0x4, 0x4, 0xc, 0x3, 0x4, 0xd, 0xb, 0x4,
0x4, 0x4, 0x2, 0xc, 0xb, 0x1, 0xd, 0xc, 0x2,
0x4, 0x4, 0xb, 0x4, 0x0, 0xb, 0xa, 0xc, 0xc,
0xa, 0xa, 0xb, 0xc, 0xc, 0xc, 0xa, 0xb, 0xb,
0xb, 0x2, 0x4, 0xb, 0x3, 0x4, 0xb, 0x4, 0x4,
0x4, 0xb, 0xe, 0x1, 0x3, 0x9, 0x9, 0x8, 0x0,
0x5, 0x3, 0xa, 0xb, 0xa, 0x3, 0xd, 0xc, 0x3,
0x0, 0x0, 0xc, 0xb, 0xc, 0xc, 0x4, 0x4, 0xb,
0xc, 0xd, 0xc, 0x1, 0xc, 0xb, 0x3, 0x4, 0x9,
0x4, 0x2, 0xc, 0x4, 0xd, 0xb, 0x1, 0xa, 0xa,
0xc, 0x3, 0x4, 0xc, 0xa, 0x5, 0xc, 0xc, 0x1,
0xa, 0x0, 0x3, 0x2, 0xe, 0x0, 0x1, 0x2, 0x8,
0x1, 0x0, 0x8, 0x1, 0xc, 0x3, 0x1, 0x5, 0x4,
0xa, 0xa, 0xa, 0x6, 0xb, 0xa, 0x1, 0x1, 0x8,
0x1, 0x8, 0x9, 0x5, 0x6, 0xc, 0x4, 0x2, 0x3,
0x5, 0x5, 0x3, 0x0, 0xc, 0xb, 0x2, 0xb, 0xc,
0xa, 0x3, 0xb, 0x4, 0x4, 0xc, 0x5, 0x9, 0xc,
0xc, 0xa, 0xb, 0x4, 0x4, 0x4, 0x2, 0x3, 0x4,
0x3, 0x3, 0xa, 0x2, 0xc, 0xd, 0x9, 0xc, 0xb,
0xc, 0x2, 0x4, 0x8, 0x5, 0xb, 0x2, 0x0, 0xb,
0xd, 0xb, 0x3, 0xc, 0xc, 0x3, 0xa, 0x2, 0x3,
0x9, 0xc, 0xc, 0x4, 0xa, 0xc, 0x4, 0x4, 0x4,
0x4, 0x4, 0x4, 0x8, 0x1, 0x4, 0xc, 0xd, 0xc,
0x3, 0x3, 0x1, 0x0, 0xe, 0x1, 0x9, 0x1, 0x0,
0xc, 0xd, 0xa, 0xa, 0xb, 0x0, 0x1, 0xc, 0x9,
0xa, 0xc, 0xa, 0x4, 0x1, 0x8, 0x5, 0x5, 0xa,
0xa, 0x4, 0x2, 0x9, 0x5, 0x2, 0xa, 0x3, 0xa,
0x4, 0x4, 0x3, 0xc, 0xb, 0x1, 0xd, 0xd, 0xb,
0x3, 0x4, 0xd, 0x4, 0x4, 0xc, 0x3, 0xb, 0xc,
0xc, 0x3, 0xb, 0xb, 0xc, 0x0, 0x4, 0x3, 0x5,
0xa, 0x4, 0x3, 0x9, 0x4, 0xc, 0x4, 0x2, 0xc,
0xb, 0xd, 0x2, 0x0, 0xb, 0xc, 0x4, 0x1, 0xc,
};

static int backbone_model4_conv1_relu2_threshold[64 * 7] =
{ // torch.Size([64, 7])
57, 93, 128, 163, 216, 287, 428,
5, 65, 125, 185, 275, 395, 635,
34, 85, 136, 187, 263, 364, 567,
31, 75, 120, 164, 231, 320, 499,
0, 44, 88, 133, 200, 289, 468,
-20, 19, 59, 99, 158, 238, 397,
46, 87, 127, 168, 229, 311, 474,
93, 145, 196, 247, 324, 427, 633,
33, 65, 97, 129, 177, 241, 368,
66, 104, 142, 181, 238, 315, 468,
22, 64, 107, 150, 214, 300, 471,
41, 85, 129, 173, 239, 328, 504,
43, 78, 112, 147, 199, 268, 407,
-14, 47, 110, 172, 265, 390, 639,
26, 63, 100, 136, 192, 265, 412,
42, 75, 108, 141, 191, 256, 388,
29, 81, 132, 184, 262, 365, 571,
35, 84, 133, 182, 255, 352, 547,
40, 97, 154, 211, 297, 411, 640,
-4, 32, 70, 108, 165, 240, 391,
60, 109, 158, 207, 281, 380, 577,
65, 106, 146, 186, 247, 328, 490,
71, 114, 158, 202, 267, 355, 530,
18, 91, 163, 236, 346, 491, 783,
28, 116, 205, 294, 427, 604, 959,
23, 65, 108, 151, 215, 301, 472,
-104, -35, 32, 101, 203, 340, 614,
73, 116, 158, 201, 264, 349, 519,
-8, 38, 86, 133, 204, 299, 489,
39, 79, 120, 160, 221, 302, 464,
91, 133, 174, 215, 277, 360, 526,
61, 101, 142, 183, 244, 325, 488,
31, 70, 109, 148, 207, 285, 441,
10, 56, 103, 150, 220, 313, 499,
29, 62, 95, 128, 177, 243, 375,
-47, 23, 94, 166, 272, 414, 699,
0, 47, 96, 145, 218, 315, 510,
-20, 50, 122, 194, 301, 445, 732,
2, 42, 83, 123, 183, 264, 426,
2, 37, 73, 108, 161, 232, 374,
-4, 63, 131, 199, 302, 438, 710,
50, 84, 117, 151, 201, 268, 403,
31, 64, 97, 129, 178, 243, 374,
15, 69, 122, 176, 257, 364, 579,
-9, 34, 78, 123, 189, 277, 454,
25, 78, 131, 184, 263, 369, 581,
29, 87, 145, 203, 289, 405, 636,
29, 82, 135, 188, 268, 374, 587,
42, 82, 122, 163, 223, 303, 465,
7, 35, 63, 91, 133, 189, 301,
92, 135, 178, 220, 284, 369, 540,
0, 38, 77, 116, 174, 251, 405,
-6, 48, 103, 157, 240, 349, 569,
28, 63, 99, 134, 187, 257, 398,
55, 95, 134, 173, 232, 311, 468,
0, 58, 117, 176, 265, 383, 619,
-39, 12, 64, 115, 193, 297, 504,
4, 62, 120, 178, 265, 382, 614,
34, 65, 96, 128, 174, 237, 361,
-49, 3, 55, 107, 185, 290, 499,
31, 68, 104, 141, 197, 271, 418,
6, 44, 82, 120, 177, 253, 406,
13, 43, 74, 104, 149, 210, 331,
-55, 14, 84, 154, 259, 398, 678,
};

static uint64_t backbone_model4_conv2_conv1_weight[64 * 1*4] =
{ // torch.Size([64, 1, 1, 64])
0xbc904048bac1bcc3,0xb3a42ab209312c28,0x4babbb4b2b23bbb1,0x00b0b483a8223d02,
0xabbba19b34bd98cb,0xac34aca29a936222,0xba83d2b42babd29a,0xab5abbc3aac0a2bb,
0xa343b3143a934012,0x42310b212c2a13bc,0x01b201ab23bb2392,0xca443222933018b3,
0x9ab03ccac34b1a4a,0xaabbb9a3c2bbc10b,0xc10923bb1bbcba33,0x983b2aa2a8bcb03b,
0xc21314bccb329ad3,0xbbbc411a2bb3ab38,0x1ab1052dca2bb99b,0x32934bd390bcbb38,
0x2243c92303c03a02,0x4820a02432c42942,0x931b94c443124d2c,0x4cb3b322034330b3,
0x92cb92401bb9c443,0x8924833ab3a3590b,0x5b1300a0235b02d1,0x409b9382122c239a,
0x110bb0bbb31b4a9b,0xa3513aab49993822,0x1aaab9abcba3abba,0x0a0abc0bca9cc0b9,
0x02222b39bacb2cb3,0x9c4b98cc003aba40,0xbbc9325abc4b930b,0x34b314aab3acba3b,
0x83aba3caa220d20c,0x329a33aa40a2a802,0xb3a3bba2c9842bc3,0x23a20b034331220b,
0x82b2881c021a11bc,0xccb9302c03ccbb22,0x00aa33a88020b19a,0x59bcbcb029baba92,
0x9cac9aa410bcc9bd,0xbb40a2c4191b2b43,0xba290b3c294bcb9a,0x3842b4abb9cac152,
0x4cac1a53c22ccb29,0x31a8310339343ca3,0x28b3c43143033213,0x38d82c9430aaab32,
0xbb2b4a99b3042a23,0xa2a9232410c93920,0x922d20134a40343b,0xb9030a8aac131439,
0x0b1aab231034b1a8,0x9810910399b3b9d3,0x215bc2ca33b10b99,0x2bb81cb2432309c4,
0x1a4a9bbcb4abbbb1,0xb100aa0c24d04c02,0xaab4c3abcbac310c,0x319abb02893b8ca0,
0x535bca3a4b243bba,0x3b1b28ab0a2bb0cb,0x21182d92bccbb492,0xc3a303a104ab0bb1,
0x4b0b94bab0bcba31,0xb19b13bb33bd2c48,0xc12208b343434c03,0x303bc31b33bac243,
0xbdbb2ba234acac29,0x144200aa9c292c48,0xc4aaa4c84a4bc92c,0xb3a0b2244cbac28a,
0x2343138c3234444b,0xc31ba1bab3d33433,0x9b1c3ab33ca14209,0x321bbb3bbb3a341a,
0x38aa33c9a0340412,0xb3c2223233b93124,0x514a43bb0bc24b14,0x2cbc2c0b90259909,
0x3992242bb143394a,0x24ba3333b32330d3,0x40c83331b4a40303,0xb320cbc38bb428cd,
0x0b9abb0cc032b8b3,0x29aaababb2a33bca,0xb14a04d423bcacc2,0xc2bbcc02abbc03b0,
0x1942a99333232233,0xa34a233b33035b3b,0x0a93ad3a89b24343,0xca11123149342392,
0x4b495121993bbb0b,0x18b30bbc4381393b,0xb222cabc9489c449,0xaa3c39b23932ba82,
0x49c4123baaa322b8,0x28abb48cb9bcb3c9,0x13aa43a4223bb0b1,0x3b0ca9a3a3cbaaba,
0x22b9b4cd8011b0ba,0x02bac4bc9a18aa34,0x29b12183bac2c2ad,0xaab3bb3a08a32bac,
0xb9bb9a0bc29bbac2,0xc1b31c3c3bb0aa43,0x01a291ca3c251cab,0x42bbba3a1a4b1233,
0x483bca043ca332c1,0xa33a3aab0b9a4332,0x82abb0b4432a39a3,0x139a0200419439bb,
0xa4233a013bcc933b,0x292bba2c12bbb230,0x204020b3422b2c9c,0x4c313b0a320bba23,
0x1b0b41ab3a2a3293,0xb044038900b0b430,0x398c2ac5439bb4ab,0xab2b321444131ca3,
0x20841cc2420a8a2c,0x94bb5a123242b828,0x34a302b42cbbcb3b,0xaa3b3a39a3abbb89,
0xcab2c09cb4b41c80,0xc6354c2b4cab3b24,0xbacababcbcb4cca3,0xc1abc41b2c8ccbbb,
0xa1834babb1320cb2,0xbba32a31acb3bb32,0xb230933bb113db80,0x0391ba282acc3233,
0x303c31aba033313b,0x33ba33c423033332,0xc5a3b202bcd34a33,0x4b293935b243423c,
0x223a334c092b0b4c,0xa32332b539b440b4,0xbdbb90bbb913323b,0xac342b2bb4421a2b,
0x2a832b2204bca80a,0x424933833b49a3a4,0xbc8922b4acbdba09,0xab43439b8433acb0,
0x381932ddb3233ba0,0xc1ca359924ba3939,0x3a03aa13bba0303b,0xaabdbc2b9b9ba93a,
0x02913d13c23cbb93,0xa3433c4bcba34334,0xa32a34b4b4203cc3,0x333b3bd991bcd239,
0xc23c3b49c022abbb,0x302a2b9840822394,0xb0abb80c0cb21b24,0xa4c421aac334100c,
0xc023c2c423cb2a83,0x23329c32a12b301c,0x2a14b993b33993aa,0x0a1a23821b3b1ab9,
0xc099bca212bca4ba,0x423b4bca0054b4b2,0xb3990aa21cb0ab22,0xabb489b10ca2abbb,
0xbc9bbb43b1abbcb3,0xbba31c5b9baa9baa,0x4c4bc0ab0342b381,0xa0938a0d20c09c95,
0x8a44c42233c9144c,0x5c338410a44b84ca,0x22c32c91a3c823ac,0x4b35a0d4b532ccbc,
0xbb223cb448bc0300,0xc4434b1b4b3cb132,0x3a3b22044a42c333,0xb3ab09495cc34cb4,
0xd32a33cb1ac8a422,0x3239b91bb2c3c42c,0xb3c0c204302034aa,0x902382344c3c4cb9,
0x24a52aba324459c2,0x0991a422c4cbb23a,0x021a5b93c939922b,0x3a280328b2b13241,
0x0030323b23d3402a,0x20000a3022b22a32,0x43ca20833a382c0a,0x2d28c420c10a932c,
0xb3931322413323b3,0x824a32232a9454ab,0x14a3332324bc3303,0x193343c32232b399,
0x33a592ac3a8b33c3,0x0ba1113aa4ac0ac2,0x1cb04b42ccb0aaa0,0x3313a9abb8c2a41b,
0x2838111aa433b92a,0x2bc802b3c23222ba,0xb434b39b9ab9bba9,0x2a2213add04ab2a3,
0xa32424bca3343343,0xcb29333bbcca4ca4,0x331b43334da94ab3,0x30b3a2a035020959,
0xcb88ac3339c4a5a9,0x8b940a5bbba383a2,0x4a3949bbacc9c214,0x1ccbcbb39ba3cbcb,
0x0bbc3294b32ac440,0x28349420323b42aa,0x0442cb9bbbcb82b3,0x224443c293a2c400,
0x002bbac95a1b32bb,0x09095b1231bbb12b,0xbbbc10909c99aa10,0x9bab9baacab08aba,
0x80b9233b20c38243,0x281a11b2bd3a22c2,0x4c9844304823a2c4,0x9320138aba9ba3b0,
0xb22aa8843a2a20a3,0x2399bc23ba42ca1b,0x2339243b2141b3b1,0x8a0a83130c8c4b10,
0x9913bb0ab3a30b08,0x04c53b0a4bab31bc,0xbbc3b3b5ac2bcbaa,0xb0abbb4a1bb143bb,
0x002b9893401c1b48,0x81233cc139223ba2,0xb3b2bc2c434a4a13,0x234b83c23138b929,
0x32b3c41320ba3243,0x3298803b883a8abb,0xa3c24210344a529b,0xb330c2344b443bbb,
