static uint64_t backbone_model0_conv1_weight[16 * 9] =
{ // torch.Size([16, 3, 3, 3])
0x04c, 0xb5c, 0x04d, 0x05c, 0xc5c, 0xc5c, 0xb4d, 0xc5c, 0xb59, 
0x44a, 0xb4b, 0x38c, 0xc2b, 0xd2a, 0x942, 0xd33, 0xd22, 0xb33, 
0xc23, 0xc34, 0xc14, 0xc34, 0xd44, 0xd44, 0xb34, 0xc44, 0xc34, 
0x20a, 0x332, 0x932, 0x439, 0xcbb, 0xecc, 0x431, 0x232, 0xb08, 
0x132, 0x8ba, 0xcdc, 0x444, 0x330, 0xccc, 0x343, 0x133, 0x9ba, 
0x3b3, 0x3ca, 0x3b0, 0x4b1, 0x4b2, 0x4ba, 0x4b0, 0x3b2, 0x3b2, 
0x233, 0x234, 0x343, 0xb2a, 0xb0a, 0xb29, 0xbaa, 0xbab, 0xc8a, 
0x1b4, 0x9d3, 0x2da, 0x4c4, 0x0d3, 0xbd0, 0xac4, 0x4c4, 0x4c4, 
0xb22, 0x1a3, 0x3a0, 0x300, 0x3bb, 0x3cc, 0x3aa, 0x4cc, 0x3cd, 
0x2b8, 0x433, 0x433, 0x223, 0x0a2, 0x223, 0x922, 0xddc, 0xdcc, 
0xbbb, 0xddc, 0xccc, 0x330, 0xb8a, 0x822, 0x433, 0x444, 0x443, 
0x401, 0x444, 0x443, 0xa80, 0x033, 0xa32, 0x221, 0xdcc, 0xcbc, 
0xccc, 0xacb, 0x343, 0xccd, 0xbbb, 0x444, 0x282, 0x324, 0x343, 
0x233, 0x223, 0x323, 0xcdd, 0xbcb, 0x343, 0xbcc, 0xa9b, 0x423, 
0x343, 0x445, 0x345, 0x319, 0x03b, 0x311, 0xbdc, 0xcec, 0x8cc, 
0x344, 0x444, 0x333, 0x444, 0x922, 0xacc, 0x002, 0xccc, 0xddd, 
};

static int backbone_model0_relu1_threshold[16 * 7] =
{ // torch.Size([16, 7])
-126, 106, 339, 572, 922, 1389, 2322,
-860, -640, -419, -199, 130, 571, 1452,
-626, -189, 247, 685, 1341, 2215, 3965,
-901, -702, -502, -302, -3, 395, 1194,
-529, -356, -183, -10, 248, 593, 1284,
889, 1253, 1617, 1981, 2527, 3255, 4711,
234, 409, 585, 761, 1025, 1377, 2080,
-843, -573, -303, -33, 372, 912, 1992,
-1106, -767, -427, -87, 421, 1101, 2459,
-802, -593, -384, -174, 138, 557, 1394,
-662, -473, -284, -95, 188, 566, 1321,
-130, 169, 469, 770, 1220, 1820, 3021,
-597, -413, -229, -45, 230, 598, 1334,
-674, -501, -327, -154, 105, 452, 1146,
-496, -327, -159, 9, 262, 599, 1274,
-633, -462, -291, -120, 136, 478, 1162,
};

static uint64_t backbone_model0_conv2_conv1_weight[16 * 1] =
{ // torch.Size([16, 1, 1, 16])
0xa1b209c01451d1c3, 
0x8a3aaa86305a0dc0, 
0xb3433c32bbbcc030, 
0xbc84b4cb44332233, 
0xabba00bce0b93bb8, 
0xb898a8b5b34accc4, 
0x0300a9bc424acccd, 
0x33bb3b43bca340a2, 
0xbbc9b3c9422432a8, 
0x11b029bb22529555, 
0x43cc2c438ab3300a, 
0xcbcbc4b024143aba, 
0xb245b2bbb00bc121, 
0xb4454b49b09bb20a, 
0x43cc4a31933442b0, 
0x552c4b49c03bb3a2, 
};

static int backbone_model0_conv2_quant1_threshold[16 * 14] =
{ // torch.Size([16, 14])
-729, -504, -392, -308, -252, -196, -140, -84, -28, 28, 84, 168, 280, 504,
-676, -426, -301, -207, -144, -82, -19, 42, 105, 168, 230, 324, 449, 699,
-272, -173, -124, -87, -62, -37, -13, 11, 36, 60, 85, 122, 171, 270,
-522, -345, -256, -190, -145, -101, -57, -13, 31, 75, 119, 186, 274, 451,
-949, -729, -620, -537, -482, -427, -372, -318, -263, -208, -153, -71, 38, 258,
-580, -388, -292, -220, -172, -124, -76, -28, 19, 67, 115, 187, 284, 476,
-667, -475, -379, -308, -260, -212, -164, -116, -68, -20, 27, 99, 195, 386,
-342, -192, -117, -61, -23, 13, 51, 88, 126, 163, 201, 257, 332, 482,
-600, -419, -329, -261, -216, -171, -126, -81, -36, 9, 54, 121, 212, 392,
-355, -154, -53, 21, 71, 122, 172, 222, 273, 323, 373, 449, 549, 750,
-462, -270, -173, -101, -53, -5, 42, 91, 139, 187, 235, 307, 404, 596,
-575, -388, -295, -225, -178, -131, -84, -37, 8, 55, 102, 172, 266, 453,
-499, -324, -236, -171, -127, -83, -40, 3, 47, 90, 134, 200, 287, 462,
-494, -286, -182, -104, -52, 0, 51, 103, 155, 207, 259, 337, 441, 649,
-283, -153, -89, -40, -8, 24, 56, 88, 121, 153, 185, 234, 299, 428,
-566, -335, -220, -134, -77, -19, 37, 95, 152, 210, 267, 354, 469, 699,
};

static uint64_t backbone_model0_conv2_conv2_weight[16 * 9] =
{ // torch.Size([16, 3, 3, 1])
0x3, 0x2, 0x4, 0x2, 0xb, 0xc, 0x3, 0xc, 0xe, 
0x4, 0x4, 0x4, 0x4, 0xc, 0xc, 0x4, 0xc, 0xe, 
0xa, 0x5, 0x8, 0xc, 0x3, 0x5, 0xc, 0xc, 0x5, 
0x3, 0x4, 0x3, 0xb, 0xe, 0xe, 0x8, 0x0, 0x4, 
0x3, 0x9, 0x3, 0x2, 0xc, 0xc, 0x9, 0xc, 0xd, 
0xb, 0xc, 0xc, 0xb, 0x3, 0x4, 0x0, 0x5, 0x5, 
0xa, 0xb, 0xa, 0xa, 0x4, 0x4, 0x0, 0x5, 0x5, 
0x8, 0x2, 0x4, 0x3, 0x5, 0xd, 0x2, 0xd, 0xe, 
0x3, 0x4, 0x2, 0xb, 0x2, 0x5, 0xb, 0xe, 0xe, 
0x3, 0x1, 0x8, 0x3, 0xc, 0xd, 0x3, 0xd, 0xe, 
0xb, 0xc, 0xb, 0xb, 0xc, 0x4, 0xb, 0x5, 0x6, 
0x2, 0xb, 0x9, 0x4, 0x4, 0xd, 0x0, 0x6, 0x5, 
0x2, 0xb, 0xb, 0x4, 0xd, 0xb, 0x5, 0xd, 0x2, 
0x2, 0xc, 0xa, 0x3, 0x8, 0xe, 0x3, 0x4, 0xd, 
0x3, 0x0, 0xc, 0x4, 0xc, 0xc, 0x4, 0xe, 0x3, 
0x3, 0x3, 0x0, 0xc, 0xe, 0xd, 0xb, 0xa, 0xa, 
};

static int backbone_model0_conv2_relu2_threshold[16 * 7] =
{ // torch.Size([16, 7])
-210, -126, -42, 41, 167, 336, 672,
-123, -63, -3, 56, 146, 266, 506,
0, 108, 218, 327, 492, 711, 1150,
-70, 41, 153, 265, 433, 657, 1105,
-82, -27, 26, 81, 162, 271, 488,
-99, -42, 14, 71, 157, 271, 498,
-163, -89, -16, 57, 168, 316, 612,
54, 145, 236, 327, 464, 646, 1010,
15, 125, 235, 345, 510, 730, 1169,
-38, 76, 192, 307, 480, 711, 1173,
24, 103, 182, 260, 378, 536, 850,
17, 123, 228, 334, 493, 704, 1128,
90, 162, 233, 305, 413, 557, 844,
10, 80, 149, 218, 322, 461, 738,
2, 103, 205, 306, 457, 660, 1064,
-212, -102, 7, 117, 282, 501, 941,
};

static uint64_t backbone_model1_conv1_conv1_weight[16 * 1] =
{ // torch.Size([16, 1, 1, 16])
0xbd44349ac1aa3ba3, 
0xba01995cb13211da, 
0x6aab33a4b03a993a, 
0xc843ac0cd223e40a, 
0x0a9abba0a44c1c2d, 
0xc1c23b39c9b235b4, 
0xa9621c05c3329239, 
0x23a02342154939db, 
0x12320bba92dc9242, 
0x8929a0ab0448893d, 
0xb9b1a3b23bc33a85, 
0x2492a31e5020bc9a, 
0xb3b2e52a33390c31, 
0xa556b39b3990a4a9, 
0x081913a324c6905b, 
0x9a2a886b06c4a81b, 
};

static int backbone_model1_conv1_quant1_threshold[16 * 14] =
{ // torch.Size([16, 14])
-502, -331, -245, -181, -138, -96, -53, -10, 32, 74, 117, 181, 267, 437,
-715, -493, -382, -298, -243, -187, -132, -76, -21, 34, 89, 172, 283, 505,
-415, -203, -97, -17, 35, 89, 142, 195, 248, 301, 354, 434, 540, 753,
-1079, -764, -606, -488, -410, -331, -252, -174, -95, -16, 61, 179, 337, 651,
-691, -481, -376, -297, -244, -192, -139, -87, -34, 17, 70, 149, 254, 464,
-436, -270, -187, -125, -83, -41, 0, 41, 82, 124, 165, 228, 311, 477,
-522, -258, -126, -27, 38, 104, 170, 236, 302, 368, 434, 534, 666, 930,
-485, -253, -136, -49, 8, 66, 124, 183, 241, 299, 357, 444, 561, 793,
-644, -439, -337, -260, -209, -158, -107, -56, -5, 45, 96, 173, 275, 479,
-587, -387, -287, -212, -162, -112, -62, -12, 37, 87, 137, 212, 312, 512,
-501, -289, -183, -103, -50, 2, 56, 109, 162, 215, 268, 348, 454, 667,
-550, -359, -264, -192, -144, -97, -49, -1, 45, 93, 141, 212, 308, 499,
-588, -385, -283, -207, -156, -105, -54, -4, 46, 97, 148, 224, 326, 529,
-601, -303, -154, -42, 32, 106, 181, 255, 330, 404, 479, 591, 740, 1038,
-363, -132, -16, 70, 128, 185, 243, 301, 359, 417, 474, 561, 677, 908,
-572, -293, -153, -48, 20, 90, 160, 230, 300, 370, 440, 544, 684, 963,
};

static uint64_t backbone_model1_conv1_conv2_weight[16 * 9] =
{ // torch.Size([16, 3, 3, 1])
0xa, 0x2, 0xa, 0x3, 0xd, 0xa, 0xb, 0xd, 0x4, 
0xb, 0x2, 0x1, 0x0, 0xe, 0x9, 0x0, 0xb, 0x3, 
0x1, 0x0, 0x1, 0x2, 0x2, 0x9, 0x3, 0xc, 0xe, 
0x0, 0xb, 0x0, 0x1, 0xc, 0x1, 0x2, 0xe, 0xc, 
0xb, 0x0, 0x3, 0xc, 0x3, 0x5, 0xc, 0xa, 0x1, 
0x2, 0x8, 0x2, 0x3, 0x0, 0xa, 0xa, 0x6, 0x0, 
0x0, 0x8, 0xa, 0xb, 0x3, 0x0, 0x9, 0x2, 0x6, 
0x3, 0x2, 0xb, 0xb, 0x6, 0xa, 0xa, 0x0, 0xa, 
0x3, 0x4, 0x4, 0x3, 0x9, 0xa, 0xa, 0xc, 0xc, 
0x3, 0x5, 0x3, 0x3, 0xb, 0x0, 0xb, 0xc, 0xb, 
0x0, 0x1, 0x2, 0xa, 0x5, 0x3, 0x0, 0xb, 0xc, 
0x2, 0x8, 0x1, 0xb, 0x5, 0x5, 0xa, 0x3, 0x0, 
0xa, 0x0, 0xa, 0x2, 0xc, 0xe, 0xa, 0xa, 0x9, 
0x0, 0x8, 0x9, 0x8, 0x3, 0x6, 0xa, 0x0, 0x3, 
0x9, 0x9, 0xa, 0xa, 0x4, 0x9, 0xa, 0x5, 0x3, 
0x2, 0x2, 0x2, 0x0, 0xb, 0x2, 0x2, 0xe, 0xb, 
};

static int backbone_model1_conv1_relu2_threshold[16 * 7] =
{ // torch.Size([16, 7])
-192, -123, -53, 15, 119, 258, 535,
-233, -141, -48, 43, 181, 366, 735,
-220, -140, -61, 18, 138, 298, 618,
-191, -107, -23, 60, 187, 355, 691,
-99, -49, 1, 51, 127, 228, 431,
-240, -160, -79, 0, 121, 282, 604,
-138, -67, 3, 74, 181, 323, 608,
-157, -90, -24, 42, 143, 277, 544,
51, 73, 95, 117, 151, 195, 284,
-46, -10, 26, 63, 118, 191, 337,
-39, -8, 23, 54, 101, 164, 290,
-254, -179, -104, -29, 82, 232, 532,
-294, -199, -104, -10, 131, 320, 698,
-157, -77, 2, 82, 202, 363, 683,
-111, -62, -13, 35, 109, 207, 403,
-201, -120, -39, 41, 162, 323, 646,
};

static uint64_t backbone_model1_conv2_conv1_weight[64 * 1] =
{ // torch.Size([64, 1, 1, 16])
0x20212592cb9b2c82, 
0xbbb0bb8339128bdb, 
0x00e1b0bb3bb32232, 
0x9a4c33bcbb20cbb9, 
0x0a8c439a8ddb49ab, 
0x0a309331aacbcd13, 
0x140031934a1000d8, 
0x02180249032a5caa, 
0x45332c3194203b4a, 
0xc0b4b39c3c3c4bcb, 
0x5c899199d112abaa, 
0x9034b3b3b531c443, 
0x303a13abdb990258, 
0x4339bd483340141c, 
0x20955432b38b4b42, 
0x2143411088dcac02, 
0x5c31912132a2b9b8, 
0xa31c40244bcb43a3, 
0xba0143c4b2931da4, 
0x814c3cb201bb0224, 
0xc449b9b34b3019c8, 
0xbd334ccc3a3094c1, 
0x333115b3db32424b, 
0xcb8aac3b5334b2b3, 
0xc09349bb32a3ebb2, 
0xbbb430c0b3dcca3b, 
0xb1388a4b649a22b0, 
0xbb2cb454988c333c, 
0xbbc0dca93449b4bc, 
0x3014a223001d321d, 
0x314029a3a3559136, 
0x53cb40b3c980d431, 
0x216b43babaa0b223, 
0x9890a02b933a12cd, 
0xa9c843ca0db2cabb, 
0x33db3942c31cbbb1, 
0x321c214a2b452834, 
0x919cdb898a1b21ba, 
0xcb4332bb393caabc, 
0x455aab3034443a4b, 
0x10bc304b3202332b, 
0xab0bda29aaba9e28, 
0x2c94c04124935c31, 
0x30b3bb2cb244e2b2, 
0x54d2b23109b33843, 
0x331b1023b22ae1aa, 
0x135c1d1b130bb8a3, 
0xcba232cb33dbcda4, 
0xcca9b93b55c22222, 
0xb504c3abc33bbbb3, 
0x29445bd03a0b32a1, 
0x22888da352aab2d3, 
0x303d43032bc12532, 
0xcdb222ba2b43aac3, 
0xdd33a43b43004d23, 
0x9a2a222baacc021d, 
0xa020221421b35c44, 
0x8226bbbba50b0b22, 
0x9abcc254bb541b13, 
0x54314b4415cac343, 
0x24a2a8343431c432, 
0x38d51ac434223a33, 
0x823cbc423c1d248c, 
0x02c24ab32cd04b13, 
};

static int backbone_model1_conv2_quant1_threshold[64 * 14] =
{ // torch.Size([64, 14])
-656, -414, -293, -202, -142, -81, -21, 39, 99, 160, 221, 311, 432, 674,
-923, -675, -550, -457, -395, -333, -271, -209, -147, -85, -22, 70, 194, 442,
-1178, -804, -617, -477, -383, -290, -196, -103, -9, 83, 177, 317, 504, 878,
-671, -468, -366, -290, -239, -189, -138, -87, -36, 13, 64, 140, 242, 445,
-954, -684, -549, -448, -380, -313, -245, -178, -110, -43, 23, 125, 260, 529,
-741, -532, -427, -349, -296, -244, -192, -140, -87, -35, 16, 95, 199, 408,
-562, -344, -235, -153, -99, -44, 10, 64, 119, 173, 228, 309, 419, 637,
-590, -351, -232, -142, -82, -22, 36, 96, 156, 216, 276, 365, 485, 724,
-562, -276, -134, -26, 44, 115, 187, 258, 330, 401, 472, 580, 722, 1008,
-1063, -734, -569, -445, -363, -281, -198, -116, -33, 48, 130, 254, 419, 748,
-864, -575, -430, -322, -250, -178, -105, -33, 38, 110, 183, 291, 435, 724,
-505, -254, -129, -35, 26, 89, 152, 214, 277, 340, 402, 496, 621, 872,
-724, -446, -307, -202, -133, -63, 5, 75, 144, 214, 283, 387, 526, 804,
-1135, -747, -553, -407, -310, -213, -116, -19, 77, 174, 271, 417, 611, 999,
-388, -149, -29, 60, 120, 180, 240, 300, 360, 420, 480, 570, 689, 929,
-741, -497, -376, -284, -223, -162, -102, -41, 19, 80, 141, 232, 354, 598,
-533, -321, -215, -135, -82, -29, 24, 77, 130, 183, 236, 316, 422, 635,
-612, -381, -265, -178, -120, -63, -5, 52, 110, 168, 225, 312, 428, 659,
-646, -413, -297, -210, -152, -94, -35, 22, 80, 138, 196, 283, 400, 632,
-529, -327, -227, -151, -101, -51, 0, 49, 100, 150, 200, 276, 376, 578,
-780, -512, -378, -278, -211, -144, -77, -10, 56, 123, 190, 290, 424, 692,
-727, -459, -324, -224, -156, -89, -22, 44, 111, 179, 246, 346, 481, 750,
-723, -399, -237, -116, -35, 45, 126, 207, 288, 368, 449, 571, 732, 1056,
-882, -558, -397, -275, -194, -114, -33, 47, 128, 209, 290, 411, 573, 897,
-870, -572, -423, -312, -237, -163, -88, -14, 59, 134, 208, 320, 469, 767,
-913, -635, -496, -392, -322, -253, -183, -114, -45, 24, 93, 198, 337, 615,
-607, -352, -224, -129, -65, -1, 62, 126, 190, 253, 317, 413, 541, 796,
-667, -438, -324, -238, -181, -124, -66, -9, 47, 104, 161, 247, 362, 590,
-846, -582, -450, -351, -285, -219, -153, -87, -21, 44, 110, 209, 341, 605,
-843, -571, -435, -333, -265, -197, -129, -61, 6, 74, 142, 244, 380, 652,
-350, -90, 38, 136, 201, 265, 330, 395, 460, 525, 590, 687, 817, 1076,
-616, -340, -202, -98, -29, 39, 108, 176, 245, 314, 383, 487, 625, 901,
-636, -357, -218, -114, -44, 25, 94, 164, 234, 304, 373, 478, 617, 896,
-699, -486, -379, -299, -246, -192, -139, -85, -32, 20, 74, 154, 260, 474,
-805, -559, -437, -344, -283, -222, -160, -99, -38, 23, 84, 176, 299, 544,
-768, -522, -399, -307, -246, -184, -123, -61, 0, 60, 122, 214, 337, 582,
-506, -236, -101, 0, 67, 134, 202, 269, 336, 404, 471, 573, 708, 977,
-682, -510, -423, -359, -315, -272, -229, -186, -143, -99, -56, 8, 94, 267,
-718, -487, -371, -285, -227, -169, -112, -54, 3, 61, 118, 205, 320, 551,
-598, -269, -105, 17, 100, 182, 264, 346, 428, 510, 592, 716, 880, 1209,
-463, -274, -180, -109, -61, -14, 32, 79, 126, 174, 221, 292, 386, 575,
-1060, -804, -676, -580, -516, -452, -388, -324, -260, -196, -132, -35, 92, 348,
-842, -499, -328, -199, -114, -28, 57, 142, 228, 314, 399, 528, 699, 1042,
-811, -507, -355, -240, -164, -88, -12, 63, 139, 215, 291, 405, 558, 862,
-578, -309, -174, -73, -6, 60, 128, 195, 262, 330, 397, 498, 632, 902,
-1257, -849, -645, -492, -389, -287, -185, -83, 18, 120, 222, 375, 580, 988,
-740, -487, -360, -265, -202, -139, -75, -12, 50, 114, 177, 272, 399, 652,
-960, -683, -545, -441, -372, -303, -234, -165, -96, -27, 41, 145, 283, 560,
-1083, -671, -465, -310, -207, -104, -1, 101, 204, 307, 410, 565, 771, 1183,
-788, -498, -353, -244, -171, -99, -26, 45, 118, 191, 263, 372, 517, 807,
-716, -417, -268, -156, -81, -6, 67, 142, 217, 291, 366, 478, 627, 926,
-986, -660, -498, -376, -295, -213, -132, -51, 30, 111, 192, 314, 477, 802,
-584, -338, -215, -123, -61, 0, 61, 122, 184, 245, 307, 399, 522, 768,
-1051, -732, -572, -452, -372, -292, -212, -132, -52, 27, 107, 226, 386, 706,
-987, -629, -450, -316, -226, -136, -47, 42, 131, 221, 310, 445, 624, 982,
-735, -535, -435, -360, -310, -260, -210, -160, -110, -60, -10, 65, 165, 365,
-649, -386, -254, -155, -89, -23, 42, 107, 173, 239, 305, 404, 536, 799,
-754, -411, -240, -111, -25, 60, 145, 231, 317, 403, 488, 617, 789, 1132,
-855, -521, -355, -229, -146, -63, 20, 103, 186, 270, 353, 478, 645, 978,
-524, -240, -98, 8, 79, 150, 221, 292, 363, 434, 505, 611, 753, 1037,
-362, -151, -46, 32, 84, 137, 190, 242, 295, 347, 400, 479, 584, 794,
-486, -242, -119, -28, 32, 93, 154, 215, 276, 337, 398, 490, 612, 856,
-801, -545, -417, -322, -258, -194, -130, -66, -2, 61, 125, 220, 348, 604,
-666, -437, -323, -237, -180, -122, -65, -8, 48, 106, 163, 249, 363, 592,
};

static uint64_t backbone_model1_conv2_conv2_weight[64 * 9] =
{ // torch.Size([64, 3, 3, 1])
0xb, 0x9, 0x3, 0xc, 0xc, 0x5, 0xb, 0x3, 0x3, 
0x5, 0x4, 0x4, 0x4, 0xa, 0x8, 0xc, 0xc, 0xc, 
0x3, 0xc, 0x8, 0x3, 0xc, 0x1, 0x8, 0xd, 0x2, 
0x4, 0xa, 0xc, 0x5, 0xa, 0xc, 0x4, 0x0, 0x9, 
0xc, 0x3, 0x3, 0x8, 0xd, 0x4, 0x3, 0x0, 0xc, 
0x4, 0x5, 0x4, 0xc, 0xd, 0xc, 0x3, 0x3, 0x2, 
0xc, 0xa, 0x4, 0xd, 0x1, 0x4, 0xc, 0x2, 0x4, 
0xb, 0x0, 0xc, 0xb, 0x2, 0x4, 0xa, 0x4, 0x5, 
0x3, 0x1, 0xb, 0x4, 0x5, 0xb, 0xb, 0xa, 0xb, 
0x2, 0xb, 0xa, 0x0, 0xb, 0x9, 0xc, 0xc, 0xb, 
0xc, 0xd, 0xd, 0xb, 0xc, 0xb, 0x4, 0x5, 0x4, 
0xc, 0xb, 0x9, 0xa, 0xd, 0x3, 0x0, 0xc, 0x9, 
0x0, 0x4, 0x5, 0x8, 0xb, 0x4, 0xc, 0xd, 0xc, 
0xb, 0xd, 0x0, 0xb, 0x2, 0xb, 0x9, 0x4, 0x1, 
0x2, 0x3, 0x1, 0x1, 0x3, 0x2, 0xb, 0xe, 0x8, 
0x9, 0x9, 0x0, 0x9, 0xb, 0xd, 0x1, 0x4, 0x4, 
0x4, 0x5, 0x4, 0x0, 0x2, 0x1, 0xc, 0xc, 0xb, 
0x2, 0x1, 0x2, 0x8, 0xa, 0xc, 0x3, 0xc, 0xd, 
0x8, 0x9, 0x2, 0xa, 0x9, 0x4, 0x3, 0x6, 0xb, 
0xc, 0xb, 0x2, 0xc, 0x4, 0xa, 0x1, 0x5, 0xc, 
0x4, 0x5, 0x2, 0x3, 0x4, 0x0, 0xc, 0xb, 0xc, 
0x3, 0xb, 0x4, 0x3, 0x5, 0x2, 0xb, 0x2, 0xc, 
0x2, 0x2, 0x8, 0x9, 0x4, 0xb, 0x8, 0x5, 0x8, 
0xa, 0x3, 0x5, 0xc, 0x3, 0x5, 0xd, 0xc, 0x8, 
0x9, 0x4, 0x3, 0x8, 0x6, 0x3, 0x2, 0xb, 0xc, 
0x2, 0xa, 0x9, 0x3, 0x5, 0x4, 0xb, 0xa, 0x4, 
0xd, 0xc, 0xb, 0xc, 0xc, 0xb, 0xa, 0x5, 0x5, 
0xa, 0xb, 0x0, 0xb, 0xb, 0x4, 0x4, 0x5, 0x9, 
0xb, 0x1, 0x0, 0xb, 0xb, 0x4, 0x9, 0x4, 0x5, 
0xb, 0xc, 0x1, 0xb, 0xd, 0x3, 0x9, 0xb, 0x3, 
0x2, 0x9, 0xb, 0x8, 0xb, 0xe, 0xa, 0x2, 0xb, 
0xc, 0xb, 0x5, 0xc, 0xb, 0x4, 0xc, 0xb, 0x4, 
0x9, 0xa, 0x2, 0xb, 0xa, 0x2, 0xd, 0xd, 0x3, 
0xa, 0xa, 0x4, 0xc, 0x5, 0x0, 0xa, 0x4, 0xc, 
0x9, 0xb, 0xa, 0x0, 0x3, 0xb, 0x3, 0x6, 0x4, 
0xc, 0xb, 0xb, 0xc, 0xa, 0x3, 0xa, 0x4, 0x4, 
0xc, 0x1, 0x3, 0xc, 0xc, 0x4, 0x3, 0xc, 0xa, 
0xc, 0xb, 0x1, 0x5, 0x5, 0x2, 0xb, 0xc, 0x0, 
0x3, 0xb, 0x3, 0x2, 0x4, 0x4, 0xc, 0xb, 0x4, 
0x4, 0x5, 0x0, 0x2, 0xb, 0x4, 0xc, 0xd, 0xa, 
0xc, 0xb, 0xc, 0x3, 0x1, 0x9, 0x4, 0x3, 0x2, 
0x9, 0xc, 0x1, 0x4, 0x5, 0x1, 0xb, 0xb, 0xa, 
0xc, 0xc, 0xb, 0x3, 0xb, 0xb, 0x5, 0x4, 0x0, 
0x3, 0xa, 0xc, 0x4, 0x4, 0xc, 0x4, 0x5, 0xc, 
0x3, 0x4, 0x2, 0x1, 0x1, 0xb, 0xb, 0xd, 0xc, 
0x3, 0xd, 0xd, 0x2, 0xb, 0xa, 0x3, 0x2, 0xc, 
0xa, 0xb, 0xa, 0xc, 0xc, 0x9, 0x8, 0xc, 0x3, 
0x9, 0x3, 0xa, 0x9, 0xb, 0xa, 0x4, 0x6, 0x3, 
0xa, 0x4, 0x4, 0x2, 0x3, 0x2, 0x2, 0x3, 0x4, 
0x2, 0x8, 0xb, 0x3, 0x8, 0xc, 0x3, 0xc, 0xd, 
0xb, 0xc, 0xa, 0xc, 0xc, 0xb, 0x4, 0x4, 0x0, 
0x3, 0x2, 0xc, 0x4, 0xb, 0xc, 0x5, 0x9, 0xc, 
0x3, 0x9, 0xb, 0x3, 0xb, 0xb, 0xc, 0xd, 0x3, 
0xc, 0x9, 0x3, 0xb, 0x5, 0x4, 0xd, 0x5, 0x5, 
0x2, 0x3, 0x9, 0x9, 0x5, 0x2, 0x8, 0x4, 0x2, 
0x3, 0x3, 0xb, 0xa, 0x5, 0xd, 0x2, 0x4, 0xc, 
0x3, 0xb, 0xd, 0x2, 0xa, 0xd, 0x3, 0x4, 0xb, 
0x3, 0x9, 0x2, 0xc, 0x3, 0x4, 0xe, 0xc, 0x4, 
0x3, 0x2, 0x0, 0x3, 0x3, 0xa, 0xb, 0x4, 0x5, 
0xb, 0x2, 0xb, 0x1, 0xb, 0xb, 0x1, 0xd, 0x0, 
0xc, 0xd, 0xb, 0x8, 0x3, 0x3, 0x1, 0x4, 0x4, 
0xa, 0xb, 0xa, 0x3, 0xb, 0xb, 0x3, 0x5, 0x3, 
0x2, 0x5, 0x3, 0x5, 0x8, 0xb, 0x2, 0xc, 0x9, 
0xa, 0x9, 0x8, 0x5, 0x5, 0xc, 0x8, 0xa, 0x2, 
};

static int backbone_model1_conv2_relu2_threshold[64 * 7] =
{ // torch.Size([64, 7])
8, 39, 71, 102, 148, 210, 335,
32, 77, 122, 167, 234, 324, 504,
-36, 6, 49, 92, 156, 242, 413,
21, 61, 101, 141, 201, 281, 442,
14, 46, 78, 109, 157, 221, 348,
25, 80, 135, 190, 272, 382, 602,
41, 68, 94, 120, 159, 212, 316,
3, 51, 99, 147, 219, 315, 507,
19, 59, 99, 139, 199, 279, 438,
0, 33, 65, 98, 147, 213, 343,
11, 82, 153, 224, 331, 473, 757,
-25, 23, 72, 122, 195, 294, 490,
31, 71, 112, 153, 214, 295, 458,
-75, -47, -19, 8, 50, 106, 218,
-44, 17, 78, 140, 232, 355, 601,
-23, 14, 52, 90, 147, 222, 374,
68, 105, 143, 181, 237, 313, 464,
-39, 12, 64, 116, 193, 297, 505,
1, 59, 116, 174, 260, 375, 605,
42, 76, 110, 143, 194, 261, 395,
59, 93, 127, 161, 211, 279, 415,
-50, 0, 49, 99, 173, 272, 471,
-21, 18, 59, 99, 160, 241, 403,
42, 99, 156, 213, 299, 413, 641,
-128, -55, 17, 89, 198, 344, 635,
-5, 31, 67, 104, 159, 233, 379,
-81, -5, 71, 148, 263, 416, 723,
48, 92, 137, 181, 248, 337, 515,
0, 56, 112, 169, 253, 366, 592,
-11, 30, 71, 113, 176, 259, 426,
-75, -3, 68, 140, 248, 392, 680,
6, 49, 92, 135, 199, 285, 457,
-83, -20, 41, 103, 196, 321, 570,
7, 47, 86, 126, 185, 264, 422,
-21, 44, 109, 174, 272, 403, 664,
-1, 42, 87, 132, 198, 287, 466,
22, 57, 93, 128, 181, 251, 392,
39, 89, 140, 190, 266, 367, 568,
11, 48, 86, 124, 180, 255, 406,
57, 88, 120, 151, 197, 259, 383,
25, 55, 86, 116, 162, 224, 346,
20, 55, 91, 126, 179, 250, 392,
20, 51, 82, 113, 160, 223, 348,
-14, 31, 76, 122, 191, 282, 465,
-9, 38, 85, 133, 204, 299, 489,
38, 91, 144, 197, 276, 382, 594,
-2, 32, 68, 104, 158, 230, 374,
-68, 7, 84, 160, 274, 427, 732,
41, 84, 126, 169, 233, 319, 490,
-48, 9, 66, 123, 209, 323, 552,
58, 98, 138, 179, 240, 320, 482,
36, 62, 88, 114, 153, 205, 309,
-87, -27, 31, 91, 180, 299, 538,
127, 185, 243, 300, 387, 503, 734,
27, 70, 113, 157, 222, 308, 482,
33, 83, 132, 182, 256, 354, 552,
-42, 2, 47, 93, 161, 251, 432,
-51, 11, 75, 138, 234, 361, 615,
-15, 17, 50, 83, 132, 198, 330,
-28, 17, 63, 109, 178, 271, 455,
38, 81, 123, 166, 230, 315, 485,
4, 39, 75, 110, 163, 234, 376,
31, 73, 114, 155, 217, 300, 465,
5, 43, 81, 119, 176, 252, 404,
};

static uint64_t backbone_model2_conv1_conv1_weight[64 * 1*4] =
{ // torch.Size([64, 1, 1, 64])
0x3a32340ac1cbb42b,0x2220c944434032c3,0xaaca983ddb0bd4a4,0x9434abbaac3bdcaa, 
0x3943cba083cc239c,0x24bab9194cb3b4bc,0x2c0b342b24c35343,0x5bd11c4599a3b48b, 
0xab404b4cac1b9333,0xdcb11200233a3bb2,0xbcc4b8b4a30181b3,0xb4c9b802b8a2ca9b, 
0x4441b3a4b301983c,0x510ca4348bb314bb,0x1330335340ba4523,0x4a4220448b322943, 
0xa4b2303219a1b2c2,0xb4380abc8a33333a,0xca8a3d0b042b3b4c,0x3b9e43bbbcc3034a, 
0xcb34331134c99dcc,0xab0cca9bc91c323b,0x5b4cbdbdca42333b,0x3b4cb33d39b3b424, 
0x31ac4ba9c332b355,0xa14bb34b393d0b04,0xa32432993b838bb3,0xcaab3344ab32ab3c, 
0x3b4ada382d8c1bbc,0xa0ac31100aabcba4,0xb01b3439b5d32383,0xb0cbab433a19b1a2, 
0xccd9c0955b3b3331,0xbbb49bcbcb9bbb5d,0x394b3bc8390c5bab,0xb4baa8b0b3b50582, 
0xa344c24bbc0c3b43,0xbcad1893da3b0ca3,0x1a430c0b52352b33,0x04bc154304422b48, 
0x3422993a104c3c40,0xca4caa29b33b49ad,0x2a1b03cc0933b8b1,0xc42240a9533c1219, 
0x5434bc3dcc0aa484,0xa0b8bb942a438ba3,0xb4c4224401aaa030,0x3444c3bbcb4bad4c, 
0x43aa2b95aa3dcb43,0xd3b4dbb332b23c12,0x33a34b80b323b893,0xb42b82a3b1abcca4, 
0xb344b438a43b44b1,0xbca34bab42838c0b,0x34a3a44b2c3bab10,0x0354c32a22233b2b, 
0xc2cb3dccc3420b18,0xcb432c5ab3bab328,0xa333c2bcbbbbcd80,0xc340bbb3bbbc4cbc, 
0xca103a422334ab2a,0x4b2931bb9b329144,0xaacc9bbc3bb1c4b8,0x3c4a0838ca141883, 
0xb20a0bb354411b4b,0x49a3423cc803393d,0x1b4c34c40baa44c9,0xba2b3922a41135b1, 
0xbb824cc3b3b90333,0xbaa3a849234aa9ab,0x4b00c9b23bd3a1a9,0x2800a223c8aa9a3c, 
0x93293bbd4abb324b,0x39408a4cb2423a8b,0x2abbb3cd300313b2,0x42c1a4ccc440bb13, 
0xbbab3ac2c3228b43,0xcb354a39240a3a09,0x33aaccabcc3bbdca,0xc40a23a9131a2caa, 
0x4b02a42cccc3b893,0x132c8b4a223323a5,0xccc03b1c43b2a033,0x2ba943b33a410c30, 
0x902b3493dbb9c359,0xb43a033a5b3b33c4,0x49b33c2a3234cb14,0x04c2b5a2b2093c0a, 
0x9bc88cd483a2b233,0xa0c2c301cc3b043b,0x433bc9cd0acabcab,0x0d409ba34a0b84aa, 
0x32b2330a4282c3ca,0xb484aab04903c424,0xcdcb33ca282a9b20,0x8a38430b2b0bb801, 
0x4034a42ac80b13ab,0x34c3d59b3c3bc933,0xc3c4554b1acb34aa,0x414312091c431b4b, 
0xa2b4b44bb23c5424,0x33b38bb4abb1b43a,0x24323342c93c3329,0xb4430da2cb31b944, 
0x433bc318abcb3b3b,0xa0c2aa008c3c238c,0xccc142a3c4d324a3,0x9ccd51132aa2b484, 
0x3bb90a3333c303bb,0x38c2b3b239a1ca84,0x32dc3b3bccb12211,0x0c1331a3bba3b422, 
0x441b433aa3bd2219,0x932bbb9ccc2b3a32,0xabb242dcb0ba03bb,0x33b84abc4a3ca380, 
0xcdacb4b44415bba0,0x302c3a4a22b3aab3,0x89cb8c342331c4a3,0x0bcaa9c14ca2b3b0, 
0x3b41ca322cba3b3c,0x3bc4a5c2bb213a23,0x2894a59c38c444b3,0x3525b43b04332a21, 
0xacabbcb40c01bc54,0x394224babac8aca2,0xb439bbc5c143aaca,0xc8cc403b03bcc2a1, 
0x4b329282493a1b30,0xc242313992b3ccb8,0x2a943884a3abb3c9,0xc33b2b23b8b93b02, 
0x02c20848bb0c2b49,0xb34499cab3bbbc84,0x249b2012b3089ab2,0xd43c314433333904, 
0x2342c2ba0b33332c,0xc2abc32a3c13122c,0x4b49334c24d9ab41,0x3b1ac3a4b3a930b0, 
0x3330cc04a322aa12,0xabc8c443b493bca8,0x35c11943ba0bccac,0xb913bcc4aa4b8ba3, 
0x422b3c322323cbb4,0x3400aa34a20a2413,0xb40ba004c24218ac,0x2c4c3a9a3b8d1b2c, 
0x15bbc953304ca023,0xa3c4a391b43c845b,0xa32ba3acabb8a142,0x9c3a328cc3ab9323, 
0x331ab1502cbbb10a,0xbca2b5b334892ba8,0x05c92a94c4323a90,0xd523ba2ac933c134, 
0xb42b34a2b023cc8b,0x3b3a5a0acb23b313,0xb0bcabbd38b0bc2b,0x4cc911bb44b94aa3, 
0x9daa10ca2c303c4c,0x3ccb3838b8c4c9bc,0x4b2c20c0322033c3,0x83c38ab243b9a432, 
0x0a40b3bbb9d4cc5c,0x9340b0321b9c3bb1,0xc0cb213cc24dba45,0xac0bcbbc2d1ab4c9, 
0xbb343c3a0b943c23,0x3b1341b243c344b3,0xab84d904940bb24b,0xb432bc23dac42ab8, 
0x4a448c2cc2c43bcb,0x4b9ca438d3a319d4,0x1ac1c03a3c23b384,0x03c303a94a12cb34, 
0x3b4ac341caa24381,0x03c240ab31c5abc1,0x42c4cb5342baac49,0x42353031b004aa04, 
0x44a3ab4a3b1d2aba,0x2cc2cbc344c18cab,0xa44239b4ca429398,0xcb2b202b4acc2383, 
0x24a3324dcc4c2c39,0x2302cc8cbcbc424c,0x1b4a34cccb2433c0,0xb03b491c33bd3a90, 
0x3008492ccbb0c491,0x9ab0b344bb4daa35,0xc4da28ab9a0aa1c0,0xa349011b4b4ccc4b, 
0x94aa2cbc14a4a0b3,0x4448bb412312c42a,0xbadc239cc3b334c2,0x0b9b31b45b3b041a, 
0x320345450b9b302b,0xc5aa04c25cb433b3,0x3c14422424c40033,0x03b3023429b28aab, 
0xd3a3441c8243bbbb,0x3439b4adccbca3bc,0xcc40b2b4b83ba30a,0x938b9bdccb1b2dbb, 
0x3bb00bb5bbbb53b3,0xba2c303490334a34,0x509ccd2b1ba43c0b,0xc03a4553ba3a9b44, 
0xb302ac50b222a8b0,0xc2104ba9b83cac80,0xc40a944180829091,0xb240c2900ba43390, 
0xacba4ccbd5b3cc94,0x385ccc5ac23c2bcb,0x1bd2c3cccb33c90b,0xbbc81bcb4aabcccc, 
0xacb04cbc29a2b443,0xbbc1c343b19c3b21,0x9c24cb24cb3b0bcb,0x942b2bb2cc4bcc1c, 
0xa811aa42b392821b,0x1cb821aaa218acb3,0xb5412031c1a31031,0x3234c9a1b2912331, 
0x1323c3acc20b0c3c,0x443b344b323a23c8,0xbbab3303c323c4c4,0xca4353bb3a1c1b20, 
0x2224403c038cc589,0xb34c0c443a63b422,0x02943a4c0cca9003,0x3448ba3ac153bcbb, 
0xa381849423233ba1,0x43221b3bac44b841,0x255c2a2a1bcb3239,0x4c8a3b1b43bc4303, 
0x3b11c3b43c9c4c4c,0x324a43bac4c34ba2,0x392acba234339332,0x8bbbb8a0d4d323c3, 
0x4454c240bcbaab3b,0x444c49b84a992524,0xc93a48a4a4c43415,0x3b3b4432bba3aa53, 
0x4923dc3b8dc92aca,0xbabc1982ac131a1b,0xc28b3a32b5c333b0,0xb881a0342429b548, 
0x4d142bc9b3c3cb43,0x4a3ac2432ca052cb,0x1ca3c9b04b49a49b,0x994bbbb3bcb3bc9d, 
0x4bb9b9c3a8adb3ba,0x2ab42bb1a31a2cc2,0x8530b0c02312443a,0x43abc1ab339ab39a, 
};

static int backbone_model2_conv1_quant1_threshold[64 * 14] =
{ // torch.Size([64, 14])
-1064, -722, -552, -424, -338, -253, -168, -82, 2, 88, 173, 301, 472, 813,
-1288, -862, -649, -490, -383, -277, -170, -64, 41, 148, 254, 414, 627, 1053,
-930, -630, -480, -368, -293, -217, -142, -67, 7, 82, 157, 269, 419, 720,
-717, -366, -191, -59, 28, 116, 204, 291, 379, 467, 555, 686, 862, 1213,
-1034, -677, -498, -364, -274, -185, -96, -6, 82, 172, 261, 395, 574, 932,
-975, -671, -519, -405, -329, -253, -176, -100, -24, 51, 127, 241, 393, 697,
-1106, -707, -507, -357, -257, -157, -57, 42, 142, 242, 342, 492, 692, 1091,
-1096, -716, -526, -384, -289, -194, -99, -4, 90, 185, 280, 422, 612, 992,
-1307, -868, -649, -485, -375, -266, -156, -46, 62, 172, 281, 446, 665, 1103,
-933, -601, -435, -310, -227, -144, -61, 21, 104, 187, 270, 395, 561, 894,
-1113, -752, -572, -437, -347, -256, -166, -76, 13, 103, 193, 329, 509, 870,
-930, -580, -406, -275, -187, -100, -12, 74, 161, 249, 336, 467, 642, 992,
-1007, -647, -468, -333, -243, -153, -63, 26, 116, 206, 296, 431, 610, 970,
-593, -347, -224, -132, -71, -9, 51, 112, 174, 235, 297, 389, 512, 757,
-1142, -789, -613, -481, -392, -304, -216, -128, -40, 48, 136, 268, 444, 797,
-631, -390, -270, -180, -120, -59, 0, 60, 120, 180, 240, 331, 451, 692,
-874, -511, -330, -193, -103, -12, 78, 169, 259, 350, 441, 577, 758, 1121,
-819, -556, -425, -326, -261, -195, -129, -63, 1, 67, 133, 231, 363, 626,
-1052, -709, -538, -409, -323, -238, -152, -66, 19, 104, 190, 319, 490, 833,
-1220, -812, -607, -454, -352, -250, -148, -46, 55, 157, 260, 413, 617, 1026,
-834, -527, -374, -259, -183, -106, -30, 46, 123, 199, 276, 391, 544, 850,
-1049, -624, -412, -253, -147, -41, 64, 170, 276, 382, 488, 647, 859, 1283,
-1084, -770, -614, -496, -417, -339, -261, -182, -104, -25, 52, 170, 327, 640,
-847, -537, -383, -267, -190, -112, -35, 41, 119, 196, 273, 389, 544, 853,
-890, -492, -293, -144, -45, 54, 153, 253, 352, 451, 551, 700, 899, 1297,
-867, -510, -332, -198, -108, -19, 69, 159, 248, 337, 426, 560, 739, 1096,
-970, -621, -447, -316, -229, -142, -55, 32, 119, 206, 293, 424, 598, 947,
-872, -579, -433, -323, -250, -177, -104, -31, 42, 115, 188, 298, 444, 736,
-1046, -703, -532, -403, -318, -232, -146, -61, 24, 110, 195, 324, 495, 838,
-889, -566, -405, -284, -203, -122, -42, 38, 119, 200, 280, 401, 563, 886,
-904, -517, -323, -177, -81, 15, 112, 209, 306, 403, 500, 645, 839, 1227,
-1039, -667, -481, -342, -249, -156, -63, 29, 122, 215, 308, 447, 633, 1005,
-606, -381, -268, -184, -128, -71, -15, 40, 97, 153, 209, 294, 406, 632,
-846, -522, -360, -238, -157, -76, 4, 85, 166, 247, 328, 450, 612, 936,
-1012, -661, -485, -353, -265, -178, -90, -2, 85, 172, 260, 392, 568, 919,
-977, -613, -432, -296, -205, -114, -23, 67, 157, 248, 339, 475, 657, 1020,
-954, -577, -389, -247, -153, -59, 35, 129, 223, 317, 412, 553, 742, 1119,
-755, -455, -305, -193, -118, -43, 31, 106, 180, 255, 330, 443, 592, 892,
-901, -537, -355, -218, -127, -36, 54, 145, 236, 327, 418, 555, 737, 1101,
-905, -594, -439, -322, -245, -167, -90, -12, 65, 142, 220, 337, 492, 803,
-941, -638, -487, -373, -297, -221, -146, -70, 5, 81, 156, 270, 422, 725,
-1035, -693, -521, -393, -307, -222, -136, -50, 34, 120, 206, 334, 505, 848,
-777, -443, -277, -152, -68, 14, 97, 181, 264, 347, 431, 556, 722, 1055,
-1098, -715, -523, -379, -283, -187, -91, 4, 100, 196, 292, 436, 628, 1011,
-1074, -611, -379, -205, -90, 25, 141, 257, 373, 489, 604, 778, 1010, 1473,
-899, -589, -434, -317, -240, -162, -85, -7, 69, 147, 225, 341, 496, 807,
-1066, -718, -544, -414, -327, -240, -153, -66, 20, 107, 194, 324, 498, 846,
-1042, -695, -522, -391, -305, -218, -131, -44, 41, 128, 215, 345, 519, 866,
-1047, -665, -474, -330, -235, -139, -44, 51, 146, 242, 337, 480, 671, 1053,
-786, -421, -239, -102, -11, 79, 170, 261, 352, 444, 535, 671, 854, 1218,
-1136, -731, -529, -377, -276, -175, -73, 27, 128, 229, 331, 483, 685, 1090,
-974, -609, -427, -290, -199, -108, -17, 73, 164, 255, 346, 483, 665, 1030,
-752, -459, -312, -202, -129, -55, 17, 90, 164, 237, 310, 420, 567, 861,
-1539, -1083, -855, -684, -570, -456, -342, -228, -114, -1, 112, 283, 511, 967,
-934, -637, -488, -376, -302, -227, -153, -78, -4, 69, 144, 256, 404, 702,
-500, -280, -171, -88, -33, 21, 76, 131, 185, 240, 295, 378, 488, 707,
-813, -498, -340, -222, -143, -64, 14, 93, 172, 251, 330, 448, 606, 921,
-956, -593, -412, -275, -185, -94, -3, 87, 178, 268, 359, 495, 677, 1040,
-645, -356, -212, -104, -32, 39, 111, 183, 255, 327, 399, 507, 651, 940,
-928, -603, -441, -319, -238, -156, -75, 5, 86, 167, 248, 370, 533, 857,
-665, -326, -157, -30, 54, 138, 223, 308, 393, 477, 562, 689, 858, 1197,
-1115, -727, -533, -387, -290, -193, -96, 0, 97, 194, 291, 437, 631, 1019,
-1052, -687, -505, -368, -276, -185, -94, -2, 88, 179, 270, 407, 590, 955,
-677, -435, -314, -223, -163, -102, -42, 18, 78, 139, 199, 290, 411, 653,
};

static uint64_t backbone_model2_conv1_conv2_weight[64 * 9] =
{ // torch.Size([64, 3, 3, 1])
0x4, 0xa, 0xb, 0x5, 0x2, 0x0, 0x5, 0x4, 0xa, 
0xb, 0x3, 0xb, 0xc, 0xd, 0x3, 0x3, 0xd, 0x4, 
0xc, 0xc, 0xc, 0x3, 0x3, 0x4, 0x3, 0x3, 0x4, 
0x2, 0x9, 0xa, 0xa, 0xd, 0xc, 0x3, 0xc, 0x0, 
0x2, 0x2, 0x3, 0x3, 0x4, 0x4, 0x3, 0x5, 0x3, 
0x8, 0x8, 0x0, 0x3, 0xc, 0x2, 0x1, 0x3, 0x6, 
0x4, 0xb, 0xc, 0x4, 0xb, 0xc, 0x4, 0xc, 0xc, 
0x4, 0x0, 0xc, 0x4, 0x3, 0xd, 0x5, 0x3, 0xc, 
0x0, 0xb, 0xa, 0x3, 0xd, 0xe, 0x2, 0x2, 0x1, 
0xa, 0x0, 0x1, 0x3, 0x9, 0xc, 0xc, 0xb, 0xe, 
0x2, 0xd, 0xc, 0x3, 0xc, 0xc, 0x5, 0x4, 0xa, 
0xb, 0x4, 0x5, 0xd, 0x3, 0x2, 0xc, 0xa, 0xb, 
0x2, 0x0, 0x3, 0x2, 0x4, 0x8, 0x5, 0x3, 0xc, 
0xb, 0x4, 0x0, 0xc, 0x3, 0x5, 0xb, 0xd, 0x4, 
0x9, 0x3, 0xc, 0x2, 0x6, 0x2, 0xc, 0x2, 0xc, 
0xc, 0x2, 0x0, 0x4, 0x5, 0xc, 0x4, 0xd, 0x0, 
0xd, 0xc, 0xb, 0xc, 0xc, 0x0, 0x4, 0x4, 0x4, 
0xb, 0x3, 0x4, 0xb, 0xc, 0xc, 0x1, 0x4, 0x5, 
0xb, 0xb, 0xb, 0xc, 0xc, 0xd, 0x1, 0x8, 0x9, 
0xc, 0x4, 0x4, 0xc, 0x3, 0x4, 0xc, 0xc, 0x1, 
0x2, 0xa, 0x5, 0x1, 0xb, 0x4, 0xd, 0xd, 0x9, 
0x0, 0x3, 0x3, 0x9, 0x4, 0x2, 0x4, 0x4, 0x9, 
0xb, 0xd, 0x9, 0x2, 0x5, 0x5, 0xb, 0xb, 0x2, 
0x4, 0xb, 0xc, 0x5, 0xb, 0xb, 0x4, 0x1, 0xc, 
0xc, 0xd, 0xd, 0xb, 0x9, 0x3, 0x4, 0x4, 0x4, 
0x2, 0xb, 0x9, 0x8, 0x8, 0xb, 0xa, 0x0, 0xd, 
0x2, 0x5, 0x3, 0x4, 0xb, 0xc, 0x4, 0xd, 0xb, 
0x3, 0x4, 0xc, 0xa, 0x4, 0xc, 0x2, 0x0, 0xd, 
0x3, 0x4, 0x5, 0x0, 0x0, 0x0, 0xc, 0xd, 0xb, 
0x4, 0x4, 0x1, 0x1, 0xc, 0xc, 0xd, 0xc, 0x2, 
0x3, 0x4, 0x3, 0x4, 0x4, 0x0, 0x2, 0x4, 0xa, 
0x3, 0x5, 0x4, 0xc, 0xb, 0x3, 0xc, 0xd, 0xb, 
0xb, 0xc, 0xc, 0x5, 0x1, 0x4, 0x0, 0xc, 0x0, 
0x2, 0x3, 0x0, 0xd, 0x0, 0x4, 0x1, 0xd, 0xc, 
0xd, 0xc, 0x4, 0xd, 0xb, 0x5, 0xb, 0x3, 0x4, 
0x4, 0xa, 0xc, 0x5, 0x4, 0xc, 0xa, 0x4, 0xa, 
0xa, 0xc, 0xc, 0x4, 0x1, 0xd, 0x5, 0x9, 0xb, 
0x8, 0x2, 0x2, 0xc, 0xb, 0x4, 0xc, 0x5, 0x5, 
0xc, 0x4, 0x4, 0xe, 0x9, 0x4, 0x4, 0x8, 0x3, 
0xb, 0xc, 0xc, 0x0, 0xb, 0xc, 0x4, 0x5, 0x4, 
0x3, 0x5, 0x3, 0x2, 0x3, 0xc, 0x3, 0xc, 0xc, 
0xb, 0x3, 0xa, 0x2, 0x3, 0x1, 0x4, 0x4, 0x4, 
0x2, 0x2, 0x0, 0x0, 0x3, 0x3, 0x3, 0x5, 0x4, 
0x4, 0x4, 0x4, 0x2, 0x4, 0x3, 0xa, 0xc, 0xb, 
0x3, 0xa, 0xa, 0x4, 0x0, 0x0, 0x4, 0x4, 0x4, 
0xc, 0xc, 0xa, 0xc, 0x1, 0x4, 0xb, 0x5, 0x5, 
0x5, 0x4, 0xa, 0x4, 0x4, 0xb, 0x2, 0x3, 0xc, 
0xc, 0x3, 0x4, 0xb, 0x9, 0x4, 0xb, 0x3, 0x5, 
0xc, 0xb, 0x5, 0xd, 0xc, 0x5, 0xc, 0xc, 0x4, 
0x9, 0xb, 0x1, 0x3, 0xd, 0xc, 0x2, 0xc, 0xb, 
0x5, 0x3, 0xc, 0x4, 0x3, 0xc, 0x4, 0x2, 0x3, 
0xa, 0x0, 0xd, 0x0, 0xc, 0xc, 0xb, 0xc, 0xb, 
0x4, 0xc, 0x4, 0x5, 0xb, 0xc, 0x9, 0x5, 0xd, 
0xb, 0x2, 0xb, 0xb, 0xb, 0xc, 0xc, 0xc, 0xc, 
0x8, 0x4, 0x1, 0x4, 0x4, 0x6, 0xd, 0xa, 0x4, 
0xa, 0xc, 0x4, 0x4, 0xd, 0x4, 0x1, 0xb, 0x1, 
0xc, 0xb, 0xb, 0xb, 0x4, 0x4, 0x4, 0x5, 0x8, 
0xa, 0xc, 0xb, 0x1, 0xd, 0xc, 0x8, 0x9, 0xc, 
0x2, 0x1, 0x3, 0x3, 0x4, 0x3, 0xb, 0xd, 0xe, 
0x9, 0xd, 0x9, 0x8, 0xd, 0xb, 0x3, 0xa, 0x4, 
0x0, 0x3, 0x1, 0x3, 0xc, 0xc, 0xb, 0xc, 0xd, 
0x2, 0xb, 0xd, 0x4, 0xb, 0xc, 0x3, 0x5, 0x5, 
0x2, 0x3, 0x4, 0x8, 0x4, 0x9, 0x4, 0x4, 0xb, 
0x2, 0x4, 0xd, 0x4, 0x3, 0xd, 0x3, 0xc, 0xb, 
};

static int backbone_model2_conv1_relu2_threshold[64 * 7] =
{ // torch.Size([64, 7])
-6, 72, 150, 229, 346, 504, 818,
-11, 38, 88, 139, 214, 314, 514,
38, 79, 119, 159, 219, 300, 460,
-45, 4, 55, 105, 181, 282, 484,
-29, 44, 118, 193, 305, 453, 751,
13, 71, 129, 187, 275, 391, 623,
17, 58, 99, 139, 200, 281, 443,
42, 76, 110, 144, 196, 264, 401,
-7, 57, 122, 187, 285, 415, 676,
-3, 71, 147, 222, 334, 485, 785,
-50, 5, 62, 118, 203, 316, 542,
23, 65, 107, 149, 211, 295, 462,
6, 56, 106, 157, 232, 333, 535,
-59, 1, 62, 123, 214, 336, 580,
54, 101, 148, 195, 266, 360, 549,
26, 68, 110, 152, 215, 298, 466,
12, 61, 109, 158, 231, 328, 522,
43, 79, 115, 152, 206, 279, 424,
33, 78, 123, 169, 237, 328, 509,
66, 100, 133, 167, 217, 284, 417,
-26, 33, 93, 154, 244, 365, 606,
5, 51, 97, 143, 213, 305, 490,
49, 88, 128, 167, 227, 306, 465,
53, 98, 143, 188, 255, 345, 526,
-40, 25, 91, 157, 255, 387, 650,
28, 63, 97, 131, 182, 250, 387,
-11, 36, 85, 133, 205, 302, 495,
-38, 24, 88, 152, 248, 375, 630,
-17, 44, 106, 169, 262, 387, 636,
42, 83, 124, 165, 227, 309, 473,
87, 124, 161, 198, 254, 328, 476,
40, 84, 128, 172, 238, 325, 501,
18, 60, 103, 146, 210, 296, 467,
28, 75, 122, 169, 240, 334, 522,
43, 92, 140, 189, 262, 359, 553,
46, 92, 139, 186, 256, 349, 536,
15, 67, 119, 171, 249, 352, 560,
33, 81, 130, 178, 251, 348, 542,
50, 99, 149, 198, 272, 370, 567,
21, 72, 124, 175, 252, 354, 559,
45, 85, 124, 164, 223, 302, 459,
4, 52, 100, 148, 221, 317, 509,
-8, 47, 103, 159, 243, 355, 580,
46, 88, 130, 172, 235, 318, 486,
59, 86, 112, 139, 179, 232, 338,
23, 82, 141, 200, 289, 407, 643,
-7, 43, 95, 146, 223, 326, 531,
-21, 32, 85, 139, 219, 327, 541,
30, 86, 142, 198, 282, 394, 618,
-6, 47, 102, 156, 237, 346, 563,
-57, -11, 35, 82, 152, 245, 432,
-9, 51, 113, 175, 268, 392, 639,
40, 90, 140, 189, 264, 363, 562,
73, 116, 158, 201, 264, 349, 519,
34, 105, 175, 245, 350, 490, 771,
46, 87, 128, 168, 230, 312, 476,
-2, 39, 81, 123, 186, 270, 439,
9, 74, 138, 202, 299, 427, 684,
31, 109, 186, 264, 380, 535, 846,
-7, 50, 108, 166, 252, 367, 598,
1, 65, 129, 194, 290, 418, 675,
49, 96, 143, 190, 261, 355, 544,
-16, 29, 75, 121, 190, 281, 465,
56, 105, 155, 205, 279, 378, 577,
};

static uint64_t backbone_model2_conv2_conv1_weight[64 * 1*4] =
{ // torch.Size([64, 1, 1, 64])
0x434cbc3494414a33,0x44344ab44c52c484,0x442434444da435cc,0x3b524cc5ac4449cb, 
0x44cba9dccbba1abc,0x04ab0bb5324b059b,0x3469342c9bc22cca,0x1bc3489c5cb433cd, 
0xc1a12b9c82b5ac10,0xb48002ab0d353bba,0xcbbab43cbbac92ac,0x4cd03410ac8a9c4b, 
0xc442902245a3abbc,0xbd4a3a1b95c44255,0x4bac4a13304b2b40,0x083013bb343cb105, 
0xbcbbbbccccb31244,0xdcaa9aca4b44c5a3,0xcbbb58a344cb8144,0x2b4dbccc983cba33, 
0xa3243bbc2b2a34b1,0x3ba21a3133593232,0x3a0834453aa32041,0xd3952382202c4919, 
0x41cc2445432b5039,0x534cdc304b5d94c5,0xd24a58c44430cb5b,0x50d54dac884bb2ac, 
0xdd4c3424d32bc2cb,0x4a3a1cd034329b55,0x40b4cc44c34a3c55,0xb3ddc305a334c141, 
0xba3343a43b449c4c,0xb3cc5c434bd34484,0x54a4235c35c53453,0xb3bcb3540bc3b1d3, 
0x442cbd4541354cc5,0xc25a33b44c35323b,0x443544555d3244c3,0x4c24c255bb32bb34, 
0x4da55bc934b5b029,0x91c1bdc352c2c4b5,0x8ada044d45dbc26b,0x4adc9cbb4c4caa3c, 
0xd449cb41bdabb491,0x354344a4d453432d,0x322440cbd25c4084,0x55a45c0344440cc9, 
0x2a2822438a322a03,0x9443a923ad8c12e4,0x3a1a32ba4333a3b9,0xa2ca0b0428a89143, 
0xbb59c32c2459cc81,0x4bb44b5101b4350c,0x45244c54a4bb32bc,0xb1bb3bd85bc54bac, 
0x1140bba4a343bda1,0xba133cbb4c244c34,0x344abb55cc4c54d2,0x93b4a4c4b0455345, 
0x1cdcac2919b43acc,0xc9aa4a32bb04bb2b,0x13aab0430b44c492,0x2cc22853ccdccbd0, 
0x32bcbcbbccc33b45,0xcc41bdab134bc18c,0xccdc2bc3baad8dba,0x3a849bc392524c4a, 
0xbcd0c3cc9ad92b04,0x4b43cd8b445bcd33,0x80bcccc5dc4d0b9c,0xb024b1cb23a34453, 
0xbab53c4c444dc143,0xc453914bdbbbbbda,0x20a44c0cacc54cc3,0xd41b52cb34824c0c, 
0xda3a224acda43235,0x3cc15444ccc3314d,0x34444142a01444b5,0xc4c4cd35a11a3b33, 
0x2d4b4acc00d0a31b,0xb4caccbb4dc22b02,0x4a91c3bcc0421b04,0xa143c943ab444bbc, 
0x0b19c5d90a14b3b2,0x4bacb483bc3b1b29,0xacc243cb3bc4bcac,0xb5b8ca24ac8dc54c, 
0x5c2ca53c1b95cb53,0x24a3ca18bcccb822,0x40c4a3bb3bd932bb,0xa3c0cc33a9bbd33c, 
0x0cd295553c5c3923,0xc5455255c243c4c2,0xb4cb44a4ca14d434,0x333b2b33cb2924b5, 
0x2cd5db1a40944b44,0xd5a4c3bac2334a0a,0xdbc3aa234cc93ccb,0x1b04c32d853a4c8a, 
0xcb43244b0dbc251b,0x44a204acb43c201c,0x0bb214ccb422dc4c,0xab444bb3bacaddca, 
0xaaa38b41bd4330bc,0x949244334333224c,0x321413c34b35c440,0x3d325a34acc3ddc0, 
0x443a5413244c424a,0x54a53532bb40d4bb,0x04a5b535b5a3a13d,0xc55b4b144c2424cc, 
0x2b01d1bb33c4aa04,0xddcb4db123833a32,0x399a4c3b4a3b2904,0x9b3bdccc443ca3a5, 
0xacb34b2b2b1ac233,0x4234131a29a4bbc0,0xa9cac20ca444cb22,0xc5bba331c1414350, 
0xb034ba3cccd2cd4c,0xc93c2bc3bc2a4a34,0xdc24c2ccbcc3ac2c,0x3ad31453241ddc4b, 
0xa9ab1cacbb3bb31c,0x28ba0a80cba1bbcc,0xc0b8ab92bbcbc4c0,0xcb01c221bba03cb1, 
0xac184cbb9c3bddb4,0x3cb83c5ca33438b3,0xa44bca39343b344a,0xc5b13344b2155b54, 
0x45c14cab153234dc,0x32a50010d405d442,0x54b9484441349429,0xa3bb2cb3dc234bcb, 
0xb542cb23a34c4b5b,0xbb4b043b19ac9c34,0xccb2acb3caca4dac,0x3bbb23420abdc394, 
0x954991b944c4cacc,0x0b5ab41c354b9c2b,0xcb3cbcac3a1c9cbb,0x44ba542c241bd3c3, 
0x94c55b3b833049c5,0x4232bb4ba03b3cab,0x3a0c053cb3544433,0xb5d4133a5b593b5a, 
0xb28d43c3cbc3d24d,0xdb09bccd24528584,0xacb3abdba5adac4c,0x5b1cccbac444c243, 
0xd33ad99ccacba045,0x4cb2ca4c22b2dd43,0x8cb2dc23e24a3dac,0xb2bc4ce4bd3bb343, 
0xa444a5ac8b3db00d,0xa4a383b2c5433c24,0x43a94bc43b54c431,0xb244244b34bac4c3, 
0x1bcdd3b13bc2ccb8,0xa24cacc13234323a,0xb1ba4d423cc2ccbb,0x9cc1a8b0c4d431b3, 
0x0dc1a32313413c05,0x41b543334b423483,0x2435bc35c342b485,0x4d334c543bd432ba, 
0x4dbb14ccb0a3dc43,0xcded03ac4d03b94b,0x3a1530cac4a43234,0xcb8b0944b403a33b, 
0xab84c13c22c35803,0x0013cbd404245409,0xba0232bb42034c3b,0x2092bcbc543c19dc, 
0x438b34c15bc1cd52,0xcc3d444bc43bd983,0x1444bb4b41a49c83,0x42c2b94dbc04c4ca, 
0x3c8b44d3cccb43ca,0x48ba9b1453432953,0x5342b3c9c241b424,0x3aaab3a1cc944493, 
0xc4dc3082d43dbcab,0x422244443ac1dbda,0xb35cb1acd4c30d92,0x04c34cd528cb2444, 
0x44c19bdc23aa2cbc,0xc34cd3c3ba3a43a8,0xb44c25bc3ac38cb1,0x2b95b4ad34330aa0, 
0x429acc54934cb4c4,0x5442ac34caa032dc,0x49abb335abb34ab1,0xa4ba35c3c44acc2c, 
0x1b1b34335b94bd53,0xccbc1334c54a3c3c,0x45342944444b2945,0x48b4d14bc8b533b5, 
0x4b4bc32c5445c494,0xccc34b3ca4c44b65,0x42d31c4952144331,0xc44c4494b4cb030b, 
0x4c3d24cc0cc4c345,0x3bccc40d0acaac4a,0xacb4c88c44c94b8c,0xa9aacba39b9ac34d, 
0xd09c9c44d3393bb4,0xc3c44b345d34523b,0x34324553c2403404,0xc3324cc5bb444c94, 
0x4b4da2ab4312bb5a,0x3bab44aa94ab8a40,0x20433d1312bb9d42,0x3c3b9cbb30d5c2eb, 
0xb0c34abca4dab483,0x42cad2cbaabc2bd1,0xdccdb3cdb4bbac3c,0xd43c49dd9b8c445d, 
0xacc334ac43bbd44a,0xb2b9cb4cc4cbd4d4,0xdcdccc31b4cc1dcc,0xc5ccbbcc124c44bb, 
0x04054adab4c4cc2d,0xcccbbdab29b4a4b2,0xaccb13bd34230b4d,0xb3cd342c314c1b2d, 
0x432c31403b22ab51,0x410541bccb4d45c3,0xc2433213a4b3055d,0x4ac4b3344aacd4bc, 
0xa8c253c22c3a422a,0xb5a442438c04c4c9,0xda4c8501ca3bc323,0xa453095ac334210a, 
0xb243331acb3b455b,0x39b5bbac2b3b94d2,0xdbc9c5cbb2bcb14b,0xb45cbc2b5c5b312d, 
0x94bccb1cc42bd9ab,0x3b43b44b43c32c92,0xb9ac3c0233a833bb,0xc3bb34d2c3b3224c, 
0xc3c353cc4a1b5bbb,0xb3c9b2442204cd40,0xc35d48439433224a,0xa3c4ac345c4353b3, 
0xa23239d2cacc938c,0x36cb4db04bccb2a4,0xbc82d42cd233cc4d,0x43b15244dd33a4ac, 
0x324ddccb32b3342b,0x3bbdcccdb92b4c4c,0xdcbc30344ccb5c8c,0xb031dccc54b4bdbc, 
};

static int backbone_model2_conv2_quant1_threshold[64 * 14] =
{ // torch.Size([64, 14])
-896, -464, -248, -86, 21, 129, 237, 345, 453, 561, 669, 831, 1047, 1479,
-1284, -842, -621, -455, -344, -233, -123, -12, 97, 208, 319, 485, 706, 1148,
-1064, -722, -551, -422, -336, -251, -165, -80, 5, 91, 176, 305, 476, 818,
-1299, -785, -529, -336, -208, -80, 48, 176, 304, 433, 561, 753, 1010, 1523,
-1268, -861, -658, -505, -404, -302, -200, -98, 2, 104, 206, 358, 562, 969,
-670, -360, -205, -88, -11, 66, 143, 221, 299, 376, 454, 570, 725, 1036,
-1353, -852, -601, -413, -288, -163, -37, 87, 212, 338, 463, 651, 902, 1403,
-1362, -840, -580, -384, -254, -123, 6, 137, 267, 398, 528, 724, 984, 1506,
-1205, -720, -478, -296, -174, -53, 67, 189, 310, 431, 552, 734, 977, 1462,
-1181, -652, -387, -189, -57, 75, 207, 339, 471, 604, 736, 934, 1199, 1728,
-1722, -1055, -721, -471, -304, -137, 28, 195, 362, 529, 696, 946, 1279, 1946,
-948, -567, -376, -233, -138, -42, 52, 147, 243, 338, 433, 576, 767, 1148,
-1168, -735, -519, -356, -248, -140, -32, 75, 183, 291, 400, 562, 778, 1211,
-1461, -948, -692, -500, -371, -243, -115, 12, 141, 269, 397, 589, 846, 1359,
-1023, -603, -393, -235, -130, -25, 79, 184, 289, 394, 499, 657, 867, 1287,
-1787, -1065, -703, -433, -252, -71, 108, 289, 469, 650, 830, 1101, 1462, 2185,
-1285, -871, -665, -509, -406, -303, -199, -96, 7, 110, 214, 369, 576, 989,
-1367, -860, -606, -416, -289, -162, -35, 91, 217, 344, 471, 661, 915, 1423,
-1516, -961, -684, -476, -338, -199, -60, 77, 216, 354, 493, 701, 978, 1532,
-1226, -756, -520, -344, -226, -109, 8, 125, 243, 360, 478, 654, 889, 1360,
-1165, -754, -549, -395, -292, -189, -86, 16, 118, 221, 324, 478, 683, 1094,
-1378, -915, -683, -510, -394, -278, -163, -47, 68, 184, 299, 473, 704, 1167,
-1310, -861, -637, -469, -357, -244, -132, -20, 91, 203, 316, 484, 708, 1157,
-1103, -626, -387, -209, -89, 29, 148, 267, 387, 506, 625, 804, 1042, 1519,
-1532, -963, -678, -465, -322, -180, -38, 104, 246, 388, 530, 744, 1028, 1598,
-1051, -680, -494, -355, -262, -170, -77, 15, 108, 201, 294, 433, 618, 990,
-1115, -657, -429, -257, -143, -28, 85, 200, 314, 428, 543, 714, 943, 1401,
-840, -437, -235, -83, 16, 117, 218, 319, 420, 521, 622, 773, 975, 1378,
-1263, -851, -645, -490, -387, -284, -181, -78, 24, 127, 230, 385, 591, 1003,
-1166, -738, -523, -362, -255, -148, -41, 65, 173, 280, 387, 548, 762, 1191,
-1510, -1028, -787, -606, -485, -365, -244, -124, -3, 116, 237, 417, 658, 1140,
-1414, -959, -731, -561, -447, -333, -220, -106, 7, 120, 234, 405, 632, 1087,
-1155, -732, -521, -362, -256, -151, -45, 60, 165, 271, 377, 535, 746, 1169,
-1526, -972, -695, -488, -349, -211, -73, 65, 203, 342, 480, 688, 965, 1518,
-1314, -845, -611, -436, -319, -202, -85, 31, 148, 265, 382, 558, 792, 1260,
-1585, -996, -702, -481, -333, -186, -39, 107, 255, 402, 549, 770, 1065, 1654,
-966, -545, -334, -176, -71, 34, 139, 244, 350, 455, 560, 718, 929, 1350,
-1526, -1020, -767, -577, -451, -324, -198, -71, 54, 181, 307, 497, 750, 1256,
-1603, -1091, -834, -642, -514, -386, -258, -130, -2, 125, 254, 446, 702, 1214,
-944, -554, -359, -213, -115, -18, 79, 176, 274, 371, 469, 615, 810, 1200,
-1093, -760, -594, -469, -386, -303, -220, -136, -53, 29, 112, 237, 403, 736,
-857, -436, -225, -67, 38, 143, 248, 354, 459, 564, 670, 828, 1039, 1460,
-1262, -835, -621, -461, -354, -247, -140, -33, 72, 179, 286, 446, 660, 1088,
-1205, -766, -546, -381, -271, -162, -52, 57, 167, 277, 387, 551, 771, 1210,
-1264, -829, -612, -449, -341, -232, -123, -15, 93, 201, 310, 473, 690, 1124,
-1128, -646, -405, -225, -104, 15, 136, 256, 377, 497, 618, 799, 1040, 1521,
-1518, -986, -720, -521, -388, -255, -122, 10, 143, 276, 409, 609, 874, 1406,
-1244, -820, -608, -449, -343, -237, -131, -25, 80, 186, 292, 452, 664, 1088,
-1217, -724, -477, -292, -169, -45, 77, 200, 324, 447, 570, 755, 1002, 1495,
-1115, -670, -447, -280, -169, -58, 52, 163, 275, 386, 497, 664, 886, 1331,
-1283, -763, -503, -308, -178, -48, 82, 212, 342, 472, 602, 797, 1057, 1577,
-1231, -842, -648, -502, -405, -308, -210, -113, -16, 80, 177, 323, 517, 906,
-1146, -680, -447, -273, -156, -40, 75, 192, 308, 424, 541, 715, 948, 1414,
-1181, -778, -576, -425, -324, -224, -123, -22, 78, 178, 279, 430, 632, 1035,
-1731, -1158, -872, -657, -514, -371, -228, -85, 57, 201, 344, 558, 845, 1417,
-1656, -1138, -878, -684, -554, -425, -295, -166, -36, 93, 222, 416, 676, 1194,
-1509, -1053, -825, -654, -540, -426, -312, -198, -84, 29, 143, 314, 542, 998,
-1467, -939, -675, -477, -345, -213, -81, 50, 182, 314, 446, 644, 908, 1437,
-1000, -583, -374, -217, -113, -9, 95, 199, 304, 408, 512, 669, 878, 1295,
-1151, -730, -519, -361, -256, -150, -45, 59, 164, 270, 375, 533, 744, 1165,
-1361, -900, -669, -496, -381, -266, -150, -35, 79, 195, 310, 483, 714, 1175,
-1018, -618, -417, -267, -167, -67, 33, 133, 233, 333, 433, 584, 784, 1185,
-1424, -928, -681, -495, -371, -247, -123, 0, 123, 247, 371, 557, 804, 1300,
-1456, -1008, -784, -615, -503, -391, -279, -167, -55, 57, 169, 337, 561, 1010,
};

static uint64_t backbone_model2_conv2_conv2_weight[64 * 9] =
{ // torch.Size([64, 3, 3, 1])
0x3, 0x1, 0xc, 0x4, 0x4, 0xd, 0xc, 0xc, 0xd, 
0xd, 0x4, 0x4, 0xb, 0x5, 0x0, 0x5, 0x3, 0xc, 
0x8, 0x5, 0xc, 0x9, 0x2, 0x5, 0x4, 0xc, 0x4, 
0xc, 0xc, 0xc, 0xc, 0xc, 0xb, 0xc, 0x3, 0x9, 
0x4, 0x4, 0xd, 0x4, 0x3, 0xc, 0x5, 0xb, 0xc, 
0xc, 0x4, 0x4, 0x5, 0x3, 0xd, 0xc, 0xd, 0x1, 
0xc, 0xb, 0xc, 0x0, 0xc, 0xd, 0x4, 0x9, 0xd, 
0x4, 0x3, 0xa, 0x5, 0x4, 0x2, 0x4, 0x4, 0x3, 
0xc, 0xc, 0xa, 0xc, 0xc, 0x3, 0xd, 0xc, 0x3, 
0x8, 0xc, 0xb, 0x2, 0xd, 0xe, 0xa, 0x4, 0xb, 
0x4, 0x4, 0x4, 0x4, 0x5, 0x3, 0x4, 0x5, 0x2, 
0x2, 0x4, 0xc, 0x3, 0xc, 0xd, 0xc, 0xd, 0xb, 
0xb, 0xa, 0x5, 0x4, 0xb, 0xd, 0xa, 0x0, 0x3, 
0x9, 0xc, 0xc, 0xa, 0xc, 0xc, 0x3, 0xb, 0xd, 
0xb, 0xb, 0x2, 0xc, 0x0, 0x3, 0xe, 0xd, 0xc, 
0x4, 0x5, 0x5, 0x3, 0x2, 0x4, 0x3, 0xd, 0xd, 
0xa, 0xb, 0x4, 0x3, 0x5, 0x5, 0x2, 0x5, 0x4, 
0x1, 0xa, 0xa, 0x8, 0x9, 0x4, 0x4, 0x5, 0x6, 
0xa, 0x0, 0x2, 0x4, 0x3, 0x3, 0x5, 0x4, 0x5, 
0xd, 0xc, 0x9, 0x1, 0xd, 0xa, 0x2, 0xc, 0xd, 
0x5, 0x4, 0x4, 0x5, 0x3, 0xb, 0x9, 0xc, 0xc, 
0x1, 0x3, 0xa, 0x4, 0x4, 0x0, 0x5, 0x5, 0x3, 
0x3, 0x5, 0x4, 0xc, 0x4, 0x5, 0xa, 0xd, 0xd, 
0x9, 0xa, 0xc, 0xd, 0xb, 0x3, 0xd, 0xb, 0x2, 
0x4, 0x4, 0x4, 0x4, 0x4, 0x2, 0x4, 0x4, 0x1, 
0x4, 0x3, 0xc, 0x4, 0x5, 0x2, 0xb, 0xc, 0xc, 
0x1, 0x5, 0x1, 0xb, 0xd, 0xd, 0xb, 0xd, 0x1, 
0x9, 0xd, 0xc, 0x2, 0xd, 0xb, 0x5, 0xd, 0xb, 
0x4, 0x4, 0xc, 0x2, 0x4, 0xc, 0xa, 0x6, 0x3, 
0xb, 0x1, 0x4, 0xc, 0x3, 0x5, 0xd, 0xc, 0x3, 
0x4, 0x4, 0xc, 0x4, 0x5, 0x2, 0x9, 0x3, 0x4, 
0x3, 0x3, 0x3, 0x2, 0x2, 0x2, 0x3, 0x3, 0x3, 
0x4, 0xb, 0xc, 0x0, 0xc, 0xb, 0xc, 0xd, 0x4, 
0xc, 0xc, 0xc, 0x1, 0xc, 0xd, 0x0, 0xb, 0xc, 
0x3, 0x3, 0x3, 0x3, 0x4, 0x4, 0x4, 0x4, 0x4, 
0x4, 0x5, 0x2, 0x4, 0x4, 0x3, 0x4, 0x8, 0xa, 
0x3, 0x5, 0xb, 0x3, 0xb, 0xd, 0xc, 0xd, 0xc, 
0x3, 0x5, 0x4, 0x4, 0x5, 0x2, 0x4, 0x4, 0x4, 
0x4, 0x3, 0x3, 0x4, 0x4, 0x2, 0x0, 0x5, 0x5, 
0xc, 0x5, 0x1, 0xc, 0xd, 0x0, 0xd, 0xd, 0x9, 
0xd, 0x5, 0x4, 0xd, 0x5, 0xb, 0x4, 0x4, 0xb, 
0x3, 0x1, 0xc, 0x4, 0xc, 0xd, 0xb, 0xd, 0xb, 
0xc, 0x4, 0x5, 0xc, 0x3, 0x5, 0xd, 0xc, 0x4, 
0xc, 0x4, 0x5, 0xc, 0x3, 0x4, 0xb, 0x4, 0x4, 
0xd, 0xc, 0xc, 0xb, 0x3, 0x3, 0x4, 0x4, 0x5, 
0xc, 0xc, 0xc, 0xc, 0x1, 0x4, 0x3, 0x5, 0x5, 
0x3, 0x3, 0x4, 0x4, 0x4, 0x3, 0x4, 0x3, 0x3, 
0x5, 0x4, 0xb, 0x4, 0x2, 0xd, 0x4, 0xb, 0xc, 
0x3, 0x4, 0x3, 0x3, 0x4, 0x2, 0x3, 0x4, 0x4, 
0xc, 0xd, 0xd, 0xc, 0xc, 0xb, 0xb, 0x1, 0x4, 
0xb, 0xb, 0xc, 0xc, 0xb, 0xc, 0xc, 0xc, 0xb, 
0xa, 0x3, 0x2, 0xa, 0x5, 0x4, 0x3, 0x5, 0x3, 
0x8, 0x2, 0x1, 0xd, 0xd, 0xd, 0xa, 0xc, 0xb, 
0xa, 0xc, 0xb, 0x2, 0xd, 0xc, 0x4, 0x5, 0x4, 
0x3, 0x1, 0x1, 0x2, 0x5, 0x4, 0x2, 0x6, 0x4, 
0x4, 0x6, 0x5, 0x1, 0x3, 0x2, 0xb, 0x3, 0x2, 
0xa, 0x0, 0x2, 0xc, 0x4, 0x5, 0xc, 0x3, 0x5, 
0xc, 0xc, 0x9, 0xb, 0xc, 0xc, 0xa, 0xc, 0xc, 
0x0, 0xd, 0x2, 0x5, 0x2, 0xd, 0x4, 0x4, 0xd, 
0xb, 0x9, 0xb, 0x5, 0x4, 0xd, 0x3, 0x5, 0xc, 
0x1, 0x2, 0xb, 0x8, 0xc, 0xd, 0x1, 0xd, 0xc, 
0x0, 0xb, 0xb, 0xc, 0xc, 0xb, 0xc, 0xc, 0xc, 
0x4, 0x5, 0x5, 0x3, 0x4, 0x3, 0x2, 0x4, 0xb, 
0x4, 0x5, 0x4, 0x1, 0x5, 0x4, 0xa, 0x0, 0x3, 
};

static int backbone_model2_conv2_relu2_threshold[64 * 7] =
{ // torch.Size([64, 7])
120, 182, 245, 308, 402, 527, 778,
117, 184, 251, 317, 417, 550, 817,
24, 87, 150, 213, 308, 434, 686,
27, 76, 126, 175, 249, 348, 545,
124, 188, 251, 315, 410, 537, 790,
90, 166, 242, 317, 431, 582, 885,
-18, 58, 135, 211, 326, 479, 785,
54, 124, 194, 264, 369, 509, 789,
-11, 57, 126, 196, 300, 439, 717,
95, 155, 214, 274, 363, 483, 721,
-165, -86, -6, 72, 191, 350, 668,
99, 156, 212, 269, 353, 466, 692,
62, 119, 177, 234, 320, 436, 666,
-27, 36, 99, 163, 258, 386, 640,
23, 100, 177, 253, 368, 521, 828,
17, 58, 98, 138, 199, 280, 442,
56, 125, 195, 265, 369, 509, 787,
98, 163, 228, 293, 391, 522, 783,
55, 113, 171, 229, 317, 433, 666,
53, 125, 197, 269, 377, 521, 809,
62, 132, 203, 273, 378, 518, 798,
70, 128, 185, 242, 327, 441, 670,
142, 205, 269, 333, 428, 555, 810,
-18, 37, 92, 147, 229, 339, 560,
-40, 25, 91, 157, 256, 388, 652,
142, 184, 226, 268, 332, 416, 585,
142, 205, 268, 331, 425, 550, 801,
44, 123, 202, 282, 400, 559, 876,
86, 157, 227, 297, 403, 543, 825,
98, 148, 198, 247, 322, 421, 620,
12, 64, 117, 169, 247, 352, 561,
11, 35, 59, 83, 119, 167, 263,
31, 80, 129, 178, 251, 348, 544,
-31, 23, 78, 133, 215, 325, 545,
56, 117, 178, 240, 332, 454, 700,
21, 70, 118, 166, 239, 335, 528,
134, 192, 250, 309, 396, 512, 744,
10, 91, 172, 253, 375, 537, 861,
16, 94, 173, 251, 369, 525, 839,
153, 216, 280, 344, 439, 567, 822,
125, 180, 236, 291, 375, 486, 708,
56, 118, 181, 243, 337, 462, 712,
192, 243, 295, 346, 423, 526, 731,
43, 110, 178, 245, 346, 481, 750,
108, 165, 222, 278, 363, 476, 703,
97, 154, 211, 267, 352, 466, 692,
71, 122, 172, 223, 299, 401, 604,
47, 101, 154, 207, 288, 394, 608,
54, 99, 145, 190, 258, 348, 530,
58, 121, 184, 247, 341, 467, 718,
-11, 48, 108, 168, 259, 379, 620,
51, 112, 172, 232, 323, 444, 685,
46, 117, 187, 257, 363, 503, 784,
110, 173, 237, 300, 396, 523, 777,
-18, 71, 162, 252, 387, 568, 929,
41, 112, 183, 254, 360, 502, 785,
94, 158, 222, 286, 382, 510, 766,
27, 76, 124, 172, 244, 340, 533,
100, 158, 215, 273, 359, 475, 705,
107, 176, 245, 314, 417, 555, 832,
71, 154, 236, 319, 443, 608, 938,
12, 71, 129, 187, 275, 391, 625,
-15, 72, 161, 249, 382, 559, 912,
-4, 78, 162, 245, 370, 537, 870,
};

static uint64_t backbone_model3_conv1_conv1_weight[64 * 1*4] =
{ // torch.Size([64, 1, 1, 64])
0xb3b00c3930ba9134,0x2ccb4b23a8cabbb4,0xba334a159dcb34b3,0xc49b1433c1c354c3, 
0x259013803539894a,0xc4b0abcc3399c91b,0xb33bb45c313cb310,0x34b0034944b20311, 
0xbcbd29a3c4430a5c,0x4cb444cab22c0c44,0x301a3c2513cb4c8c,0xd4c0a4a5c325a314, 
0x1a9ab013331a492b,0xacc19b3c0ba405c5,0xbb4b13323043bbb3,0x2548bb28baacbacb, 
0xbc5ca554c82b2db2,0xc92949cc923b8949,0x92a43b099449a0ab,0x0028a0918504c222, 
0xb3bbbd2c23443c4c,0xbb24c2cc24ba2bbc,0xca0cca3c434c343a,0x53322b3a3ac9cbd9, 
0x412ab21a33b9c1c9,0xc40a08bb82b203ac,0x4b13caa3b20a04a8,0x9cac0b0b43d82ccb, 
0xa48c4139c23dbaaa,0x8b1c204393084400,0x34b34dc802aab08a,0x8323c9db3bba38c4, 
0xd4b942a4151cc913,0xac3b0b4022d89a22,0x844a34403abba233,0x4b2bb3422ac294bb, 
0x4c32b24b48b2b2ca,0x332cb441c4905b11,0xac3132b30a90d053,0x3c3bcdb4a0ab4889, 
0x9c1394a2abb4c9c3,0x3aaa44424ccb54c3,0x9ba1bba30dd451bd,0x8b40403c83abc89a, 
0x4cb3a9233c2c04a3,0xc433503abb43b122,0xccba2bbbda23bac3,0xbab00bbb3a1cab9a, 
0x0240c0aa8cbb2b44,0x4548bbb322c132c3,0x4c441cc1924bbcab,0xc3caa9bb4cb43b0b, 
0xb404abb303bb3645,0x24bbbb2a44323a94,0xcc0da3b11cbc34a2,0x312c8300b44c3333, 
0x1bb43ab9a3a3c430,0x44128a45b94443c5,0x3c03b2bcca422194,0x490caba3cd44bc5c, 
0xc4003331c4ca2c02,0xac2b0bbabaac2a9b,0x3409414cc331922c,0x3594b34a15a2b405, 
0x33d33420cbc98281,0x812b40233d493ba3,0x2c243ab3b333533b,0x031c25c3c343419c, 
0x4c9b2a344bcac0ca,0x33cc5d03b293c225,0x49b3a224c98cbc93,0xc3c2b930cc94a3a4, 
0x1b9dbcac33b13330,0x4831a2cb23bc1cbb,0x1bbc3b032b1b433a,0xc3ba2b34ba030032, 
0xbd320bab3ca3a514,0xa44294b02c43332b,0x0acc9ca3c21132b4,0xabab18d39a2cba4b, 
0xba43bcc302cc3524,0x5248c5cc344b2aa3,0x2a3cdcb4b2bcc5b2,0x133a2c0434b44b4c, 
0x9cb42bb8aac5448a,0x4cb3354bccbb3433,0x43023a34d24339bb,0x033a3828c0aa42a2, 
0xb320dc4cdabad144,0xb4551cbc1bbc93cc,0xb3b43ccca033b33a,0xb2a113bc5a28cca9, 
0x3802aad3393032bb,0x3b3345a03cb0bc41,0x49c409150bbbabbb,0x33ab43033d044822, 
0x22ccb35848ab40a3,0x023b212b34b0acd3,0xcd9329aac435b224,0xc1d129aa01ab2a3a, 
0xcbabbca5a3c423aa,0x0dc2c33d149c94bc,0x0bacc28cb2ca4ccc,0x4048344b9c3bccb3, 
0x9ba3334b22bb83b3,0xc4cbac90c1d4a30b,0x1a203ab4c302d3ba,0x83c2cba1d4bc9baa, 
0xc4442b3b2bb2d344,0xd3304214bc33c894,0x3cc8abb4d4031323,0xb3ac231393c44c29, 
0x5832baab2caa2234,0xb4324ca21344bd8b,0x4da3b3404bdcc293,0xcbd3a34b3233b33b, 
0x4a23cc9c1d42334a,0x444014d3a8043243,0x3a9cdcc43449bb30,0x9a302dd4113b313c, 
0x2b029a4cb33384ba,0x3b3cc4c341db8232,0xb2bdba8112c232bc,0x3b1b4c34c32c00b0, 
0x4d399433ac924ccc,0x241233bb3a0b034b,0xc223cbc22a0babcc,0xbcca1b1bcc23a09a, 
0x93039b9bb922d434,0xc9c03242b2345a40,0x3b0c4a291c3b4204,0x2b30dd944a4caaa0, 
0xaca92333bc43cccb,0x3a8abc24aca22423,0xb5c3139413ab2a9c,0x3bc524ab222bc4b4, 
0x3c4113a31ab34cb2,0x4aaa553495b34330,0x33330bb434ac4235,0x1ccc8cb4db12a340, 
0xbaa9433ca143322d,0xac38c3b49ca5cc4c,0xc4cc531c41c40d39,0x9b4b339cbb1ca3c4, 
0x09b3ccab3cc324c8,0xb1bdcc8bc352c434,0xd3ddca24c2cc3c04,0xc985031cc25dc5b3, 
0x2b5ca34a8dc2b030,0x1a4cc323ab42ccb3,0xb30cbccab53b4bdb,0xc9c4bcc4a533b98c, 
0xb3c49ccb081b328c,0x0242cdcc843bc43b,0xc4bad43cc35acb38,0x4103032c832c12b9, 
0x4dbb244c1d234cc3,0xb03044cb93bc3a4b,0xb4b90bc4243b441c,0xca1429dc442b81ba, 
0x3aac3c5b4b5b8a1c,0xcbc3a3a4bc250b22,0x9c4bc0cb4cb14cb4,0x3ba0bba8c32800bb, 
0xa32bbbc043241111,0x92a9bc3c4423939c,0xad9b034b2cba4433,0x4c4c543b2c12dbc4, 
0x093c34b332bb0dc3,0x44bd22b43bb2a32a,0x9443c0a4039bb4c4,0x2ba4b933d3b4213b, 
0xc31aaa32ba34ba3b,0xbb84d5a12bbbbacc,0xcbc0dacca42b4bca,0x3cb052abcabcbaab, 
0x4b1c439cccb43302,0x49a2b842ac40331b,0x34cc4cbc412383cb,0xc2c31adc9c2aa843, 
0x4a940241ab4b3aba,0x2c4224c02cc2bd20,0x49300b8444c2ab3c,0x11c424b3a3a9423a, 
0xc9b3bc8382c35c4a,0x1dc404145a9b3d3a,0xcbbb2a0ac5443d35,0xa30444a5cc383182, 
0x09b34392ba442ab4,0x4c548281ac423bb3,0x4a34423c23b13440,0x442324ab1144ba41, 
0x2c9c23a42409c4ac,0xd3bc3c9c04cb5b2c,0x11344bb23ccc4b53,0x9b03c3b4c33bb4db, 
0xd24c442aa222ccb3,0x01b2b9a13cabb12b,0xb403320c3ab385dc,0x3b12343c0439c319, 
0xa4cc2b3bc29cc023,0x0baa0cc24cbbdcdb,0xcc021b30bac924c4,0x2bc94400303943ba, 
0xbca3990bda252a1b,0x3c34b43ac80a4b3b,0x23802452c440b23c,0x3a322c4c39032ab3, 
0x4ac02333329b9133,0xca03413b9429c8e3,0x3c11dbbca12b42cb,0xc2c9342bcb932b0c, 
0x41893b3bb4ac3b4b,0x320cab40dbda42b5,0xca40b2aa84438a3b,0x4442cd12832c39cc, 
0x301102403c434131,0xc344a1bc34d104c1,0x9a4bc30d3039bb30,0x2c913a9b211ac92c, 
0xb9a1c64bc30b2521,0xcbcaccc230003b05,0x54acaa3b45b84d33,0x2c35ab44c65c556b, 
0x4c9a231c34bb3b33,0x4c1cb42a24dccc3b,0x33432ba33a1d83cb,0x343b0c12c5c230da, 
0x3c5322b0cb332b13,0x22c33120cc43b324,0x31aabcb93b2104dc,0x9308bbcb2b2abb9c, 
0x4db3b43aabc99ac2,0x3ddc33318bb0a330,0x44b32bb8bccb3bc3,0xbcb23b14c21b3141, 
0x18a3a34bca3b3022,0x43319213d1444823,0x01ba3ca0a032ca52,0x2434ddd524024a83, 
0x0a14ca28db394252,0xb934243ad0bbb903,0x23244b13bc32bb3c,0x25a8ca3c32313395, 
0xc4c43084b311014b,0x9b323bb03bc23334,0x3a00a42c02b3b834,0x333405b3d24b4250, 
0x3c313a3b0b31ada1,0xcc4390b8a4c8b20c,0x34a80a2343328c2b,0x0a94002b31cbb2c8, 
0x204beb3d4bcbb413,0x34ab2bdc84bcb0bb,0x3c1b9c1acb0b029b,0xd0ab2d5133c93a13, 
};

static int backbone_model3_conv1_quant1_threshold[64 * 14] =
{ // torch.Size([64, 14])
-871, -535, -366, -240, -156, -72, 11, 95, 180, 264, 348, 474, 642, 979,
-952, -581, -395, -256, -164, -71, 21, 113, 206, 299, 391, 530, 716, 1086,
-810, -484, -321, -199, -117, -35, 45, 127, 208, 290, 371, 494, 657, 983,
-891, -568, -406, -285, -204, -123, -42, 38, 118, 199, 280, 401, 563, 886,
-653, -415, -295, -206, -146, -86, -27, 32, 92, 152, 211, 301, 420, 659,
-1115, -761, -585, -452, -363, -275, -186, -98, -10, 78, 166, 299, 476, 830,
-1026, -672, -495, -362, -274, -185, -97, -8, 79, 168, 256, 389, 566, 920,
-738, -477, -346, -248, -182, -117, -51, 13, 78, 144, 209, 307, 438, 700,
-857, -524, -358, -233, -149, -66, 16, 99, 182, 266, 349, 474, 640, 973,
-798, -493, -340, -226, -149, -73, 2, 79, 155, 231, 308, 422, 575, 880,
-925, -621, -469, -355, -279, -203, -127, -51, 24, 100, 176, 290, 442, 746,
-860, -554, -400, -285, -208, -132, -55, 21, 98, 174, 251, 366, 520, 826,
-908, -580, -416, -293, -211, -129, -46, 35, 117, 199, 281, 404, 568, 896,
-1121, -673, -449, -281, -169, -57, 54, 166, 278, 390, 502, 670, 894, 1341,
-1044, -646, -447, -298, -199, -99, 0, 98, 198, 297, 397, 546, 744, 1142,
-999, -608, -412, -265, -167, -69, 27, 125, 223, 321, 419, 566, 761, 1153,
-667, -393, -256, -154, -85, -17, 51, 119, 188, 256, 325, 427, 564, 838,
-1167, -761, -557, -405, -303, -202, -100, 1, 102, 204, 306, 458, 661, 1068,
-1002, -649, -473, -341, -253, -165, -77, 10, 98, 186, 274, 406, 583, 935,
-994, -640, -462, -329, -241, -152, -64, 24, 113, 201, 290, 423, 600, 955,
-978, -598, -409, -266, -171, -77, 17, 112, 207, 302, 397, 539, 729, 1109,
-863, -512, -336, -204, -116, -28, 59, 147, 235, 323, 411, 542, 718, 1070,
-1098, -723, -536, -395, -301, -207, -114, -20, 73, 167, 260, 401, 589, 964,
-732, -444, -301, -193, -121, -49, 22, 93, 165, 237, 309, 417, 560, 848,
-806, -509, -361, -250, -175, -101, -27, 46, 121, 195, 269, 381, 529, 826,
-1131, -789, -618, -490, -404, -319, -234, -148, -63, 22, 107, 236, 406, 748,
-1057, -710, -537, -407, -320, -234, -147, -60, 26, 112, 199, 329, 502, 849,
-857, -531, -367, -245, -163, -81, 0, 81, 163, 244, 326, 449, 612, 939,
-1137, -745, -550, -403, -305, -207, -109, -11, 85, 183, 281, 428, 624, 1015,
-981, -611, -426, -287, -194, -102, -9, 82, 175, 267, 360, 499, 684, 1054,
-995, -655, -484, -356, -271, -186, -101, -15, 69, 154, 239, 367, 538, 878,
-968, -661, -508, -393, -317, -240, -163, -87, -10, 65, 142, 257, 410, 716,
-833, -509, -347, -225, -144, -63, 17, 98, 179, 260, 341, 463, 625, 949,
-1064, -680, -488, -344, -248, -152, -56, 39, 135, 231, 327, 471, 663, 1047,
-1106, -662, -440, -273, -162, -51, 59, 171, 282, 393, 504, 671, 893, 1338,
-899, -598, -448, -335, -260, -184, -109, -34, 41, 116, 191, 304, 455, 756,
-1420, -943, -704, -525, -406, -286, -167, -48, 71, 190, 309, 488, 727, 1204,
-903, -578, -415, -293, -212, -130, -49, 31, 113, 194, 275, 397, 560, 885,
-1217, -809, -605, -453, -351, -249, -147, -45, 56, 158, 260, 413, 616, 1024,
-953, -615, -445, -318, -233, -149, -64, 20, 104, 189, 274, 401, 570, 909,
-881, -577, -424, -310, -234, -158, -82, -6, 69, 145, 221, 335, 487, 792,
-1038, -687, -511, -379, -292, -204, -116, -28, 58, 146, 234, 366, 541, 892,
-949, -613, -444, -318, -234, -150, -65, 18, 102, 186, 270, 397, 565, 902,
-1028, -728, -578, -465, -391, -316, -241, -166, -91, -16, 58, 170, 320, 620,
-829, -535, -388, -278, -205, -131, -58, 15, 88, 162, 235, 345, 492, 786,
-873, -525, -351, -221, -134, -47, 39, 125, 212, 299, 386, 516, 690, 1037,
-893, -559, -392, -267, -183, -100, -17, 66, 149, 233, 316, 441, 608, 942,
-767, -426, -256, -128, -43, 41, 126, 211, 296, 381, 466, 594, 764, 1105,
-1050, -680, -495, -356, -263, -171, -78, 13, 106, 198, 291, 430, 615, 985,
-949, -631, -471, -352, -272, -192, -112, -33, 46, 126, 206, 325, 485, 803,
-809, -559, -433, -339, -277, -214, -151, -88, -26, 36, 99, 193, 318, 569,
-760, -500, -370, -272, -207, -142, -77, -12, 52, 117, 182, 280, 410, 670,
-999, -663, -494, -368, -284, -200, -116, -31, 52, 136, 220, 346, 515, 852,
-856, -531, -369, -248, -167, -86, -5, 75, 156, 237, 318, 440, 602, 926,
-924, -600, -439, -317, -236, -156, -75, 5, 86, 167, 248, 369, 531, 854,
-955, -493, -261, -88, 27, 143, 258, 374, 490, 605, 721, 894, 1126, 1589,
-1072, -686, -492, -347, -250, -154, -57, 39, 135, 232, 329, 474, 667, 1054,
-799, -517, -376, -270, -199, -128, -58, 12, 82, 153, 224, 330, 471, 753,
-1041, -676, -493, -357, -265, -174, -83, 7, 99, 190, 281, 418, 600, 965,
-819, -484, -316, -191, -107, -23, 60, 143, 227, 311, 395, 520, 688, 1023,
-689, -405, -263, -157, -86, -15, 55, 126, 197, 268, 339, 445, 587, 871,
-776, -443, -277, -153, -70, 12, 95, 179, 262, 345, 428, 552, 718, 1051,
-507, -336, -250, -186, -143, -100, -58, -15, 27, 70, 113, 177, 262, 433,
-1677, -1169, -914, -724, -597, -469, -342, -215, -88, 38, 165, 356, 610, 1119,
};

static uint64_t backbone_model3_conv1_conv2_weight[64 * 9] =
{ // torch.Size([64, 3, 3, 1])
0xb, 0xc, 0xa, 0x4, 0x4, 0x4, 0x3, 0x4, 0x4, 
0x3, 0x9, 0x4, 0x3, 0x2, 0x5, 0x3, 0x8, 0x0, 
0x4, 0x5, 0x2, 0x2, 0x2, 0x2, 0x0, 0x3, 0xa, 
0xb, 0xa, 0x1, 0xb, 0x4, 0x2, 0x0, 0x5, 0x3, 
0xc, 0x4, 0x5, 0xc, 0x1, 0x4, 0x8, 0xc, 0x0, 
0x3, 0x5, 0xb, 0x8, 0x5, 0xa, 0xb, 0x2, 0x9, 
0x4, 0x2, 0x1, 0x4, 0x4, 0x3, 0x0, 0x3, 0x9, 
0x1, 0x8, 0xb, 0x3, 0x5, 0xa, 0xd, 0xb, 0x3, 
0x8, 0x6, 0x0, 0x9, 0xd, 0x9, 0x2, 0x2, 0x1, 
0xb, 0x9, 0x3, 0xd, 0x9, 0x4, 0x0, 0x3, 0x3, 
0xd, 0x3, 0x3, 0xc, 0x3, 0x3, 0xb, 0xc, 0xc, 
0x3, 0xc, 0xb, 0x4, 0xd, 0xb, 0x4, 0xa, 0x9, 
0xb, 0x4, 0x3, 0xc, 0x5, 0x3, 0xb, 0x2, 0x1, 
0x3, 0x4, 0x3, 0x3, 0x4, 0x1, 0x3, 0x3, 0xa, 
0x4, 0x0, 0xc, 0x0, 0xc, 0xb, 0xb, 0xc, 0x2, 
0x5, 0xa, 0xa, 0xc, 0xb, 0xa, 0xb, 0x3, 0x3, 
0x3, 0x3, 0x4, 0xa, 0xc, 0x3, 0xc, 0xd, 0x0, 
0xd, 0xd, 0x8, 0xc, 0xb, 0x9, 0xb, 0x1, 0x0, 
0x4, 0x4, 0xa, 0xb, 0xc, 0x2, 0xc, 0xa, 0xb, 
0x3, 0xb, 0xc, 0x3, 0xc, 0x2, 0x5, 0x3, 0x0, 
0x9, 0x2, 0xd, 0x9, 0xb, 0xd, 0x1, 0xc, 0x9, 
0x0, 0xb, 0xa, 0x8, 0xc, 0x3, 0x4, 0x5, 0x4, 
0xa, 0xe, 0x0, 0x2, 0xb, 0xa, 0xb, 0x3, 0x9, 
0xa, 0xd, 0xb, 0xc, 0xb, 0x4, 0xb, 0x2, 0x4, 
0x0, 0x5, 0x3, 0xc, 0x3, 0x4, 0xc, 0xd, 0x2, 
0xb, 0x1, 0xa, 0xb, 0x3, 0xc, 0xb, 0xc, 0xb, 
0x3, 0xc, 0xc, 0x4, 0xa, 0xb, 0x3, 0x0, 0xc, 
0x9, 0xc, 0xa, 0xd, 0x3, 0xa, 0xc, 0x3, 0x2, 
0xb, 0xa, 0xc, 0xb, 0xd, 0x1, 0x0, 0x3, 0x0, 
0x8, 0xd, 0x2, 0x2, 0x4, 0x9, 0x0, 0xa, 0xb, 
0x3, 0x4, 0xb, 0x3, 0x1, 0xc, 0x2, 0xb, 0xd, 
0x5, 0xb, 0xc, 0x2, 0x4, 0xb, 0xc, 0x4, 0x1, 
0xc, 0x3, 0x3, 0xb, 0x5, 0x1, 0xa, 0x4, 0x3, 
0x5, 0x3, 0xb, 0x3, 0x4, 0x8, 0x0, 0x0, 0x9, 
0xb, 0xb, 0x8, 0xd, 0xb, 0x1, 0xc, 0x9, 0x1, 
0x9, 0x3, 0x3, 0xb, 0x6, 0x8, 0x1, 0xa, 0x1, 
0x3, 0x3, 0x3, 0x3, 0x3, 0x3, 0x1, 0x3, 0x3, 
0xc, 0x0, 0x3, 0xc, 0x3, 0xa, 0x3, 0x5, 0x3, 
0x0, 0x2, 0x3, 0xb, 0x4, 0x4, 0xa, 0x3, 0x4, 
0xc, 0x3, 0xb, 0xd, 0xb, 0x9, 0x3, 0xb, 0x0, 
0x0, 0xc, 0xa, 0x8, 0x6, 0x1, 0xa, 0xa, 0x1, 
0x4, 0x2, 0x8, 0x5, 0xa, 0x2, 0x3, 0xa, 0x9, 
0x3, 0x4, 0x2, 0x9, 0x0, 0x1, 0xb, 0xe, 0xb, 
0x3, 0x3, 0xd, 0x3, 0x5, 0xc, 0x2, 0x4, 0x0, 
0xb, 0xd, 0x1, 0x4, 0xd, 0x2, 0x9, 0x5, 0x4, 
0x4, 0x4, 0x8, 0xa, 0xc, 0xa, 0xd, 0xc, 0x9, 
0x2, 0x0, 0x8, 0x3, 0x5, 0x0, 0x3, 0x4, 0x4, 
0x3, 0xc, 0xd, 0x4, 0xc, 0xc, 0x4, 0x3, 0x0, 
0xa, 0xb, 0x3, 0x0, 0xa, 0x3, 0x3, 0x5, 0x2, 
0x2, 0xd, 0xd, 0x3, 0xc, 0xb, 0x2, 0x4, 0x4, 
0xb, 0xc, 0xc, 0x2, 0x0, 0x8, 0x5, 0x4, 0x4, 
0xa, 0xb, 0x2, 0x4, 0x4, 0x2, 0xb, 0xd, 0x3, 
0x3, 0xc, 0xc, 0x4, 0xa, 0xc, 0x9, 0x3, 0x2, 
0x5, 0x0, 0xb, 0x3, 0xc, 0xb, 0x2, 0xb, 0x1, 
0xc, 0xc, 0x2, 0x3, 0xb, 0x4, 0xa, 0x9, 0x4, 
0xb, 0xc, 0xb, 0x0, 0xc, 0xc, 0x9, 0xc, 0xb, 
0x4, 0xb, 0xb, 0x5, 0x3, 0xa, 0x4, 0x4, 0xb, 
0xa, 0xc, 0x9, 0xc, 0xb, 0x3, 0x4, 0x4, 0x2, 
0xa, 0x4, 0x4, 0xc, 0x4, 0x3, 0xc, 0x3, 0x3, 
0x8, 0x3, 0x3, 0xb, 0xd, 0x3, 0xa, 0x8, 0x4, 
0x4, 0x4, 0x3, 0xb, 0xd, 0x1, 0x0, 0x0, 0xa, 
0xd, 0xc, 0x3, 0xb, 0xa, 0x1, 0x3, 0x3, 0x3, 
0x4, 0xb, 0xb, 0xd, 0xb, 0x4, 0xc, 0x2, 0x4, 
0xa, 0xa, 0x3, 0x0, 0xe, 0x2, 0xa, 0x2, 0x2, 
};

static int backbone_model3_conv1_relu2_threshold[64 * 7] =
{ // torch.Size([64, 7])
-12, 42, 98, 154, 237, 348, 571,
38, 78, 118, 157, 217, 296, 455,
12, 63, 114, 165, 241, 343, 548,
40, 72, 104, 137, 185, 249, 377,
-30, 52, 135, 218, 342, 508, 840,
-13, 38, 90, 142, 220, 324, 533,
14, 42, 71, 99, 142, 199, 312,
55, 86, 117, 147, 193, 254, 376,
9, 54, 100, 145, 214, 305, 487,
67, 104, 140, 177, 231, 304, 450,
19, 60, 100, 141, 202, 283, 445,
47, 84, 121, 157, 213, 286, 434,
-19, 23, 67, 110, 175, 262, 435,
59, 94, 130, 165, 219, 290, 433,
-33, 12, 58, 104, 172, 263, 446,
16, 40, 64, 88, 124, 172, 267,
-2, 45, 94, 143, 216, 313, 508,
40, 90, 141, 191, 267, 367, 569,
20, 53, 86, 120, 169, 236, 369,
16, 48, 80, 112, 160, 224, 352,
-36, 33, 103, 173, 278, 418, 697,
-46, 3, 54, 105, 181, 283, 486,
-9, 51, 113, 175, 267, 390, 637,
-59, -3, 52, 108, 193, 305, 529,
24, 78, 131, 185, 265, 373, 587,
6, 42, 77, 112, 165, 236, 377,
6, 42, 77, 112, 166, 237, 378,
4, 50, 96, 142, 211, 303, 487,
-43, 5, 55, 105, 180, 279, 478,
2, 27, 51, 75, 112, 160, 257,
22, 72, 122, 172, 246, 345, 544,
27, 61, 95, 129, 180, 248, 384,
34, 73, 113, 152, 211, 290, 448,
-12, 38, 90, 141, 218, 322, 528,
8, 57, 107, 156, 231, 330, 528,
-73, -7, 58, 123, 222, 353, 615,
44, 74, 104, 133, 178, 237, 356,
34, 67, 100, 134, 184, 251, 384,
-13, 28, 70, 111, 174, 258, 425,
-38, 10, 60, 110, 184, 284, 483,
14, 64, 113, 163, 238, 337, 537,
13, 50, 87, 124, 180, 255, 403,
-10, 35, 82, 128, 198, 291, 477,
41, 76, 110, 144, 196, 265, 403,
-18, 40, 100, 159, 249, 368, 606,
41, 84, 127, 170, 234, 320, 492,
79, 141, 204, 266, 359, 484, 733,
8, 50, 92, 134, 197, 282, 451,
12, 43, 74, 105, 152, 214, 338,
-54, 6, 67, 128, 220, 342, 586,
-3, 49, 101, 154, 233, 339, 550,
32, 69, 106, 142, 198, 272, 420,
50, 79, 107, 136, 179, 237, 352,
25, 59, 92, 126, 176, 243, 377,
-14, 22, 59, 97, 152, 227, 376,
59, 100, 141, 183, 244, 327, 491,
-12, 45, 102, 160, 247, 363, 594,
19, 51, 84, 116, 165, 230, 360,
-25, 20, 65, 110, 178, 268, 449,
40, 68, 96, 123, 165, 220, 331,
40, 73, 107, 141, 192, 260, 396,
-41, -1, 38, 78, 138, 218, 379,
22, 89, 156, 223, 324, 458, 726,
-37, 22, 83, 144, 235, 356, 598,
};

static uint64_t backbone_model3_conv2_conv1_weight[64 * 1*4] =
{ // torch.Size([64, 1, 1, 64])
0x58cbcb3cca1394bc,0xbba3b104cb3c1342,0xa4c4244401c3a54d,0x3a3bb233cbaa04ab, 
0x0b234329ab3830a4,0xc323328ac0c2c4bb,0x40cac23b2b344193,0xc31c422d38241023, 
0xc2bb80b133438392,0x4c8a322b41aa3acc,0xca93bc2b84dc9c8b,0x833b0bc92c30233b, 
0x330bac15344cbb3b,0xcb99ccb1a4b2923c,0x223bc52ab23933c4,0x2333449b452a3a43, 
0xbb20332b0ab232b4,0xb4b045b130d941c2,0x03b432834a43ca33,0xc3ad83aa94443b93, 
0x4803b3b343910940,0x43882cba24202233,0x2ca13321d12a024a,0x3a33834233bdcb4c, 
0x204bb2c3b4bbca83,0x238b215b3a32ba33,0x92c408801caab4ab,0x4b22932d90c93a42, 
0x391541b4b4aa4344,0xa34a2a21b304cc33,0x4c98334ca5bb4b23,0x4c1c21b8b31b943a, 
0x3a3b30b3a8b3b029,0xc2a2bb2ac1b9c2bb,0x428bd32c11a14bda,0xbbc94cb3c23b330a, 
0x3db33c3d3cbc2130,0xa3b84cb3128231ba,0xa03392ca4d33c41a,0xbdb3ca32243d2caa, 
0x3c3b22c432bc41b5,0x358c393c43b4c33a,0xbaa4ab1383940332,0xa444a34b14c2ab44, 
0x3b350b4a302a4438,0xa4098b423b440c82,0xc4ab305b33aac02a,0x3c34c2abcb1b33b3, 
0x2bab4a8c8992acbb,0x49b934b235022b3a,0x34ba3a29d3a4ba2a,0xd422adaba0a4233b, 
0xaa14aa933334c44b,0x03c01424c2380b2a,0x1b4922b9a34bbc41,0x4b40cba3d03ba5ba, 
0xb242ca4444441a34,0x5333343b3449c4c4,0x43c493049d9c9243,0x4085432b3532443a, 
0x4cba1ab334430b2b,0xc4bb0a2a33ba3cd2,0x33b2b44cc31bd9a2,0x2da4221ab3cd340b, 
0x33acd3400488cb0b,0x2c43d4b41433b444,0x3c2bb322395c40a3,0x80380ab142c00b59, 
0xa8244ab191dc2534,0xa13c42b0b3b1bc41,0x9c4401b4a5c2a2c4,0x3cc3b5bb49c93cc2, 
0xbbc1ab24a3222b22,0xa2cb8c99b5223dc2,0x48b3cb22c09b2333,0xa21103c1b09bbb4a, 
0x4ab3829294333a9b,0x4188cc3ac3acbb43,0x4ca9b4c3dcb02bcc,0x2ab44b403cacb30b, 
0x024bb02aa3acd24b,0x3b13c435a43a81a9,0xa2343bb33a5ba490,0x1293d2b243ca2c4a, 
0xc1318b14b0a2ba33,0x3a32aaa31038a2b3,0x4babbc5b3bbcbb93,0xa43443929432ab34, 
0x22bdd3c9b8ba931c,0x0b3b849224b21333,0x080ac2a13a22bbc0,0xb2d2b38449c32d34, 
0x4b3b9524448cbb4b,0x2b109881cca3ba59,0x4939332295ab38b2,0x3cc149bc351c23b1, 
0xa3845cc2104b80b5,0x933b40c843bba54c,0xb3c8ba320bb530aa,0x2540235ba42bb3c5, 
0x8a3b203cd31ca24b,0x338a0a0223014222,0xb0bb249012a2b4c1,0xcb03b20840bc92bd, 
0x32832b3239903834,0xa11c23c049345b32,0xc9232a94392cd233,0x83442a1a4a31a1c3, 
0x3850333ba3118b2a,0xac34bb33bc1ccbb0,0x43213cbab4c143b2,0x4dcb29c3b34b3cad, 
0xe933343233323033,0x2438123c32a1a3a2,0x322b42c21320bc3a,0x2034a824b4382441, 
0xc3c2b3a439451402,0xbb2314849b9c91c4,0x410a344d3aac9d43,0x42990433b433c42a, 
0xc24c9244c4aa005c,0xbc3893c0d32a20a9,0x23ccb433aa0c33c4,0xb9b209baab291b8c, 
0xb233bb4cc3435541,0x433349a4ac3b1b2c,0xbcc5bdb3334c3422,0x8b431cc094194a82, 
0x4cb432bbb04242b8,0x14cb4cb94d0c49ba,0xcaa33cbc0bc3bbac,0xc8b90a323a32b3a0, 
0x2438a40a0a44ab43,0x44d8a2ab3c1c34a3,0x330c445ab32b314d,0x30244b3bb23aa490, 
0x318ba024bc43c332,0x34d9ccba2c333cb3,0x4bb02bb4204b322c,0x334b491bb1a041b4, 
0x83814b030c9b322c,0x0ad3393b34b24b9d,0x44b30281c813a042,0x341a13b9320bbbb1, 
0xa0d21b3a08bb49c0,0x4ba103c223104193,0x8ba409148c1343a2,0xc43c32a341944bb4, 
0xbc4024b342412143,0x9a2b3393cc243342,0xb94c4200242c1b33,0x3342bb21944cc58c, 
0x43a10c3bc00b03bd,0x03b38bb1bb3a3c1c,0xa412a443c38921b0,0x09cc34200bb89bac, 
0xc93133c15aa3ca40,0x43b3b3bbc4d3bb14,0x28c9032cb498b328,0xba4baa20b94cc148, 
0x85c8333b144bac3b,0x8033a13b434403d4,0x00b0c2b2b43d2ba0,0x134a1c93bcdb2b44, 
0x9c9444bc390abac4,0x35bb23524b23b0bb,0xac2ad24c1b34332c,0x4b42ba4ab4c4bb03, 
0x344339b44a334a32,0xa4139a3333a341bc,0xba3d333c21c10943,0xb43aa313224bd3bb, 
0xb041ac9c4089928b,0x893b193003a2a41b,0xababbb3039b88aa2,0x1a34aaba9310ba31, 
0x34caacba08c42303,0x1c5381b3bc9cb434,0xac0343ba4b11aa1c,0x9c3a4c4ab02222bb, 
0x3dba35b443033ca4,0x33a03abbbb34c543,0x2a342b4a54034834,0xc0484cbb34499b4a, 
0x23bbc41cbb9cab20,0xab3bca8c2b403b2c,0x01b40a243cb313b1,0x54c4323c4bc8cc41, 
0xa43c448324d59322,0x3b48425289230b45,0x5cbbab84bc444bbc,0xb0a94c2845abbb23, 
0x00b39800a44331ca,0x0b2d02143b0a5342,0x284b0ac0aa3a9ba0,0x90013a0132a1929a, 
0xb9bcb42cbb33d0cb,0x2b0944c94c1028b9,0x3431cba84c333bc3,0xa4cab3bb4b24acb1, 
0x3033333aabbc9cbc,0x42a1c523a123804b,0x930a14c3c123b33c,0x03b29c3983c3b4ac, 
0x3a83314a412bad3a,0x2ab00baa4243a481,0xb33b12843c43833a,0x34343b3ca32b1121, 
0x214bc4ab01b3492c,0x51ba309a2b8a433c,0xac34dcb49b4394bc,0x13a3bca823c240cb, 
0x4c943394b3bb292c,0x84b332b2c0430333,0x3299b423c2349281,0x21b204320202c0cb, 
0xc4bb3bb2d999b4ac,0x1cbc8bb9baab9c3b,0x28cca13b3bccb8ca,0xa31acb4c9dcbbb04, 
0xbb23434bcc03991b,0xcc83bbd4cc8b201c,0x384a823433a448d4,0x13bb3cb4c403ac33, 
0x3cb84c2bc0d4b134,0x3bc184b3b9ccac33,0x1bc42bb2c0d2cb0b,0xaccc3c5b0d4cc41a, 
0xc140a129532a014b,0x5c2b4b3b00cbc8b1,0xb430bc593b3024b3,0x0a20239aac40ba93, 
0x394bba89812ba0ab,0xcc34b9b4ccba10c8,0x3340abb2b4334bb2,0xc80caaa3b3a9420b, 
0x4cc9abb331923b8b,0xa4b248b3a2ab32aa,0x84bd33bbcc43a23a,0x8133cb43b22ab4bc, 
0xabbabcb43b0932cc,0xbacb3dbcbbcc4cdb,0xbb43a3cb1cba1141,0x409ba5c18c3888cc, 
0xdb2ba9c222cbba2c,0x313b8bbcba3bb84c,0x24cdc3431b392cb2,0x4b93813cba30a3b2, 
0xbc4a0440bcaa235c,0xac3a353409db4492,0xb22bbaa94cbba313,0x2c3c91c48c3d2bab, 
0x4bb4b24bb43b0bbb,0xbbacbb335a4b3b80,0xac4c4ccbbaa9cbbb,0x2cb38abb1acab241, 
};

static int backbone_model3_conv2_quant1_threshold[64 * 14] =
{ // torch.Size([64, 14])
-1160, -730, -515, -354, -246, -139, -31, 75, 182, 290, 397, 558, 773, 1203,
-784, -491, -344, -235, -161, -88, -15, 57, 130, 204, 277, 387, 533, 826,
-847, -549, -399, -287, -213, -138, -64, 10, 85, 159, 234, 346, 495, 793,
-895, -541, -363, -230, -142, -53, 34, 123, 212, 300, 389, 522, 699, 1054,
-857, -481, -293, -153, -59, 34, 128, 222, 316, 409, 503, 644, 832, 1207,
-808, -510, -362, -250, -176, -102, -27, 46, 121, 195, 269, 381, 530, 827,
-957, -624, -457, -332, -249, -165, -82, 1, 84, 167, 251, 376, 543, 876,
-1043, -642, -442, -292, -192, -92, 8, 108, 208, 308, 408, 558, 758, 1159,
-943, -637, -485, -370, -294, -218, -141, -65, 10, 87, 163, 277, 430, 735,
-1488, -1030, -800, -628, -513, -399, -284, -169, -54, 59, 174, 346, 575, 1034,
-742, -423, -264, -144, -64, 14, 94, 174, 253, 333, 413, 532, 692, 1010,
-934, -593, -423, -295, -210, -125, -39, 45, 130, 215, 300, 428, 599, 940,
-892, -596, -449, -338, -264, -190, -116, -43, 30, 104, 178, 289, 436, 732,
-805, -490, -333, -215, -137, -58, 19, 98, 176, 255, 334, 451, 609, 923,
-713, -356, -178, -44, 44, 133, 222, 312, 401, 490, 579, 713, 891, 1248,
-1206, -827, -638, -496, -402, -307, -212, -118, -23, 70, 165, 307, 496, 875,
-980, -597, -405, -261, -165, -69, 26, 122, 218, 314, 409, 553, 745, 1129,
-1049, -673, -484, -343, -249, -155, -61, 32, 126, 220, 314, 455, 644, 1020,
-864, -586, -447, -343, -274, -204, -135, -66, 3, 72, 142, 246, 384, 662,
-1012, -700, -545, -428, -350, -272, -194, -117, -39, 38, 116, 233, 388, 700,
-891, -532, -352, -218, -128, -38, 51, 140, 230, 320, 410, 544, 724, 1083,
-762, -434, -270, -147, -65, 16, 98, 180, 262, 344, 426, 550, 714, 1042,
-1231, -832, -632, -482, -382, -282, -182, -82, 17, 117, 217, 367, 567, 966,
-937, -553, -361, -217, -121, -25, 70, 166, 262, 358, 454, 598, 790, 1174,
-866, -507, -328, -193, -104, -14, 75, 164, 254, 343, 433, 568, 747, 1106,
-894, -584, -429, -313, -236, -158, -81, -3, 73, 151, 228, 345, 500, 810,
-608, -334, -197, -94, -26, 42, 110, 179, 247, 315, 384, 487, 624, 897,
-969, -615, -438, -305, -216, -128, -39, 48, 137, 225, 314, 447, 624, 978,
-805, -480, -317, -196, -114, -33, 47, 129, 210, 291, 373, 494, 657, 982,
-897, -546, -370, -238, -150, -62, 25, 113, 200, 288, 376, 508, 684, 1035,
-976, -617, -437, -302, -213, -123, -33, 56, 146, 235, 325, 460, 639, 999,
-740, -442, -293, -181, -106, -32, 42, 116, 191, 266, 340, 452, 601, 899,
-1151, -754, -556, -408, -309, -210, -111, -12, 86, 185, 284, 433, 631, 1027,
-1042, -610, -394, -233, -125, -17, 90, 198, 306, 414, 521, 683, 899, 1330,
-1005, -629, -442, -301, -207, -113, -20, 73, 167, 261, 355, 495, 683, 1058,
-782, -483, -334, -222, -147, -73, 1, 76, 150, 225, 300, 412, 561, 860,
-906, -587, -427, -308, -228, -148, -68, 10, 90, 170, 250, 369, 529, 848,
-782, -465, -306, -187, -107, -28, 50, 130, 209, 288, 368, 487, 646, 963,
-1149, -792, -613, -479, -390, -300, -211, -121, -32, 56, 146, 280, 459, 816,
-828, -523, -370, -256, -180, -103, -27, 48, 124, 201, 277, 391, 544, 849,
-1262, -799, -568, -394, -279, -163, -47, 67, 183, 299, 414, 588, 819, 1282,
-1034, -675, -496, -361, -272, -182, -92, -3, 86, 175, 265, 399, 579, 937,
-631, -349, -208, -102, -31, 38, 109, 179, 250, 320, 390, 496, 637, 919,
-920, -581, -411, -284, -200, -115, -30, 54, 138, 223, 308, 435, 604, 943,
-829, -536, -390, -280, -206, -133, -60, 13, 86, 159, 233, 343, 489, 782,
-794, -455, -286, -159, -74, 10, 95, 179, 264, 349, 434, 561, 730, 1069,
-886, -561, -398, -276, -195, -114, -32, 48, 129, 210, 292, 414, 576, 901,
-973, -596, -407, -265, -170, -76, 18, 112, 207, 301, 396, 537, 726, 1104,
-654, -409, -286, -194, -133, -71, -10, 50, 111, 173, 234, 326, 448, 693,
-833, -520, -363, -245, -166, -88, -10, 68, 146, 225, 303, 421, 578, 892,
-861, -547, -390, -273, -194, -116, -37, 40, 119, 197, 276, 393, 550, 864,
-665, -374, -229, -120, -47, 25, 97, 170, 243, 316, 388, 497, 643, 933,
-1046, -647, -447, -298, -198, -98, 0, 100, 200, 300, 400, 549, 749, 1148,
-799, -485, -328, -210, -132, -53, 24, 103, 181, 260, 338, 456, 613, 927,
-1209, -854, -677, -544, -455, -366, -278, -189, -100, -11, 76, 209, 387, 742,
-1057, -658, -458, -308, -209, -109, -9, 90, 190, 290, 390, 539, 739, 1138,
-1156, -790, -606, -469, -377, -286, -194, -102, -11, 80, 172, 309, 492, 859,
-780, -449, -284, -161, -78, 4, 86, 169, 251, 334, 416, 540, 705, 1035,
-688, -440, -316, -223, -162, -100, -38, 23, 85, 147, 209, 302, 426, 674,
-792, -534, -404, -308, -243, -178, -114, -49, 14, 79, 144, 240, 370, 628,
-1113, -790, -628, -507, -426, -346, -265, -184, -103, -22, 57, 179, 340, 663,
-1130, -764, -581, -444, -352, -261, -169, -78, 13, 104, 196, 333, 516, 882,
-1096, -675, -464, -306, -201, -96, 9, 114, 219, 324, 430, 588, 798, 1219,
-1071, -716, -538, -405, -317, -228, -139, -51, 37, 126, 214, 348, 525, 880,
};

static uint64_t backbone_model3_conv2_conv2_weight[64 * 9] =
{ // torch.Size([64, 3, 3, 1])
0x2, 0x4, 0x4, 0x2, 0x4, 0x4, 0xb, 0x4, 0x3, 
0x5, 0xa, 0xd, 0xb, 0xd, 0x0, 0xb, 0x4, 0x4, 
0x4, 0x4, 0x4, 0x3, 0x3, 0x4, 0xb, 0xc, 0xc, 
0xc, 0xc, 0xb, 0xc, 0x8, 0xb, 0xd, 0xb, 0x9, 
0x4, 0x4, 0xc, 0x3, 0x4, 0xc, 0x3, 0x0, 0xd, 
0xc, 0xc, 0x1, 0xa, 0xc, 0xd, 0x2, 0x2, 0xb, 
0x2, 0x3, 0xb, 0x4, 0xa, 0x4, 0x2, 0xe, 0x2, 
0xc, 0xb, 0xa, 0xc, 0xd, 0xb, 0x4, 0x3, 0x0, 
0x4, 0x5, 0xb, 0x0, 0x4, 0xd, 0x2, 0x5, 0xb, 
0xa, 0xc, 0xc, 0x1, 0xc, 0xb, 0x1, 0xb, 0xb, 
0x0, 0x3, 0x0, 0xb, 0xd, 0xc, 0xa, 0xb, 0x0, 
0xb, 0xc, 0xc, 0xc, 0x4, 0x4, 0xd, 0x2, 0x3, 
0xb, 0xc, 0x0, 0xc, 0xc, 0x4, 0xc, 0x3, 0x4, 
0x2, 0xb, 0xb, 0x0, 0xd, 0xc, 0xb, 0x4, 0x4, 
0x3, 0x1, 0x2, 0xb, 0xd, 0xa, 0xb, 0xc, 0xc, 
0xc, 0xb, 0xb, 0xc, 0xc, 0xb, 0xa, 0xb, 0xc, 
0x3, 0x3, 0x2, 0x2, 0xc, 0xe, 0x3, 0xc, 0xb, 
0xc, 0xc, 0xc, 0xb, 0xc, 0xb, 0x3, 0x4, 0x4, 
0x4, 0xb, 0xc, 0x5, 0x4, 0xc, 0x8, 0x4, 0x0, 
0xc, 0x5, 0x4, 0xb, 0x4, 0x9, 0xc, 0x4, 0x4, 
0xb, 0xe, 0x9, 0xb, 0x0, 0x3, 0x0, 0x0, 0x1, 
0x3, 0x2, 0x3, 0x4, 0x3, 0x2, 0x3, 0x4, 0x2, 
0xa, 0x4, 0x4, 0x3, 0x3, 0x4, 0x2, 0xd, 0xd, 
0xb, 0xd, 0xd, 0x0, 0xb, 0xb, 0x3, 0xa, 0x0, 
0x2, 0x4, 0x9, 0x4, 0x3, 0xb, 0xc, 0xe, 0xc, 
0x3, 0x4, 0x4, 0xa, 0xa, 0xb, 0xc, 0xc, 0xc, 
0x8, 0xc, 0x4, 0x3, 0xd, 0x3, 0xa, 0xa, 0x0, 
0x4, 0x4, 0x4, 0x2, 0x2, 0x2, 0xc, 0xc, 0xb, 
0x2, 0x2, 0xa, 0x0, 0xe, 0x0, 0x9, 0x2, 0x0, 
0xb, 0xb, 0xc, 0xb, 0xa, 0xa, 0xc, 0xd, 0xb, 
0x3, 0x4, 0x2, 0x4, 0x5, 0x4, 0x0, 0x3, 0x3, 
0x9, 0x2, 0x3, 0x8, 0xc, 0xc, 0xc, 0xd, 0xd, 
0x0, 0x6, 0x3, 0xb, 0x3, 0xb, 0xb, 0xb, 0x9, 
0x9, 0xb, 0x9, 0x9, 0xb, 0xb, 0xc, 0xc, 0xc, 
0xa, 0xb, 0x3, 0xc, 0xc, 0xa, 0xc, 0xc, 0xa, 
0x3, 0x3, 0xb, 0x4, 0xc, 0xc, 0x4, 0xd, 0xb, 
0xc, 0xc, 0x9, 0xc, 0x4, 0x4, 0xc, 0x5, 0x1, 
0xd, 0xc, 0x9, 0xc, 0x4, 0x2, 0xb, 0x3, 0x9, 
0xc, 0x1, 0x3, 0xc, 0x2, 0x5, 0xa, 0x4, 0x4, 
0xb, 0x4, 0x4, 0xc, 0xb, 0x4, 0x8, 0xd, 0x4, 
0xb, 0x4, 0x3, 0x2, 0x3, 0x4, 0x3, 0x4, 0x2, 
0x9, 0x3, 0x4, 0xc, 0xa, 0x3, 0xd, 0xd, 0xb, 
0xc, 0xc, 0x2, 0xc, 0xc, 0x3, 0xc, 0x2, 0x4, 
0x2, 0x0, 0x3, 0x3, 0x3, 0x4, 0x0, 0x0, 0xa, 
0x4, 0x4, 0xa, 0x3, 0x4, 0xc, 0x4, 0x4, 0xb, 
0xc, 0xd, 0xc, 0xd, 0xb, 0x1, 0xa, 0x2, 0x3, 
0x2, 0x5, 0x4, 0x0, 0xc, 0x5, 0x0, 0xc, 0x3, 
0xc, 0xc, 0x0, 0x8, 0xd, 0xb, 0xb, 0xd, 0xb, 
0x3, 0xc, 0xb, 0xc, 0x4, 0xc, 0x9, 0x5, 0xb, 
0xb, 0x5, 0x5, 0xc, 0xa, 0xb, 0xa, 0x0, 0x0, 
0x2, 0xc, 0xb, 0x4, 0xb, 0xc, 0x4, 0x4, 0xc, 
0xa, 0x4, 0x3, 0xa, 0xc, 0x3, 0xa, 0xd, 0xb, 
0xc, 0xd, 0xd, 0x1, 0xa, 0xa, 0x2, 0xa, 0xa, 
0x1, 0xa, 0xc, 0xb, 0xa, 0xa, 0xb, 0xa, 0xb, 
0x4, 0x3, 0xb, 0x4, 0x4, 0x9, 0x3, 0x1, 0x3, 
0x1, 0x4, 0x5, 0xb, 0x9, 0x5, 0x0, 0xc, 0x3, 
0x3, 0x9, 0x0, 0x4, 0x5, 0xa, 0x1, 0x4, 0x2, 
0x0, 0x3, 0xa, 0x3, 0x5, 0x2, 0x3, 0x4, 0x2, 
0x4, 0x9, 0xc, 0x3, 0x5, 0xb, 0xb, 0xb, 0x3, 
0xb, 0xc, 0xc, 0x9, 0x3, 0x3, 0x3, 0x5, 0x4, 
0x4, 0x4, 0x4, 0x5, 0xb, 0xb, 0x4, 0x4, 0xc, 
0xc, 0x4, 0x3, 0xc, 0x5, 0x2, 0x9, 0x4, 0x2, 
0xb, 0x2, 0x1, 0x1, 0x3, 0x4, 0x4, 0x4, 0x5, 
0xb, 0x2, 0x0, 0xb, 0x5, 0x2, 0x2, 0x3, 0x9, 
};

static int backbone_model3_conv2_relu2_threshold[64 * 7] =
{ // torch.Size([64, 7])
-38, 17, 72, 128, 211, 321, 543,
23, 75, 126, 178, 255, 358, 564,
62, 97, 132, 167, 220, 290, 430,
35, 85, 135, 185, 260, 361, 561,
77, 120, 164, 207, 273, 360, 534,
46, 84, 122, 160, 217, 292, 444,
-4, 62, 128, 195, 295, 429, 696,
-19, 23, 66, 109, 173, 259, 430,
2, 59, 117, 175, 262, 378, 609,
14, 54, 94, 134, 194, 274, 433,
24, 62, 100, 137, 194, 269, 420,
-19, 30, 79, 128, 202, 301, 498,
77, 114, 151, 189, 245, 320, 469,
21, 59, 96, 133, 189, 263, 412,
0, 43, 85, 127, 191, 276, 445,
7, 53, 100, 147, 218, 311, 499,
159, 217, 274, 331, 416, 531, 759,
67, 107, 147, 187, 247, 327, 487,
108, 151, 193, 235, 299, 384, 553,
55, 99, 143, 188, 254, 343, 521,
6, 49, 92, 135, 200, 286, 459,
4, 43, 83, 123, 182, 261, 419,
90, 125, 161, 196, 250, 321, 462,
22, 81, 140, 199, 287, 405, 641,
46, 102, 159, 216, 301, 414, 640,
53, 88, 122, 156, 208, 277, 414,
44, 81, 118, 155, 210, 283, 430,
22, 53, 84, 115, 162, 224, 349,
-5, 45, 96, 147, 223, 325, 528,
-35, 16, 67, 119, 196, 300, 506,
-146, -63, 18, 101, 226, 391, 723,
38, 91, 145, 198, 278, 385, 598,
64, 105, 146, 186, 247, 329, 491,
7, 52, 97, 142, 209, 299, 478,
0, 44, 89, 134, 201, 291, 470,
80, 110, 140, 170, 215, 276, 396,
95, 136, 178, 219, 281, 364, 529,
-43, 0, 44, 87, 153, 241, 416,
56, 106, 156, 205, 280, 379, 578,
57, 97, 136, 175, 234, 313, 469,
16, 55, 93, 132, 190, 267, 421,
33, 80, 127, 174, 245, 339, 527,
15, 60, 105, 150, 218, 308, 488,
57, 84, 112, 139, 180, 235, 344,
34, 72, 111, 149, 207, 284, 438,
5, 54, 102, 151, 223, 320, 515,
3, 60, 118, 176, 262, 377, 608,
-4, 44, 93, 142, 216, 314, 510,
-57, -11, 34, 81, 150, 243, 429,
41, 77, 114, 150, 204, 276, 420,
62, 91, 120, 149, 193, 252, 369,
80, 118, 156, 194, 251, 327, 479,
53, 103, 154, 204, 280, 380, 582,
8, 44, 80, 116, 170, 242, 386,
-10, 24, 60, 95, 148, 218, 359,
34, 78, 122, 166, 232, 320, 496,
-24, 7, 39, 71, 118, 182, 309,
-27, 30, 87, 145, 231, 346, 576,
-3, 36, 77, 117, 178, 259, 422,
133, 186, 239, 292, 371, 477, 689,
86, 129, 172, 215, 279, 365, 538,
-36, 13, 63, 113, 188, 288, 488,
71, 124, 176, 228, 306, 411, 620,
21, 50, 79, 108, 152, 210, 327,
};

static uint64_t backbone_model4_conv1_conv1_weight[64 * 1*4] =
{ // torch.Size([64, 1, 1, 64])
0xa3a4bbbac39ab401,0xb213ad31132241c1,0x4bc2b0344ccbd51b,0x314523ac132b13ab, 
0xaba0bac332a4a23b,0x02b49244b22bbaa0,0x4ab9b949b0b34bb5,0x389a3a51bb084db4, 
0x23ba81b222a53b38,0x324ca434c43bc313,0xa029bb015214cb0b,0xb81ca3ca0b43cb13, 
0x153ab8ccbcbc9c0a,0xb190b82432b93b1c,0xd5429944c8cba3cc,0xb983942a2b334b1c, 
0x932a103233daa01b,0x3b3c3ac913100cd2,0x42c4a24248301282,0x44aba4c243028a24, 
0x2c4c34b340c91222,0x44abb5ab424bbcc8,0xc029a31bc9914c23,0xb9ac92329944bca3, 
0x13a38bb42034bc3b,0x42230a34232a2b34,0xa9014ac423b43984,0x8c0a33b349c53cb2, 
0x0aaccbabc53ac1ba,0x803b143433431ccb,0x4a2b5baa134bcbc0,0x44333a49c802bcbc, 
0xb4d22341c1340829,0x23343c24c2414442,0x3bb9c4ba3a13b143,0xc03a0222c8cb18b3, 
0xc1db4d29bccbc44c,0xbca3b333d48c4bb4,0x1434cc39a2335394,0x3cd2092c3c142be4, 
0xb4bb0ab08cbcbab2,0x20a92b439abba4a0,0x1434bb2b002bcabc,0x3c9c4b3c38ccb324, 
0xba92c3c33ac39328,0x89ab8bad49cac440,0x44b1333bca2333bb,0x491302919243a982, 
0xaaa48241bb310900,0xb2ca4c29bbcc034b,0x4b89a8313bc93282,0x0b00a20819432bbd, 
0x1b3223b233ca3231,0x321ac02a23223cc0,0x1023a3b181033303,0x040a30949222220a, 
0x9c3c334a349a34aa,0xcabb81d32ca2c14c,0xcc39991d08429138,0x03b4ac4baa4bc493, 
0x142c202b3bb934b3,0xc2028c4b3c01944c,0xc433245aab0c322d,0x4933930b23bb9334, 
0x3c3230b40ccb9034,0xc49bacac3c134424,0x31a48b93a4b92923,0x0b8c42b040a39395, 
0x2d44c832acbc99ba,0x4bb1a433b4aa4b24,0x9342bb228bc04234,0xdcb3bca93bc48baa, 
0xc4aa0b40b0a843c4,0xbbc4b0a3c39d4bab,0x3b35cb4bce4cbc4d,0x1bc3d34adbacc4a5, 
0xcabba23aa4123bb0,0xc0c01c3c3abc0a49,0x442323ba3b39a32b,0x53bcb9b3093cc213, 
0x3950c443c244b523,0xaa3a03ba5ac53bcc,0x43c0b4bbcb3354bc,0xdbb43b54c2b5cb3c, 
0x1a82bb4b394ca8b2,0xbba043d4bbb39430,0xbc423234124a3ba4,0xb323b8c2aa320cab, 
0xb2b32b33ca50b400,0x1a248ccb4abb8432,0x3acb3a9b493a8233,0x3c04b3a0b0a944a2, 
0x3c39b80b999904c9,0x08942ba344a43dac,0x0ca2b2bacb3c04bd,0x20249b4bc390bb3b, 
0x3c32c3a9123cb920,0x41104204cc928421,0x3950129aa0234bb8,0x832d3db3bac24d2c, 
0x239ac4342134c519,0xbbc4a43b2da8a1c0,0xcc10233a49b93c3b,0x332c3239a20943bb, 
0x0a9908920b92b2ab,0xabca3cac0cc9a33a,0xabab8b3ab92acc1a,0x0ab8a84ba93ac1b9, 
0x23352abcb1c210b1,0x414b0c08a2a2344c,0x48b3a1903b903348,0x2d13239a39a2ca35, 
0xc4b31c434392b132,0x9c2093ba34d283bd,0x0402b903802a2924,0x3c30bc20331a41c2, 
0x8abb92bcb3232cb3,0x3a84323422a34c02,0x841041334ba0b24a,0x200ca3c338c30325, 
0x9304b228bb80423a,0x39d04cb004dc33b3,0x18b282b1cb22282b,0x0383c33ab2044c23, 
0x2d39124d4bb1b100,0xb3b224941a2033ba,0xa112423b314c2222,0x29a92a2b3a04c224, 
0xb4ab2b4c93a92d1b,0x80a32bc5bc23844a,0xc39b1a5433b94399,0x4b2900a24b34139b, 
0xcb3cc95d4318b919,0xca3b1cc204b0b54c,0x130a43b0b1212082,0xb41aab4baa40ccab, 
0x23013b24bb22aba2,0x4a0b2494b482ac0a,0x3221a033d4803994,0xd0abbb32c200192d, 
0x821223823014a23b,0x2223b233cc1a3a19,0x23dd3b4a23ca321b,0x2e13333198333a4d, 
0x8b443454592b4321,0xa2cb444d43a99ba9,0xc4a3305dab3952b3,0xccb22b334203b4bc, 
0x4b3bc324a3323600,0xbbc39202bb9abc2b,0xdba928b82a20aa33,0x03c1333ba2a240ac, 
0xab1bb2cc2bdc09ba,0xbb3a223ba3124b34,0xa4422aa3dbb32401,0xc39321b001a90cb4, 
0x2a01bb9b31ccab29,0x315bcbacab442a1a,0x3a4229a35aa0248c,0x31b8bad038529bbc, 
0x93228b2c3bb4b48b,0xbccabc2222cc920c,0x23abac4acb4b41b8,0x33b38b5bbc233cc4, 
0x2c1a33bca95cbb91,0xbc1533c103a3bcd4,0x212b4939c9cb0db4,0x24b39389933a449c, 
0xb39cc31a9bcc4c92,0xa0b3b332bb1a403a,0xc132b94048cb2459,0x9c123c234a2acb1c, 
0x13301039bdba10b1,0x9bb4410222c04bdc,0x1130b3c0b8b04242,0xbbb02a4343d32b14, 
0x3aa32032cb34cba2,0xac32cadbc4abb343,0x2c42b2c9c3c43d02,0xd4abc3dab2d308ac, 
0xb4bc00acb9b0b3c2,0xbc4902a5ba24340c,0xb4393aab9bb02b4d,0xcccaa25a0b13c4a4, 
0xbbba2a34b4432ab1,0xc92a9930c2abc33b,0x4ba2b339399a82ba,0xc281cc33c3bdb9bb, 
0x24442c42dc0ca132,0x3038a8b4bab3919a,0x4b30dc333239a4a3,0x2c332ca9a3c353ba, 
0x9cbaa3c4329b343a,0xa354119c33154ba4,0xca3c51b144c2051b,0x3c3343a24a43243b, 
0xbcc243c433ca2cc2,0x4b325bba33c13c22,0xb842bbd3c3c9cb14,0x049bb4cbbb9d4905, 
0x2008133343b34883,0x9311b94833000923,0xa334230ac2133302,0x4441111313429923, 
0x1bb3c1332e403baa,0x0bba4849340b8b34,0xc95102b4c42332c3,0xcd3333b239c42c1a, 
0x3c39ba93c44ab0a1,0x925a19b51215a2cb,0xa1a24ab24a0a10ba,0xcb93833a32da1239, 
0x3433b21b3c04bbc3,0xbbab4b43abbac44b,0xa45141482329acb3,0x923accdc2bca9d2c, 
0x2b434c4c8bccb910,0xc84a3dcb33b484ab,0x40a223208a224342,0x8401b4b433b409a4, 
0x3402b2acbb430022,0x32024c20bb3b2a32,0x0c8a2ca2320bdabc,0x0112192c394cb1ab, 
0x348cda322143a421,0xbbb2a8242b2934bb,0xbb3b02b42012a1ac,0x443d0b0abab243bc, 
0x1bc44ac8bbbc3324,0x4b20abbc35024cbb,0xcba4b0cb2cbb004a,0xd284b3b24323d3c4, 
0xabb8c4994bc4b2a2,0x44dbbb441bacb3b2,0x4c4bd3cc41c330ca,0x41bd3d52c33b2bbc, 
0xb592b3033233ab98,0xa3bbcb5d12bbb93b,0xd42ba19c33bbb3c2,0xbbab24caa3b1939c, 
0x333b982bcc1333c0,0x3c92a3a2b3b9041c,0x3b931ab8cbb2a82d,0xda12c24bb0dcb044, 
0x2ba5d9b4b28342c3,0x2ab398aa02904b4b,0xb9b3822a998ab404,0xc0240a3ab1ba3da1, 
0xa33240b0bba4c3b0,0xabc2bc3888ad3b33,0x4c2bcd3bcc338b44,0x4bd2ba4cccbc3894, 
0x444cbbb1a11c4c04,0x14242cc42823ccc4,0xbcc3bcb4c9b19bac,0xa22b3340b2a25041, 
};

static int backbone_model4_conv1_quant1_threshold[64 * 14] =
{ // torch.Size([64, 14])
-1170, -742, -528, -368, -261, -154, -47, 59, 166, 273, 380, 540, 754, 1182,
-1228, -804, -592, -433, -327, -222, -116, -10, 95, 201, 307, 466, 678, 1101,
-1012, -623, -428, -282, -185, -88, 8, 106, 203, 300, 397, 543, 738, 1127,
-1112, -702, -497, -343, -240, -138, -35, 66, 169, 271, 374, 528, 733, 1143,
-1024, -616, -412, -259, -157, -55, 46, 148, 250, 352, 454, 607, 811, 1218,
-1131, -653, -413, -234, -114, 5, 124, 244, 364, 483, 603, 783, 1022, 1501,
-1126, -644, -403, -223, -102, 17, 138, 258, 379, 499, 620, 801, 1041, 1523,
-1455, -939, -681, -487, -358, -229, -100, 28, 157, 286, 415, 608, 866, 1383,
-1445, -971, -734, -557, -438, -320, -201, -83, 35, 153, 271, 449, 686, 1160,
-2389, -1700, -1355, -1096, -923, -751, -579, -406, -234, -61, 110, 369, 714, 1404,
-1437, -943, -696, -511, -388, -264, -141, -17, 105, 229, 352, 537, 784, 1278,
-976, -593, -401, -258, -162, -66, 29, 125, 220, 316, 412, 556, 747, 1130,
-1145, -729, -521, -364, -260, -156, -52, 51, 155, 260, 364, 520, 728, 1145,
-1198, -716, -475, -294, -174, -53, 66, 187, 307, 428, 548, 729, 970, 1452,
-1443, -959, -717, -536, -415, -294, -173, -52, 68, 189, 310, 492, 734, 1218,
-1059, -641, -432, -275, -171, -66, 37, 142, 246, 351, 455, 612, 821, 1239,
-1004, -571, -355, -193, -85, 23, 131, 239, 347, 455, 563, 725, 942, 1374,
-1208, -758, -533, -364, -251, -139, -26, 85, 198, 310, 423, 592, 817, 1267,
-2174, -1503, -1167, -916, -748, -580, -412, -245, -77, 90, 258, 509, 845, 1516,
-1011, -647, -465, -329, -238, -147, -56, 34, 125, 216, 307, 444, 626, 990,
-1244, -705, -435, -233, -98, 35, 170, 305, 440, 575, 710, 912, 1181, 1721,
-1062, -683, -494, -352, -258, -163, -68, 25, 120, 215, 309, 451, 641, 1019,
-1291, -866, -654, -495, -389, -282, -176, -70, 35, 141, 248, 407, 619, 1044,
-1450, -998, -771, -602, -489, -375, -262, -149, -36, 76, 189, 359, 585, 1038,
-1020, -629, -433, -287, -189, -91, 6, 104, 201, 299, 397, 544, 739, 1130,
-915, -573, -403, -275, -189, -104, -19, 66, 151, 236, 322, 450, 620, 962,
-1518, -1055, -823, -649, -533, -418, -302, -186, -70, 45, 161, 334, 566, 1029,
-968, -573, -376, -228, -129, -30, 68, 166, 265, 364, 463, 611, 808, 1203,
-1234, -825, -620, -467, -365, -263, -160, -58, 43, 145, 248, 401, 605, 1014,
-796, -439, -261, -127, -38, 50, 139, 228, 317, 406, 496, 629, 808, 1164,
-1050, -679, -493, -354, -261, -168, -75, 16, 109, 202, 295, 434, 620, 991,
-1058, -623, -406, -243, -134, -25, 82, 191, 300, 408, 517, 680, 898, 1332,
-1181, -731, -505, -336, -224, -111, 1, 113, 226, 339, 452, 621, 846, 1297,
-1008, -611, -413, -264, -165, -66, 32, 132, 231, 330, 429, 578, 776, 1173,
-1034, -684, -509, -378, -290, -203, -115, -28, 59, 146, 234, 365, 540, 890,
-1465, -955, -700, -509, -381, -254, -127, 0, 127, 255, 382, 574, 828, 1338,
-1211, -672, -403, -201, -66, 67, 202, 337, 471, 606, 741, 943, 1212, 1751,
-1131, -728, -527, -376, -275, -175, -74, 26, 126, 227, 328, 479, 680, 1083,
-1255, -808, -585, -417, -305, -194, -82, 29, 141, 252, 364, 531, 755, 1202,
-1132, -650, -409, -228, -107, 12, 133, 253, 373, 494, 614, 795, 1036, 1518,
-1496, -1014, -774, -593, -473, -353, -232, -112, 7, 128, 248, 428, 669, 1150,
-1173, -774, -575, -426, -326, -226, -127, -27, 72, 171, 271, 420, 620, 1018,
-956, -595, -414, -278, -188, -98, -7, 82, 173, 263, 353, 489, 670, 1031,
-1017, -634, -442, -298, -202, -106, -10, 85, 181, 277, 373, 517, 709, 1092,
-1837, -1285, -1010, -803, -665, -527, -390, -252, -114, 23, 161, 367, 643, 1194,
-1091, -696, -499, -351, -253, -154, -55, 42, 141, 239, 338, 486, 683, 1077,
-1350, -926, -714, -555, -449, -343, -236, -130, -24, 81, 187, 346, 558, 982,
-1275, -837, -618, -454, -344, -235, -126, -16, 92, 202, 311, 476, 694, 1132,
-1459, -762, -414, -152, 21, 195, 369, 543, 717, 892, 1066, 1327, 1675, 2372,
-1482, -1022, -792, -620, -505, -390, -275, -160, -45, 69, 184, 357, 587, 1047,
-1050, -552, -302, -115, 8, 133, 257, 382, 507, 631, 756, 943, 1192, 1691,
-1100, -685, -477, -321, -217, -114, -10, 93, 197, 301, 405, 561, 768, 1184,
-963, -557, -353, -201, -99, 2, 103, 205, 307, 408, 510, 662, 866, 1272,
-1301, -843, -613, -441, -327, -212, -97, 16, 131, 246, 360, 532, 762, 1220,
-1178, -699, -459, -279, -159, -39, 79, 199, 319, 439, 559, 739, 978, 1458,
-1286, -859, -645, -485, -379, -272, -165, -58, 47, 154, 261, 421, 634, 1061,
-969, -610, -430, -296, -206, -116, -26, 62, 152, 242, 332, 466, 646, 1005,
-1343, -838, -586, -397, -271, -145, -18, 107, 233, 359, 485, 674, 927, 1431,
-1371, -914, -686, -515, -401, -287, -172, -58, 55, 169, 283, 454, 683, 1139,
-1163, -739, -527, -368, -262, -156, -50, 55, 161, 267, 373, 532, 744, 1168,
-1555, -1040, -782, -589, -460, -331, -203, -74, 54, 183, 311, 505, 762, 1277,
-905, -583, -422, -302, -221, -141, -60, 19, 99, 180, 260, 381, 542, 863,
-1753, -1236, -977, -783, -654, -524, -395, -265, -136, -7, 122, 316, 574, 1092,
-1086, -653, -437, -275, -167, -58, 49, 157, 265, 373, 481, 644, 860, 1293,
};

static uint64_t backbone_model4_conv1_conv2_weight[64 * 9] =
{ // torch.Size([64, 3, 3, 1])
0x3, 0x4, 0x3, 0x4, 0x4, 0x3, 0x3, 0x4, 0xa, 
0x4, 0x5, 0x3, 0x0, 0x9, 0xa, 0xb, 0xc, 0xa, 
0x3, 0x5, 0x2, 0xb, 0x4, 0x3, 0xb, 0x3, 0x3, 
0xc, 0xc, 0xa, 0xb, 0x4, 0x4, 0x3, 0x4, 0x4, 
0x4, 0x4, 0x4, 0x0, 0xb, 0xb, 0xc, 0xc, 0xc, 
0x5, 0x3, 0xc, 0x3, 0xc, 0xb, 0x3, 0x3, 0xa, 
0x5, 0x4, 0xc, 0x4, 0xc, 0xb, 0xb, 0xa, 0xb, 
0x1, 0x4, 0x4, 0x4, 0x9, 0x0, 0x5, 0x2, 0x2, 
0x3, 0xc, 0xc, 0x1, 0x4, 0xd, 0x3, 0x3, 0xc, 
0xa, 0xb, 0xb, 0x8, 0xd, 0xd, 0x2, 0xb, 0x0, 
0xb, 0xb, 0xa, 0x2, 0x2, 0x3, 0x3, 0x4, 0x4, 
0xd, 0x5, 0x4, 0xc, 0xb, 0x3, 0xa, 0xc, 0x1, 
0x4, 0x4, 0x4, 0xa, 0x2, 0x4, 0xc, 0xc, 0x3, 
0x2, 0x1, 0x3, 0xb, 0xb, 0xb, 0xc, 0xb, 0xb, 
0x9, 0xc, 0xa, 0xa, 0xe, 0xb, 0x3, 0x2, 0x4, 
0xa, 0x3, 0xb, 0xc, 0xb, 0x0, 0x2, 0xd, 0xc, 
0x0, 0xa, 0x0, 0xb, 0x6, 0xa, 0x1, 0x3, 0x0, 
0xa, 0x8, 0xc, 0x3, 0x1, 0xc, 0x5, 0x5, 0xa, 
0x3, 0x3, 0xb, 0xd, 0xb, 0x4, 0xc, 0xa, 0x9, 
0x2, 0xc, 0xd, 0x3, 0x4, 0xc, 0xa, 0xa, 0xa, 
0xc, 0xd, 0x0, 0xb, 0xd, 0x9, 0x0, 0xa, 0x3, 
0x3, 0x1, 0xb, 0xc, 0xb, 0x2, 0xd, 0xb, 0x1, 
0x3, 0xb, 0xd, 0x4, 0x3, 0xc, 0x4, 0x3, 0xc, 
0x4, 0x2, 0x1, 0x2, 0xc, 0xb, 0x0, 0xd, 0xb, 
0xd, 0xd, 0x9, 0x2, 0x3, 0x8, 0x1, 0x3, 0x0, 
0x3, 0x1, 0xb, 0x4, 0xb, 0xc, 0x5, 0xc, 0xc, 
0x4, 0x3, 0xc, 0x3, 0x3, 0x3, 0x8, 0x2, 0x3, 
0xc, 0x3, 0x4, 0xc, 0x0, 0x5, 0xb, 0x0, 0x2, 
0x9, 0x3, 0x9, 0x3, 0xe, 0x2, 0x0, 0x2, 0x0, 
0x5, 0x4, 0x2, 0xa, 0xc, 0xc, 0xb, 0xa, 0xa, 
0x4, 0x8, 0xd, 0x4, 0xd, 0x2, 0x3, 0x8, 0x3, 
0xb, 0xb, 0x8, 0xa, 0x1, 0xb, 0xd, 0xc, 0xa, 
0xa, 0x4, 0x3, 0xb, 0xa, 0xb, 0xd, 0xd, 0xa, 
0x5, 0xb, 0xc, 0x5, 0xc, 0xc, 0x4, 0x4, 0xb, 
0xd, 0xc, 0x3, 0xa, 0xa, 0x4, 0x1, 0x4, 0x4, 
0x4, 0x3, 0x5, 0xc, 0xb, 0xb, 0xd, 0xc, 0xd, 
0x3, 0x3, 0x2, 0xc, 0xb, 0xb, 0xb, 0xc, 0xc, 
0x2, 0xb, 0xb, 0xa, 0x5, 0x4, 0xd, 0xb, 0x4, 
0xc, 0xc, 0xc, 0xa, 0xb, 0xb, 0x9, 0x2, 0xb, 
0x4, 0x5, 0x4, 0xa, 0xb, 0x9, 0x0, 0xb, 0x3, 
0xc, 0xa, 0x0, 0xd, 0x3, 0x0, 0xb, 0xb, 0xb, 
0xc, 0x2, 0x4, 0xd, 0xa, 0x5, 0x1, 0x2, 0x2, 
0x2, 0x9, 0x3, 0x4, 0x5, 0x2, 0x9, 0xc, 0xb, 
0xc, 0xc, 0xc, 0x1, 0xb, 0x3, 0x4, 0x2, 0x4, 
0x3, 0x4, 0x5, 0x2, 0x3, 0x4, 0xa, 0x0, 0x8, 
0x3, 0xd, 0xd, 0xa, 0x3, 0x1, 0xb, 0x9, 0xa, 
0x1, 0x3, 0x3, 0xd, 0x3, 0x3, 0xd, 0x3, 0x1, 
0xa, 0x3, 0x2, 0xb, 0xa, 0x4, 0x2, 0xe, 0xb, 
0x2, 0x5, 0x5, 0xb, 0x4, 0x3, 0x3, 0xa, 0x3, 
0xb, 0xb, 0xc, 0xa, 0xb, 0xb, 0xa, 0xc, 0xb, 
0x2, 0xc, 0xc, 0xc, 0xc, 0xb, 0xb, 0x3, 0x4, 
0x5, 0x4, 0x4, 0xb, 0xc, 0x0, 0xc, 0xc, 0xc, 
0x5, 0x4, 0xb, 0x4, 0xc, 0xc, 0x2, 0xb, 0x2, 
0x9, 0xe, 0x2, 0x2, 0xb, 0x2, 0x1, 0xc, 0x0, 
0xc, 0xc, 0xc, 0xa, 0xb, 0x0, 0xc, 0xa, 0xa, 
0x0, 0xc, 0x0, 0x4, 0xd, 0x3, 0x3, 0xd, 0x9, 
0xb, 0x9, 0x3, 0xd, 0x3, 0x1, 0xa, 0x4, 0x3, 
0x9, 0x6, 0x4, 0x8, 0x3, 0x1, 0xa, 0x1, 0xa, 
0x3, 0x3, 0x0, 0x3, 0x3, 0x4, 0x2, 0x3, 0x4, 
0xb, 0xa, 0xb, 0x3, 0xb, 0xc, 0x6, 0x4, 0x9, 
0xb, 0x4, 0x4, 0x4, 0xb, 0xc, 0x2, 0xc, 0xc, 
0x9, 0xb, 0xa, 0xa, 0xc, 0xc, 0x4, 0x4, 0x4, 
0x2, 0x3, 0x1, 0x3, 0xe, 0xa, 0xb, 0x9, 0x8, 
0x9, 0xb, 0xa, 0xb, 0x6, 0x9, 0x3, 0x4, 0x1, 
};

static int backbone_model4_conv1_relu2_threshold[64 * 7] =
{ // torch.Size([64, 7])
35, 84, 134, 184, 259, 359, 558,
-28, 25, 78, 131, 211, 317, 529,
17, 69, 121, 173, 251, 355, 563,
10, 50, 90, 130, 191, 271, 432,
34, 67, 100, 133, 182, 248, 380,
-5, 30, 67, 103, 158, 231, 377,
33, 65, 96, 127, 174, 237, 362,
-15, 45, 105, 166, 256, 377, 619,
-37, 0, 36, 73, 128, 201, 349,
28, 60, 92, 125, 173, 237, 366,
0, 32, 65, 98, 147, 213, 345,
-1, 47, 97, 146, 220, 318, 515,
-4, 24, 54, 83, 127, 186, 303,
11, 38, 65, 92, 133, 187, 296,
93, 149, 205, 261, 346, 458, 683,
-18, 23, 65, 107, 171, 255, 424,
-8, 53, 116, 178, 272, 397, 646,
-30, 23, 77, 132, 213, 321, 539,
29, 54, 79, 105, 143, 193, 294,
-11, 30, 73, 115, 178, 263, 431,
-51, 20, 92, 165, 273, 417, 705,
-3, 51, 105, 160, 243, 353, 573,
1, 37, 73, 109, 164, 236, 380,
-4, 27, 59, 92, 140, 205, 334,
42, 91, 141, 190, 265, 364, 562,
35, 77, 120, 163, 227, 313, 484,
4, 25, 47, 69, 101, 144, 231,
36, 77, 118, 159, 221, 303, 467,
2, 56, 110, 164, 245, 354, 570,
-12, 36, 84, 132, 204, 300, 493,
36, 82, 128, 174, 243, 335, 519,
42, 76, 110, 143, 194, 261, 396,
-8, 40, 88, 136, 208, 304, 497,
47, 93, 138, 184, 253, 344, 527,
7, 53, 99, 145, 213, 305, 487,
77, 123, 168, 214, 282, 374, 556,
0, 39, 80, 121, 182, 264, 427,
81, 121, 161, 202, 263, 344, 505,
53, 93, 133, 173, 233, 313, 473,
-79, -32, 14, 61, 131, 225, 412,
-6, 34, 75, 117, 179, 261, 426,
78, 115, 152, 189, 245, 319, 467,
4, 42, 79, 116, 172, 247, 396,
11, 49, 86, 123, 179, 254, 404,
31, 94, 157, 220, 314, 440, 692,
-37, 17, 71, 126, 208, 318, 537,
15, 57, 100, 142, 205, 289, 458,
-11, 48, 109, 169, 260, 381, 623,
-66, -17, 31, 80, 154, 252, 448,
35, 73, 111, 149, 206, 281, 432,
7, 41, 75, 109, 160, 228, 363,
58, 103, 148, 194, 261, 352, 533,
15, 58, 102, 145, 210, 297, 471,
62, 128, 193, 259, 357, 488, 750,
52, 94, 135, 177, 240, 323, 490,
32, 84, 137, 190, 268, 374, 584,
47, 78, 109, 140, 186, 247, 371,
-76, -9, 57, 124, 224, 358, 626,
13, 60, 107, 155, 225, 320, 509,
19, 81, 143, 205, 298, 421, 669,
14, 45, 77, 108, 155, 218, 343,
39, 80, 122, 163, 226, 309, 475,
32, 81, 130, 179, 252, 350, 545,
-6, 53, 113, 173, 263, 383, 623,
};

static uint64_t backbone_model4_conv2_conv1_weight[64 * 1*4] =
{ // torch.Size([64, 1, 1, 64])
0x483bbac9c2c3ab92,0xbc3c13923c9cb0ab,0x48b92c4ca4448cc9,0xa9b93a95dcbb00b2, 
0x38d325db3b29bb4b,0x2a1b1c3c84332843,0x813a2b93492a942b,0x34a03334242ab44a, 
0x33b83108bb0bba0b,0xb3342224b208b3db,0xaa23990222339140,0x0ba29b13bab9b3b3, 
0x94839a325c2b83b4,0x23cab88ba1accc3b,0xa4cb291c14ccaa32,0x4abccc34ba4c9abb, 
0xc59bbc3b430432c1,0x533c00aa3aacbb19,0xa0343cbb083b92cd,0xc39ab345314194cb, 
0xcd002133124a932b,0xc24b030bbb2ab110,0x210134333333483c,0x3c3921aca03b3344, 
0x8a4bb9320c342c1a,0xb9dcb0c10c1a2b2d,0x12b249b3505c80b4,0xd1c0332ccbbba34c, 
0x4bbc043a384cc323,0x41308b380a2bc101,0x0aa9339bb43a4cb0,0xc3abc2a0bb323233, 
0x000229bc33c43ba2,0x9a3c4c234aca13ab,0xa442cada4cbbc93b,0xad0b449ab3b1244c, 
0x2b44a3c22bc23b9b,0xa34b42c4210a3391,0xbcbb9b1b33a5c054,0x4b0340c592c129b1, 
0xa02c4281b381b304,0xbb2bc34230a31410,0xaa32c1d2ac04ba02,0x9b3c132289a52b32, 
0x4c3a344a14cc332c,0xb1232c8b322924b4,0x1b34344bc491ad2d,0xaca30b2b40421244, 
0xbaaa1b159c4aba33,0x1bca49ba9958ac39,0xcb4babb4bc293a94,0xbba3bcb1b9aa8cc1, 
0x0022043b4ba8220c,0x32bc2c304ccc3832,0xc8024b8ca4288042,0x32a143044142b33c, 
0x233219bb3c8433b2,0x4dcc10444aa20a33,0x34229aa14994cb0a,0x434c4424941a3323, 
0x4bc211ccaa20abbb,0xb943a8402bb2b51a,0x4b1bbb4cb3bac9cd,0xc3cb4cca33ba4c39, 
0x4b392033144cbb92,0xa44b02331338a3b0,0x3b2333c43a343144,0x332b2a22c9ca8442, 
0xcc423b01122d3ac4,0x505ca322223d2c93,0x3cb084b39b44c3b4,0xb043bab4cb21bbab, 
0x23a089c4033335c4,0xb4cd223b204cd44a,0x9232463ab83d92ba,0x93434344422039a3, 
0x39bd2311324ba1a9,0xa343bc82b2a32a22,0x3c933222c3343912,0xb42a022b3c012b54, 
0x92c8b33a324303a3,0x338130ba1a4c2c94,0xc0b03333cb39ba53,0x43c02c03429ca8a8, 
0x28282b244b4bc322,0x84caca5cb43c4313,0xb3ba3444412c49b3,0x8229b3a9b94acb2b, 
0x3b2b203ab0219a32,0xb9a28b9c432b9801,0x8bb6b11a390a9a02,0xa39b00923ccb0192, 
0x22123b321a3cc433,0x02253195b4aa03b4,0x4aa914034aba4943,0x3234b238d2413433, 
0x3ca8b2a3832ba34a,0xb23490abaa93ca41,0x312aa49cb1c2392a,0x43303092a3993c3c, 
0x30aabab52a1132a3,0xb32acab3b14a24bd,0xbbabdac433a1a834,0x8b3a321398b3bc32, 
0x44320102821033a4,0x433b02442a125824,0xb2a4b2aab32ba4a3,0x042c344434283c19, 
0x5414ba09c34354c5,0x2acb1a9313b341b3,0x21bab5b3ab43bac0,0x4a44a43943be43c9, 
0x2cb312babacccccb,0xc049cc95bbcccc99,0x21b3bbbcb22d46ac,0x3b13bc5c329bcb2a, 
0xbcb40b0b9249532b,0xcc422cccc30a88b2,0xa1439c0a0b3c3dbc,0x0bcaa01c053ba83b, 
0xb3b09a33bbb280a3,0x9b0bc44c4d5334c4,0x4342a3232cbca3cb,0x3ab2aa1b82b2b992, 
0x2ac9ab330c1bacb3,0xacadc1424b43a222,0xa8590b4bc2bac8ab,0x3bb3acc2c3b0cbb3, 
0x2d33a3bba31123aa,0xb42c202324033233,0x3b3811398c23b08a,0x920b34dca3409329, 
0xa0a00c394c1b22b3,0x21baab8aacbc2953,0xcbb9aaa9a49c4433,0xc2b2bb2caa4ba00c, 
0xcb0322442bb8c430,0x4435ca24b02001b4,0xb20a20b94d892233,0x2a3bbb9b3b4213c2, 
0x50a9b23babc199a0,0x38b2ab8c1ba92140,0xc295a1aba2a8b804,0xa3180a3a1a3bbc9b, 
0xc14c5a42cb80cc4c,0x1ccba2c2a9d9bcd3,0xaa035c840b419ab3,0xc3cb0bbb0cb3950a, 
0x8089ba089a298302,0x80a1901810828a29,0x09288400bb11a828,0x2039a2093090aa19, 
0xa0402b44ccc144cb,0x82bbb0a3ac049b0b,0xbcb23c134323b333,0x21c1142c39132abb, 
0x20028a9abcab434b,0x290a8aba42b15ba1,0x98bba4bca8b1bab8,0x0b13ab8b3cb99bba, 
0x82a4cbb31ba3329c,0x1414cc3cb2b32c9a,0xc544babb1cbca03a,0xc203b80c23539b3c, 
0xdca092c229a9c34c,0xc4c44b2aa4a33a30,0x930c14010b32bb43,0xcb3334cd0ba33aa2, 
0xb0b2a32ab45da443,0xb484bb0bd3213aa9,0xacb32332242b43ca,0x2324db5d394ccc32, 
0x3bcc43343a119bba,0x40b8cc1ccc942a42,0x93ab3894043c498b,0x24b9bbc3b43a4843, 
0x3a03901ab30b3325,0xab42cb9b3324ab39,0x3bc4340bc12341ca,0x93c3bb444402092b, 
0x9b9bb313c44bcb93,0xba2bb533cc4bbb35,0x3b133c3cc331bb00,0x4cbaaabaa134ccc3, 
0x293b34a82b4ccc2c,0xc020345b9b33a4bc,0xbcbacc91b3934ac4,0xbabb8bc4bbd24cb3, 
0xcc2a33324c201935,0xccbcb32c4d92c32c,0x013923b93494283b,0x191c4ac24333144a, 
0xb2ba5b32c9a3baa2,0xc2321b42a8b482c3,0x53aa3b332b4a82cb,0x12cb9ab9bccc49a4, 
