#pragma once
#include <cstdint>

static uint64_t backbone_model0_conv1_weight[16 * 9] =
{ // torch.Size([16, 3, 3, 3])
0x56e, 0xd6f, 0xd6d, 0xd6e, 0xd6f, 0xc7d, 0xc5e, 0xd6e, 0xd7d, 
0x6e6, 0x4f5, 0x4f5, 0x4e5, 0x4f5, 0x4e6, 0x5e6, 0x4e5, 0x5e7, 
0x5bc, 0x443, 0x555, 0x043, 0xca3, 0xcb4, 0x434, 0xedd, 0xfee, 
0x446, 0x666, 0x456, 0x330, 0x534, 0x564, 0xdde, 0xffe, 0xcee, 
0x667, 0x567, 0x347, 0x666, 0x556, 0x456, 0x635, 0x625, 0x7d4, 
0x535, 0x53a, 0x4c9, 0x655, 0xccb, 0xefe, 0x655, 0xcb2, 0xefe, 
0xd35, 0xe66, 0xe56, 0xe45, 0xe57, 0xe57, 0xd45, 0xe56, 0xe56, 
0x677, 0x666, 0x666, 0x425, 0x6b4, 0x555, 0x5b2, 0x5c4, 0x625, 
0xa6e, 0xb6e, 0x46e, 0xd6e, 0xd7d, 0xe6e, 0xc6d, 0xd7d, 0xe6d, 
0xd54, 0xf54, 0xe55, 0xe55, 0xf45, 0xe45, 0xd66, 0xe56, 0xd55, 
0xded, 0xffe, 0xce3, 0x4dd, 0x5d3, 0x555, 0x655, 0x666, 0x566, 
0xa64, 0x175, 0xe5d, 0xd5b, 0xd61, 0xe4d, 0xe5d, 0xe4c, 0xc3c, 
0x54b, 0xd5d, 0xede, 0x575, 0xe5b, 0xeee, 0x676, 0xd55, 0xede, 
0x5a4, 0x64d, 0x4cd, 0x60c, 0x759, 0x6cd, 0x6dd, 0x7cc, 0x6dd, 
0xefe, 0xddd, 0x654, 0xffe, 0xbc5, 0x666, 0x9cd, 0x656, 0x666, 
0x414, 0xedd, 0xffe, 0x655, 0x444, 0xddd, 0x445, 0x656, 0x556, 
};

static uint64_t backbone_model0_relu1_threshold[16 * 4] =
{ // torch.Size([16, 7])
0xfe37fec0ff48ffd0, 0x009c01ad03460000, 0x0000000000000000, 0x0000000000000000,
0x007200b300f40135, 0x0196021802db0000, 0x0000000000000000, 0x0000000000000000,
0xfefdff38ff72ffad, 0x0005007b012b0000, 0x0000000000000000, 0x0000000000000000,
0xff72ffa4ffd70009, 0x005500b901500000, 0x0000000000000000, 0x0000000000000000,
0x05f609d90dbc119f, 0x17741f3a2ae40000, 0x0000000000000000, 0x0000000000000000,
0xfea9fef4ff3fff8a, 0xfffa009001710000, 0x0000000000000000, 0x0000000000000000,
0xff3bffe2008a0131, 0x022c037a05700000, 0x0000000000000000, 0x0000000000000000,
0x081c0a590c950ed2, 0x122c16a51d5b0000, 0x0000000000000000, 0x0000000000000000,
0xffe80037008500d4, 0x014a01e702d30000, 0x0000000000000000, 0x0000000000000000,
0xfee2ff48ffad0013, 0x00ab017602a60000, 0x0000000000000000, 0x0000000000000000,
0xff89ffd2001a0063, 0x00d00162023c0000, 0x0000000000000000, 0x0000000000000000,
0xff4affaa000a006a, 0x00f901b902d90000, 0x0000000000000000, 0x0000000000000000,
0xfee3ff2fff7bffc7, 0x003900d101b50000, 0x0000000000000000, 0x0000000000000000,
0x01d302e003ee04fb, 0x068f08aa0bd20000, 0x0000000000000000, 0x0000000000000000,
0xff6dffb2fff8003d, 0x00a5013002000000, 0x0000000000000000, 0x0000000000000000,
0xffe1002a007200bb, 0x012801b902940000, 0x0000000000000000, 0x0000000000000000,
};

static uint64_t backbone_model0_conv2_conv1_weight[16 * 1] =
{ // torch.Size([16, 1, 1, 16])
0xc9341c5bdc5d07cd, 
0xc6de3d4025f15bc4, 
0xc5dcdbde3e2cdafd, 
0x45db1519acd2fca0, 
0x674db7606bf5ee95, 
0xf74e46246bf9ed51, 
0x5563c69435c5df55, 
0x526d46e176e7bf4c, 
0xe73e5c9344ea7dc5, 
0xc2ebdddd3e6dd2fd, 
0xc4dc4956d65d9776, 
0xccbceafeae3bddfe, 
0x76d5a75c51c3fe5b, 
0xdc7ed50c6ea64e0e, 
0xee2eeebded1d75de, 
0xcd7ddae53f62db76, 
};

static uint64_t backbone_model0_conv2_quant1_threshold[16 * 4] =
{ // torch.Size([16, 14])
0xfe06fecaff4cffae, 0xfff00031007200b4, 0x00f50136017801da, 0x025c032000000000,
0xfcbffd94fe22fe8d, 0xfed4ff1bff62ffa9, 0xfff00037007e00e8, 0x0176024b00000000,
0xfc16fcd7fd58fdb8, 0xfdf9fe39fe7afeba, 0xfefbff3bff7bffdc, 0x005d011e00000000,
0xfcf5fd9efe0efe63, 0xfe9bfed4ff0cff44, 0xff7dffb5ffee0042, 0x00b3015c00000000,
0xfb54fccafdc3fe7e, 0xfefaff77fff30070, 0x00ec016901e502a0, 0x0399050f00000000,
0xfa65fbd6fcccfd85, 0xfe00fe7bfef6ff71, 0xffec006700e3019b, 0x0291040300000000,
0xfc92fd9ffe53feda, 0xff34ff8effe80041, 0x009b00f5014f01d6, 0x028a039700000000,
0xf9ccfbc2fd11fe0c, 0xfeb4ff5b000300aa, 0x015201f902a1039c, 0x04eb06e100000000,
0xfd44fe32fed2ff49, 0xff99ffe800380087, 0x00d70127017601ee, 0x028d037b00000000,
0xfc27fcf9fd85fdef, 0xfe35fe7bfec1ff07, 0xff4dff93ffd90042, 0x00ce01a000000000,
0xfe40ff28ffc30037, 0x008500d30120016e, 0x01bb0209025602cb, 0x0366044e00000000,
0xfa4dfb62fc1afca5, 0xfd01fd5efdbafe16, 0xfe73fecfff2bffb6, 0x006f018400000000,
0xfcfffdfefea8ff28, 0xff7dffd20027007c, 0x00d10126017b01fa, 0x02a403a300000000,
0xfad7fc40fd31fde5, 0xfe5efed6ff4effc7, 0x003f00b8013001e4, 0x02d5043e00000000,
0xfb53fc75fd36fdc7, 0xfe28fe88fee9ff4a, 0xffaa000b006b00fc, 0x01bd02df00000000,
0xf9a5fb47fc5efd2f, 0xfdbbfe46fed2ff5d, 0xffe90074010001d1, 0x02e8048a00000000,
};

static uint64_t backbone_model0_conv2_conv2_weight[16 * 1] =
{ // torch.Size([16, 1, 1, 9])
0x675675a45, 
0x56dd75ed5, 
0x677677665, 
0xd6577c9dc, 
0x67ccfede4, 
0x7ee7f0ce1, 
0xffd5dd544, 
0x765b24eed, 
0x6fc6de44d, 
0x7763c2666, 
0xee6efeffe, 
0x76b77bd3e, 
0xefe665555, 
0x766776ede, 
0x3bb775ddd, 
0xffeee5557, 
};

static uint64_t backbone_model0_conv2_relu2_threshold[16 * 4] =
{ // torch.Size([16, 7])
0x00cc0181023602eb, 0x03fb056507850000, 0x0000000000000000, 0x0000000000000000,
0xff74ffd1002d008a, 0x011601d002e70000, 0x0000000000000000, 0x0000000000000000,
0x007d019902b503d1, 0x057b07b30b070000, 0x0000000000000000, 0x0000000000000000,
0x002200a5012801ac, 0x0271037705010000, 0x0000000000000000, 0x0000000000000000,
0xffe1005d00d90156, 0x02100308047d0000, 0x0000000000000000, 0x0000000000000000,
0x00b3013801bd0242, 0x0309041305a20000, 0x0000000000000000, 0x0000000000000000,
0xfefdff91002600bb, 0x019a02c304820000, 0x0000000000000000, 0x0000000000000000,
0xff9fffe200250067, 0x00cc015102190000, 0x0000000000000000, 0x0000000000000000,
0x00920102017201e2, 0x028a036a04ba0000, 0x0000000000000000, 0x0000000000000000,
0xffe500a601660227, 0x034704c807090000, 0x0000000000000000, 0x0000000000000000,
0x009a01c602f1041d, 0x05df08360bb90000, 0x0000000000000000, 0x0000000000000000,
0xff31ffcf006e010c, 0x01fa033605120000, 0x0000000000000000, 0x0000000000000000,
0x0093014001ee029c, 0x03a104fd07070000, 0x0000000000000000, 0x0000000000000000,
0xffde00a201650228, 0x034e04d4071f0000, 0x0000000000000000, 0x0000000000000000,
0xfff4007900fe0183, 0x024b035604e50000, 0x0000000000000000, 0x0000000000000000,
0xfed7ff88003900ea, 0x01f3035505680000, 0x0000000000000000, 0x0000000000000000,
};

static uint64_t backbone_model1_conv1_conv1_weight[16 * 1] =
{ // torch.Size([16, 1, 1, 16])
0xebcc765ddaacb5ee, 
0xdedf5dd73f220df6, 
0xe745545eb56753fd, 
0x44dcdc34d575ba55, 
0x2495dcdc63967cc4, 
0xfd3d6dbefd4ce3f4, 
0xe56666d6dc1f357e, 
0xd0105674355446d3, 
0x1e3f56cf6ed566d5, 
0xd07441dd4e33b42e, 
0x0d3e4bcecb755443, 
0xc5dd5e56e7a6d5e7, 
0x3435314f94e342dd, 
0x5ddcfeebb5c3cfc5, 
0x74c45abfeb1ed565, 
0xdf5544ac6d3f64b5, 
};

static uint64_t backbone_model1_conv1_quant1_threshold[16 * 4] =
{ // torch.Size([16, 14])
0xfb8afca4fd60fded, 0xfe4afea8ff06ff64, 0xffc20020007e010a, 0x01c602e000000000,
0xf92afa9bfb91fc49, 0xfcc4fd3efdb9fe34, 0xfeafff2affa5005d, 0x015202c300000000,
0xfc24fd96fe8cff45, 0xffc0003c00b70132, 0x01ae022902a4035d, 0x045405c600000000,
0xfdf4feb5ff36ff97, 0xffd8001800590099, 0x00d9011a015a01bb, 0x023c02fd00000000,
0xfdc3febbff61ffdd, 0x002f008200d50127, 0x017a01cd021f029b, 0x0341043900000000,
0xf860f9edfaf6fbbd, 0xfc41fcc6fd4afdcf, 0xfe53fed8ff5c0023, 0x012c02b900000000,
0xfc14fd62fe40fee7, 0xff56ffc6003500a4, 0x0113018301f20299, 0x037704c500000000,
0xfe3bff1fffb70029, 0x007500c0010c0158, 0x01a401f0023c02ae, 0x0346042900000000,
0xfc45fd60fe1cfeaa, 0xff08ff67ffc50023, 0x008200e0013e01cc, 0x028803a300000000,
0xfd3bfe07fe8efef4, 0xff38ff7bffbf0003, 0x0047008a00ce0134, 0x01bb028700000000,
0xfe30feceff38ff87, 0xffbcfff10026005b, 0x009000c500fa0149, 0x01b3025200000000,
0xfbf8fd64fe57ff0d, 0xff860000007900f2, 0x016c01e5025e0314, 0x0407057300000000,
0xfd4dfe11fe94fef6, 0xff37ff78ffbafffb, 0x003c007d00bf0121, 0x01a3026700000000,
0xfa11fb51fc25fcc5, 0xfd2ffd99fe04fe6e, 0xfed9ff43ffad004d, 0x0121026000000000,
0xfd23fe1efec5ff42, 0xff96ffe9003d0091, 0x00e40138018c0209, 0x02b003ab00000000,
0xfc1afd2ffde7fe71, 0xfeceff2aff86ffe2, 0x003e009b00f70181, 0x0239034e00000000,
};

static uint64_t backbone_model1_conv1_conv2_weight[16 * 1] =
{ // torch.Size([16, 1, 1, 9])
0xfb5f564d2, 
0xc3b0f3b4b, 
0xcdc74d6cd, 
0xdfc3d9444, 
0xc4c67c091, 
0x66555befd, 
0x6543f4ceb, 
0x54d67b550, 
0xacad4337b, 
0xdcc15c37c, 
0x356c37d54, 
0xd73d41cdc, 
0xa9a67c651, 
0x5fd3db534, 
0x67267dddd, 
0xec2774d53, 
};

static uint64_t backbone_model1_conv1_relu2_threshold[16 * 4] =
{ // torch.Size([16, 7])
0xff31ffa300160089, 0x0135021a03720000, 0x0000000000000000, 0x0000000000000000,
0xff07ff55ffa2fff0, 0x006400ff01e70000, 0x0000000000000000, 0x0000000000000000,
0xff60ffba0014006e, 0x00f501a802b50000, 0x0000000000000000, 0x0000000000000000,
0xff4effac000b0069, 0x00f701b502d00000, 0x0000000000000000, 0x0000000000000000,
0xff45ff99ffed0041, 0x00bf016702630000, 0x0000000000000000, 0x0000000000000000,
0xffa5fff600470098, 0x011201b402a80000, 0x0000000000000000, 0x0000000000000000,
0xff43ff96ffe9003b, 0x00b7015d02550000, 0x0000000000000000, 0x0000000000000000,
0xffa5002500a60126, 0x01e702e804690000, 0x0000000000000000, 0x0000000000000000,
0xffa1ffec00380083, 0x00f5018c026f0000, 0x0000000000000000, 0x0000000000000000,
0xff3cff7fffc20005, 0x006900ef01b80000, 0x0000000000000000, 0x0000000000000000,
0xff21ff82ffe20042, 0x00d3019302b40000, 0x0000000000000000, 0x0000000000000000,
0xffa0ffd40009003e, 0x008d00f601940000, 0x0000000000000000, 0x0000000000000000,
0xfec6ff28ff89ffeb, 0x007d013f02640000, 0x0000000000000000, 0x0000000000000000,
0xff5effadfffc004a, 0x00c1015e024b0000, 0x0000000000000000, 0x0000000000000000,
0x004200d4016601f9, 0x02d403f905b10000, 0x0000000000000000, 0x0000000000000000,
0xff44ffc4004400c4, 0x0184028404040000, 0x0000000000000000, 0x0000000000000000,
};

static uint64_t backbone_model1_conv2_conv1_weight[64 * 1] =
{ // torch.Size([64, 1, 1, 16])
0x3d24dafdc64264dd, 
0xd54ca15e3c6545f3, 
0xdd5dfddc552e6ee9, 
0xf345035b3e6fe55b, 
0x66e6d5c6e6447e4c, 
0x5023c3c6d5372c6c, 
0xc4555bed76c4ec6d, 
0x6506de62ed5a6e7d, 
0xd53d6c5e0f6fbe44, 
0xdb46ed01545d76c5, 
0x4e7deeed64e30fe4, 
0xe1e6dddf4e4c664e, 
0xecbd5deed3b7d615, 
0x7b64e6e7d7fbdfea, 
0xe354d43e6db6c57c, 
0x556d9e6ec6c7cf76, 
0xd46bd5f466de5cf4, 
0xeee714deeddceb6e, 
0xdbfeb55c6e34b6bc, 
0x6d62ec62dea64567, 
0x45dded605efeafd6, 
0x3c69605c71bce506, 
0xcb4f536a5fefe1d5, 
0xc2d47d5bdcde0b51, 
0xcdcb4f2ec432c2bc, 
0xd4f565ccd442db6d, 
0xd47ddbedbc6e56cd, 
0x4464d66bef04566d, 
0xed5cf3de5666663d, 
0xfde6ede5d67d75fe, 
0xedf40ded356e6cc5, 
0xaa74c404613a4a6c, 
0xb2dfbbd49b2d4cc5, 
0x6ce6256756c457ae, 
0x3c796cdcc4412a55, 
0x756fe765e7665b47, 
0xdc5ecfdd5de3d7ce, 
0x39d554c5f55e3ed1, 
0x25d52d753d15b472, 
0xe54e56ede366b5d7, 
0x4d7ed57ae4d65c45, 
0xce63c46d7eee96ee, 
0x63b677743b7dfc34, 
0x49c0bb64cda4de57, 
0xff744eed72dd5e5e, 
0x4d5e3fdfb5d6cece, 
0xe3d6657cb5dfd663, 
0x5d5fcc9d325635db, 
0xe9fc40eedb44ec65, 
0xdccb7c6cbd5cdd49, 
0x9c6c556cdd5b444f, 
0x456d5eed55dbfce5, 
0x75562ed33e6edf3c, 
0x6bd706643ebe05c4, 
0x6dacadd9d6d7de4c, 
0x35dd5e4ecde5047e, 
0x45444d04016d4376, 
0x3c5bcddc7d2f5ce5, 
0x4b7f5d5b5d4f5cce, 
0x5565dc5d6f65b564, 
0xd244ddc3d5ba5b67, 
0xee7d76f4f7fefdcc, 
0x25c6a67555b6d44d, 
0xb357deda45a75253, 
};

static uint64_t backbone_model1_conv2_quant1_threshold[64 * 4] =
{ // torch.Size([64, 14])
0xfc52fd3ffddefe54, 0xfea4fef3ff42ff91, 0xffe0002f007e00f5, 0x0193028100000000,
0xfda6fe3cfea0feeb, 0xff1dff4fff81ffb3, 0xffe5001700490094, 0x00f8018e00000000,
0xfb15fc0efcb4fd31, 0xfd84fdd7fe2afe7d, 0xfed0ff23ff76fff2, 0x0099019200000000,
0xfbc5fcd4fd89fe10, 0xfe6bfec5ff20ff7a, 0xffd4002f00890110, 0x01c502d400000000,
0xfe13ff1bffca004e, 0x00a600fe015601ad, 0x0205025d02b50339, 0x03e804f000000000,
0xfe7fff50ffdc0044, 0x008a00cf0115015b, 0x01a001e6022b0294, 0x031f03f000000000,
0xfd2dfe2dfed8ff58, 0xffad0003005800ad, 0x0103015801ae022e, 0x02d803d900000000,
0xfce7fe26fefbff9b, 0x0006007000da0145, 0x01af021a02840324, 0x03f9053800000000,
0xfab9fbf3fcc4fd60, 0xfdc9fe31fe9aff02, 0xff6bffd3003b00d8, 0x01a902e200000000,
0xfe29ff07ff9b0009, 0x0053009d00e70131, 0x017b01c4020e027d, 0x031103ee00000000,
0xfa7afb95fc51fcde, 0xfd3cfd9afdf8fe57, 0xfeb5ff13ff71fffe, 0x00ba01d400000000,
0xfc28fd08fd9efe0e, 0xfe59fea4feefff3a, 0xff85ffd0001a008b, 0x0120020100000000,
0xfb44fc82fd56fdf5, 0xfe5ffec9ff33ff9e, 0x0008007200dc017b, 0x024f038d00000000,
0xfb47fca9fd94fe45, 0xfebbff31ffa7001d, 0x00930109017f0230, 0x031c047e00000000,
0xfdc9fea9ff3effae, 0xfff90044008e00d9, 0x0124016e01b90229, 0x02be039e00000000,
0xfd24fe6eff49ffee, 0x005c00c9013701a5, 0x0213028102ee0393, 0x046e05b800000000,
0xfa6cfbaffc86fd28, 0xfd94fe00fe6bfed7, 0xff43ffaf001a00bc, 0x019302d700000000,
0xfb8ffca1fd57fddf, 0xfe3afe95fef0ff4b, 0xffa60001005c00e5, 0x019b02ac00000000,
0xfd01fdabfe1cfe71, 0xfeaafee2ff1bff53, 0xff8cffc5fffd0052, 0x00c3016d00000000,
0xfda1fecbff920027, 0x008a00ee015101b4, 0x0218027b02df0374, 0x043a056400000000,
0xfa8afba0fc5afce6, 0xfd42fd9ffdfcfe59, 0xfeb6ff13ff70fffb, 0x00b501cc00000000,
0xfe4fff22ffae0017, 0x005d00a400ea0130, 0x017601bc0203026c, 0x02f803cb00000000,
0xfa98fba7fc5bfce3, 0xfd3dfd97fdf2fe4c, 0xfea6ff00ff5affe2, 0x009601a500000000,
0xfd55fe35fecaff3a, 0xff84ffcf001a0064, 0x00af00f9014401b4, 0x0249032900000000,
0xfc54fd1afd9dfe00, 0xfe42fe84fec6ff07, 0xff49ff8bffcd0030, 0x00b3017900000000,
0xfccafdc2fe68fee4, 0xff37ff8affdc002f, 0x008200d5012801a4, 0x0249034200000000,
0xfc91fd68fdf7fe63, 0xfeaafef2ff39ff81, 0xffc90010005800c3, 0x0153022900000000,
0xfcf7fe2afef7ff90, 0xfff7005d00c30129, 0x019001f6025c02f6, 0x03c204f500000000,
0xfc2efd50fe11fea2, 0xff03ff63ffc40025, 0x008500e6014701d8, 0x029903bb00000000,
0xf961fb18fc3dfd18, 0xfdabfe3dfed0ff62, 0xfff40087011901f5, 0x031a04d100000000,
0xfb6efc84fd3dfdc8, 0xfe25fe82fedeff3b, 0xff98fff5005100dc, 0x019602ac00000000,
0xfd61fea6ff7e0021, 0x008d00f9016501d2, 0x023e02aa031603b9, 0x049105d600000000,
0xfc30fce3fd5afdb3, 0xfdeffe2afe66fea1, 0xfeddff18ff54ffad, 0x002400d700000000,
0xfebfffce00820109, 0x016401be02180272, 0x02cc032703810408, 0x04bd05cb00000000,
0xfe60ff3effd20041, 0x008b00d5011f0169, 0x01b301fd024702b6, 0x034a042900000000,
0xfd52fee7fff400be, 0x014501cb025202d9, 0x036003e6046d0537, 0x064407d900000000,
0xfb20fc0efcacfd23, 0xfd73fdc2fe11fe60, 0xfeaffeffff4effc5, 0x0063015100000000,
0xfbd5fceffdabfe38, 0xfe96fef4ff52ffb0, 0x000e006c00ca0157, 0x0213032d00000000,
0xfe36ff50000d009a, 0x00f8015701b50213, 0x027102d0032e03bb, 0x0478059300000000,
0xfc11fd49fe1afeb6, 0xff1eff86ffee0056, 0x00be0126018e022a, 0x02fa043200000000,
0xfd40fe76ff45ffe0, 0x004800af0117017e, 0x01e6024d02b50350, 0x041f055600000000,
0xfb2afc7efd61fe0b, 0xfe7dfeeeff60ffd1, 0x004200b4012501d0, 0x02b2040700000000,
0xfe21ff7500580102, 0x017401e5025602c8, 0x033903ab041c04c6, 0x05a906fd00000000,
0xfdeffeccff5fffcd, 0x0016006000a900f3, 0x013c018601cf023d, 0x02d003ad00000000,
0xfa3ffb9efc88fd38, 0xfdadfe22fe98ff0d, 0xff82fff7006c011c, 0x0206036600000000,
0xfab2fbaffc58fcd7, 0xfd2bfd80fdd4fe28, 0xfe7dfed1ff25ffa4, 0x004d014a00000000,
0xfdd0fedeff910018, 0x007100cb0125017f, 0x01d80232028c0312, 0x03c604d300000000,
0xfc60fd3afdccfe39, 0xfe82fecbff13ff5c, 0xffa5ffee003600a4, 0x0135020f00000000,
0xfa10fb7bfc6efd23, 0xfd9dfe16fe8fff08, 0xff81fffb00740129, 0x021c038700000000,
0xfdabfe74fef9ff5e, 0xffa1ffe300260069, 0x00ac00ef01320196, 0x021c02e500000000,
0xfd56fe36feccff3c, 0xff86ffd1001c0066, 0x00b100fc014601b6, 0x024c032c00000000,
0xfb9cfc82fd1bfd8e, 0xfddbfe28fe75fec1, 0xff0eff5bffa7001b, 0x00b4019a00000000,
0xfbf1fcfffdb2fe39, 0xfe92feecff46ffa0, 0xfff9005300ad0134, 0x01e702f400000000,
0xfdfffeffffa90029, 0x007f00d40129017f, 0x01d40229027f02fe, 0x03a904a900000000,
0xfd16fdfafe91ff03, 0xff4fff9bffe70033, 0x007f00ca01160188, 0x0220030300000000,
0xfd1bfdeafe74fedb, 0xff20ff65ffaaffef, 0x0034007900be0126, 0x01b0027f00000000,
0xff19ffd7005600b5, 0x00f40134017301b2, 0x01f20231027002cf, 0x034e040c00000000,
0xfb99fc93fd3afdb7, 0xfe0afe5efeb1ff04, 0xff58ffabfffe007c, 0x0122021c00000000,
0xfabafbf8fcccfd6b, 0xfdd5fe3ffea9ff13, 0xff7dffe7005100f0, 0x01c4030200000000,
0xfcc4fe1dff03ffaf, 0x002200950108017b, 0x01ee026102d40381, 0x046705c000000000,
0xfeb8ff52ffba0007, 0x003b006f00a200d6, 0x0109013d017101be, 0x022602c100000000,
0xf998fb1afc1bfcdc, 0xfd5dfddefe5ffedf, 0xff60ffe100610122, 0x022403a600000000,
0xff0bfff1008b00fe, 0x014a019701e40230, 0x027d02ca0317038a, 0x0423050900000000,
0xfe75ff5dfff8006d, 0x00ba0108015501a3, 0x01f0023e028c0300, 0x039b048400000000,
};

static uint64_t backbone_model1_conv2_conv2_weight[64 * 1] =
{ // torch.Size([64, 1, 1, 9])
0xcdb074c56, 
0x673ff455b, 
0xccdd474b4, 
0xd76b4d143, 
0xf95d76666, 
0x4f94abb53, 
0xa76d66574, 
0xc45f5be46, 
0x466f47ed6, 
0xcd365c474, 
0x5fded7f66, 
0x765dc5ded, 
0x4de2fe5cb, 
0xd65feedff, 
0x66bc6dffe, 
0x69f44456d, 
0x76277deab, 
0x3b3d243cf, 
0x0fc766363, 
0x6ef6af56e, 
0xeeefd5b76, 
0x6564ddefc, 
0xcedefd445, 
0x1ee664579, 
0xed4f6b2a4, 
0x25d76f7dd, 
0x4455fe103, 
0x6df6fc4e2, 
0xd53555cfd, 
0x3dcce54f2, 
0x675c65dec, 
0x05d47bc65, 
0xffdddd455, 
0xeb5fc6ed5, 
0x567ee4eec, 
0xfe5fdb6cc, 
0x6df0fe3ee, 
0xcf3dfde4c, 
0xd5dfdc5cb, 
0xc55d55fed, 
0xf4efdcbde, 
0x4dd7de62d, 
0xb55fe3cda, 
0xbd46e4bfe, 
0xeeeacd576, 
0xfc137e6ed, 
0xfffd65d3c, 
0x765ff4ece, 
0xee4eb6c76, 
0xeecdfd4be, 
0x6635df4dd, 
0x6c17e46d1, 
0x5ee7533db, 
0xd65e6e67b, 
0x5d34fcc43, 
0x4fc65ed65, 
0x569fdd5de, 
0x0eedd3b67, 
0x666c53fe4, 
0xcf5dd6066, 
0x366dd6cf5, 
0xdb53c4efd, 
0xe66fb6ded, 
0xfeadd35d5, 
};

static uint64_t backbone_model1_conv2_relu2_threshold[64 * 4] =
{ // torch.Size([64, 7])
0xffe0002b007700c3, 0x013501cc02b00000, 0x0000000000000000, 0x0000000000000000,
0x004b00df01740208, 0x02e7041005ce0000, 0x0000000000000000, 0x0000000000000000,
0xffc1000200430084, 0x00e60167022a0000, 0x0000000000000000, 0x0000000000000000,
0xffef0035007b00c2, 0x012b01b8028b0000, 0x0000000000000000, 0x0000000000000000,
0x002900c1015801f0, 0x02d4040405cb0000, 0x0000000000000000, 0x0000000000000000,
0xffd2000100300060, 0x00a6010501930000, 0x0000000000000000, 0x0000000000000000,
0x008c018002740369, 0x04d706c0099d0000, 0x0000000000000000, 0x0000000000000000,
0x00120054009700d9, 0x013c01c102880000, 0x0000000000000000, 0x0000000000000000,
0x0015007500d60136, 0x01c7028803aa0000, 0x0000000000000000, 0x0000000000000000,
0x0014007300d20131, 0x01c0027f039c0000, 0x0000000000000000, 0x0000000000000000,
0x006600cf013801a1, 0x023e0311044c0000, 0x0000000000000000, 0x0000000000000000,
0x001d008600ee0157, 0x01f302c403fe0000, 0x0000000000000000, 0x0000000000000000,
0x0026009200fe016a, 0x020c02e404270000, 0x0000000000000000, 0x0000000000000000,
0x00a7017702470316, 0x044e05ed085c0000, 0x0000000000000000, 0x0000000000000000,
0x001e00920106017a, 0x02280311046d0000, 0x0000000000000000, 0x0000000000000000,
0xfffe006600cf0137, 0x01d402a503df0000, 0x0000000000000000, 0x0000000000000000,
0x003300cc016501fd, 0x02e3041505e00000, 0x0000000000000000, 0x0000000000000000,
0x0039008c00df0132, 0x01ae0254034d0000, 0x0000000000000000, 0x0000000000000000,
0x00170091010b0185, 0x023c0330049e0000, 0x0000000000000000, 0x0000000000000000,
0x000c00860100017b, 0x0232032704960000, 0x0000000000000000, 0x0000000000000000,
0x0010008600fc0171, 0x0222030d046e0000, 0x0000000000000000, 0x0000000000000000,
0x002c007f00d10123, 0x019f0244033b0000, 0x0000000000000000, 0x0000000000000000,
0x005a00ca013b01ab, 0x0254033504870000, 0x0000000000000000, 0x0000000000000000,
0xfff0005400b8011b, 0x01b1027803a30000, 0x0000000000000000, 0x0000000000000000,
0xffe10027006d00b3, 0x011c01a8027a0000, 0x0000000000000000, 0x0000000000000000,
0x004d00b101150179, 0x020f02d804040000, 0x0000000000000000, 0x0000000000000000,
0x0025006900ae00f2, 0x015901e202af0000, 0x0000000000000000, 0x0000000000000000,
0x004100b7012d01a3, 0x0254033f04a10000, 0x0000000000000000, 0x0000000000000000,
0xfff00043009700eb, 0x01680210030b0000, 0x0000000000000000, 0x0000000000000000,
0x005300a700fb014f, 0x01cd027603720000, 0x0000000000000000, 0x0000000000000000,
0x001c007d00de013e, 0x01d0029103b30000, 0x0000000000000000, 0x0000000000000000,
0xffdb004400ae0117, 0x01b5028703c30000, 0x0000000000000000, 0x0000000000000000,
0x006500ec017401fb, 0x02c603d4056a0000, 0x0000000000000000, 0x0000000000000000,
0x005200d6015901dc, 0x02a103a705310000, 0x0000000000000000, 0x0000000000000000,
0x003b009000e50139, 0x01b9026203610000, 0x0000000000000000, 0x0000000000000000,
0x005900e2016b01f3, 0x02c003d1056b0000, 0x0000000000000000, 0x0000000000000000,
0x004100e6018b0230, 0x0327047106600000, 0x0000000000000000, 0x0000000000000000,
0x00cd0183023902ef, 0x0400056d078f0000, 0x0000000000000000, 0x0000000000000000,
0xffcb0016006100ad, 0x011d01b402950000, 0x0000000000000000, 0x0000000000000000,
0x0040009800f00148, 0x01cc027d03850000, 0x0000000000000000, 0x0000000000000000,
0x00c1019302660338, 0x0474061908910000, 0x0000000000000000, 0x0000000000000000,
0x00260060009a00d4, 0x012b019f024c0000, 0x0000000000000000, 0x0000000000000000,
0x0010006200b40106, 0x01810225031b0000, 0x0000000000000000, 0x0000000000000000,
0x0027008e00f4015a, 0x01f302bf03f10000, 0x0000000000000000, 0x0000000000000000,
0x001e007800d1012b, 0x01b1026403710000, 0x0000000000000000, 0x0000000000000000,
0x0010007700de0146, 0x01e102af03e50000, 0x0000000000000000, 0x0000000000000000,
0xfffb008d011e01b0, 0x028a03ad05610000, 0x0000000000000000, 0x0000000000000000,
0x00850109018d0211, 0x02d703df056b0000, 0x0000000000000000, 0x0000000000000000,
0x0001003a007300ab, 0x01000171021b0000, 0x0000000000000000, 0x0000000000000000,
0x001a009701150192, 0x024f034a04c30000, 0x0000000000000000, 0x0000000000000000,
0x003a008300cd0117, 0x0186021a02f80000, 0x0000000000000000, 0x0000000000000000,
0x0002006000bd011b, 0x01a80263037c0000, 0x0000000000000000, 0x0000000000000000,
0xfff50042008f00dc, 0x014f01e902d00000, 0x0000000000000000, 0x0000000000000000,
0x000f006a00c4011f, 0x01a6025c036b0000, 0x0000000000000000, 0x0000000000000000,
0x000e0045007d00b4, 0x01070176021c0000, 0x0000000000000000, 0x0000000000000000,
0x000d006100b6010a, 0x01880230032d0000, 0x0000000000000000, 0x0000000000000000,
0xffe8005500c30131, 0x01d602b103fa0000, 0x0000000000000000, 0x0000000000000000,
0xfffb0041008600cc, 0x013501c102930000, 0x0000000000000000, 0x0000000000000000,
0x000d006300b9010f, 0x0190023c033f0000, 0x0000000000000000, 0x0000000000000000,
0x002a006a00ab00eb, 0x014c01cd028e0000, 0x0000000000000000, 0x0000000000000000,
0x0013006700bb010e, 0x018c0233032e0000, 0x0000000000000000, 0x0000000000000000,
0x004800bf013601ae, 0x0261034f04b50000, 0x0000000000000000, 0x0000000000000000,
0x0018007100ca0124, 0x01a9025c03670000, 0x0000000000000000, 0x0000000000000000,
0x0041009900f2014a, 0x01ce027f03870000, 0x0000000000000000, 0x0000000000000000,
};

static uint64_t backbone_model2_conv1_conv1_weight[64 * 1*4] =
{ // torch.Size([64, 1, 1, 64])
0xf554ddedd46653de,0x4bcd45616b2c6b56,0x7dd5bdde4d4edc4a,0xdc56145a4546635c, 
0x55cc6eed34effb46,0xf435c65cd5d6ed47,0x55a6b565b64d5676,0x6d67dc4dce56befd, 
0xfd5cd6edd55d32ef,0xe3ef6ed34e5c5dde,0x64eede5fddcd6b6c,0x53d4cccdfd7536bd, 
0x51e47fddc1b5c4be,0x4cc5d4d6e4e4df3e,0xa7ad6d656df06526,0xbebad524643ceccd, 
0x525b0c26dd5cb55b,0xec0d43bde7d6e4d6,0xceeea475e534da55,0x64c5c5744b3c7ed5, 
0x5edb3debec2d5dc4,0xde5d9e2cd96ddece,0x5d5eced5fe4b64ee,0x5eeeddde546d6eec, 
0xdedeeddddddd3cd5,0x45a45eb34e4ebe5e,0x7c55cde55d3e6c5d,0x6d4dcced25ccdcd6, 
0x2f4d6b4ed5415c4c,0x536bbed5ae6d44ee,0x410e5417eed5c5d2,0xe3bdd4db65eee53e, 
0xed346d632e44ed5c,0x564656cb6a6b4526,0x35e6e4bf46d6d5c9,0xcd4ec94ee7dded64, 
0xcdd5513d5dd3f14c,0xb56569ca5fd93c46,0xedd6259555c1cd3b,0xbdab32ddd1c9c536, 
0xce443666d15c55be,0x4555dd52efbcbdec,0xeeddd365dd66edcf,0xd4b647406dd3d6cd, 
0x6b3a4a374dfeaee4,0xf665bc3cc66de26e,0x4676cee55bfe4c67,0xee4edd07555ffce3, 
0xe4e4e55361f4066e,0x5be6e4459b7bcfef,0x57356ace60da5c53,0x665e76e6556f556c, 
0xcd9e2cb55b55ebb3,0xcb645df643544a26,0x52d4adb56c4bbcdd,0xc25dccbee5d35d34, 
0xad55b5eeb6025ded,0xededdeabbe4c445c,0x5b5feedbedde150c,0x234b2dd4e54ccedf, 
0xee555ecdc227e4d6,0x66335ddd6eb6a5e6,0x3556c45c576cdd4e,0x5cbd2ce4fc26de65, 
0x5c59fde96dc3cdb6,0xd5da245c5dcca491,0x3cee14d0e4545ece,0x55b64b559e6667b3, 
0x3ced5d53c6bf31a4,0xcd62edc5d36dcde5,0x5c144b0653a5cbb4,0xfb5edcc465cdedd0, 
0xe3e4eb6c2dcee565,0x2701e35d453ed7e4,0xccedbc52bc66ccdc,0xd6eccadbcdd4c643, 
0x661bdce47cffbd6c,0xd7e6c56025ddc66f,0x5d9e5f3cccee6dc5,0xdfe3fd516d6ec6e5, 
0xe6ebef0bead5cc7b,0x56d667e356651e64,0x766ccdfed7ee7ec6,0x5deede55e74eac77, 
0x5dccddb6ccd730db,0x530b6eeced6bdcc5,0xd36765c57545d5ee,0x645fcadeb5edd066, 
0x54ed7fcee5ce5bdc,0xcbc4e224e4e5ee5d,0x65dd6d562d553bb5,0x5edde5ce6a445cee, 
0xbcac5bde45155ce6,0xcc3eef55ca45556a,0x55626c664ee33565,0xd3cc55e0660c45de, 
0x54b544e6ad654ddf,0x4bd44b3c5cd4566d,0x5560d4be5e4eb563,0xc536556d9d5505dd, 
0x462eb5dc535c44d5,0xbe2d94d345e5cd7d,0x46653cc495c45dbc,0x4c4431c4dd6c4451, 
0xacdd3dc6552eeccd,0xae355554df6bcfed,0x3e4c25543bde32c4,0x4d6ce753c6ccdd54, 
0xdead56defd4d2416,0xec4d5eecc5a42b55,0x6eacad45e461ce35,0x9ee4dbddddc4bbed, 
0xdd7d39decf0dfdec,0xcd4eed3c4ede53f6,0x64edd4c2e40ded6d,0xe5d64b5edde55e5d, 
0x53c5654b475d54d6,0x1264b35ce5f54634,0xe5d24b66c6553605,0x15dd55466e7465f5, 
0x5645dd26ce21516c,0xe19cd65b969dd3ce,0x64ac454d34db4643,0x56442a652dda6fa5, 
0x6c46dd7d5664d6ed,0x4d39e6746fe6d666,0xe33ce54d31c5e749,0x5d14d45c3e355c1f, 
0x46b44554c93524d5,0x4e1fdd4ab61445c5,0xe4a6255b6646b2c4,0xc55553dca3356c4c, 
0xdc5d6b5de693cc6f,0x4c20c4f1e5cbc647,0x5cdddc0db554dc54,0x34445b6ccd550d5e, 
0xfc5d25fbe76e544c,0x5e5bd4b3bb6cbdce,0x6eaeded5eece7cd4,0x6e35ed366c2dde4e, 
0x7d6c66a6665a553c,0x6e64659e4bd9c6eb,0xe7d545696646c7cd,0x566e6763e3657976, 
0xebdbe7ed59e54dce,0xd6eed5e4e64c5d64,0x6c31eede3acd3fb5,0x665d6db5c55d6c54, 
0xedc5db4dddceec67,0xd6754d5d6645d3e6,0x4df6d2b6d6350e44,0xdbebdcbd55fceae4, 
0xcb3b66d6ddcc5054,0x35666ce6c65e4dee,0x6ad56ce4033e6d67,0xd5ddcc3a77edee45, 
0x13c40dbeedb4cd5e,0xd5eac5bdb4e4da6d,0x6d29e4f5d16dc664,0x456752ce50e66e4e, 
0x665444ede77e7542,0x6cf3b5634ec1644c,0xa0dfed3ee125d5ee,0x5e5655576e7675ae, 
0xd4dcd1d4eb7e4dd0,0xd654c2145c313c9c,0x4d664bcd0eddc9e4,0xdbeca4bd63f4e6f5, 
0xe6e5ddbaec6765ee,0x3d6e62b66c666f6c,0x6a65cdcd2ece5d5c,0xa6d54cedc6daca6b, 
0xb23d3dd5d6c03bbd,0xed555d55cb655f6c,0x5d9e0cc5dbed21b5,0x4d65c49e46349beb, 
0x3deecfebd3eb6dcf,0xdfa3bef5c6555e1e,0x454cdf3dcb0d5ade,0x6d4f4efdc57e6eee, 
0xed557372556df4cd,0x5366d5656ed5c5e5,0xf5d5e55dd5e3e65e,0x3dd34665eee2de5c, 
0xb6e0ecb6df5d6a6e,0xc3d75544664d0c5f,0x5efce5cecedeec56,0xbbdaec5eeeeeabd7, 
0xd35acdced6d15bcd,0xc0e3c5d9de5d1225,0x64ccadddc5bc34cd,0x566e3dddc5e0fb50, 
0xfe4ff4d64575306e,0x76e5d6e536e5a4e6,0x6b56ebef674d64ce,0x746abd6dee656d56, 
0xd5524d56de5c5554,0xe66c755ee673ecec,0x5e5c5555f553eca6,0xe4e3d45e34f5e4d6, 
0x59e0dcdaef5d5ded,0xea6eed43436e24a9,0x5e6c2cdeeedc4eda,0x4eee3de051bd6bed, 
0x26ecfeeecdcee5cf,0x4feee656b4f0dee1,0xf2ef4e3eae3d54e4,0xf5e73ec66c654dfd, 
0xd59e56d66cf5ee6e,0x562b66efe65ce556,0xbdedeb6ed55ceb56,0xbb1dae63edaddd6c, 
0xd5eeccdc5d135d4d,0x75dbc2d6545c6d5e,0x4cb54cbe6d3c5cd4,0x4d5ced3ed5d3de55, 
0x7ccd54e9546e65d4,0x5ccb6d5e63fac4ac,0xbd1a6b464ee35215,0xeee6ee5c5ddcedfd, 
0x44dec4d75e5d0c65,0x5645e53b473dad5c,0x9e9635cc45d3cbe6,0xc3cbd4d144fd1247, 
0xbc5254cc261dd5dd,0x5c5b54cb4be545b0,0xbdfe4d1d4cbc0e33,0xdedac255d4695cdb, 
0xc4dc9acd555ec3b1,0x4b1d45cc2afc623a,0xd5fd1b35bcbd6edb,0xccd6dd46d97454d3, 
0xeec2ddd21ede4c4e,0x55cdcd444c6edede,0x6465add3dde0b324,0xd5d4cdee55fee55d, 
0x6c262c7ca56c652e,0xad35de6c4d59566d,0xdb65a3ae5c97e45d,0xd4d434637d34462b, 
0xec646f3eb5dddede,0xee436ca55e7e7d06,0x64ddcffcbbdd546e,0x4d605e3a666d5ced, 
0xce5b51dd357beeed,0xedeace4b3fe6dcf5,0xeabe4ba6dddd544c,0xed3646d23d3496dd, 
0xe5b5fd55fdd65ded,0x26459d227d7e2a63,0x6e56eacf52ddcdde,0x65ee5dfe36edce6d, 
0xeddc52a6c4bc0eee,0xac5dbc3dceed55bd,0xbdf4e9beecdcc6dd,0xacdd59bbcc3d546c, 
};

static uint64_t backbone_model2_conv1_quant1_threshold[64 * 4] =
{ // torch.Size([64, 14])
0xfa47fc2ffd74fe68, 0xff0bffad005000f3, 0x0195023802da03ce, 0x051306fb00000000,
0xfb16fccefdf3fecf, 0xff62fff50087011a, 0x01ad024002d203ae, 0x04d4068c00000000,
0xf57df813f9ccfb17, 0xfbf3fcd0fdacfe88, 0xff650041011e0269, 0x042206b700000000,
0xf8d0fad3fc2bfd2c, 0xfdd8fe84ff2fffdb, 0x0087013201de02df, 0x0437063a00000000,
0xfb5afd0afe2aff03, 0xff93002300b30143, 0x01d3026302f303cb, 0x04eb069c00000000,
0xf6e7f8c2f9fffaed, 0xfb8bfc2afcc8fd67, 0xfe05fea4ff420030, 0x016d034900000000,
0xf987fae6fbd0fc80, 0xfcf5fd6afde0fe55, 0xfecaff3fffb40064, 0x014e02ad00000000,
0xf93bfad9fbecfcbb, 0xfd45fdcffe59fee3, 0xff6cfff60080014f, 0x0263040000000000,
0xf977fb71fcc1fdbe, 0xfe66ff0fffb70060, 0x010801b102590356, 0x04a606a000000000,
0xfb70fcb8fd92fe35, 0xfea2ff0fff7cffea, 0x005700c4013101d4, 0x02ae03f600000000,
0xf921faeefc22fd09, 0xfda3fe3dfed6ff70, 0x000a00a4013e0225, 0x0358052600000000,
0xf762f9bbfb4cfc79, 0xfd42fe0afed3ff9b, 0x0064012d01f50322, 0x04b3070d00000000,
0xf9a8fbd9fd4ffe68, 0xff23ffde00990154, 0x020f02cb0386049e, 0x0615084600000000,
0xfb9bfcdefdb5fe57, 0xfec2ff2eff9a0005, 0x007100dd014901ea, 0x02c2040500000000,
0xf70bf8dcfa12fafb, 0xfb96fc31fcccfd67, 0xfe02fe9dff380021, 0x0157032800000000,
0xf89dfae9fc71fd97, 0xfe5bff1effe200a6, 0x016a022e02f20418, 0x059f07eb00000000,
0xfbe2fd51fe46fefd, 0xff78fff2006c00e6, 0x016101db0255030d, 0x0401057000000000,
0xfa75fbcffcb6fd63, 0xfdd6fe49febcff30, 0xffa3001600890136, 0x021d037700000000,
0xf9cffb91fcbcfd9d, 0xfe33fec9ff5ffff5, 0x008b012101b70298, 0x03c4058600000000,
0xf779f9b7fb36fc55, 0xfd14fdd4fe93ff52, 0x001200d1019002af, 0x042e066c00000000,
0xf855faeefca9fdf5, 0xfed3ffb0008e016b, 0x0249032604040550, 0x070b09a400000000,
0xf997fb8efcdefdda, 0xfe82ff2affd20079, 0x012101c90271036d, 0x04bd06b400000000,
0xf9b4fb40fc49fd0f, 0xfd93fe17fe9cff20, 0xffa4002800ac0173, 0x027b040800000000,
0xfad6fc90fdb6fe93, 0xff26ffba004d00e0, 0x01730207029a0377, 0x049d065700000000,
0xfbc2fd35fe2cfee6, 0xff62ffde005900d5, 0x015101cd02480302, 0x03f9056d00000000,
0xfd24fe4eff15ffaa, 0x000d007000d40137, 0x019a01fe026102f6, 0x03bd04e700000000,
0xfad1fc05fcd1fd6b, 0xfdd2fe38fe9fff05, 0xff6bffd2003800d2, 0x019f02d200000000,
0xf949fac1fbbcfc78, 0xfcf5fd73fdf0fe6d, 0xfeebff68ffe500a1, 0x019c031400000000,
0xf618f831f997faa4, 0xfb57fc0afcbdfd70, 0xfe23fed6ff890096, 0x01fc041500000000,
0xfda7ff370042010a, 0x01900215029a0320, 0x03a5042b04b00578, 0x0683081400000000,
0xfd0efe2cfeeaff79, 0xffd80037009700f6, 0x015501b4021302a2, 0x0360047e00000000,
0xf93afb5ffccdfde0, 0xfe97ff4e000500bc, 0x0173022a02e103f3, 0x0561078600000000,
0xfd60fe9bff6d000b, 0x007300dc014501ae, 0x0217028002e90387, 0x0459059400000000,
0xfac6fc4cfd50fe14, 0xfe96ff18ff9a001d, 0x009f012101a30266, 0x036b04f100000000,
0xf75ff96cfacafbd1, 0xfc80fd2ffddefe8d, 0xff3cffeb009a01a1, 0x02ff050c00000000,
0xfd24ff4500b001c1, 0x0276032c03e10497, 0x054d060206b807c8, 0x09330b5400000000,
0xf8b8fab9fc0ffd0f, 0xfdbafe65ff10ffbb, 0x0066011101bb02bc, 0x0412061200000000,
0xf8f2fae3fc2efd27, 0xfdccfe72ff17ffbd, 0x0062010801ad02a6, 0x03f105e200000000,
0xfa68fc42fd7ffe6c, 0xff0affa8004600e5, 0x0183022102bf03ad, 0x04e906c300000000,
0xfa1dfba5fcaafd6f, 0xfdf1fe74fef7ff7a, 0xfffc007f010201c6, 0x02cb045400000000,
0xf8cffb59fd0bfe50, 0xff29000200da01b3, 0x028c0365043e0583, 0x073509bf00000000,
0xfa81fbd3fcb4fd5d, 0xfdcefe3ffeafff20, 0xff9000010072011b, 0x01fc034e00000000,
0xf9eafbddfd2afe24, 0xfecbff71001800be, 0x0165020b02b203ac, 0x04f906ec00000000,
0xfacffc31fd1efdcf, 0xfe45febbff31ffa7, 0x001e0094010a01bb, 0x02a8040a00000000,
0xf3c4f683f859f9b9, 0xfaa3fb8efc78fd63, 0xfe4eff3800230183, 0x0358061800000000,
0xf87ffaa9fc1afd2f, 0xfde8fea1ff590012, 0x00ca0183023c0351, 0x04c206ec00000000,
0xf6edf937fabefbe3, 0xfca6fd6afe2dfef1, 0xffb40077013b0260, 0x03e6063100000000,
0xfaeefbfefcb4fd3c, 0xfd97fdf2fe4cfea7, 0xff02ff5dffb80040, 0x00f5020600000000,
0xf931fba8fd4dfe88, 0xff5a002d00ff01d1, 0x02a4037604480583, 0x0728099f00000000,
0xf87bfab9fc37fd56, 0xfe15fed5ff940053, 0x011201d1029103b0, 0x052e076c00000000,
0xf87ff9f7faf1fbad, 0xfc2afca7fd24fda2, 0xfe1ffe9cff19ffd5, 0x00d0024700000000,
0xf35ef632f814f97e, 0xfa6ffb60fc52fd43, 0xfe34ff2600170181, 0x0363063700000000,
0xf982fb2ffc4dfd23, 0xfdb2fe41fed0ff5e, 0xffed007c010b01e1, 0x02ff04ac00000000,
0xf9defb7ffc95fd66, 0xfdf1fe7cff08ff93, 0x001e00a901340205, 0x031b04bc00000000,
0xf9d2fb6bfc7cfd48, 0xfdd1fe59fee2ff6a, 0xfff2007b010301d0, 0x02e1047a00000000,
0xfab0fc7ffdb3fe9a, 0xff35ffcf00690103, 0x019e023802d203b9, 0x04ee06bc00000000,
0xfb43fc7cfd4dfdea, 0xfe52febbff23ff8b, 0xfff4005c00c50161, 0x0232036b00000000,
0xfafafc8efd9cfe66, 0xfeecff73fffa0081, 0x0107018e021502df, 0x03ec058000000000,
0xf8bdfa1dfb08fbb8, 0xfc2dfca2fd17fd8d, 0xfe02fe77feedff9d, 0x008701e700000000,
0xfb4dfd1ffe55ff3e, 0xffd90074010f01aa, 0x024502e0037c0464, 0x059b076c00000000,
0xf7aaf9ecfb6cfc8d, 0xfd4efe0efeceff8f, 0x004f011001d002f1, 0x047206b300000000,
0xf79cf9affb11fc1a, 0xfccbfd7cfe2dfede, 0xff8f004000f101fa, 0x035c056f00000000,
0xf72bf964fadffbfb, 0xfcb9fd76fe33fef1, 0xffae006c01290246, 0x03c105f900000000,
0xfa36fb55fc15fca4, 0xfd04fd64fdc4fe23, 0xfe83fee3ff43ffd2, 0x009201b100000000,
};

static uint64_t backbone_model2_conv1_conv2_weight[64 * 1] =
{ // torch.Size([64, 1, 1, 9])
0x77c69c69c, 
0xdedddc676, 
0xc57c26e35, 
0x67975b5b1, 
0xd5ccf4551, 
0x65a765d05, 
0xf56e66e56, 
0x433ec7fee, 
0x65d653765, 
0xad46f56e2, 
0xf46d5556c, 
0x55c6ffdc5, 
0xedfb0c566, 
0xf65dd3dfd, 
0x575bbb0bb, 
0xf42e46046, 
0xdf0fc6466, 
0xdd5d7560e, 
0x66675d563, 
0xcea5c0dfd, 
0x66ddbffed, 
0xde3cfdde3, 
0x67f67f67f, 
0xdd6fe63b3, 
0x77e7ffcfe, 
0xc76ee65ef, 
0x56d41beef, 
0xf565fd7fe, 
0x7776660d9, 
0x656666766, 
0xc7de464e1, 
0xdfe2ed355, 
0x55e5eeffe, 
0x4ed6ee7ce, 
0x4ce6ed742, 
0x775452553, 
0xf53eff5ef, 
0xc7657bde9, 
0x6755ddeee, 
0xc66e45fd5, 
0xbe6f56e6b, 
0x554efe767, 
0xe64576774, 
0xffedeeeef, 
0x66e76daec, 
0xffadd3554, 
0x74ed75d25, 
0xc3c673dcb, 
0x6fc6d55d0, 
0xec59fecdf, 
0x765bcddd3, 
0x664760767, 
0xc26d57b47, 
0x577c65c5b, 
0xfee566676, 
0xded4e4674, 
0x7de73f45e, 
0xf57e46ec7, 
0xfefcde5de, 
0xd4e1efeee, 
0xecde66b77, 
0x55d64d6df, 
0x71d5bcacc, 
0x67d560676, 
};

static uint64_t backbone_model2_conv1_relu2_threshold[64 * 4] =
{ // torch.Size([64, 7])
0x00da0184022e02d8, 0x03d6052a07270000, 0x0000000000000000, 0x0000000000000000,
0x004d00c1013501a9, 0x02580340049d0000, 0x0000000000000000, 0x0000000000000000,
0x001d007500cd0125, 0x01a80258035f0000, 0x0000000000000000, 0x0000000000000000,
0x001600ac014201d7, 0x02b803e405a50000, 0x0000000000000000, 0x0000000000000000,
0x00050043008100bf, 0x011c019802520000, 0x0000000000000000, 0x0000000000000000,
0x004600bc013201a8, 0x0258034404a50000, 0x0000000000000000, 0x0000000000000000,
0x00820100017d01fb, 0x02b703b2052a0000, 0x0000000000000000, 0x0000000000000000,
0x007500e0014b01b7, 0x0257032e046f0000, 0x0000000000000000, 0x0000000000000000,
0x005700ed01820218, 0x02f9042505e60000, 0x0000000000000000, 0x0000000000000000,
0x006200c10120017e, 0x020c02c903e50000, 0x0000000000000000, 0x0000000000000000,
0x004c00ac010b016b, 0x01fa02ba03d90000, 0x0000000000000000, 0x0000000000000000,
0x003d00a101050169, 0x01ff02c803f40000, 0x0000000000000000, 0x0000000000000000,
0x004e00bd012c019b, 0x02420321046f0000, 0x0000000000000000, 0x0000000000000000,
0x0085011f01b90254, 0x033b0470063f0000, 0x0000000000000000, 0x0000000000000000,
0xffe70037008700d7, 0x014f01f002e00000, 0x0000000000000000, 0x0000000000000000,
0x0041008900d10119, 0x0185021502ee0000, 0x0000000000000000, 0x0000000000000000,
0x0084010301830203, 0x02c203c205410000, 0x0000000000000000, 0x0000000000000000,
0x0029008200db0134, 0x01b9026b03760000, 0x0000000000000000, 0x0000000000000000,
0x0097013401d1026f, 0x035b0495066d0000, 0x0000000000000000, 0x0000000000000000,
0x0011008e010b0189, 0x0245033f04b70000, 0x0000000000000000, 0x0000000000000000,
0x005a00e701730200, 0x02d203eb05900000, 0x0000000000000000, 0x0000000000000000,
0x003300af012c01a9, 0x0264035d04d30000, 0x0000000000000000, 0x0000000000000000,
0x0089013d01f002a4, 0x03b2051a07360000, 0x0000000000000000, 0x0000000000000000,
0x003a008c00de012f, 0x01aa024d03430000, 0x0000000000000000, 0x0000000000000000,
0x0080013901f102aa, 0x03bf0530075a0000, 0x0000000000000000, 0x0000000000000000,
0x007400ea016101d7, 0x0289037504d90000, 0x0000000000000000, 0x0000000000000000,
0x00d7014501b20220, 0x02c4039f04e70000, 0x0000000000000000, 0x0000000000000000,
0x004100bd013901b5, 0x026f036604da0000, 0x0000000000000000, 0x0000000000000000,
0x009a017c025e0340, 0x0493065608fc0000, 0x0000000000000000, 0x0000000000000000,
0x00fb01db02bc039d, 0x04ee06b009530000, 0x0000000000000000, 0x0000000000000000,
0x0024008000dd0139, 0x01c4027c03920000, 0x0000000000000000, 0x0000000000000000,
0x0089010c018e0210, 0x02d303d7055e0000, 0x0000000000000000, 0x0000000000000000,
0x0064011f01da0295, 0x03ad052407550000, 0x0000000000000000, 0x0000000000000000,
0x007400e6015701c9, 0x0273035604ab0000, 0x0000000000000000, 0x0000000000000000,
0x0013006c00c4011d, 0x01a20254035e0000, 0x0000000000000000, 0x0000000000000000,
0x00ce017f023102e2, 0x03ed055007650000, 0x0000000000000000, 0x0000000000000000,
0x008b0155022002ea, 0x041a05ae080d0000, 0x0000000000000000, 0x0000000000000000,
0x004600d4016101ef, 0x02c303df05870000, 0x0000000000000000, 0x0000000000000000,
0x007000e5015a01cf, 0x027f036904c90000, 0x0000000000000000, 0x0000000000000000,
0x002f009b01060172, 0x021302eb042e0000, 0x0000000000000000, 0x0000000000000000,
0x002c008d00ee014f, 0x01e102a403c80000, 0x0000000000000000, 0x0000000000000000,
0x00b80183024e0319, 0x044a05e108430000, 0x0000000000000000, 0x0000000000000000,
0x010401cc0295035e, 0x048b061c08760000, 0x0000000000000000, 0x0000000000000000,
0x0138027503b204ef, 0x06ca09440cfb0000, 0x0000000000000000, 0x0000000000000000,
0x004e00bd012c019b, 0x0241031f046c0000, 0x0000000000000000, 0x0000000000000000,
0x004500c1013c01b7, 0x0270036604d80000, 0x0000000000000000, 0x0000000000000000,
0x0023008900f00156, 0x01ef02bc03ef0000, 0x0000000000000000, 0x0000000000000000,
0x0034008d00e6013e, 0x01c30275037f0000, 0x0000000000000000, 0x0000000000000000,
0x002e007b00c80115, 0x0188022103080000, 0x0000000000000000, 0x0000000000000000,
0x005f00f5018b0221, 0x0301042d05ef0000, 0x0000000000000000, 0x0000000000000000,
0x0019006900b80107, 0x017d021c03090000, 0x0000000000000000, 0x0000000000000000,
0x007c018002840388, 0x050e07160a220000, 0x0000000000000000, 0x0000000000000000,
0x002400af013a01c5, 0x029603ac054d0000, 0x0000000000000000, 0x0000000000000000,
0x005800e701750203, 0x02d803f4059e0000, 0x0000000000000000, 0x0000000000000000,
0x003100c5015a01ee, 0x02cd03f605b40000, 0x0000000000000000, 0x0000000000000000,
0x0037009700f80159, 0x01eb02ad03d00000, 0x0000000000000000, 0x0000000000000000,
0x006000ca0134019f, 0x023e031304520000, 0x0000000000000000, 0x0000000000000000,
0x005100bb01260190, 0x022f030304410000, 0x0000000000000000, 0x0000000000000000,
0x00f301ae026a0325, 0x043f05b607e80000, 0x0000000000000000, 0x0000000000000000,
0x0015009601180199, 0x025c035f04e30000, 0x0000000000000000, 0x0000000000000000,
0xffda0071010901a0, 0x028403b305790000, 0x0000000000000000, 0x0000000000000000,
0x0030008000d00121, 0x0199023a032b0000, 0x0000000000000000, 0x0000000000000000,
0x004c008f00d10113, 0x017701fc02c30000, 0x0000000000000000, 0x0000000000000000,
0x006f012901e3029d, 0x03b5052907570000, 0x0000000000000000, 0x0000000000000000,
};

static uint64_t backbone_model2_conv2_conv1_weight[64 * 1*4] =
{ // torch.Size([64, 1, 1, 64])
0xadcd213bc15c3d33,0xf326c2db3c4443a5,0x4d44dd0ca34bc4c9,0xc54133330b4d4513, 
0x5e11c6e55dce95a4,0xc54635cb96e5b0ed,0xd35cdc67e4055e46,0x55b26693cec164cd, 
0xd54644eeec035ec5,0xc65d9dd336545d55,0x54ad555541d5ea64,0xcd53d466e5cdcedf, 
0xdfcddecead265bae,0x4665ed4c55a4eed4,0x55e2dedcd23dced2,0xccf6dae4eefdd4ec, 
0xa52c3cc3b35b3a50,0xccb33c1d9c3bcad5,0x42d53106a24b5d7e,0xd243fdc3b0404d34, 
0x6d6a6ab65cb9c443,0xc1c5bc003dcdad55,0x52b3ba2594143bb4,0x25ede44567246246, 
0x53e4d556e17e7ede,0xe5de24335be96efe,0xe56ebe0e6b6d50de,0xe3cc65c6b9edb63c, 
0x3054db2943fd34e5,0xd4c4dbc65da5db64,0xc536d3595555dd4d,0x45a0e56ed55c34d6, 
0xe45565dcc4d64755,0xc64ddeec55b56d95,0x454c55665de41c64,0x5e556cd263e5cf6c, 
0x66d46c5c54d5d5d3,0xc4469c39c46ddb49,0xcd55fde0b5d65953,0x0de645c45d5c0b65, 
0x463a6ef533c446e6,0x5d550763d3cdef5d,0x5cedebd9d3e76c45,0xdbdc46d6dab55a46, 
0x5f6256ccac245d6c,0xd555cfed35c3d7bb,0x5c565e1b4574edce,0x4cc3ccee5b5e65e0, 
0x63f6665e1aee3dce,0x55ed5c5ced4d6d03,0xe947ee557b756543,0x96ebcdd64ded2646, 
0xe4cd5bbe56e6dbf5,0x556e6e55c6656ddd,0x4a26144074665455,0x67c45556cd6eba4d, 
0xeddccab144d5d44d,0x353f5ed5cb5653b5,0x56db5d7ccd4cd45e,0x44a4b3b534e4dcce, 
0xbe66bcdccd4d5eda,0xc1ffd4d549d05b45,0xc4ce4b9426cdede7,0xdddeeabdc7ec6def, 
0xb6d56b5dcbf3e676,0xc366eedd24556cc5,0x6b53deede5e55ec4,0xe4f6d45bd46075de, 
0xd437bb6d6d3d364c,0x7dcdcd74d641de1a,0x50ee4542ddb6d4c4,0x4ec06cbc5de50e54, 
0x6efedb5eded66e4d,0x44ed7e3ced5dbde4,0xdce5ccce6e4dd7ee,0xcb96edd35eeceedd, 
0x2b56c5a6b6cddeb5,0xddfd25b32de4556c,0xe450554d25bd4ddb,0xeda5dcb9c54b6c0c, 
0x324b4b54d5d34be5,0xbeed05b7c434b25a,0x5e44d3c9c504db56,0xcddc4c64e5ceb94b, 
0xde5d51b379e6eecd,0xe5059d4c415dd4d5,0x5d345dbad42dd2dc,0x26c5cbdecca1dc5c, 
0xb6e65edd5f4deced,0x644ded5ee5dc4db4,0x5ae6dd45de5d4ebc,0xd4dcd3d5ebc1e1b5, 
0x556d7edd6e62cee3,0x65dee6c5e6656ecc,0x7e579dc6ddcdec76,0xefdd44e5dddd34d6, 
0xad5ed5b6c52b3cb7,0xd44652cc4dd46664,0xd6555b5e5c564aed,0xe703e67cd45435eb, 
0x645e55d5d5d4e4a4,0x3d45bdda45d6c451,0xb4665c46dd646e93,0x5d5664e54f5ded66, 
0xa53dffd5f7e6d5e6,0xe7ff41c44d65e666,0xe5efedbe6c5ee6ee,0xdccdee6ccdddeece, 
0x55d7d6661f63066d,0x73eb5d35cc15dcbc,0xda6fb6ad2c5694d6,0x5ee445b3dae76aec, 
0xcccc63d55521d1cd,0x9b2643cf9dd5455d,0x55425b462c322bde,0x3545ec2b55544e56, 
0x6e4ba742e1d65dbe,0x4dee6cbeddce4aee,0xff65d5e33c2dc6ec,0xdbe6ded65dadeeee, 
0xeeee75df6ed65ebd,0xd666de1e5554eed6,0x5ca4ded5255eedd6,0x70d525fe5eed6c36, 
0x6c4345e43e66d55d,0x54da555be5325deb,0x4c55b55e4ae465b5,0xe6ec2ce65f444b25, 
0x3cdd5e3c7ccd0ec4,0xd5d74e6c3cebbc26,0x429cca4662c445dd,0x94cde335a353560d, 
0x5f6eedc6d9051c30,0xdc03e5cecd6ee65e,0xdfcdddfcd55eee3d,0x7cabb94eb7de42d5, 
0xc63f66c636aee642,0x5d456c4dedb74c63,0xb6666575ce55634e,0xc5c725c66d66bd46, 
0xce45c5ccbad534d4,0x3c654eb45e42e753,0x94462d6c355ee43f,0x1642e06dd37dd5ed, 
0xd5523d535456ae24,0x65ce4b652d66d564,0x56d56c60493edace,0xde6cde5b43c7dd4d, 
0xe4ee7dcdddce5d16,0xb66dde4cd55eedc4,0x65ccde556ec42d3d,0xebcc35d04ad5eeb5, 
0x6d67fc650637de2c,0xc5e5c6937de55731,0xd525776fd66dddd5,0x3365ef7dd5c466cd, 
0x46b5ec66cdddd5e4,0x6ed416562fd4ec9e,0xe5ddede4edc56dd3,0x95deecace36d56d5, 
0x6ebd20bed63e5cba,0x5dad3a1ddd55d754,0xed45cdc2b57b3bca,0x6d6d59cf695dc5d6, 
0x56cf0545c565d65d,0x3d6555ae5bd453bd,0x536496d2be4964ee,0x46444c564d5ae646, 
0x46e46d4ecd6e544d,0xbcedd50dbddbcd6d,0xeeede0e5c4cb2dd5,0x2fc16dfe66e33d67, 
0x6756e262cc53ddbe,0x6ce0d516ddededed,0xe1e1d53bcceb6ec6,0xedbc5ceadeeb9536, 
0xc1c3ddddde6dbe74,0xd3bdd0e2ddd34552,0x45de6a5c4ddedddd,0xdc3ddddd3bd7c4e4, 
0x6e4545dfada7c465,0x3d40bbcefe534670,0x0ec55cb5e366acdc,0x7b35ddeda6334c96, 
0x3ed5ee4deade4566,0xee53dee6966de5fd,0xdeabedddd5c5c377,0xcd4d66dcde5eedee, 
0xde74cb254eb5cec6,0xdbefdcd562deecd3,0xcbde692cc5eced3b,0xde4cd56ee63d3dde, 
0x4525655e643ed55b,0x5fc3a255dd560de6,0xef56ede526c565c9,0x65663b2d4e7d6461, 
0xdd37c65df5454e64,0xe1ca5eed42236555,0xd5626544247be4bd,0xec654cde5eac2c5c, 
0xc345455c5b63576e,0x566ec1d566475cec,0xa46d655643055165,0x6eb56cd56cf6de6c, 
0x55e7d655e36e6666,0x25ed64cea6ec645e,0xa66e464e7c56653c,0xecde3cc67ce56c44, 
0x75e62a34da6655d4,0x55544c6d65fd6bdd,0x5653d15f6e666cdd,0xda5d0566ce256543, 
0xdedcb26666e6dddb,0x33655e56cd5bd5e6,0xcd464c5e6ac4d6d4,0xf6d6b65eed5ad6dc, 
0xacedcd6564cc4fe5,0xd4374e74ccce55c6,0x23ebde4cb4ddd5ec,0xf7dedcc4de6e654d, 
0x47dc5e46cd6345d9,0xc46a553454eeee6d,0x66eeddc4deddcd5c,0x2f9cbd4641d6fb5c, 
0xa55deb35c44654dd,0x54145a4263d3465c,0x474d535eda0ddce3,0x5d5dcd7dc5d6abde, 
0xeea66ded52c6dcd3,0xbcdd43d1dd66fbd6,0x2dd656725cbdc65c,0xeb5dccf513c4dd54, 
0x45bf5653b3e4b5d5,0xcd66543d4c3bd24b,0x5c65a3ccdc5544cd,0x3652544d4d54d636, 
0x2ed7f5d63456da3f,0x47de6564b4c465e6,0xa566677ec6ccd555,0x75463ed4e5fa553e, 
0xed7e5db2dd5664ce,0x946bedbc56cc4edd,0x75de5de5fdedddc5,0xed304c55d6dcccde, 
0x4efd2cd6545f6ac3,0xd6ac344cc2dedc7d,0x30d04dce6d6e5ddd,0x69dbd16555b5dd63, 
0x34a4b6dc3ec50aed,0x64e4c45fcd4d2cde,0xed5b44d462dd5a0d,0xc554bce74cbcbd2c, 
0xe4ddd3dd3edd6eb5,0xc51deedcbab6c464,0x93de5e55dccded5b,0xce63453ccef53ebd, 
};

static uint64_t backbone_model2_conv2_quant1_threshold[64 * 4] =
{ // torch.Size([64, 14])
0xfd33fe07fe94fefe, 0xff45ff8cffd30019, 0x006000a700ed0157, 0x01e502b900000000,
0xfc69fdaffe88ff2b, 0xff980005007100de, 0x014b01b7022402c7, 0x03a104e700000000,
0xfab3fc3bfd41fe05, 0xfe88ff0aff8d0010, 0x009301160198025d, 0x036204ea00000000,
0xf7b8f996fad4fbc3, 0xfc62fd01fda0fe3f, 0xfedeff7d001c010b, 0x0249042700000000,
0xfc99fd9dfe4afecc, 0xff23ff79ffd00027, 0x007d00d4012a01ac, 0x025a035e00000000,
0xfd9dfea7ff59ffde, 0x0037008f00e80141, 0x019901f2024b02d0, 0x0381048b00000000,
0xfa50fbe1fcedfdb5, 0xfe3bfec1ff47ffcd, 0x005200d8015e0227, 0x033204c300000000,
0xfbb0fd16fe05feb8, 0xff30ffa7001e0096, 0x010d018401fc02af, 0x039e050400000000,
0xfb52fcfefe1bfef1, 0xff7f000e009d012b, 0x01ba024802d703ad, 0x04ca067600000000,
0xfc50fd9efe7dff24, 0xff930002007200e1, 0x015001c0022f02d6, 0x03b5050300000000,
0xfb04fc8ffd96fe5c, 0xfee0ff63ffe7006b, 0x00ee017201f602bb, 0x03c3054e00000000,
0xfa81fc46fd75fe57, 0xfeeeff85001c00b4, 0x014b01e20279035c, 0x048a064f00000000,
0xf92afb6cfceefe0f, 0xfed0ff9100520112, 0x01d3029403550476, 0x05f7083a00000000,
0xfaebfcf7fe54ff59, 0x000800b601650213, 0x02c20370041e0524, 0x0681088c00000000,
0xfaf6fc6dfd67fe22, 0xfe9fff1cff990016, 0x0092010f018c0248, 0x034204b800000000,
0xf8f0fa8cfb9efc6c, 0xfcf5fd7efe07fe90, 0xff1affa3002c00fa, 0x020c03a700000000,
0xfaf4fc9cfdb6fe8a, 0xff18ffa5003300c0, 0x014d01db0268033c, 0x045705ff00000000,
0xfb87fce5fdcffe7e, 0xfef3ff67ffdc0051, 0x00c5013a01af025e, 0x034704a600000000,
0xf6c6f8e8fa55fb66, 0xfc1cfcd2fd88fe3e, 0xfef4ffaa00600171, 0x02dd04ff00000000,
0xfb46fc91fd6efe13, 0xfe82fef0ff5effcd, 0x003b00aa011801be, 0x029a03e500000000,
0xfbf4fd19fddcfe6e, 0xfed0ff32ff93fff5, 0x005600b8011901ac, 0x026f039300000000,
0xfb76fca8fd74fe0d, 0xfe73fed9ff3fffa5, 0x000b007200d80171, 0x023d036f00000000,
0xf8eefa8bfb9efc6c, 0xfcf5fd7ffe08fe92, 0xff1bffa5002e00fc, 0x020f03ac00000000,
0xfa8ffc2efd42fe11, 0xfe9bff25ffaf003a, 0x00c4014e01d802a7, 0x03bb055a00000000,
0xfb8ffd46fe6bff47, 0xffd9006b00fe0190, 0x022202b503470423, 0x054706fe00000000,
0xfbd7fd53fe4fff0d, 0xff8b000a00880107, 0x0185020302820340, 0x043c05b800000000,
0xf531f7b8f968faab, 0xfb83fc5bfd32fe0a, 0xfee2ffba009101d5, 0x0384060b00000000,
0xfb06fcbdfde1febc, 0xff4fffe100730106, 0x0198022a02bc0398, 0x04bc067300000000,
0xfbf0fd44fe26fed0, 0xff41ffb200240095, 0x0106017701e90292, 0x037504c900000000,
0xf7cdf99afacefbb4, 0xfc4efce8fd82fe1c, 0xfeb5ff4fffe900d0, 0x020303d000000000,
0xf88afa9afbfbfd04, 0xfdb4fe64ff14ffc5, 0x0075012501d602de, 0x043f065000000000,
0xfb3efcc7fdccfe91, 0xff14ff97001a009d, 0x012001a3022502ea, 0x03f0057900000000,
0xfc93fdb8fe7cff0f, 0xff70ffd200340096, 0x00f8015901bb024e, 0x0311043700000000,
0xf7ccf9bcfb07fbff, 0xfca4fd4afdeffe94, 0xff3affdf0084017c, 0x02c704b700000000,
0xfaccfcf4fe63ff77, 0x002f00e7019e0256, 0x030e03c6047e0591, 0x0701092800000000,
0xf9d9fbc7fd11fe08, 0xfeacff51fff6009b, 0x014001e402890380, 0x04ca06b800000000,
0xfbbcfd3efe3fff00, 0xff81000200820103, 0x0183020402850345, 0x044705c800000000,
0xfab7fc0dfcf1fd9d, 0xfe0ffe81fef3ff65, 0xffd7004900bb0166, 0x024a03a000000000,
0xf9cffc1cfda4fecb, 0xff8f0053011801dc, 0x02a003640428054f, 0x06d7092400000000,
0xf9f0fb81fc8dfd55, 0xfddbfe61fee7ff6d, 0xfff2007800fe01c7, 0x02d2046400000000,
0xfaa7fc4dfd66fe39, 0xfec5ff52ffde006b, 0x00f70184021102e3, 0x03fc05a200000000,
0xfc78fdd5febdff6c, 0xffe0005400c8013d, 0x01b1022502990348, 0x0430058d00000000,
0xf7fef9f6fb46fc42, 0xfce9fd91fe39fee1, 0xff89003100d901d5, 0x0325051d00000000,
0xf8fefabdfbe6fcc5, 0xfd5afdeffe84ff18, 0xffad004200d701b6, 0x02df049e00000000,
0xfa09fb7bfc71fd29, 0xfda5fe20fe9bff16, 0xff91000c00870140, 0x023603a700000000,
0xfacbfc85fdabfe87, 0xff1bffae004100d4, 0x016701fa028d036a, 0x0490064900000000,
0xf858fa3dfb80fc72, 0xfd14fdb6fe57fef9, 0xff9a003c00de01d0, 0x031304f800000000,
0xf942fab3fbaafc62, 0xfcddfd58fdd3fe4e, 0xfec9ff45ffc00078, 0x016e02e000000000,
0xfbc3fd53fe5dff25, 0xffab003000b5013b, 0x01c0024502ca0392, 0x049d062d00000000,
0xfaecfc93fdaefe81, 0xff0eff9b002800b5, 0x014201cf025c0330, 0x044a05f100000000,
0xfb42fd48fea1ffa4, 0x005000fd01a90256, 0x030203af045b055e, 0x06b708bc00000000,
0xfb6afd35fe66ff4b, 0xffe4007d011601ae, 0x024702e00379045e, 0x0590075a00000000,
0xfcaffe25ff1dffd8, 0x005400d1014d01ca, 0x024602c2033f03f9, 0x04f2066700000000,
0xfb54fce1fde9feaf, 0xff34ffb8003c00c0, 0x014501c9024d0314, 0x041c05a900000000,
0xf96cfb3ffc75fd5e, 0xfdfafe95ff30ffcc, 0x00670102019e0287, 0x03bd059000000000,
0xf9ebfb8afc9efd6d, 0xfdf7fe82ff0cff96, 0x002000aa01340204, 0x031804b700000000,
0xfb33fcc6fdd3fe9d, 0xff23ffa9003000b6, 0x013d01c3024a0313, 0x042005b300000000,
0xfa98fc1cfd1ffde1, 0xfe62fee4ff65ffe7, 0x006800ea016b022d, 0x033004b500000000,
0xfd29fe46ff04ff92, 0xfff1005000af010d, 0x016c01cb022a02b8, 0x0376049300000000,
0xfa7efc95fdfaff05, 0xffb8006a011d01cf, 0x0281033403e604f2, 0x0657086e00000000,
0xf8bcfaa5fbebfcdf, 0xfd82fe25fec8ff6a, 0x000d00b001530247, 0x038d057500000000,
0xfb1ffc76fd5bfe07, 0xfe7afeecff5fffd1, 0x004300b6012801d4, 0x02b9041000000000,
0xfa94fbf3fcddfd8c, 0xfe01fe76feebff60, 0xffd5004a00bf016e, 0x025803b700000000,
0xfa79fbaafc76fd0f, 0xfd75fddafe40fea6, 0xff0cff72ffd80070, 0x013c026e00000000,
};

static uint64_t backbone_model2_conv2_conv2_weight[64 * 1] =
{ // torch.Size([64, 1, 1, 9])
0x665ff154c, 
0x47776f4ee, 
0xfeaffbdd4, 
0x75e7634b3, 
0xc647efde6, 
0x7df64e7cd, 
0xef6e56466, 
0xefebeecc1, 
0x4eddfe455, 
0xfe7de66de, 
0x6ef65f76e, 
0x9dad9cfee, 
0x7af6bf7df, 
0xefa6ce564, 
0x765266ef9, 
0xf7757e7af, 
0x477f37efb, 
0x666eee667, 
0xec5e36457, 
0x3f45ee4c2, 
0xddcfedced, 
0xe667656de, 
0xfeffebded, 
0xeef5fe6ef, 
0xe46fffdcd, 
0xb4f4df3cd, 
0x667667555, 
0x65676bffe, 
0xd6d36f5dd, 
0xc50766666, 
0xbcd64c667, 
0xfd6f46e45, 
0x567ddeed6, 
0xc5657746d, 
0xef4de5bc5, 
0x6d2fefdde, 
0xcee9feeee, 
0xf45565676, 
0xbe4df4ded, 
0x6757743aa, 
0xf56e56e56, 
0xbeddeefe5, 
0xddc776356, 
0x675467de2, 
0x73e57ec51, 
0x5fd6f52e5, 
0xe77663735, 
0xf65e7eb7d, 
0xf65ed6ce4, 
0xfe5ff5ee4, 
0xeff65c55d, 
0xefdee3dac, 
0x5dfbefded, 
0x6674ddeef, 
0x953667fed, 
0x36676542c, 
0xfeedeecde, 
0x62c741676, 
0xefefc5d66, 
0xef6ff5eec, 
0x46d17cd65, 
0x75f46e066, 
0x6775770c5, 
0x465d66fd5, 
};

static uint64_t backbone_model2_conv2_relu2_threshold[64 * 4] =
{ // torch.Size([64, 7])
0x009a013301cc0265, 0x034a047c06470000, 0x0000000000000000, 0x0000000000000000,
0x00db01a3026a0332, 0x045d05ec08420000, 0x0000000000000000, 0x0000000000000000,
0x00a70168022902ea, 0x040b058d07cf0000, 0x0000000000000000, 0x0000000000000000,
0x004100d4016701fa, 0x02d703fd05b70000, 0x0000000000000000, 0x0000000000000000,
0x007b0103018b0212, 0x02de03ed05840000, 0x0000000000000000, 0x0000000000000000,
0x00b0015c020802b4, 0x03b7050f07130000, 0x0000000000000000, 0x0000000000000000,
0x005d00e0016301e6, 0x02aa03b005390000, 0x0000000000000000, 0x0000000000000000,
0x00a80162021b02d4, 0x03ea055d07880000, 0x0000000000000000, 0x0000000000000000,
0x007f00d7012f0188, 0x020c02bd03c50000, 0x0000000000000000, 0x0000000000000000,
0x00c1015301e40276, 0x0350047306280000, 0x0000000000000000, 0x0000000000000000,
0x00c70173021f02cb, 0x03ce0526072b0000, 0x0000000000000000, 0x0000000000000000,
0x002200c401650206, 0x02f7043a061d0000, 0x0000000000000000, 0x0000000000000000,
0x00c20178022e02e4, 0x03f5056007820000, 0x0000000000000000, 0x0000000000000000,
0x005300af010b0168, 0x01f202ab03bf0000, 0x0000000000000000, 0x0000000000000000,
0x0078010601950223, 0x02f8041405bf0000, 0x0000000000000000, 0x0000000000000000,
0x012501e502a50366, 0x0486060708480000, 0x0000000000000000, 0x0000000000000000,
0x0094014c020402bd, 0x03d1054107690000, 0x0000000000000000, 0x0000000000000000,
0x007f013901f302ad, 0x03c5053907670000, 0x0000000000000000, 0x0000000000000000,
0x006a00d6014201ae, 0x02500328046c0000, 0x0000000000000000, 0x0000000000000000,
0x004800a90109016a, 0x01fb02bc03de0000, 0x0000000000000000, 0x0000000000000000,
0x008200fe017a01f6, 0x02b003a8051d0000, 0x0000000000000000, 0x0000000000000000,
0x006300ef017a0206, 0x02d703ee05910000, 0x0000000000000000, 0x0000000000000000,
0x0122021903110408, 0x057b076a0a500000, 0x0000000000000000, 0x0000000000000000,
0x010301f502e703d9, 0x0544072809fe0000, 0x0000000000000000, 0x0000000000000000,
0x004600eb01900236, 0x032d047806670000, 0x0000000000000000, 0x0000000000000000,
0x007c010f01a20235, 0x0311043605ef0000, 0x0000000000000000, 0x0000000000000000,
0x004f011001d20293, 0x03b50538077d0000, 0x0000000000000000, 0x0000000000000000,
0x00f001b6027b0341, 0x046a05f508460000, 0x0000000000000000, 0x0000000000000000,
0x005200cc014501bf, 0x0275036904d60000, 0x0000000000000000, 0x0000000000000000,
0x0072012201d10281, 0x038904e806f80000, 0x0000000000000000, 0x0000000000000000,
0x004200af011c018a, 0x022e030904510000, 0x0000000000000000, 0x0000000000000000,
0x008b010901880207, 0x02c503c2053e0000, 0x0000000000000000, 0x0000000000000000,
0x008f0117019e0225, 0x02f103ff05960000, 0x0000000000000000, 0x0000000000000000,
0x000b00a1013701cd, 0x02ad03d9059a0000, 0x0000000000000000, 0x0000000000000000,
0x003700a40111017d, 0x022102fa04400000, 0x0000000000000000, 0x0000000000000000,
0x0081012a01d3027c, 0x037904ca06c40000, 0x0000000000000000, 0x0000000000000000,
0x004600f2019e0249, 0x034b04a206a50000, 0x0000000000000000, 0x0000000000000000,
0x00780103018d0217, 0x02e603fb05990000, 0x0000000000000000, 0x0000000000000000,
0x004600c5014301c2, 0x027f037c04f70000, 0x0000000000000000, 0x0000000000000000,
0x007c013501ee02a7, 0x03bd052f075a0000, 0x0000000000000000, 0x0000000000000000,
0x008e00fd016b01d9, 0x027f035c04a70000, 0x0000000000000000, 0x0000000000000000,
0x0075011701b8025a, 0x034c048f06730000, 0x0000000000000000, 0x0000000000000000,
0x00c401620200029d, 0x038a04c6069f0000, 0x0000000000000000, 0x0000000000000000,
0x0097012901bb024d, 0x0329044d06040000, 0x0000000000000000, 0x0000000000000000,
0x007000e7015d01d3, 0x0285037204d50000, 0x0000000000000000, 0x0000000000000000,
0x00c6015c01f10287, 0x0368049406550000, 0x0000000000000000, 0x0000000000000000,
0x003300eb01a4025c, 0x037104e2070b0000, 0x0000000000000000, 0x0000000000000000,
0x00ad014701e1027b, 0x0362049706650000, 0x0000000000000000, 0x0000000000000000,
0x005f00d4014a01bf, 0x026f035a04ba0000, 0x0000000000000000, 0x0000000000000000,
0x00de01a30267032c, 0x045205db08280000, 0x0000000000000000, 0x0000000000000000,
0x007600ed016401db, 0x028e037c04e10000, 0x0000000000000000, 0x0000000000000000,
0x004200d7016c0202, 0x02e1040b05cb0000, 0x0000000000000000, 0x0000000000000000,
0x0056011f01e702af, 0x03db056b07c30000, 0x0000000000000000, 0x0000000000000000,
0x00ec0197024202ed, 0x03ed054207430000, 0x0000000000000000, 0x0000000000000000,
0x00b1013201b30233, 0x02f403f605780000, 0x0000000000000000, 0x0000000000000000,
0x004700de0174020a, 0x02ec041805db0000, 0x0000000000000000, 0x0000000000000000,
0x003800d0016701ff, 0x02e2041205d90000, 0x0000000000000000, 0x0000000000000000,
0x0065012e01f802c1, 0x03ef058207de0000, 0x0000000000000000, 0x0000000000000000,
0x00f001a6025d0314, 0x0426059307b70000, 0x0000000000000000, 0x0000000000000000,
0x007c0152022802fe, 0x043f05eb086d0000, 0x0000000000000000, 0x0000000000000000,
0x003b00ae01220195, 0x0242032904840000, 0x0000000000000000, 0x0000000000000000,
0x0082010201810201, 0x02c003bf053d0000, 0x0000000000000000, 0x0000000000000000,
0x00ef01d402b9039e, 0x04f606c009700000, 0x0000000000000000, 0x0000000000000000,
0x00b2012301930204, 0x02ae038f04e20000, 0x0000000000000000, 0x0000000000000000,
};

static uint64_t backbone_model3_conv1_conv1_weight[64 * 1*4] =
{ // torch.Size([64, 1, 1, 64])
0xd45c2f30ddec55ec,0xc953eeddecd5ee5d,0xca5de59d654553e5,0xddc6ee05db1bd3ce, 
0x1c76b23d44cdcde6,0x4466ddc7d446357d,0x64c3c45da5d335eb,0x5b55db6c5664446e, 
0xb7de1ddbc30cc9ae,0xddce29ddcbed555d,0x5a6f95b6453dd95c,0xddd46de46eefdde5, 
0x65564d5a445c3c24,0x4e04e4cee66fedac,0x365dedbe4a564cb6,0xd256db5d444d63f9, 
0xac652eeedabdc5d4,0x5e64c1e7acd3e26e,0x744bdbcd54e4bcb5,0x3c56b5621d9e55ac, 
0xe54254c5ded5b5be,0x5c6f5dc655d4566e,0x6cc3d64d56fb1642,0x4ee76cdb546eed3d, 
0x5ed5664c3de65c55,0x5646ec6c4776e4cc,0x4dd6be7eddee6d54,0x655bd57de644dd6c, 
0x44db3d66dda65c69,0xb4dbcbce46475cd5,0xdca4aba5945dc3cb,0x4dd15530cdc5b473, 
0x64545de2dddc55c4,0xd1544ce5551bd43e,0x66cfe6c276d665e1,0xdda4bb6d9d5fdbee, 
0x6d5cd444e5dcdfed,0xdc466f525ffde55e,0xaccc650f2d24ed0e,0xa54cdd6dee2c055e, 
0x34dccceea6dde63e,0xcc3454e465d3bdde,0xee5ddccc4de4425c,0xcc7c54d64eded6e6, 
0x5bdc7546dee5cbdc,0x653a5b553464eadd,0xa5eb92d15ac5dcd3,0x2d56e54e90455c43, 
0x33b42cabd4ded656,0x03d554dc5b555cd3,0xc5dcbedd54d75145,0x9d6c5565d3ad55c0, 
0xea326cd5d5bc3bcc,0xdd3a6ded5423d3d2,0xd7da3bdbbbdc3cbd,0xde35fedb5d44c4dc, 
0x465ddc4d22b4adeb,0xae4c4ae3ddcd5d44,0x6dc9404d554adc46,0xd544195f535bc362, 
0x5444e534c34e4656,0x5e6553d6519f5eb6,0x5b7766de3d655656,0x44b5656d45665756, 
0x455ad5b5dcdc4e56,0xc4d55ea54efde55e,0x6ba4c4bd66d656d5,0xaddd5654ed4d5395, 
0xbc6c5db4ed534443,0x43d3e454052ce46d,0x35daeeeacdadcdee,0x5bd4c4b5fca4abe1, 
0xecedb754fe0574d4,0xd7dec465ec62c665,0x661b15d7eb6d4c2a,0x53edefd425e42cbe, 
0xd6e5de454ddedcdd,0xcaccdddedde1ddd2,0xdb5dd65b56d56544,0xe5d35c5e5dfe4faa, 
0x33534ecbc5ceb646,0x4d6341e5544d6e47,0xcc416cfd4e54b255,0xee5665a5bd5a0645, 
0xfae556d7e7c66fdc,0x55cedf6de556646e,0x54556d6f46653b55,0x6d5fdbd66669e56e, 
0x5dc7ce4d6dde5446,0xdee4add42dddd65e,0xd4ded4cdc3e46dd6,0xdc353d6dceae53fa, 
0xdd665ee55dd63fe9,0x5666cdb6d5d6c57e,0x7e97dd4ec45c3ce5,0x5b36ed6e2657de6e, 
0x56f936564dd20dc5,0x35e5e26bc556d5dd,0xd54c9b3345e5435d,0x54bdc44d53db5c45, 
0x5d66164e7653e636,0x656466d66d6e6ec6,0x5be67edcddac4d65,0x9575675dd656c556, 
0xe6ec5e56deeec92d,0xe6e3ee5ee567d3ee,0xe3dee6d494e64cbc,0xeeeefee36cfd6cce, 
0xcd56c64d5a567cd2,0xad5d15c6e45b5044,0x65dc2bc5bc6c2344,0xdb3db9bd66bb5d94, 
0x6364d56cd4459ce6,0xdbc7d405eeeccde3,0x55ddc65d994bc5d6,0x36addc5ecbdc3e55, 
0x5de6b5ee4ddb6cd6,0x35e5dfed3253d7a5,0x27d5b5c5ee4571de,0xcdb6e5596bc47e4b, 
0x5b46c44d5de555d7,0x54c5eecdc454d4c6,0xd535d56bdecb6356,0x64a5ce66dcdb5355, 
0x6f555feded9466ec,0x4c5acdd5befee37e,0x64ebf7cd57dce2ed,0x3ea3deccec4e42ee, 
0x624db606d595cf5b,0xa9c59d444bd5d4bd,0xdcd25cbedd43dbcc,0x365d2d35dc1cc59d, 
0xdee54d655ed596cd,0x5ceadb4c246ded5c,0x25cea0eede445de4,0x3656fe5622bda65d, 
0xec5ccbb6e4d6ebce,0x54b66e4c55d4de63,0x5f0d5ecc5dd60d57,0x4e65de60654cf63d, 
0x534ee6c42625fded,0xe0b665dd2dcd7fdd,0x5d2b639b5dd7d035,0x325e640d5314d66d, 
0xdedbc524c55d555c,0xed3c7bed535d5219,0x06dc6ed6ddccc46c,0xdf6e3cd641dc9746, 
0x5ec67be44de26661,0x666cfbb67636c55e,0x5cc3cdbd55de634d,0x5dd646c5e65b4cdd, 
0xb6d4f556666dcc6d,0xbec4b64ee2356ee6,0xcd6c6435d555e36b,0xb76a75e472e54566, 
0x2c4c1b5ccd36bde0,0xdab3356ce3c45cd2,0x45b2a6545524c510,0xd4a3db4f43c45d6b, 
0x7cc17dbd4dcaad66,0x5ac6c4c15d2ee23d,0xbbc4d44e5ccddbcc,0xd544e64edc6d53ec, 
0xe5e4445bd52c6d6e,0x945e1d5d65eb15ec,0x7d364e4464ccc676,0x5bfe666c64d4ef56, 
0x6d5136e14f15eee4,0xb6c56666dee2d655,0x6ed4edd5dddfee9d,0xdc3bc5cf32564d65, 
0x61a6ba46a3cd5666,0x6b746a566e5f5b45,0x646776cdce665766,0x5455466666675666, 
0x6f4566a36dcdd656,0x6d76d20562b35e51,0x3cf56e2e9e6ede5d,0x45567765f167d655, 
0xa56e4e656c5bdc4f,0xcb5db5de4b4ccfde,0xdc62456e55cce5cd,0xc53556ee4542d6cb, 
0xb0ee54d5dc4a63ee,0xd6ccd305d556e56b,0x765beedc4c5645e2,0x0b6cfd47c6ede74e, 
0x6c664a0eb17666ab,0x3d4dd641f0cc4462,0x6c6da635ec4eb5b5,0xc5e4dda6665d9c32, 
0x4cd4cddb7d553ebe,0xd4bc5dbed6d15ddd,0xeeeeccb6ddec2d6e,0xdcdd6ebe73d5ef23, 
0xd3db7cd5ede62555,0x664ccc535506e63b,0x6e65d55dc3dec2e0,0x50d4e434d16bed6d, 
0xdddde55662dd566d,0xebda66dc656c51ee,0xd1eb34e7eeb76a29,0xc04e6c645459c6d7, 
0xdc452adf544d9055,0xc24c35d54eedc460,0x5e440c05abcda93b,0xc1c3c334421b3dd2, 
0xed6eeecb377d5d6e,0xdd5d65ee344e6e56,0xdd63c13add7f565b,0xedbc5ee5e4d516bd, 
0xd2bd44d5eba6bd5d,0x6c6fbe16c5354566,0x5c456332d34fd45d,0x4ee544ddd565cd79, 
0x7ddee7b5465bd55d,0xe6ed464e665345d6,0xfc976ed5eec4ce75,0x555d5dd53dd73716, 
0xbc504e6c634c5b55,0x55d5e56eda7db4d4,0xd536e525cd565e45,0xc55cdc6f65756bdc, 
0x46de4065d555355a,0x6edec55f5c7ddbd7,0xb5500440ce75cb64,0x4425dddadd53b646, 
0xe3c3525305b45b5c,0x535ecbb5c46245d9,0x36465404c55d3554,0x01f452dcc5145c55, 
0x5d24d6bde56c553d,0x3e11323c2dddc644,0x34dbdcbd942dbd53,0x54b3edd7ddab4ddc, 
0xad465e4e59bd4954,0x4566fcd6d45bcd0c,0x44d4d5bd67c564e6,0xdd55566ec5455dde, 
0xce2756ecdbd5ade6,0x71655d64dee9d545,0xccdccb72d4cddc0d,0x7c66e5e2d653cf5d, 
0x24633e0e5febd445,0x6c634bb76bade46f,0x6a65e60d64ccd5d9,0x4d55d6d3eb66b53c, 
0x6dc665eeddced405,0x6455e0565cebe64a,0x6f44356cd6ee4440,0x7535cb37e454dda9, 
0xe4de6556dfd76dae,0xc5de4d5d6646444d,0x9d27e1e435c2d6db,0x5ffc0ed5c537c66e, 
};

static uint64_t backbone_model3_conv1_quant1_threshold[64 * 4] =
{ // torch.Size([64, 14])
0xf470f73af916fa7c, 0xfb6afc58fd46fe34, 0xff22001000fe0264, 0x0440070a00000000,
0xfb62fd87fef60008, 0x00bf0177022e02e5, 0x039c0453050a061d, 0x078c09b100000000,
0xf600f84df9d5fafc, 0xfbc0fc84fd48fe0d, 0xfed1ff9500590180, 0x0308055500000000,
0xf820fa60fbdffcff, 0xfdbffe7fff3fffff, 0x00bf017f023e035e, 0x04de071e00000000,
0xf882fabafc35fd51, 0xfe0efeccff890046, 0x010401c1027e039b, 0x0515074d00000000,
0xf98cfb7bfcc5fdbd, 0xfe62ff07ffac0051, 0x00f6019b02400337, 0x0481067000000000,
0xf975fc07fdbdff06, 0xffe200bd01980273, 0x034f042a0505064e, 0x08050a9600000000,
0xfbb0fd5afe76ff4a, 0xffd8006600f40182, 0x0210029e032c0401, 0x051d06c700000000,
0xf7ddfa1afb99fcb7, 0xfd77fe36fef5ffb4, 0x0073013301f20311, 0x048f06cd00000000,
0xf260f590f7b0f947, 0xfa57fb67fc77fd87, 0xfe97ffa700b6024e, 0x046e079e00000000,
0xf752f96cfad3fbe1, 0xfc94fd48fdfcfeaf, 0xff63001600ca01d7, 0x033e055900000000,
0xfb2cfcbefdcafe93, 0xff19ff9f002500ab, 0x013101b7023c0305, 0x041105a300000000,
0xfb05fcc9fdf6fed7, 0xff6e0004009b0131, 0x01c8025e02f503d6, 0x050306c700000000,
0xf88bfa58fb8bfc71, 0xfd0afda4fe3dfed7, 0xff70000a00a3018a, 0x02bc048900000000,
0xfa09fbc1fce6fdc3, 0xfe55fee8ff7b000e, 0x00a0013301c602a2, 0x03c8058000000000,
0xf8ddfc29fe5c0002, 0x011b0234034e0467, 0x0580069a07b30959, 0x0b8c0ed800000000,
0xfa3ffc09fd3afe1e, 0xfeb7ff4fffe70080, 0x011801b10249032e, 0x045f062800000000,
0xf814f9f1fb2ffc1e, 0xfcbdfd5cfdfbfe9a, 0xff39ffd800780166, 0x02a4048200000000,
0xf7c5fa61fc1efd6c, 0xfe4bff29000800e7, 0x01c502a4038304d0, 0x068e092a00000000,
0xf4bcf74cf901fa49, 0xfb24fbfffcdafdb4, 0xfe8fff6a0044018d, 0x034205d200000000,
0xfa7afc73fdc4fec1, 0xff6a001200bb0164, 0x020c02b5035d045a, 0x05ab07a500000000,
0xf9edfc47fdd9ff06, 0xffcf009701600229, 0x02f203ba048305b0, 0x0742099c00000000,
0xf656f8acfa3bfb66, 0xfc2efcf5fdbdfe84, 0xff4c001300db0206, 0x039505eb00000000,
0xf836fafbfcd3fe36, 0xff22000e00fb01e7, 0x02d303c004ac060f, 0x07e70aac00000000,
0xfb9ffd23fe25fee7, 0xff68ffea006b00ec, 0x016d01ee026f0331, 0x043405b700000000,
0xf7fffbbdfe3c001b, 0x015b029a03da0519, 0x0658079808d70ab7, 0x0d3610f400000000,
0xf0b9f440f69bf85e, 0xf98bfab9fbe6fd13, 0xfe40ff6d009a025e, 0x04b8083f00000000,
0xfc55fe02ff20fff6, 0x0085011401a30232, 0x02c1035003df04b5, 0x05d3078000000000,
0xf9c4fba9fcecfdde, 0xfe7fff21ffc20064, 0x010501a70248033a, 0x047d066200000000,
0xf91bfb89fd27fe5e, 0xff2dfffc00cb019a, 0x026a03390408053f, 0x06dd094a00000000,
0xfc46fe02ff2b0009, 0x009d013101c50259, 0x02ed0381041604f4, 0x061c07d800000000,
0xf131f4c9f72ff8fb, 0xfa2dfb60fc93fdc5, 0xfef8002b015d0329, 0x058f092700000000,
0xfb57fc91fd62fdff, 0xfe68fed0ff39ffa2, 0x000a007300db0178, 0x024a038300000000,
0xf8ccfab1fbf5fce8, 0xfd8afe2cfeceff70, 0x001200b301550248, 0x038c057200000000,
0xf8b1fadefc51fd68, 0xfe22fedbff95004f, 0x010801c2027c0392, 0x0505073200000000,
0xf77df9fffbaafceb, 0xfdc1fe96ff6c0042, 0x011801ed02c30404, 0x05af083100000000,
0xf7ebfa3bfbc5fced, 0xfdb3fe78ff3d0002, 0x00c8018d0252037a, 0x0505075500000000,
0xf85dfb17fce8fe45, 0xff2e001600ff01e7, 0x02d003b904a105fe, 0x07cf0a8900000000,
0xf77afac5fcf7fe9c, 0xffb500ce01e70300, 0x04190532064b07f0, 0x0a220d6d00000000,
0xfb30fcbffdc9fe91, 0xff16ff9b002100a6, 0x012b01b0023502fd, 0x0407059700000000,
0xf8f0fad8fc1dfd11, 0xfdb3fe56fef8ff9b, 0x003e00e001830277, 0x03bc05a400000000,
0xf883faddfc6efd9a, 0xfe63ff2bfff300bc, 0x0184024d03150442, 0x05d3082c00000000,
0xf865fa73fbd1fcd8, 0xfd87fe36fee6ff95, 0x004400f301a202a9, 0x0408061500000000,
0xfa22fde300630244, 0x038404c406050745, 0x088509c50b060ce6, 0x0f67132700000000,
0xf806fb28fd3efecf, 0xffdb00e601f102fd, 0x04080513061f07b0, 0x09c70ce900000000,
0xf951fb0ffc38fd18, 0xfdacfe41fed6ff6a, 0xffff009401280207, 0x033104ef00000000,
0xf7e1fa80fc3efd8d, 0xfe6dff4c002c010b, 0x01ea02ca03a904f8, 0x06b7095500000000,
0xfbfffda7fec1ff95, 0x002300b0013d01cb, 0x025802e503720446, 0x0561070900000000,
0xf630f861f9d8faf0, 0xfbacfc67fd22fddd, 0xfe98ff53000f0127, 0x029e04cf00000000,
0xf98dfbb9fd2cfe43, 0xfefcffb6006f0129, 0x01e2029c0355046b, 0x05de080b00000000,
0xf748fa29fc15fd85, 0xfe7bff710067015c, 0x02520348043e05ae, 0x079a0a7b00000000,
0xfabcfc16fcfcfda9, 0xfe1cfe90ff03ff76, 0xffe9005d00d0017d, 0x026303bd00000000,
0xf694f93cfb02fc56, 0xfd39fe1bfefeffe1, 0x00c401a7028903de, 0x05a3084c00000000,
0xf904fb4dfcd3fdf7, 0xfebaff7d00400103, 0x01c60289034c0471, 0x05f6083f00000000,
0xf675f9c0fbf2fd98, 0xfeb1ffcb00e401fd, 0x0316042f054806ee, 0x09210c6c00000000,
0xfaf7fd07fe67ff6e, 0x001e00ce017e022e, 0x02dd038d043d0545, 0x06a508b400000000,
0xf9d0fc22fdaefed7, 0xff9c0062012801ee, 0x02b4037a04400569, 0x06f5094700000000,
0xfc28fdb7fec1ff89, 0x000e00930118019d, 0x022202a7032c03f4, 0x04fe068e00000000,
0xfa41fbb6fcaefd68, 0xfde5fe61feddff5a, 0xffd6005200ce0189, 0x028103f600000000,
0xf984fbd0fd58fe7e, 0xff42000600ca018e, 0x0252031603da0500, 0x068808d400000000,
0xf7a3fa53fc1efd77, 0xfe5cff410027010c, 0x01f202d703bd0515, 0x06e0099000000000,
0xf8fcfb50fcddfe08, 0xfeceff95005c0122, 0x01e902b0037704a1, 0x062e088200000000,
0xf858fae1fc92fdd7, 0xfeafff8800600139, 0x021102e903c20507, 0x06b8094100000000,
0xf73af9fffbd8fd3b, 0xfe27ff14000000ed, 0x01d902c603b20515, 0x06ee09b300000000,
};

static uint64_t backbone_model3_conv1_conv2_weight[64 * 1] =
{ // torch.Size([64, 1, 1, 9])
0xd46ef5de6, 
0x64b4fedf2, 
0xe5bc76c67, 
0x6545eedfe, 
0x676deefed, 
0x676565c0e, 
0xd66b74b6d, 
0xac709a94e, 
0x676461c4d, 
0xb5b5643f2, 
0x476d555d6, 
0xef4597652, 
0x76e6dced5, 
0xffdede676, 
0x7e56ee475, 
0x65deefdef, 
0x25cecf56e, 
0xcfcb35565, 
0x47b44e55f, 
0x24cde5dfa, 
0x7ff6fe6ff, 
0xdae66e6fe, 
0x364576e66, 
0xbc5efc5d4, 
0x5eedff56b, 
0xd5ad67d46, 
0xef5de5d36, 
0xeee655765, 
0x473dd6de4, 
0xbee66e77e, 
0x555d7dd44, 
0xefd666576, 
0xd75bee944, 
0xd65d66e27, 
0x6ee76fb63, 
0xeef65c575, 
0xde6c47b45, 
0x67c56dbce, 
0x6ed7ee6ce, 
0x5255553fd, 
0x34fa7ed65, 
0x6ef54d55c, 
0x774dd52e4, 
0xd5feef5ee, 
0x5ed6de65f, 
0x4e44f69e5, 
0x75f65f5ae, 
0xceeedd667, 
0xd7ae07636, 
0x25e5dd0fe, 
0x1e5ee7dd6, 
0x5656593ef, 
0x4770dac34, 
0xbefff4d55, 
0x3a66d7ca6, 
0xd6d75e3ed, 
0xb6664d7bd, 
0xb66de5dfe, 
0xc7b3df4d9, 
0x7765ddcee, 
0xd05e65f7d, 
0xff5ad6eed, 
0x4eea69676, 
0x543d67c45, 
};

static uint64_t backbone_model3_conv1_relu2_threshold[64 * 4] =
{ // torch.Size([64, 7])
0x006e00f2017601fb, 0x02c103ca05570000, 0x0000000000000000, 0x0000000000000000,
0x002900a2011b0194, 0x0249033b04a50000, 0x0000000000000000, 0x0000000000000000,
0x001e0096010e0186, 0x0239032904910000, 0x0000000000000000, 0x0000000000000000,
0x003b00ad01200192, 0x023e032204790000, 0x0000000000000000, 0x0000000000000000,
0x00950111018d0209, 0x02c303bc05300000, 0x0000000000000000, 0x0000000000000000,
0x004100b8013001a7, 0x025a034904af0000, 0x0000000000000000, 0x0000000000000000,
0x003600ad0124019b, 0x024e033d04a30000, 0x0000000000000000, 0x0000000000000000,
0x0023005d009800d2, 0x0129019d024c0000, 0x0000000000000000, 0x0000000000000000,
0x005c00ce013f01b1, 0x025b033d04920000, 0x0000000000000000, 0x0000000000000000,
0x00210054008600b9, 0x0105016b02030000, 0x0000000000000000, 0x0000000000000000,
0x003800a601150183, 0x0229030604510000, 0x0000000000000000, 0x0000000000000000,
0x00a3010b017401dd, 0x027a034c04870000, 0x0000000000000000, 0x0000000000000000,
0x0021007700cd0123, 0x01a4025003520000, 0x0000000000000000, 0x0000000000000000,
0x007a011401ae0248, 0x032f046206300000, 0x0000000000000000, 0x0000000000000000,
0xfff3006500d8014a, 0x01f502da04300000, 0x0000000000000000, 0x0000000000000000,
0x0099016602330300, 0x043405ce08350000, 0x0000000000000000, 0x0000000000000000,
0x006300b8010d0161, 0x01e1028a03880000, 0x0000000000000000, 0x0000000000000000,
0x0023007600ca011d, 0x019b0242033d0000, 0x0000000000000000, 0x0000000000000000,
0x005300a500f70149, 0x01c40268035d0000, 0x0000000000000000, 0x0000000000000000,
0x000b006700c40120, 0x01ab0264037a0000, 0x0000000000000000, 0x0000000000000000,
0x00b3018d02680343, 0x048b064108d10000, 0x0000000000000000, 0x0000000000000000,
0x003800b2012b01a5, 0x025b034e04bb0000, 0x0000000000000000, 0x0000000000000000,
0x003f00d0016101f2, 0x02cb03ed059f0000, 0x0000000000000000, 0x0000000000000000,
0x0008005b00ad0100, 0x017c022103190000, 0x0000000000000000, 0x0000000000000000,
0x00b8015201ed0287, 0x036f04a406730000, 0x0000000000000000, 0x0000000000000000,
0x0086011001990222, 0x02f00402059e0000, 0x0000000000000000, 0x0000000000000000,
0x009c010f018101f4, 0x02a0038504dc0000, 0x0000000000000000, 0x0000000000000000,
0x004b00c0013601ab, 0x025b034604a60000, 0x0000000000000000, 0x0000000000000000,
0x0030008600dc0132, 0x01b4026003630000, 0x0000000000000000, 0x0000000000000000,
0x009c01170192020e, 0x02c603bc052e0000, 0x0000000000000000, 0x0000000000000000,
0x002d008600e0013a, 0x01c0027303800000, 0x0000000000000000, 0x0000000000000000,
0x004e00d2015601da, 0x029f03a705330000, 0x0000000000000000, 0x0000000000000000,
0x004700a200fe0159, 0x01e3029903ac0000, 0x0000000000000000, 0x0000000000000000,
0x0029009801070175, 0x021b02f904450000, 0x0000000000000000, 0x0000000000000000,
0x005600ca013e01b2, 0x0260034804a40000, 0x0000000000000000, 0x0000000000000000,
0x007b00f8017601f4, 0x02b003ab05240000, 0x0000000000000000, 0x0000000000000000,
0x008d00e4013b0193, 0x021602c403ca0000, 0x0000000000000000, 0x0000000000000000,
0xffdd004700b1011b, 0x01ba028d03cb0000, 0x0000000000000000, 0x0000000000000000,
0x0042009e00fa0156, 0x01e0029803ac0000, 0x0000000000000000, 0x0000000000000000,
0x00060052009e00ea, 0x015c01f402d80000, 0x0000000000000000, 0x0000000000000000,
0x0028008b00ee0152, 0x01e602ac03d60000, 0x0000000000000000, 0x0000000000000000,
0x005f00b7010f0167, 0x01eb029b03a30000, 0x0000000000000000, 0x0000000000000000,
0x005200be012b0197, 0x0239031204570000, 0x0000000000000000, 0x0000000000000000,
0x00a301720240030e, 0x044405e0084b0000, 0x0000000000000000, 0x0000000000000000,
0x003e009b00f80155, 0x01e1029b03b20000, 0x0000000000000000, 0x0000000000000000,
0x009101140197021b, 0x02e003e605700000, 0x0000000000000000, 0x0000000000000000,
0x004f00b20116017a, 0x020f02d604010000, 0x0000000000000000, 0x0000000000000000,
0x008600f5016501d4, 0x027b035a04a80000, 0x0000000000000000, 0x0000000000000000,
0x003500b7013901bb, 0x027f0383050a0000, 0x0000000000000000, 0x0000000000000000,
0x004100b001200190, 0x0237031604650000, 0x0000000000000000, 0x0000000000000000,
0x004b009d00ef0141, 0x01bb025f03550000, 0x0000000000000000, 0x0000000000000000,
0x008100da0132018a, 0x020f02bf03c80000, 0x0000000000000000, 0x0000000000000000,
0x009200ff016c01da, 0x027e035904a10000, 0x0000000000000000, 0x0000000000000000,
0x004a00d3015b01e4, 0x02b103c2055c0000, 0x0000000000000000, 0x0000000000000000,
0x002a009100f90160, 0x01fc02cb04020000, 0x0000000000000000, 0x0000000000000000,
0x002e008600df0137, 0x01bc026d03770000, 0x0000000000000000, 0x0000000000000000,
0x002a00960101016c, 0x020d02e404260000, 0x0000000000000000, 0x0000000000000000,
0x004200b401250196, 0x0241032304780000, 0x0000000000000000, 0x0000000000000000,
0x000e007c00e90157, 0x01fb02d704200000, 0x0000000000000000, 0x0000000000000000,
0x004800c9014a01ca, 0x028b038d050f0000, 0x0000000000000000, 0x0000000000000000,
0x004c00b001140177, 0x020d02d403ff0000, 0x0000000000000000, 0x0000000000000000,
0xffec007100f6017b, 0x0243034d04dc0000, 0x0000000000000000, 0x0000000000000000,
0x004400b0011d0189, 0x022c030404490000, 0x0000000000000000, 0x0000000000000000,
0x004e00a700ff0158, 0x01dd028e03980000, 0x0000000000000000, 0x0000000000000000,
};

static uint64_t backbone_model3_conv2_conv1_weight[64 * 1*4] =
{ // torch.Size([64, 1, 1, 64])
0xcce70db5d3ede7ce,0xee744ed54257e64d,0xe64ee03ceda445e3,0x52d59dacd5db9bdd, 
0xe55a5c5c55d5eac2,0xe3b53d5cacbdc4e5,0xd1d3e674ddb355ed,0x45cd35cde5ec43c7, 
0x5c53da4de7435655,0x9533265df5564d55,0xabed92663643b9d5,0xc6d345c5dc6c3c45, 
0x46556c35d025e4d4,0xd4e54de43d4e6afc,0x33e4e5613c554c3c,0x56a42cd5266416bd, 
0xf43dceccc5eaeb4d,0x6ed263ed6eeb1443,0xf366ad6d3d5ceedd,0x5bccd4dedcedbdd5, 
0x35a60b6465edf4c5,0xac565de6646555dc,0x56e6f54edc34ed5d,0x66d5e5ec564566c5, 
0x344643ceedbdb54e,0x645454d4e5455004,0x6dbde5545ddadf3d,0x463c3554426f4655, 
0x65eb64ede5e35d35,0x4266cecdb655eeac,0x3bdcd6e9cc53ddd9,0x3b55c1ac5b46577b, 
0x46356eee4b5c4ed4,0x5fd3ddbf54653c6c,0x56c4d6c755cc4e24,0xd5d556e696796ac7, 
0xde66ead4054b5cee,0xfe6d4ee3fc55e3b6,0xd674b0dddcbbfed4,0x455566ede6ded4cc, 
0x74ca55cccd6e4de3,0x6caeb654cc9d41dc,0xdae6cddab1de3bdc,0xbb452b365cd36d45, 
0x545ccbe4bef55ed3,0xccb542be444dee64,0xbe4d5536444c6954,0x3ecf5c65d5344655, 
0x4ee4e32ddacc4454,0xd4c2b64cf2c4f447,0xd5c54c056535dc56,0xb56ed4ddca5cdc34, 
0xdbd1cddd4edcedcd,0x530cd95ad4cd4212,0x34ed7dd64d6c43dc,0xd5e1ee954d4eddcb, 
0xce54e6ac464b3a54,0x24ccd224fd5653d5,0xd454c365d94e7d24,0xfafd355ab3eb5ed6, 
0xe6cd5d55cee3cadd,0xd646eda662eecced,0x4bc4ddfd4d4ce25e,0xe95519d46e52c65d, 
0x597ede6ee66ddd6c,0xdce34c7d65e35d55,0x1ee6fe7e66756454,0x4deb261ede25fd27, 
0xd56642cc5dcd6cde,0xea54c56556c3df6d,0xe5654dd47533fde4,0xcd9ce465be435646, 
0x15bd1dddd6e5dc6d,0xbb5dd7dd6de5ece1,0x5d9b5cec5cc337d0,0xae4dbc5ceee5655d, 
0x56655455d36c262b,0xee4535d5656b5445,0x6637edee64a4d65d,0xc53594555665456a, 
0x56966ec552b36cd2,0x4de54f9d4b345cdb,0x04ebd6515a2b3f26,0x06b665cce6666d46, 
0xc54dde34ee6edcf4,0xdcc0656375dfe66a,0x35d646ecb66662b5,0x7e6c5dbcdcc5c75e, 
0x2c7ebdd3e4cedc57,0xdddccbccda3ed5de,0x4edceeed62bdeed4,0x15ce2de6de62169c, 
0xde4dd725ef963de4,0xf95c36d44edec3d6,0xc646bdcc64c55dd4,0x53df645e66ddee5d, 
0xefbdf6d6e5c651ed,0xec45ded6ec6cae47,0xe6566dd43df4cdf7,0xb4ee54de66dddcd0, 
0x5a5edede5e2c4ee4,0xce465465945db35c,0x3de654ec66e56da6,0x55a566c3cd256927, 
0x5553352665736e44,0xbd1ad36e6bdc654a,0xaecdeffbaedcf9c4,0xd6b536e14d354abd, 
0x5b369ed555aed5dc,0xcdd455dcd4c5dd4c,0x1bcc4044e54cd46d,0x3d47cc3ccea26cd5, 
0x5e7e750d2b557c66,0xe5625db4c42c46d6,0x1655f64db4e6ee55,0x535f5aeceedbc4ad, 
0xb6f5ddd6dde4e5de,0xfe56dc64665dfd65,0x56d56744696b666b,0xbe65cd5e5654f566, 
0x6d56e1ef4cdc5ee3,0x4e4b6c6ed4e4cd55,0x4eed56ed3dd34f55,0x465265ddc5cb6dd7, 
0x55cbece5d45d6ddd,0xdcb5d7bbeb66ee5b,0x4a6ed4cc6c4c1e2b,0xddd06664b563d365, 
0x5535d3d50fed95e1,0xc2c16b32c43deebc,0x6dececd32555e6cd,0x6d555cee6552cb4d, 
0x6dded5ccad05493d,0x5cce1dcde555ce57,0x355c55453564ebc3,0x465569d6e4532cbd, 
0x5ec5acd56edfd3ed,0x45abd3c5e46c04dc,0x9b35bcccedceeb4e,0xddddcdcd43cc6ed4, 
0x0e43b4c4d5c66653,0xdd523dddcc46ccd0,0xe96ea3b34bb3f2d5,0xa4d364d24544b45d, 
0xd16235ec50dd5504,0xbd4425c4513054a4,0xc953475ddc1b5a04,0x156d5e0ca6d54cc6, 
0x43f5e1dbdec3d5cd,0x55656a65dcc3e464,0xc45655a6d54663dd,0x64c5c4eb551ee6ee, 
0x6ceda55c3c545536,0x555d26d6a275b550,0xd03dd634e6eb7ad5,0x44b6e2d5755d549c, 
0x56964d33bd90b5e5,0xdbc6b4bc3650ad4e,0x6dcbddfc43b5d66d,0x3cd364d6cd54566b, 
0xc5dc54e555c6d3bd,0x4345cc96cde5ef44,0x56445353b4cc5431,0xcc36b4335cd1454d, 
0xe9e749ee55ed07df,0x2455dcd66056d5ec,0xbd5dde6feb43d5db,0xc0edce5dc05e6ede, 
0xdcd4e5d61ce5a45e,0x6553e555ccc52a45,0x42555d554d6e543d,0xe4c2d154dd4ef3c5, 
0x7da6a4db3d3e64ed,0xdd4dccc102c1dcdd,0xdcb94edddec35505,0xcbd54d4ac6d66ed4, 
0x1a3dda6bae7aaced,0xddcc3d7b26ee4465,0x45c75ed666620d5d,0xac35555edcd3c4e6, 
0xb3acece4cd4e5dd2,0xde3cd4c54af4dd63,0x63765df16cdcde75,0xd4c595514e53e15e, 
0x442b5cdd56556f7c,0x4d749bdd5dd56cbb,0x565f4bde4b43e5c5,0xb65655444505645d, 
0xc5454ddc1ad4f653,0x36654d65d539c5cc,0x69ead766c6465b45,0x65545cdb145ef6d5, 
0xa454cd5abe4c4ab5,0xd3d535c63dccc4cd,0xcfad41b555b3765d,0x3dcc436439534b54, 
0xe5e15bce5c9ce66d,0x3656dcd54656ebed,0x054545dcd44356cf,0xcdcde145e43dd4bb, 
0xd455ee6c34dce45d,0xede3594b76f5c49c,0x5d15e5b3b065226f,0x34125acecd0ee3c4, 
0x35f6236db1c5c65b,0xdd553bf2a556ce9b,0x4c6cdbe3cddbd5c9,0x3ad53d5c55dee1b3, 
0xe4616eed245dedd6,0x44ed5ecdcd1edccd,0x46d7dd6e2505fc65,0x6b6a29d5dcd3a4cb, 
0xd6cc55d47bcebbec,0x4cddb1ee6d5bb5c5,0xb6b0d25dde4cfbbd,0x1046ebbd37ec5cb0, 
0x5d6563d6d7c6666c,0x65d24e5ddc565e5c,0x6dfe6de6cfd5d556,0x435e6ddc4365654e, 
0xad5dcec4ed6dcd9c,0xed9a5dcda1dcee5e,0x3edecde47653edee,0x435ed2e6ed60c76c, 
0xcd53d5cd65c6544c,0xed556fc3255db3e5,0xda5e4654d3e6dcb5,0x6c2e6bebe9dcd4ab, 
0xc4bed4bcbfdb3ce3,0xdf44566559cedc64,0xda45d3d46de35ecc,0x5c3ce66e44ea4436, 
0xe556ede6c2d5e4ce,0xd3439d5573f6deb5,0x64e4db5d5e4b655e,0x0d05446e6dd4d546, 
0x563c5445b34cc5e4,0xe5acacccb55dbda4,0x353cdfcc5bc4e6cd,0x3ee4e4455144d36e, 
0xd254b614502cc635,0xf5c5535c65c4d604,0x52d4ec4fc4cac64f,0x535455dde5ddd6c3, 
0xe7957eb5b5db9eeb,0x4cedddad52cec53e,0x54e4dbcc9e4d4d6c,0xbd07cde5ded4e55c, 
0x635451d6657deddc,0x7cee66bf3eed6dd4,0xc5dc3e5d5e047649,0x5d56dc4d54c45446, 
0xb535566ee7257673,0x5c664d3f5de6545e,0xd65cdd2ccd66d446,0x364e55e45d44c74b, 
};

static uint64_t backbone_model3_conv2_quant1_threshold[64 * 4] =
{ // torch.Size([64, 14])
0xf953fb1cfc4cfd31, 0xfdc9fe61fefaff92, 0x002a00c2015a023f, 0x036f053800000000,
0xfb9afcc8fd91fe28, 0xfe8dfef2ff56ffbb, 0x0020008400e90180, 0x0249037700000000,
0xfc04fd94fe9fff67, 0xffed007200f8017d, 0x02020288030d03d5, 0x04e0067100000000,
0xfbc6fd42fe40fefe, 0xff7dfffb007a00f9, 0x017801f602750333, 0x043105ad00000000,
0xf92afa9cfb92fc4b, 0xfcc6fd41fdbcfe37, 0xfeb2ff2dffa90061, 0x015802c900000000,
0xfbbbfd74fe9aff77, 0x000a009d013101c4, 0x025702ea037d045a, 0x0580073a00000000,
0xfc56fd8dfe5dfef8, 0xff60ffc800300097, 0x00ff016701cf026a, 0x033a047100000000,
0xfc11fd6bfe53ff00, 0xff74ffe7005b00ce, 0x014201b5022902d6, 0x03be051800000000,
0xfa72fc62fdadfea5, 0xff4afff00095013a, 0x01e00285032b0423, 0x056d075d00000000,
0xf8fffac3fbf0fcd1, 0xfd68fdfefe95ff2b, 0xffc2005800ef01d1, 0x02fe04c100000000,
0xfbcbfd03fdd3fe6f, 0xfed7ff3fffa7000f, 0x007700df014701e4, 0x02b403ec00000000,
0xfa64fbfbfd0bfdd6, 0xfe5efee6ff6efff5, 0x007d0105018d0258, 0x036804ff00000000,
0xfb3efc97fd7efe2a, 0xfe9dff10ff84fff7, 0x006a00dd015001fd, 0x02e3043c00000000,
0xfaa3fbd9fca8fd43, 0xfdaafe11fe79fee0, 0xff47ffaf001600b1, 0x018002b600000000,
0xfa53fbddfce3fda8, 0xfe2cfeafff33ffb6, 0x003900bd01400205, 0x030c049600000000,
0xfa7dfbe0fcccfd7d, 0xfdf4fe6afee0ff56, 0xffcc004300b9016a, 0x025603b900000000,
0xf97cfb9dfd09fe19, 0xfecfff84003a00f0, 0x01a6025b03110421, 0x058d07ae00000000,
0xfb3cfcd0fdddfea8, 0xff2effb5003c00c2, 0x014901d002570321, 0x042e05c200000000,
0xfae4fc37fd19fdc3, 0xfe34fea5ff17ff88, 0xfff9006a00db0185, 0x026703bb00000000,
0xfd60fef8000900d5, 0x015d01e5026d02f5, 0x037d0405048d0559, 0x0669080100000000,
0xfb71fd08fe16fee2, 0xff69fff0007800ff, 0x0187020e02960361, 0x0470060600000000,
0xfa9cfc7dfdbdfeae, 0xff4effee008f012f, 0x01cf027003100401, 0x0541072200000000,
0xf96cfb2ffc5cfd3e, 0xfdd4fe6aff01ff97, 0x002e00c4015b023c, 0x0369052d00000000,
0xf9ddfb7bfc8ffd5e, 0xfde8fe72fefcff86, 0x0011009b012501f4, 0x030804a600000000,
0xf89bfa82fbc7fcba, 0xfd5cfdfefea1ff43, 0xffe50088012a021d, 0x0362054900000000,
0xfbf3fd71fe6fff2e, 0xffad002c00ac012b, 0x01aa022902a80367, 0x046505e300000000,
0xfa54fc0afd2efe09, 0xfe9bff2dffbf0051, 0x00e40176020802e3, 0x040705bd00000000,
0xfc03fd23fde3fe73, 0xfed3ff33ff93fff3, 0x005300b3011301a3, 0x0263038300000000,
0xfb07fcc5fdeffece, 0xff63fff8008d0122, 0x01b7024c02e103c0, 0x04ea06a900000000,
0xfa0ffc0ffd64fe64, 0xff0fffb90064010f, 0x01b90264030f040f, 0x0564076400000000,
0xf96efb39fc6bfd50, 0xfde9fe82ff1bffb4, 0x004d00e6017f0264, 0x0396056100000000,
0xfb85fceefddffe93, 0xff0cff84fffd0075, 0x00ed016601de0293, 0x038404ed00000000,
0xfa77fbfafcfbfdbd, 0xfe3efebeff3fffc0, 0x004100c201430204, 0x0305048800000000,
0xfc0dfd4ffe26fec7, 0xff33ff9e000a0075, 0x00e1014c01b80259, 0x0330047300000000,
0xfa1ffb60fc36fcd7, 0xfd42fdadfe18fe84, 0xfeefff5affc50066, 0x013c027d00000000,
0xfad7fc59fd5afe1b, 0xfe9cff1cff9d001e, 0x009e011f01a00261, 0x036204e400000000,
0xfbe4fd65fe65ff25, 0xffa5002500a50125, 0x01a6022602a60366, 0x046605e600000000,
0xfaddfc75fd85fe51, 0xfed9ff61ffe90071, 0x00f90181020802d4, 0x03e4057c00000000,
0xfc68fdf1fef7ffbc, 0x003f00c2014601c9, 0x024c02cf03520417, 0x051d06a700000000,
0xfba4fd23fe23fee3, 0xff63ffe3006200e2, 0x016201e202620322, 0x042105a100000000,
0xfca8fdc5fe82ff10, 0xff6fffce002c008b, 0x00ea014901a70235, 0x02f3040f00000000,
0xf810fa13fb6bfc6d, 0xfd18fdc4fe70ff1c, 0xffc80073011f0221, 0x0378057c00000000,
0xfad7fc49fd40fdf9, 0xfe74feefff6bffe6, 0x006100dc01580211, 0x0307047900000000,
0xfb37fc68fd32fdca, 0xfe30fe95fefaff60, 0xffc5002b00900128, 0x01f3032300000000,
0xfad6fc96fdc1fea1, 0xff36ffcc006100f6, 0x018c022102b70397, 0x04c1068200000000,
0xf9a2fb64fc90fd70, 0xfe06fe9cff32ffc8, 0x005e00f4018a026a, 0x0396055800000000,
0xfc0afd95fe9cff62, 0xffe5006900ed0170, 0x01f4027802fb03c1, 0x04c8065300000000,
0xfc97fdfcfeebff9d, 0x0014008b01020179, 0x01f0026802df0391, 0x047f05e400000000,
0xfc89fdbcfe89ff22, 0xff88ffee005500bb, 0x0121018701ee0287, 0x0354048600000000,
0xfacefc51fd53fe14, 0xfe95ff16ff960017, 0x00980119019a025b, 0x035d04df00000000,
0xfa68fbeefcf2fdb5, 0xfe37feb9ff3bffbd, 0x003f00c101430206, 0x030a049000000000,
0xfba1fcc9fd8efe22, 0xfe84fee7ff49ffac, 0x000f007100d40168, 0x022d035500000000,
0xfa3cfbe7fd04fdda, 0xfe68fef7ff850014, 0x00a2013101bf0295, 0x03b2055d00000000,
0xfb35fc80fd5dfe03, 0xfe72fee0ff4fffbd, 0x002c009b010901af, 0x028c03d800000000,
0xfb27fcedfe1cfeff, 0xff96002d00c5015c, 0x01f3028b03220405, 0x053406f900000000,
0xf84ffa78fbe9fcfe, 0xfdb7fe6fff28ffe0, 0x00990151020a031f, 0x049006b900000000,
0xfa8efc30fd46fe17, 0xfea2ff2dffb80044, 0x00cf015a01e502b6, 0x03cc056e00000000,
0xfa72fbeffceefdac, 0xfe2cfeabff2affa9, 0x002800a7012701e5, 0x02e4046100000000,
0xfa2ffbe0fd00fdd9, 0xfe69fef9ff8a001a, 0x00aa013b01cb02a4, 0x03c4057500000000,
0xfa7dfc0bfd14fddb, 0xfe60fee5ff69ffee, 0x007300f7017c0243, 0x034c04da00000000,
0xfcc5fde7fea9ff3a, 0xff9bfffc005d00be, 0x011f017f01e00272, 0x0333045600000000,
0xfa77fbf1fcecfda9, 0xfe27fea5ff23ffa0, 0x001e009c011a01d7, 0x02d2044c00000000,
0xfaddfc9bfdc5fea4, 0xff38ffcd006200f6, 0x018b022002b40393, 0x04bd067b00000000,
0xfb5ffd48fe8eff82, 0x002500c8016b020e, 0x02b1035403f704eb, 0x0631081a00000000,
};

static uint64_t backbone_model3_conv2_conv2_weight[64 * 1] =
{ // torch.Size([64, 1, 1, 9])
0xd7d56e56d, 
0x535b45fee, 
0xeff55f75d, 
0xff5ff9eed, 
0xedefedfee, 
0xb54abd3bf, 
0xdfeded1ec, 
0xe16d37567, 
0xcfdef4fc5, 
0x5f4754d65, 
0x57655c5df, 
0xdb4de24ef, 
0xced574bed, 
0x677de4ddc, 
0xcdeffdee5, 
0x576c56dc6, 
0x67547415a, 
0x2f57ee66f, 
0xb47c56d95, 
0xdfeeefc4a, 
0x6df6ffbfd, 
0x554765651, 
0x654766545, 
0xcc5d7babe, 
0xcf7cc6779, 
0xe46f66e55, 
0xe55e66f46, 
0x6d5be6f65, 
0xded25d57c, 
0x5dd4efbfe, 
0x27466c3e5, 
0xfeedc2566, 
0x73e75e65d, 
0x365fc65ec, 
0xee6ed6d77, 
0x775457da4, 
0x2b3576475, 
0xffefdeedd, 
0x6ff5de646, 
0xcdeefeeda, 
0xee1bef66b, 
0xf47e65d76, 
0xeefddeffa, 
0xde5c56467, 
0x576475e54, 
0xeee766654, 
0xf359d54f5, 
0xd65efeeff, 
0xce75edc6e, 
0xb36ed5fe6, 
0xde3c6746c, 
0x7df4be66e, 
0x75577dcce, 
0xbd4b55672, 
0xed6bfc5de, 
0xd76767766, 
0x3b2ced676, 
0xcd7ce6ac1, 
0xddd9ca677, 
0xceded3fe0, 
0x6753ebee4, 
0xed647b4be, 
0xffeefdfe6, 
0x4e55f55e5, 
};

static uint64_t backbone_model3_conv2_relu2_threshold[64 * 4] =
{ // torch.Size([64, 7])
0x0025008a00f00155, 0x01ed02b803e80000, 0x0000000000000000, 0x0000000000000000,
0x007a010c019f0231, 0x030c043005e60000, 0x0000000000000000, 0x0000000000000000,
0x006f0107019f0238, 0x031c044c06150000, 0x0000000000000000, 0x0000000000000000,
0x007c016d025e034e, 0x04b80699096b0000, 0x0000000000000000, 0x0000000000000000,
0x00c701b1029c0386, 0x04e606bb097a0000, 0x0000000000000000, 0x0000000000000000,
0x0051009f00ec013a, 0x01ae024903310000, 0x0000000000000000, 0x0000000000000000,
0x009a0158021502d2, 0x03ef056a07a20000, 0x0000000000000000, 0x0000000000000000,
0x0081011d01b90255, 0x033f0477064a0000, 0x0000000000000000, 0x0000000000000000,
0x0097013201cc0267, 0x0350048506560000, 0x0000000000000000, 0x0000000000000000,
0x004600ae0116017e, 0x021a02ea04210000, 0x0000000000000000, 0x0000000000000000,
0x006100d2014301b4, 0x025d033f04910000, 0x0000000000000000, 0x0000000000000000,
0x000800840100017c, 0x0236032e04a20000, 0x0000000000000000, 0x0000000000000000,
0x0010006d00cb0129, 0x01b5027003890000, 0x0000000000000000, 0x0000000000000000,
0x008b00f3015c01c5, 0x02610333046c0000, 0x0000000000000000, 0x0000000000000000,
0x006b0154023c0325, 0x04820653090c0000, 0x0000000000000000, 0x0000000000000000,
0x004a00d8016601f4, 0x02c903e4058e0000, 0x0000000000000000, 0x0000000000000000,
0x004b00e901860224, 0x0310044c06250000, 0x0000000000000000, 0x0000000000000000,
0x0093011e01aa0236, 0x0307041e05c00000, 0x0000000000000000, 0x0000000000000000,
0x007500de014801b2, 0x0250032404610000, 0x0000000000000000, 0x0000000000000000,
0x00bb015601f1028d, 0x037604ac067e0000, 0x0000000000000000, 0x0000000000000000,
0x003d00f901b50271, 0x038b050307370000, 0x0000000000000000, 0x0000000000000000,
0x004c00f001930237, 0x032d0474065f0000, 0x0000000000000000, 0x0000000000000000,
0x00810144020702ca, 0x03ef057507be0000, 0x0000000000000000, 0x0000000000000000,
0x0031008200d30124, 0x019d023f03320000, 0x0000000000000000, 0x0000000000000000,
0x004a00ce015201d6, 0x029c03a405300000, 0x0000000000000000, 0x0000000000000000,
0x0092012601ba024d, 0x032b0452060d0000, 0x0000000000000000, 0x0000000000000000,
0x006300c0011d017a, 0x020502bf03d60000, 0x0000000000000000, 0x0000000000000000,
0x007b00e8015501c2, 0x0265033e04850000, 0x0000000000000000, 0x0000000000000000,
0x008f00ed014b01a9, 0x023602f2040b0000, 0x0000000000000000, 0x0000000000000000,
0x0065010701a9024a, 0x033d048106660000, 0x0000000000000000, 0x0000000000000000,
0x0039008f00e4013a, 0x01bb026603680000, 0x0000000000000000, 0x0000000000000000,
0x00bd015601ee0287, 0x036b049c06660000, 0x0000000000000000, 0x0000000000000000,
0x003d00b8013201ad, 0x0264035904c80000, 0x0000000000000000, 0x0000000000000000,
0x001c006e00c10113, 0x018f0234032b0000, 0x0000000000000000, 0x0000000000000000,
0x007a01010188020f, 0x02da03e8057e0000, 0x0000000000000000, 0x0000000000000000,
0x002b00b6014101cc, 0x029c03b205530000, 0x0000000000000000, 0x0000000000000000,
0xfffc00c60191025c, 0x038c052107810000, 0x0000000000000000, 0x0000000000000000,
0x0079019902b903d8, 0x058807c70b260000, 0x0000000000000000, 0x0000000000000000,
0x007c00e4014b01b3, 0x024f031f04560000, 0x0000000000000000, 0x0000000000000000,
0x003200ef01ac0268, 0x038304fd07330000, 0x0000000000000000, 0x0000000000000000,
0x005f00da015401cf, 0x0286037b04eb0000, 0x0000000000000000, 0x0000000000000000,
0x005400d4015301d3, 0x02920391050f0000, 0x0000000000000000, 0x0000000000000000,
0x00be01d902f50411, 0x05bb07f30b470000, 0x0000000000000000, 0x0000000000000000,
0x005d00ee017f0210, 0x02ea040c05bf0000, 0x0000000000000000, 0x0000000000000000,
0x008b012301bb0253, 0x03370467062e0000, 0x0000000000000000, 0x0000000000000000,
0x007b00f4016c01e5, 0x029a038b04f40000, 0x0000000000000000, 0x0000000000000000,
0x002d008e00ee014f, 0x01e002a103c30000, 0x0000000000000000, 0x0000000000000000,
0x0094015f022a02f5, 0x042605bc081d0000, 0x0000000000000000, 0x0000000000000000,
0x0030008d00ea0146, 0x01d1028b03a10000, 0x0000000000000000, 0x0000000000000000,
0x006200d4014501b7, 0x02620346049b0000, 0x0000000000000000, 0x0000000000000000,
0x004500b1011d0189, 0x022c030504490000, 0x0000000000000000, 0x0000000000000000,
0x009c014401ec0294, 0x039004e006d80000, 0x0000000000000000, 0x0000000000000000,
0x0098014701f602a5, 0x03ac050a07170000, 0x0000000000000000, 0x0000000000000000,
0x000c008000f5016a, 0x0219030204600000, 0x0000000000000000, 0x0000000000000000,
0x003600a3010f017b, 0x021d02f504390000, 0x0000000000000000, 0x0000000000000000,
0x00c101fb03360470, 0x064708bc0c6b0000, 0x0000000000000000, 0x0000000000000000,
0x003b009900f70155, 0x01e1029d03b70000, 0x0000000000000000, 0x0000000000000000,
0x005100b201120173, 0x020402c603e80000, 0x0000000000000000, 0x0000000000000000,
0x005c00d2014701bd, 0x026d035904b90000, 0x0000000000000000, 0x0000000000000000,
0x00e40180021d02b9, 0x03a404dd06b30000, 0x0000000000000000, 0x0000000000000000,
0x005200d9016001e7, 0x02b103bf05540000, 0x0000000000000000, 0x0000000000000000,
0x0039009800f60155, 0x01e302a103bd0000, 0x0000000000000000, 0x0000000000000000,
0x00d801c702b603a5, 0x050b06ea09b70000, 0x0000000000000000, 0x0000000000000000,
0x0028008b00ee0151, 0x01e502aa03d20000, 0x0000000000000000, 0x0000000000000000,
};

static uint64_t backbone_model4_conv1_conv1_weight[64 * 1*4] =
{ // torch.Size([64, 1, 1, 64])
0x6654547c665e60b6,0x465c55554b6b6671,0x4054767665e45b55,0xcea44e66bc5e7f16, 
0xe5ded5944535e57d,0x54d635454c6e74c5,0xec4de3d5d36dd5f7,0x55ed544d26c3d6ed, 
0xe5e36dde4efb6b6e,0x5d66e3ec567d5eda,0x5539d9dfe4d56bb7,0xcc5d53d6c44d4e5d, 
0xccb4acc5b5c924dc,0xcae41b5545dddd1a,0x6ed0cbb5dd459604,0x6545240dc44c57e5, 
0x5f5c3c5d0ed5e645,0x4d647c4dea67e65b,0x66edde4db45d3c5c,0x65ccf5d56dc6ed39, 
0x495de5ce46a436d4,0x657bd3d6c44c0d6d,0x6edcbcd5344ee445,0x0554b3ac67e536cd, 
0xcc966656c6d0e53c,0xbdc6d5ed45554f5e,0x55d6c0cadc55e6f6,0x646dd2e556c547cd, 
0x56b4dd4c06cdecd4,0xa5e1bd4eecff3424,0xeedcc4b63e55a2e4,0xcced5b5dd45b56d5, 
0xdee45eeecc563cec,0x0f45444e04d7edec,0x54dceebddc4b4b3a,0xd36eddd02544bd3d, 
0x56cead6eb6666dd4,0xd6cd5b414ee6c6d4,0xc63e597435154d6d,0xedec144d55d3ced5, 
0xebeedfcee7d64dc6,0xd6e73de466cc6e5e,0xceddddceec5decc7,0xbd5e6d5e26d6ebdd, 
0x53c56d6b5dce6b59,0x6e5dd5ee44635c5c,0x6655c5566246442b,0x5bc5d34066657556, 
0xb5ddfcdc441b4c1c,0x4ce4e4d5dddf5de6,0xee3dcdc2335d4bc3,0x354d4dbe4bdaebec, 
0x5f6ee6ce3e5cd5dc,0xcd6d5e56f65ce4cd,0x5bfe4cdebcdcd62e,0x234bd6e95d6ce4cc, 
0x565ddbdeddcf3dd0,0xe65eedd246ecefd6,0xde0e36ce3eed5e7f,0x5beb63e5aeddcd55, 
0x97e0ed3e54cd5c5d,0x6b25ed6dd5cb7dcd,0x3dcde4dbbd35e5d6,0x3d60ee5d457555c5, 
0x9543715cc14bd303,0xcb253cac44464c0b,0xd61c345d9ccdc3cc,0x3c4bdcbe4b1adc52, 
0xb523c6db5ddbeb4d,0x312d452ad14e5b2c,0xdb5fa4ddd55dc414,0x54edcaed5cb5decd, 
0xe4edc0ecdfe6b45f,0xdecac53cd42deef5,0xc4bcfdeef569c3e4,0x562e46dd43c7d6a4, 
0xcbc2edddcb546bda,0x504d65dadc4dbdcc,0x4c4c3cc55c45335c,0xcccc2b5bc5437a52, 
0x569cde933dac4d51,0x53c95333d3dcd4b5,0xd4b54a4c04344e4f,0x3453ec412d37a545, 
0x65c7655456ed3d53,0xc27dee0bdedd6c54,0x25d6dbb545566564,0xc225456eee5c6c66, 
0xe5e565e4de21636e,0x5d656154b5564ada,0x653bf6ddfed56bdd,0xcd6db5e5c4655344, 
0x4d53c7a65fa5d55c,0x6d6df5c56d666e65,0x64765d4446cc9dee,0x5565ee44d1bec56d, 
0x56335e45d4542cd4,0xe5dd4470cde545c5,0x309a5b559c3555cd,0xdba1495edd5d42c5, 
0xd43ce5ded25546dc,0x6cca6c56f5b2dccd,0x4e4e2cced0c3e51b,0xec7054ddd5bd3312, 
0xc7de4ddeeed3dcd4,0xea0eb5d64c165b25,0x6564264ebc3bc55c,0xd2627cdacce51e25, 
0xedd2533cd4c45b4c,0xcc5665d53357cb5d,0x76553e5dd4c6ec66,0xdd5c55e6db4d6c6d, 
0x5ecd5137533c03c3,0xebe2c45d6cece25b,0xedd65acdbd5a725d,0x466bdad652d0d2d4, 
0xdc6dcdee5d56c30e,0xbdfd559dea44dbd4,0xc4ddb5eed45edddd,0x65cec5df54cdf5c5, 
0x4a9b4c6537ec5dec,0xb554fedd7ef4decd,0xddd6dd55cc5c7d5e,0x6459cc694cbe566c, 
0xdd5c52c45d2e56ea,0xbe5cece0e433df44,0xc44dc5ac5adce65c,0x65e3463d4d46d0d4, 
0x4c53e69dabeec4d5,0x5a4c5eedc55f5ebd,0xeeec3cc5bbd445b1,0xddecd5c6d46e5b4a, 
0x4bccedd39dac65c4,0xb3c33bdb973249b4,0x4d3244c32cbab6cd,0xc44cc3b646c553d5, 
0xc13b3a0c354eedc0,0x5dd5a5c3eeee4d4d,0x36a405e52d56533d,0x595cb64f5b5575dd, 
0xec39e6dacd0356eb,0x7e3dddef4d5c5ee4,0x5d49ded65dd556be,0xd2d0c606b753615b, 
0x453dd5d53565d44a,0x65ee455d5c656555,0xee6dc5e6543de6fb,0x46e4364e66d6e6e5, 
0xbad2d5c3c55b5244,0xb9263c256a3c4555,0x0d5656b45ddae9db,0xd3a476b6554cd4a4, 
0x562c66455aee3d55,0xe464fd5765e55b6a,0xcb06946dd5accd52,0x54652f50de5ecd63, 
0xce52223dc1cdcc15,0x5d564bdcd9ddad5d,0xc5ec44b64db64962,0xadcbd534c54e7c3c, 
0x5d6b6564c65b56b6,0xd65d1d3146c7ca51,0x5ce465765ce5e45c,0x3db6b255edde4655, 
0x51525ceb5aa5163e,0xead6b5c6f65cdd41,0xd60eedfefa61e5c4,0x3543d6df4d4acecc, 
0x56eded0de6dd7eed,0xb536edee255c6d4b,0xde45d6aedbb4dd56,0xbd4d6e6ebe452d35, 
0x364d5464cf15cd44,0x3bdd4bd335664bc5,0xd775463d5ced554e,0x33a45ccde243ee54, 
0xc4296b55c2555b33,0xe5e5465565575b04,0x5a51bd5bc591e1e5,0xb34bdcc455d4e5e5, 
0x66dddd5e55d57553,0xd6c61055e5ec55c6,0xd54c456b1666d265,0x53ce56a45c4653c5, 
0xeed5eb5cd534ddc5,0x5d55d4e55d5d4e6d,0x6d45dda3d45dccd5,0xbb544d4cc54e440f, 
0x4eb35e555ddc6d6e,0x4cee4ccf5b49e5d3,0x46c6df3564e756fc,0x4bebfe463456d69c, 
0x65cb5565c66255d7,0xe64264665be55766,0x55356c7a6be5c566,0xedd36c6ccccf3d55, 
0x430ddef5467a4dcc,0xb5ee696cd546b5c4,0xddbdd6d305c4d5ef,0x4b31db6bbcecf2e6, 
0xdbcd34ccc5ec65d5,0x5c36ecfd66543fdd,0x5dc4dd4cbddbda66,0x3d643d46eb2d4c6e, 
0x545eb64ddddeed46,0xe50becf7265dfd60,0xc64d662c5dedfe6c,0xddf56cc52ec6ec54, 
0x9e5d3564c4655532,0x0a449c455a66c443,0x7d363d2554c1e352,0xdc655553c2dcd645, 
0x5ba1ce645bd3de41,0x1cc5d55d6d43dada,0x6c534fc554455546,0xd903bf46c6535c55, 
0x565df44655454b24,0xc5dd2475eedd2606,0xb4656dc4565544dd,0x255cd54d4cd6cde5, 
0xcf23f4d6cf62cc5b,0x6dee7c45de6046ca,0xd96ddfd65b3d5ede,0xd4dbd5d5654bcdc2, 
0x37065ed5464d6e6c,0xc6ecdad46c0e6435,0xd635355565b46e25,0x6de46e46de3e392d, 
0x55b5c05ddc594add,0x5d3d3c4eed4cc0dc,0xd43e9bc62dc6655b,0xecfceba314556dba, 
0x246cd5d43b5dedb5,0x3d623e63ee4e5a54,0xbdc4ace6bea5d9d9,0x44c5696fdd4d54d4, 
0x4a6bf5eddeb5ec46,0x607c4d35c06cd55c,0x2c355ded3ceced4d,0xec556544d256dc6a, 
0x565cd6a5eddd544d,0x494dec6dd55044db,0xbd33d3c49dddbcda,0x2b55efcc9ba5d4c5, 
0xd41ef5e6eee5446d,0x6dbdfee9e76e7ded,0xce2bd2eba6eee6de,0xdf63fddd5e45f6dd, 
0xe16bcddc4de45ddd,0xfc46ddbdd65beedb,0x34eece4eebc5e055,0x993d5eebcd56de4d, 
0x563c46d5cdce646e,0x99c5526ee75936d3,0xdab536dacd4ce5e6,0x5545ddd07c47d5d5, 
};

static uint64_t backbone_model4_conv1_quant1_threshold[64 * 4] =
{ // torch.Size([64, 14])
0xfb04fe14001f01a8, 0x02ad03b304b905be, 0x06c407c908cf0a57, 0x0c630f7300000000,
0xfa08fc25fd8efe9d, 0xff52000600bb016f, 0x022402d8038d049b, 0x0604082200000000,
0xf4aef79ef993fb0b, 0xfc06fd00fdfbfef5, 0xfff000ea01e5035d, 0x0552084200000000,
0xfbfafd5dfe49fefb, 0xff71ffe7005d00d3, 0x014a01c0023602e7, 0x03d4053700000000,
0xf812fa74fc0afd3b, 0xfe06fed1ff9c0067, 0x013201fd02c803f9, 0x058f07f000000000,
0xfc35fde5ff06ffde, 0x006e00fe018e021f, 0x02af033f03cf04a7, 0x05c8077800000000,
0xfa7afc6efdbbfeb5, 0xff5c000200a9014f, 0x01f6029c0343043d, 0x058a077d00000000,
0xf6d1f91ffaa8fbcf, 0xfc93fd58fe1cfee1, 0xffa6006a012f0256, 0x03df062d00000000,
0xf703f8aaf9c5fa98, 0xfb25fbb3fc40fccd, 0xfd5afde7fe74ff48, 0x0062020900000000,
0xfa34fc27fd73fe6d, 0xff13ffb9005f0106, 0x01ac025202f903f2, 0x053e073100000000,
0xf62ff881fa0efb37, 0xfbfdfcc3fd89fe50, 0xff16ffdc00a201cb, 0x035805aa00000000,
0xfbabfdd4ff46005a, 0x011301cb0284033d, 0x03f504ae0566067b, 0x07ec0a1600000000,
0xf3c7f67ef84df9a9, 0xfa91fb78fc60fd48, 0xfe2fff17ffff015a, 0x032a05e100000000,
0xf5b8f833f9dbfb18, 0xfbecfcc0fd93fe67, 0xff3b000f00e20220, 0x03c7064300000000,
0xf4a2f727f8d5fa18, 0xfaeffbc6fc9dfd75, 0xfe4cff23fffa013d, 0x02eb057000000000,
0xfb04fca6fdbdfe8e, 0xff1affa5003000bc, 0x014701d2025e032f, 0x044605e800000000,
0xfc61fd7efe3cfeca, 0xff29ff88ffe70046, 0x00a50104016301f1, 0x02af03cc00000000,
0xf5a6f87afa5dfbc7, 0xfcb9fdaafe9cff8d, 0x007e0170026103cb, 0x05ae088200000000,
0xf254f564f76ff8f8, 0xf9fdfb03fc08fd0e, 0xfe13ff18001e01a6, 0x03b106c200000000,
0xfc80fd99fe55fee2, 0xff3fff9dfffb0059, 0x00b70115017201ff, 0x02bb03d400000000,
0xfa09fbd2fd02fde6, 0xfe7fff17ffaf0047, 0x00df0178021002f4, 0x042405ed00000000,
0xfca6fe6dff9b007f, 0x011601ad024502dc, 0x0374040b04a30586, 0x06b5087b00000000,
0xf966fb60fcb2fdaf, 0xfe58ff01ffaa0053, 0x00fc01a5024e034b, 0x049d069700000000,
0xf9ddfc40fdd8ff09, 0xffd500a1016d0239, 0x030403d0049c05ce, 0x076509c900000000,
0xfad1fca6fddefec8, 0xff650001009d0139, 0x01d50271030d03f8, 0x0530070400000000,
0xfa68fbeafcecfdae, 0xfe2efeafff30ffb1, 0x003200b3013401f5, 0x02f7047900000000,
0xf9bafb8afcc0fda8, 0xfe42feddff780013, 0x00ae014801e302cb, 0x040105d100000000,
0xf9f5fc4bfddaff05, 0xffcc0093015b0222, 0x02e903b0047805a3, 0x0731098700000000,
0xfa1cfbcdfceffdc8, 0xfe58fee9ff79000a, 0x009a012b01bc0295, 0x03b6056700000000,
0xf4d3f743f8e3fa1b, 0xfaebfbbbfc8afd5a, 0xfe2afefaffca0102, 0x02a2051100000000,
0xf715f983fb22fc59, 0xfd29fdf8fec8ff97, 0x006701360205033d, 0x04dc074a00000000,
0xf9fdfba5fcbffd93, 0xfe20feadff3bffc8, 0x005500e2016f0243, 0x035d050500000000,
0xf844f9f9fb1dfbf8, 0xfc8afd1cfdaefe40, 0xfed2ff63fff500d0, 0x01f403aa00000000,
0xfc3ffda0fe8cff3d, 0xffb30029009f0115, 0x018b020102770328, 0x0413057500000000,
0xfafefc78fd74fe31, 0xfeafff2dffaa0028, 0x00a6012401a2025f, 0x035b04d500000000,
0xf84cfa64fbc9fcd5, 0xfd87fe3afeecff9f, 0x0051010401b602c2, 0x0427063f00000000,
0xfb85fd74febfffb6, 0x005b010001a5024b, 0x02f00395043a0532, 0x067c086b00000000,
0xfb9bfdbaff240033, 0x00e8019d02520307, 0x03bc047105260636, 0x07a009bf00000000,
0xfa24fc38fd9afea4, 0xff55000700b80169, 0x021a02cc037d0487, 0x05e907fd00000000,
0xfae8fc5bfd53fe0c, 0xfe88ff04ff7ffffb, 0x007700f3016e0228, 0x031f049200000000,
0xf83afb8afdc0ff68, 0x0083019e02b903d4, 0x04ef0609072408cd, 0x0b020e5300000000,
0xf43df75bf96ffafe, 0xfc08fd12fe1cff26, 0x0030013a024403d3, 0x05e7090600000000,
0xf832fa3afb96fc9a, 0xfd48fdf5fea3ff50, 0xfffe00ab0159025d, 0x03b805c100000000,
0xfb04fcc1fde9fec7, 0xff5bffef00830117, 0x01ab023f02d403b2, 0x04da069600000000,
0xfc2dfdc5fed5ffa1, 0x002900b1013901c1, 0x024902d103590425, 0x053506cd00000000,
0xfddcff8600a30178, 0x02060294032203b0, 0x043e04cd055b0630, 0x074c08f700000000,
0xf826fa23fb76fc75, 0xfd1ffdc8fe72ff1c, 0xffc5006f01190217, 0x036a056700000000,
0xf5e5f87efa3afb86, 0xfc64fd42fe20fefd, 0xffdb00b9019702e3, 0x049f073800000000,
0xfa81fd77ff7000ea, 0x01e702e303e004dc, 0x05d906d507d2094c, 0x0b450e3b00000000,
0xf787f9f8fb99fcd2, 0xfda3fe73ff440014, 0x00e501b5028603bf, 0x056007d100000000,
0xf6f3f929faa2fbbd, 0xfc7afd36fdf3feb0, 0xff6c002900e60201, 0x037a05b000000000,
0xf87afa91fbf6fd01, 0xfdb4fe66ff18ffca, 0x007d012f01e102ed, 0x0451066800000000,
0xfb23fd7dff0e003b, 0x010301cc0294035d, 0x042604ee05b706e4, 0x08750ace00000000,
0xfb5afcd5fdd2fe90, 0xff0eff8c000b0089, 0x01070186020402c2, 0x03bf053a00000000,
0xfc28fe00ff3a0026, 0x00c3016001fe029b, 0x033803d50472055e, 0x0698087000000000,
0xf70af975fb11fc46, 0xfd14fde3feb1ff7f, 0x004d011b01e9031f, 0x04bb072600000000,
0xfc12fdbcfed8ffad, 0x003a00c8015601e4, 0x02720300038e0463, 0x057e072800000000,
0xf9cbfb4ffc51fd13, 0xfd94fe15fe97ff18, 0xff99001a009c015e, 0x026003e400000000,
0xfb77fcd9fdc5fe76, 0xfeecff62ffd8004e, 0x00c5013b01b10262, 0x034e04b000000000,
0xfa25fc22fd75fe74, 0xff1dffc70070011a, 0x01c3026d03170415, 0x0568076500000000,
0xfa9ffbecfccafd71, 0xfde0fe4ffebeff2d, 0xff9c000b007a0121, 0x01ff034c00000000,
0xf370f62cf7fff95d, 0xfa47fb30fc19fd03, 0xfdecfed6ffbf011d, 0x02f005ac00000000,
0xf5c5f7e4f94efa5e, 0xfb13fbc8fc7dfd32, 0xfde7fe9cff520061, 0x01cb03eb00000000,
0xfaf7fd0ffe74ff80, 0x003200e401970249, 0x02fc03ae0461056d, 0x06d208e900000000,
};

static uint64_t backbone_model4_conv1_conv2_weight[64 * 1] =
{ // torch.Size([64, 1, 1, 9])
0x5ebfffeef, 
0x354bedcfe, 
0xbe5ef5dd6, 
0xdec536776, 
0x2b5ee6fd7, 
0x656ed6cfd, 
0x4fe95e671, 
0xbfe2ee666, 
0xfd4fe4dfe, 
0xefeddb44b, 
0x676476d77, 
0xfd4f65e55, 
0xa35fe5fe5, 
0xe45d6d73f, 
0x6ee75ee55, 
0x3cf66456d, 
0xe24ed7ed5, 
0xc43df5555, 
0x56766666c, 
0x7df10e67c, 
0x767db6ffe, 
0xd96fc6eb5, 
0x35bffd9de, 
0x2344cbcfe, 
0xe6bf66f77, 
0x55657c5ed, 
0xfcdd75d4c, 
0x0e51d6557, 
0x657dfdece, 
0xfa4564665, 
0x07543dcd4, 
0xb16be5df5, 
0xdb69b5777, 
0x67914d3d4, 
0xee6f47d5c, 
0x977d56dd5, 
0xdd5ef5ee5, 
0xdbddc4367, 
0xeffeefcdd, 
0x345dc5257, 
0x944b75e3b, 
0x3644c35f5, 
0x676466e32, 
0x3fd5dd66c, 
0xeee55d75c, 
0xde0cd4efe, 
0x677c7661e, 
0x3f66cd57e, 
0x6d6efeded, 
0xef6ef72c7, 
0xc46d55b67, 
0xcf06ef67d, 
0xded467dd5, 
0x9ed6ce54f, 
0xfecd34d45, 
0xca3e45e67, 
0xcecd5756e, 
0x75a7726de, 
0x42e6af52e, 
0x5d06e36fe, 
0x666677676, 
0x5dd745777, 
0x3df4f9236, 
0x344563574, 
};

static uint64_t backbone_model4_conv1_relu2_threshold[64 * 4] =
{ // torch.Size([64, 7])
0x00e701ff0317042f, 0x05d308040b4c0000, 0x0000000000000000, 0x0000000000000000,
0x009f011b01960212, 0x02cb03c205340000, 0x0000000000000000, 0x0000000000000000,
