static uint64_t backbone_model0_conv1_weight[16 * 9] =
{ // torch.Size([16, 3, 3, 3])
0xb4b, 0xb31, 0xb4a, 0xc4a, 0xc43, 0xc42, 0xc3a, 0xc53, 0xc42,
0x344, 0xbbb, 0xcdc, 0x655, 0xb30, 0xcdd, 0x555, 0x545, 0xb30,
0x3b4, 0x494, 0x414, 0xbd8, 0x4c2, 0x584, 0xcdb, 0xbdb, 0x3b4,
0xcbb, 0x213, 0x443, 0xddc, 0xbbc, 0x554, 0xcbc, 0x922, 0x444,
0xb22, 0xdcb, 0xcca, 0xaa3, 0x2b0, 0xab2, 0x3b2, 0x4b3, 0x4a2,
0x42a, 0x343, 0x441, 0xbb3, 0xcbb, 0x212, 0xbc9, 0xddc, 0xcb0,
0x254, 0x665, 0x644, 0xa2b, 0x033, 0x443, 0xccc, 0xdec, 0xccb,
0x2c3, 0x3c3, 0x3b3, 0x3b4, 0x2d2, 0xcd8, 0x4b3, 0x3d3, 0x3d2,
0x38b, 0x3bb, 0x4bb, 0x4ba, 0x5bb, 0x4bc, 0x4cb, 0x5bb, 0x4bb,
0x422, 0x434, 0x444, 0x444, 0xab9, 0xddc, 0x434, 0xdbb, 0xeed,
0xddc, 0xbdc, 0x020, 0xddd, 0xcba, 0x534, 0x324, 0x434, 0x534,
0x3c3, 0x4c4, 0x3c3, 0x5b5, 0x3d4, 0x2d3, 0x4b4, 0x4c4, 0x3c3,
0x04b, 0xa5c, 0xb4c, 0xb4c, 0xc5c, 0xc5c, 0xb4b, 0xc5c, 0xc5c,
0xca4, 0xd34, 0xd33, 0xc35, 0xd44, 0xd34, 0xca3, 0xc45, 0xc25,
0x434, 0x554, 0x444, 0x223, 0x203, 0x38b, 0xccc, 0xeee, 0xcdc,
0xccb, 0xddd, 0xccc, 0x432, 0x2b0, 0x1ab, 0x434, 0x555, 0x534,
};

static int backbone_model0_relu1_threshold[16 * 7] =
{ // torch.Size([16, 7])
-369, -134, 100, 334, 687, 1156, 2095,
414, 914, 1414, 1915, 2665, 3665, 5666,
-166, -2, 162, 326, 573, 902, 1560,
-62, 138, 339, 540, 841, 1243, 2047,
-338, -189, -39, 109, 334, 633, 1231,
-681, -511, -341, -172, 82, 421, 1099,
37, 380, 723, 1066, 1581, 2267, 3640,
-656, -502, -348, -194, 35, 343, 959,
-18, 270, 559, 848, 1281, 1859, 3014,
-1788, -1462, -1135, -809, -319, 333, 1638,
-1188, -929, -671, -412, -24, 492, 1527,
292, 585, 879, 1173, 1613, 2200, 3375,
-117, 32, 182, 332, 557, 857, 1457,
-686, -472, -258, -44, 276, 704, 1560,
-719, -549, -379, -209, 45, 385, 1064,
-90, 43, 177, 311, 513, 781, 1317,
};

static uint64_t backbone_model0_conv2_conv1_weight[16 * 1] =
{ // torch.Size([16, 1, 1, 16])
0x815ca8aec2318a94,
0x5c3104b19cb4bb42,
0xc4223a4a243aca42,
0x04223c5a213bdb51,
0x22dd39a6a0c983ad,
0xd523bb3b155b44c1,
0x9022b5c8c34a54c3,
0x4c003c333b94cc42,
0xd4bb0e49434cc0ac,
0x4dbbb3db3ca52c1b,
0xc4a9bab9144b55d9,
0x2334a33353550133,
0x325b541a52842533,
0x2346d014e22a0c83,
0x4cba24d0bcb450c1,
0xc4ab2d3a242cb2ca,
};

static int backbone_model0_conv2_quant1_threshold[16 * 14] =
{ // torch.Size([16, 14])
-856, -562, -415, -305, -232, -158, -85, -11, 61, 134, 208, 318, 465, 758,
-695, -451, -329, -237, -176, -115, -54, 6, 67, 128, 189, 281, 403, 647,
-313, -131, -40, 27, 73, 118, 163, 209, 254, 300, 345, 413, 504, 686,
-444, -249, -151, -78, -29, 19, 68, 116, 165, 214, 263, 336, 433, 629,
-891, -592, -443, -331, -257, -182, -108, -33, 41, 115, 190, 302, 451, 749,
-786, -473, -316, -199, -120, -42, 36, 114, 192, 271, 349, 467, 623, 937,
-448, -246, -145, -70, -19, 30, 81, 131, 182, 232, 283, 358, 459, 661,
-470, -294, -206, -140, -96, -52, -8, 35, 80, 124, 168, 234, 322, 498,
-871, -612, -483, -386, -321, -257, -192, -127, -63, 1, 66, 163, 292, 551,
-858, -612, -490, -398, -337, -275, -214, -153, -91, -30, 30, 122, 245, 490,
-563, -280, -138, -32, 38, 108, 179, 250, 321, 392, 462, 569, 710, 993,
-260, 1, 132, 230, 296, 361, 427, 492, 558, 623, 689, 787, 918, 1180,
-312, 35, 209, 340, 427, 514, 601, 688, 775, 862, 949, 1080, 1254, 1603,
-832, -485, -311, -181, -94, -7, 79, 166, 253, 340, 426, 557, 730, 1078,
-658, -439, -330, -248, -194, -139, -85, -30, 23, 78, 133, 214, 324, 542,
-394, -263, -198, -149, -117, -84, -52, -19, 13, 45, 78, 127, 192, 322,
};

static uint64_t backbone_model0_conv2_conv2_weight[16 * 9] =
{ // torch.Size([16, 3, 3, 1])
0xc, 0xb, 0xc, 0x8, 0x4, 0x5, 0xb, 0x5, 0x6,
0x3, 0x1, 0x0, 0x3, 0x4, 0x4, 0xc, 0xd, 0xc,
0x0, 0xc, 0xa, 0xb, 0xc, 0x5, 0xc, 0x5, 0x3,
0x0, 0x3, 0xa, 0x0, 0x4, 0xd, 0x4, 0x3, 0xd,
0xc, 0xb, 0xc, 0xb, 0x3, 0x3, 0xb, 0x4, 0x6,
0xa, 0x9, 0x3, 0xa, 0xc, 0xd, 0x9, 0x8, 0xc,
0x2, 0x0, 0xb, 0x3, 0x3, 0xd, 0x3, 0x4, 0xd,
0x2, 0xa, 0xa, 0x4, 0x0, 0xc, 0xc, 0x6, 0xc,
0xb, 0x8, 0x0, 0x1, 0x3, 0x4, 0x0, 0x4, 0x5,
0xa, 0xa, 0xb, 0x2, 0xa, 0x9, 0x3, 0x5, 0x5,
0x3, 0x2, 0xc, 0x9, 0x5, 0x3, 0xc, 0xa, 0x5,
0xb, 0x0, 0x0, 0xb, 0x3, 0x4, 0x8, 0x4, 0x4,
0xa, 0xa, 0xa, 0x0, 0x3, 0x3, 0x1, 0x4, 0x5,
0xb, 0xa, 0xa, 0x8, 0x3, 0x4, 0x2, 0x5, 0x5,
0xb, 0xb, 0x3, 0xc, 0x5, 0x4, 0x3, 0x3, 0xb,
0xb, 0xb, 0x8, 0x2, 0x5, 0x5, 0x2, 0xc, 0xc,
};

static int backbone_model0_conv2_relu2_threshold[16 * 7] =
{ // torch.Size([16, 7])
-181, -89, 1, 93, 230, 414, 780,
33, 87, 141, 195, 276, 384, 599,
56, 112, 169, 225, 309, 421, 646,
22, 77, 131, 185, 266, 375, 591,
-106, -41, 24, 89, 187, 318, 581,
-91, -25, 40, 107, 206, 338, 603,
25, 79, 133, 186, 267, 375, 591,
67, 118, 168, 219, 294, 395, 597,
-111, -44, 21, 88, 188, 321, 587,
-82, -15, 51, 117, 217, 351, 617,
-48, 0, 49, 98, 171, 269, 465,
-18, 21, 61, 101, 162, 242, 403,
23, 54, 85, 116, 162, 224, 348,
-85, -23, 39, 102, 196, 321, 572,
-6, 38, 82, 127, 193, 282, 460,
35, 117, 198, 279, 401, 564, 890,
};

static uint64_t backbone_model1_conv1_conv1_weight[16 * 1] =
{ // torch.Size([16, 1, 1, 16])
0x34222d13ecb3b312,
0x4c013cc5011ba2a1,
0x123da335020a2240,
0xb542ac1ca4530140,
0x46109ca4bbb326b1,
0xaac44a92a08612ad,
0xbcacddbb01c21cbc,
0xda6542bc04003094,
0xd2112aca93b333e1,
0x4da124a44bcb29b2,
0xaba9bbc0a6a0b38a,
0xaa093d403053c092,
0x903b4b3ab82d00a5,
0xcb22b3e412090242,
0x8b654a8319cc01a4,
0x8c43b4012c42eb42,
};

static int backbone_model1_conv1_quant1_threshold[16 * 14] =
{ // torch.Size([16, 14])
-864, -592, -455, -353, -285, -217, -149, -80, -12, 55, 123, 225, 362, 634,
-481, -291, -196, -125, -77, -30, 17, 64, 112, 159, 207, 278, 373, 563,
-425, -217, -113, -34, 17, 69, 121, 173, 225, 277, 329, 408, 512, 720,
-659, -402, -273, -177, -112, -48, 15, 80, 144, 208, 273, 369, 498, 755,
-689, -358, -193, -69, 12, 95, 178, 260, 343, 425, 508, 632, 797, 1128,
-817, -511, -357, -242, -166, -89, -12, 63, 140, 216, 293, 408, 561, 868,
-1047, -802, -679, -587, -526, -464, -403, -342, -280, -219, -157, -65, 56, 302,
-670, -409, -279, -181, -116, -50, 14, 79, 144, 210, 275, 373, 503, 764,
-1054, -741, -584, -467, -389, -311, -232, -154, -76, 1, 79, 197, 353, 666,
-632, -403, -288, -202, -144, -87, -30, 27, 84, 142, 199, 285, 400, 629,
-475, -308, -225, -163, -121, -80, -38, 2, 44, 85, 127, 189, 272, 439,
-436, -252, -160, -91, -45, 0, 46, 92, 138, 184, 230, 300, 392, 576,
-760, -505, -378, -282, -218, -155, -91, -27, 35, 99, 163, 258, 386, 640,
-820, -559, -428, -330, -265, -200, -134, -69, -4, 60, 126, 224, 354, 615,
-791, -495, -347, -236, -162, -88, -14, 59, 134, 208, 282, 393, 541, 837,
-585, -375, -271, -192, -140, -88, -36, 16, 68, 120, 173, 251, 356, 565,
};

static uint64_t backbone_model1_conv1_conv2_weight[16 * 9] =
{ // torch.Size([16, 3, 3, 1])
0x2, 0x8, 0xa, 0x3, 0xc, 0xe, 0x9, 0x2, 0xb,
0x3, 0x3, 0xa, 0x5, 0x4, 0xc, 0x3, 0xd, 0xb,
0xb, 0xe, 0xd, 0x9, 0x8, 0x0, 0x3, 0x4, 0x5,
0x8, 0x2, 0x2, 0x0, 0xb, 0x3, 0x0, 0xe, 0xa,
0x2, 0x0, 0x1, 0xb, 0x5, 0x5, 0x9, 0x4, 0x4,
0xc, 0xd, 0x3, 0xb, 0xd, 0x1, 0x4, 0x2, 0x4,
0x1, 0x3, 0x3, 0x4, 0xb, 0x2, 0x4, 0xe, 0xd,
0x0, 0xb, 0x3, 0x2, 0xe, 0x0, 0x1, 0xc, 0x2,
0x1, 0x8, 0xa, 0x3, 0xd, 0xd, 0x3, 0xc, 0xc,
0x0, 0x2, 0x8, 0x3, 0xc, 0xe, 0x0, 0x8, 0x4,
0x0, 0xa, 0x1, 0xa, 0x6, 0xb, 0x2, 0x3, 0xb,
0x9, 0x0, 0xa, 0x9, 0x6, 0xb, 0xb, 0x8, 0x4,
0xb, 0x3, 0x3, 0x2, 0xd, 0xb, 0x3, 0xc, 0x2,
0xb, 0x3, 0x0, 0x3, 0xe, 0xc, 0x0, 0x3, 0x3,
0x8, 0x2, 0xa, 0x3, 0xe, 0x8, 0x0, 0xb, 0x2,
0x9, 0x2, 0x8, 0x1, 0xe, 0xc, 0x3, 0xd, 0x1,
};

static int backbone_model1_conv1_relu2_threshold[16 * 7] =
{ // torch.Size([16, 7])
-217, -129, -41, 46, 178, 354, 706,
-126, -63, 0, 62, 156, 282, 534,
-48, 66, 181, 296, 468, 697, 1156,
-171, -103, -36, 30, 130, 265, 533,
-187, -105, -22, 59, 183, 347, 677,
-190, -113, -36, 40, 156, 310, 618,
-173, -99, -25, 49, 160, 309, 606,
-174, -99, -24, 49, 162, 311, 610,
-156, -78, 0, 77, 194, 350, 662,
-113, -52, 8, 69, 161, 283, 527,
-154, -57, 38, 134, 279, 471, 856,
-249, -162, -75, 11, 142, 316, 665,
-137, -75, -13, 48, 140, 264, 512,
-202, -124, -46, 31, 148, 304, 615,
-103, -43, 17, 77, 168, 288, 530,
-265, -154, -42, 69, 236, 460, 906,
};

static uint64_t backbone_model1_conv2_conv1_weight[64 * 1] =
{ // torch.Size([64, 1, 1, 16])
0x3429a215519bab34,
0xb2d323ca310332db,
0x432bb34cc0a4a03a,
0xb8ac1b9d4b39222b,
0x220cbaaa4db4ab0b,
0xa492013cc22d12a4,
0xc2393a35242303a2,
0x2930bbb52333a003,
0x320a32ab249a3935,
0x91162aab24d12c99,
0xc321421c0cdb9bcc,
0x34a1ba385ad8420b,
0xa34a52bbb0828003,
0xa4494232b422c291,
0xbbb2cb33a48a51ab,
0x4b9ca408c3330191,
0x3cccb1b13ba35b23,
0xacaac9c133abc438,
0x21322b4c033204ac,
0x2bacabc94cbc3b48,
0x0059392caa9a49c3,
0x30c1c1bdaba8a0a3,
0x5012cc3aa00b2820,
0x34a4a99a4ad11922,
0xb8110b44ac2b32ac,
0x84a582824bcb049b,
0x4333ba4bbb00b93c,
0xc34abe3232bbab31,
0x435b419b1ac3d0bc,
0xccb01ba3b53b441b,
0xba4b4ca534a1ba3a,
0xb3c323d242dc3c93,
0xa304a8334d33b4c3,
0x60b1c4ac33940809,
0xb0b833bbb0a223d9,
0xacb1c8442b84329b,
0x2033324c2c2cbd43,
0xa325392981c990a2,
0x3a3b31a434330132,
0xba2d0bac1b2c239b,
0xa8320db32b1201aa,
0x324d39b3343bc033,
0xbb1a53c30aabc1c5,
0x323c2b3c84bb3152,
0xc1493d333a13c23c,
0xc3d3cb329bbb2a0b,
0xb33953b92bbbcaa3,
0x2594a83a4ac02bb8,
0xb3c1b23ab32143da,
0xd23c3b1142cabcbc,
0x35289a244ac4bb82,
0xc2234c32ab8a3b03,
0x4341a31ba882ca24,
0x0a4b40448230b324,
0xa8859219bac2cbbb,
0x481cb21c21c3ab3c,
0xa0202a833224232e,
0xac312a42b494b3c8,
0x33521c3b0931cd4b,
0x8c23c2d3328b3392,
0x04da3049b39058ab,
0xc034baa4393ab3bc,
0xc3c232bbb98da9b4,
0x2b9322bc21362aba,
};

static int backbone_model1_conv2_quant1_threshold[64 * 14] =
{ // torch.Size([64, 14])
-800, -416, -224, -80, 15, 111, 207, 303, 399, 495, 591, 735, 927, 1311,
-721, -496, -384, -299, -243, -187, -131, -75, -18, 37, 93, 177, 290, 514,
-505, -305, -205, -130, -80, -30, 19, 69, 119, 170, 220, 295, 395, 595,
-871, -592, -452, -347, -277, -208, -138, -68, 1, 71, 140, 245, 385, 664,
-766, -534, -418, -332, -274, -216, -158, -100, -42, 15, 72, 159, 275, 506,
-631, -415, -307, -226, -172, -117, -63, -9, 44, 98, 152, 233, 341, 557,
-494, -263, -147, -60, -2, 55, 112, 170, 228, 286, 344, 430, 546, 778,
-527, -299, -185, -99, -42, 14, 71, 128, 185, 242, 299, 385, 499, 727,
-410, -202, -98, -20, 31, 83, 135, 187, 239, 291, 342, 420, 524, 732,
-1147, -740, -536, -383, -282, -180, -78, 23, 125, 227, 329, 481, 685, 1092,
-992, -700, -555, -446, -373, -300, -227, -155, -82, -9, 63, 172, 318, 609,
-712, -429, -287, -181, -111, -40, 30, 101, 171, 242, 313, 419, 560, 843,
-475, -262, -156, -76, -23, 30, 83, 136, 190, 243, 296, 376, 483, 696,
-458, -244, -137, -56, -3, 50, 103, 157, 210, 264, 318, 398, 505, 719,
-642, -405, -286, -197, -137, -78, -19, 40, 99, 159, 218, 307, 426, 663,
-650, -405, -283, -192, -130, -69, -8, 52, 113, 174, 235, 326, 449, 693,
-678, -429, -305, -212, -149, -87, -25, 36, 98, 160, 223, 316, 440, 689,
-904, -649, -521, -426, -362, -298, -234, -171, -107, -43, 20, 115, 243, 498,
-491, -282, -177, -99, -47, 5, 57, 109, 161, 214, 266, 344, 449, 658,
-749, -503, -380, -288, -227, -165, -104, -42, 18, 79, 141, 233, 356, 602,
-518, -306, -200, -120, -67, -14, 38, 91, 144, 197, 250, 329, 435, 647,
-841, -598, -476, -385, -324, -263, -202, -142, -81, -20, 40, 131, 252, 496,
-573, -373, -273, -198, -148, -98, -48, 1, 51, 101, 151, 226, 326, 526,
-915, -614, -463, -351, -275, -200, -125, -49, 25, 100, 175, 288, 439, 740,
-633, -417, -308, -227, -172, -118, -64, -10, 43, 98, 152, 233, 342, 559,
-871, -564, -410, -295, -218, -142, -65, 11, 88, 165, 241, 357, 510, 818,
-532, -313, -204, -122, -67, -13, 41, 96, 150, 205, 260, 342, 451, 670,
-989, -671, -512, -393, -314, -234, -155, -75, 3, 83, 162, 281, 440, 758,
-1026, -677, -503, -372, -284, -197, -110, -23, 63, 151, 238, 369, 543, 892,
-707, -451, -323, -227, -163, -99, -35, 28, 92, 156, 220, 316, 444, 700,
-791, -466, -304, -182, -101, -20, 60, 142, 223, 304, 385, 507, 669, 994,
-1005, -686, -526, -406, -326, -247, -167, -87, -7, 72, 152, 271, 431, 750,
-571, -355, -247, -166, -113, -59, -5, 48, 102, 156, 210, 291, 398, 614,
-897, -538, -358, -223, -133, -44, 45, 135, 225, 315, 405, 539, 719, 1078,
-657, -453, -352, -276, -225, -174, -123, -72, -22, 28, 79, 155, 257, 460,
-537, -348, -253, -182, -134, -87, -40, 7, 54, 101, 149, 220, 315, 504,
-565, -339, -226, -141, -84, -28, 28, 85, 141, 198, 254, 339, 452, 678,
-667, -419, -295, -201, -139, -77, -15, 46, 108, 170, 232, 325, 449, 697,
-368, -161, -57, 20, 72, 123, 175, 227, 279, 331, 383, 461, 564, 772,
-1025, -718, -564, -449, -372, -296, -219, -142, -65, 11, 87, 203, 356, 663,
-634, -426, -322, -244, -192, -140, -88, -36, 15, 68, 120, 198, 302, 510,
-647, -389, -260, -164, -99, -35, 29, 93, 157, 222, 286, 383, 512, 770,
-725, -476, -351, -257, -195, -132, -70, -8, 54, 116, 178, 272, 397, 646,
-529, -295, -178, -91, -32, 25, 84, 142, 201, 259, 318, 405, 522, 756,
-696, -437, -307, -209, -144, -80, -15, 49, 114, 179, 244, 342, 471, 731,
-780, -561, -451, -369, -314, -259, -204, -149, -94, -39, 15, 97, 207, 426,
-659, -412, -289, -196, -135, -73, -11, 49, 111, 173, 234, 327, 450, 696,
-834, -549, -407, -301, -230, -159, -88, -17, 53, 124, 195, 302, 444, 728,
-731, -475, -347, -251, -187, -123, -59, 4, 68, 132, 196, 292, 420, 676,
-1081, -770, -614, -497, -420, -342, -264, -186, -108, -30, 46, 163, 319, 630,
-863, -505, -326, -192, -103, -13, 75, 165, 254, 343, 433, 567, 746, 1104,
-502, -309, -212, -140, -91, -43, 4, 53, 101, 149, 198, 270, 367, 560,
-434, -241, -145, -73, -24, 23, 71, 119, 168, 216, 264, 336, 433, 626,
-362, -156, -52, 24, 76, 128, 179, 231, 283, 335, 386, 464, 567, 774,
-689, -466, -355, -272, -216, -161, -105, -49, 5, 61, 116, 200, 311, 533,
-652, -444, -340, -262, -209, -157, -105, -53, -1, 50, 102, 180, 284, 492,
-709, -453, -325, -229, -165, -101, -37, 26, 90, 154, 218, 314, 442, 698,
-685, -413, -277, -175, -107, -38, 29, 97, 165, 233, 301, 403, 539, 811,
-700, -407, -260, -150, -77, -3, 69, 142, 216, 289, 363, 473, 619, 913,
-770, -508, -377, -279, -213, -148, -82, -17, 48, 113, 178, 277, 408, 670,
-576, -360, -252, -171, -117, -64, -10, 43, 97, 151, 205, 286, 394, 610,
-658, -434, -322, -238, -181, -125, -69, -13, 42, 98, 154, 238, 350, 574,
-746, -524, -413, -330, -275, -219, -164, -108, -53, 2, 57, 140, 251, 473,
-619, -349, -215, -114, -46, 20, 88, 155, 222, 290, 357, 458, 593, 863,
};

static uint64_t backbone_model1_conv2_conv2_weight[64 * 9] =
{ // torch.Size([64, 3, 3, 1])
0xb, 0x3, 0x3, 0xb, 0x4, 0x2, 0x4, 0x6, 0xb,
0xa, 0xc, 0x4, 0x3, 0x6, 0xb, 0x3, 0xc, 0xb,
0xa, 0x4, 0xc, 0xa, 0x3, 0xd, 0x3, 0xb, 0xd,
0xd, 0xd, 0xa, 0xc, 0x4, 0x4, 0xb, 0x4, 0x4,
0xc, 0x2, 0x4, 0xa, 0xe, 0x3, 0x2, 0x3, 0x2,
0x2, 0xc, 0xd, 0xb, 0x4, 0x9, 0x5, 0x6, 0x2,
0xd, 0xd, 0x4, 0xd, 0xc, 0x4, 0x3, 0x3, 0x4,
0xc, 0xc, 0xd, 0x5, 0x4, 0xd, 0x4, 0x0, 0xc,
0x5, 0x0, 0xb, 0x4, 0xa, 0xc, 0x4, 0xb, 0xd,
0x4, 0x4, 0x4, 0x4, 0xb, 0xc, 0xb, 0xd, 0xd,
0x4, 0x5, 0xc, 0x5, 0x5, 0xc, 0x3, 0x3, 0xc,
0x4, 0x2, 0x2, 0x3, 0x5, 0xa, 0xb, 0x4, 0x9,
0x2, 0x4, 0xb, 0xd, 0x3, 0x5, 0x3, 0xc, 0xb,
0x8, 0x3, 0x3, 0xb, 0xb, 0x4, 0xd, 0xd, 0x5,
0x3, 0x4, 0x0, 0xc, 0x3, 0x5, 0xa, 0xd, 0x9,
0x3, 0x5, 0x4, 0xa, 0x3, 0x4, 0xc, 0xd, 0xc,
0x0, 0x4, 0x4, 0x3, 0x5, 0x2, 0x8, 0xc, 0xb,
0x1, 0xa, 0x3, 0x3, 0x3, 0xa, 0xd, 0xd, 0xc,
0xc, 0xc, 0xb, 0xc, 0x3, 0x0, 0x4, 0x5, 0x2,
0xb, 0x2, 0x4, 0xb, 0x4, 0x6, 0xb, 0x9, 0x3,
0xb, 0xc, 0xb, 0x4, 0x5, 0x4, 0xb, 0xc, 0xb,
0x1, 0xb, 0xa, 0xc, 0x3, 0x6, 0xb, 0xb, 0x5,
0x3, 0x1, 0x0, 0x3, 0x5, 0xc, 0xb, 0x6, 0xd,
0x3, 0xb, 0xc, 0x5, 0x2, 0xc, 0x4, 0x3, 0xd,
0x5, 0x4, 0xb, 0xc, 0xa, 0xb, 0x4, 0x4, 0x3,
0xb, 0x4, 0x4, 0xc, 0x0, 0x5, 0xd, 0xd, 0xb,
0x3, 0x2, 0x0, 0x6, 0x9, 0xc, 0x4, 0xd, 0x3,
0x0, 0x4, 0x3, 0x0, 0x6, 0x3, 0x4, 0x3, 0xb,
0xc, 0x3, 0x3, 0xb, 0xd, 0x3, 0x3, 0xb, 0xc,
0xc, 0xb, 0xb, 0xb, 0xd, 0xc, 0x3, 0x3, 0x3,
0xc, 0x0, 0x3, 0xb, 0x2, 0x0, 0xc, 0xd, 0xc,
0xa, 0x5, 0x2, 0x3, 0x6, 0x1, 0x2, 0xb, 0xb,
0x4, 0x4, 0xc, 0x5, 0x4, 0xd, 0xc, 0xc, 0xc,
0x2, 0x3, 0x2, 0x1, 0xa, 0x3, 0x3, 0xd, 0xe,
0x4, 0x4, 0xa, 0x5, 0x2, 0xd, 0x3, 0xb, 0xa,
0xb, 0x3, 0x2, 0xd, 0xc, 0x2, 0x4, 0xc, 0xa,
0x2, 0xb, 0xa, 0xa, 0xc, 0x4, 0x4, 0x6, 0x3,
0xb, 0xc, 0xc, 0x4, 0x3, 0xd, 0x5, 0x4, 0x0,
0xd, 0x3, 0x4, 0xd, 0x4, 0x4, 0xd, 0x2, 0x4,
0xb, 0xd, 0xe, 0x1, 0xc, 0xc, 0x5, 0x5, 0x4,
0x2, 0xc, 0x3, 0x3, 0xd, 0x4, 0x3, 0xc, 0x3,
0x3, 0x3, 0x5, 0x4, 0x4, 0x3, 0xd, 0xd, 0xb,
0xd, 0xb, 0x3, 0x0, 0xe, 0x3, 0x1, 0xb, 0x0,
0xb, 0x2, 0xb, 0xb, 0xa, 0xc, 0xa, 0xd, 0x3,
0xb, 0xb, 0xa, 0xb, 0xc, 0xa, 0x5, 0x6, 0x3,
0xa, 0xb, 0x9, 0xb, 0x9, 0xc, 0xa, 0x6, 0x4,
0x4, 0xa, 0xc, 0x3, 0x5, 0xc, 0xc, 0x4, 0xc,
0xc, 0xc, 0x0, 0xd, 0x3, 0x5, 0xd, 0x4, 0x4,
0x5, 0x5, 0x4, 0x2, 0xc, 0x8, 0xb, 0x1, 0xa,
0x3, 0x9, 0xb, 0x4, 0xb, 0xc, 0x8, 0xc, 0xd,
0xb, 0x4, 0xb, 0x9, 0x5, 0x5, 0xb, 0xb, 0x5,
0x9, 0x0, 0x5, 0xc, 0x1, 0x5, 0xa, 0xc, 0xc,
0xa, 0xc, 0xc, 0xc, 0xd, 0xb, 0x3, 0x5, 0x4,
0xb, 0x4, 0x3, 0x3, 0x4, 0x2, 0x4, 0xe, 0xc,
0xc, 0x2, 0x5, 0xd, 0x2, 0x4, 0xd, 0xa, 0x4,
0xc, 0xa, 0x4, 0xa, 0x4, 0x3, 0x4, 0x4, 0xd,
0x9, 0xa, 0xa, 0x3, 0x4, 0x0, 0x5, 0x6, 0xa,
0xb, 0xb, 0x3, 0x4, 0x6, 0x4, 0x2, 0x1, 0x9,
0x0, 0x0, 0x2, 0x1, 0x5, 0x1, 0x3, 0x5, 0xc,
0xd, 0xa, 0xb, 0xc, 0xb, 0xa, 0x3, 0x5, 0x3,
0xb, 0xc, 0xb, 0x4, 0x5, 0x5, 0xb, 0xc, 0xb,
0x0, 0xc, 0x2, 0x3, 0xd, 0x3, 0x3, 0xd, 0x0,
0xb, 0x8, 0x3, 0xc, 0x3, 0x6, 0x2, 0xa, 0x4,
0xb, 0x4, 0x0, 0x4, 0x5, 0xb, 0x4, 0xb, 0x2,
};

static int backbone_model1_conv2_relu2_threshold[64 * 7] =
{ // torch.Size([64, 7])
85, 162, 238, 315, 430, 583, 889,
-4, 55, 116, 176, 266, 387, 628,
-100, -8, 82, 174, 311, 495, 861,
-45, 32, 111, 190, 308, 466, 781,
46, 101, 155, 209, 290, 399, 615,
-64, 24, 114, 203, 337, 516, 873,
-51, 15, 81, 147, 246, 378, 642,
-42, 24, 91, 158, 259, 393, 661,
-33, 35, 104, 174, 278, 417, 694,
-193, -70, 53, 176, 361, 607, 1100,
-49, 16, 82, 148, 246, 378, 640,
-1, 53, 108, 164, 246, 357, 578,
38, 86, 134, 181, 253, 348, 539,
-37, 23, 84, 144, 236, 357, 600,
-13, 34, 82, 129, 201, 297, 488,
69, 108, 147, 186, 245, 323, 479,
7, 56, 105, 154, 228, 326, 523,
-2, 43, 89, 135, 204, 295, 479,
-27, 19, 67, 114, 186, 281, 471,
-62, -5, 51, 108, 193, 307, 536,
49, 105, 161, 217, 300, 412, 636,
-34, 42, 119, 196, 311, 465, 772,
80, 147, 213, 279, 379, 511, 776,
37, 75, 112, 150, 206, 282, 432,
13, 57, 101, 145, 211, 300, 476,
4, 49, 94, 138, 205, 294, 473,
15, 71, 126, 182, 266, 377, 600,
-121, -44, 31, 108, 222, 375, 682,
22, 58, 94, 130, 184, 257, 401,
-69, -5, 58, 122, 217, 345, 601,
-8, 45, 99, 153, 234, 342, 558,
-5, 80, 165, 250, 377, 548, 888,
40, 89, 137, 185, 258, 354, 548,
-53, 10, 75, 139, 236, 364, 622,
39, 89, 139, 188, 263, 363, 563,
-20, 30, 82, 133, 210, 313, 520,
-86, -6, 74, 154, 275, 436, 758,
64, 117, 169, 221, 300, 405, 614,
51, 111, 171, 231, 321, 440, 679,
-30, 98, 226, 354, 547, 804, 1317,
50, 89, 128, 168, 227, 306, 463,
58, 106, 155, 203, 276, 373, 567,
-86, -11, 63, 138, 251, 401, 701,
-25, 29, 84, 139, 221, 331, 551,
-1, 54, 109, 164, 247, 357, 578,
-17, 43, 105, 166, 259, 382, 629,
50, 103, 156, 209, 288, 393, 604,
20, 61, 101, 142, 203, 284, 446,
-21, 25, 73, 121, 192, 287, 478,
-16, 44, 104, 164, 254, 375, 616,
102, 160, 218, 276, 362, 478, 708,
20, 72, 124, 175, 253, 356, 563,
18, 84, 150, 216, 315, 447, 712,
-59, 0, 58, 117, 205, 324, 560,
79, 120, 161, 202, 263, 345, 508,
-12, 31, 75, 120, 187, 275, 453,
-91, 1, 94, 187, 327, 513, 885,
79, 150, 221, 292, 399, 542, 826,
-4, 45, 94, 144, 218, 318, 516,
4, 56, 108, 161, 239, 344, 553,
46, 104, 162, 220, 306, 422, 653,
9, 51, 93, 134, 197, 281, 449,
-26, 41, 110, 179, 282, 419, 694,
25, 78, 131, 185, 264, 371, 583,
};

static uint64_t backbone_model2_conv1_conv1_weight[64 * 1] =
{ // torch.Size([64, 1, 1, 64])
0x2b3ccb4b34bbd239,0xabc3ac440a353c3a,0x4214dbb4338c4043,0x428cc934403443a3,
0xac34b44348b2b4ab,0x3c34bb9545a2c15a,0x432cb2c214b32532,0x3b1bbb44b5b30c99,
0xa3c213040c833ba3,0xcb44ca4cbb3b9c4a,0x09b44d34bcb4a931,0x804a20bd0cb2a3c0,
0x24493984103d4c22,0x322244bcbb1c3443,0xb44125232c8bc2bb,0xbc848331b39ac30d,
0x04144d23aa4c1a85,0xb38a5a0a534b13bb,0x43cbc11329334cca,0x318c0450cca944ab,
0x3b03324528980cb3,0xab03394c42c2b154,0x4cb33b4bcc13b302,0x43230451b030824d,
0x3420b034b34c3c03,0x2aa543a9bb22a299,0x33b04b533941abb4,0x08cc3b444a3443b3,
0xabab3bc3ba0b33cb,0x3b3b3b3b54a3b34c,0x0342a9340caba3bc,0x3c44141bb44c2290,
0xbb2cbb0c43c33c2b,0xd3b9bbb103333ba3,0x1ac498cb32ac4091,0x1533c4313b32bbb2,
0x23d440b0bc1a42d5,0x233bba3bca94b03b,0xbc0ba43bcbd48c2c,0x32c923cccc3c9411,
0xb2a1b4bb30b0c23a,0x39b434393b9a1cd9,0x2a3b5a0b1332c43c,0x989c3c9901db4caa,
0x342bb45242c3a230,0xb1c330328aa43222,0xacc18003bb3b4443,0x34cbbb3c43953a83,
0xac44c1b039ab03c1,0xc2b4c2b340cc0234,0x5c2aac499a1a92a1,0xab334344ca1c3c53,
0x333bbba2331c340c,0x0548cb34243b2342,0xb444c3b09c123b28,0x0385b404a4141a9b,
0x9231b434b82b2a20,0x2cc31d2028d310c2,0x0a4bb2c2bb324414,0xc1ccc42bc3cc33b4,
0x35aa438333bb2d4c,0x2a31bbb3cc9c2093,0x144b1422341bb3b9,0x1cb8233b4329c0cc,
0xaabbabc118c334b2,0x3aa2d2a8a233c382,0x48b2b933b3b2a3b8,0x9b3213b0b223bd34,
0x3340201b32822a23,0x432bc432a285952c,0xcb22ab2b3a985935,0x8233c9b90b1b1411,
0x3802bb4aa0c29c4b,0xb0c399a333ca32cd,0xdbc31b90c18333a4,0x28aad24302243a13,
0x4d1acb1831410401,0x1a483c23438b3a43,0xc443ab21b9c494a4,0x132ca32bc4aca2bc,
0xca43c323a9434a2a,0x14c4484cbb3aac92,0xb42252ab2a530332,0x32b080380bc23bc2,
0x4033343c32932c91,0x2432b43bbc34490b,0x9cc4233bb2b33834,0x24b4cb130ba4c34b,
0x2bc99b320a3aca33,0x9a43bd4b34b4bb48,0x4524cb032bb33c32,0x3c4a251b3c133209,
0x992bcb9242dada42,0xb9c08ab331bcba23,0x4c94db23c3c140c2,0xbc4b34acc433ca88,
0xb9b09cac9a34bb33,0x232db4c3b34425c8,0xc2a3c3a8a5034ab1,0x3344249c3443cb24,
0xb3c20a3b24234c3c,0xb343342a33500233,0xa2d2aab24483b0ba,0x4245cc434a14aa9b,
0xdd2aa3913443bb8c,0x49834b02a3bb3bc4,0x88c89c2433bad44c,0x32cab43335c3babc,
0xa9c40a42a1dab4bc,0x3bbba0cadabcbbaa,0xbc3a3ba3b3b38b49,0xbcccb2cb44a9c4b5,
0xac3a305233b3b448,0x2c32b91b440a1032,0xbbc43432c2ba2bb5,0x4a4ba43cc553c420,
0x43bbba0b3dc0c4c3,0xbcccaacd3ad2bccc,0x49431bccacbbb8cb,0xc8b0accccd0b09a5,
0xb4228b2cccc03222,0xd432caba9b322ccb,0x4cb34b22b90abb22,0xa3a403ba3a22a8c4,
0x1a30bbbd03b234cc,0x44bcb9a3b13338bb,0xb24bcb4c32a04c31,0x9032a3cbbc3a14c3,
0x3ad2c3252c33a2b3,0x3bcabb2db4aac2b3,0x3adbabbbcdb423a4,0xb33c323dc9cba241,
0x433cb33c142b3c2b,0x11bc8b9b33cba3b0,0x22c0843cb10b83a2,0xb9b1eb4bbbb3baac,
0x9bba0293ac2cdb43,0xcb324c41145a3033,0x9320bcc44cb93a23,0x4b4bb440c4820218,
0xb9409ab244acbc3c,0xc4bccb01cc3c1034,0x3bb2b1cc418148c2,0xa48219441ccb4b33,
0xb33bb0cc03233b2c,0x3c4b04c40913abb2,0x30baa31144ab80ab,0x22b32ba3344303cb,
0x3cacb03ba1c3b4b0,0x13cc2c20023a3308,0xab2822223b4aa932,0x24bcb3c803bb1200,
0xcbc2b4c83b3cabc0,0xbc4cc3cbacca249b,0xca0c42cba22bb2b0,0xcaba3ac3b30bc3c9,
0xabcccc9bb3bc2499,0x33ca44d3b5acd4ca,0x3cba818a435cb2d8,0xbacb3084432249c3,
0xbdb44dbcca3d323a,0x4cab3bc33bcccbcc,0x3133cb9cc293dbcb,0x0cbc30b80bcb3bc2,
0x950a0b0b01bc3b53,0xbac1ccc213b3baa9,0xb51314ab2330abcb,0x088bd43a91423bcc,
0x88b44c8443492942,0x3c4234cb49cbc23b,0xc3c4422433232dc3,0x38514d444aa3a233,
0xa0b3bc3304a32b39,0xcc2323b34382bc93,0x3cc34c832ab3d9ca,0x534b8c3b3cb322bb,
0x31408bac34ab2a2b,0x133c0bb5a9204b5c,0x05a4c23b44cb4b43,0x1444c2a1a333b5b4,
0x90c45b1ab1a4a3a4,0x49bc4a18b309b3cb,0x08cdc4a8b2b49c4b,0xbabb2aacb2cac244,
0x0cc23244bcca2a0b,0xdb353cbcbbb3bc4b,0xd2428acadc223314,0x49abdcaac3a933a4,
0x12302c4330b3bb34,0xc2bb2ba3c3bc0345,0x51cac22341334a9b,0xc339455253b23b4c,
0x4b3cc9ac154bb22b,0x44cc318c44a22302,0x9332334a443c8bbb,0xb44394a2a94a4cac,
0xc9b4b93bb0a433b4,0xb44a004ba343bb4b,0x22c4bb33a3a54c48,0x24b59ca42c4434a4,
0xbcb6b1229cb4c4b3,0x0204025314a4b4cc,0xc8cc9cb3b2b64243,0xa133bcba0acbbc41,
0x12b44a32cac53a44,0xb2a48c3b2b8babdb,0x4a99431491044433,0x2b09133c1cc31c14,
0x2b4c344a4342b34b,0x2d3a1345b1c39594,0xc43bb4c34510ba49,0xcd3cbb2a3b0bbc3b,
0xbb41a3cc03bb3cbc,0xb0341c4a32334b44,0xcd00cd3b2cbabb31,0x4ca2a2314a2bbacb,
0x0aba233b2b111c0b,0xd02abc819b114a1c,0xd2343bc291294403,0xa3c2d234cb3c30bc,
0x3b0cb30ca48c333c,0x44a5c4ba35418413,0x22a4331c4a4c38c1,0x3413ba8143a33cc3,
0xac3032a43a03a393,0x11b3233b0c0523b9,0x2ccbc2baab094c32,0x3c3304b02abbbc5c,
0xcb1204ad5dc3aaab,0xcccbabc0a8bbd325,0x5cbbb4cc41a38b1c,0xaac1401bcbcc1c42,
0x43890c32ab391bb2,0x03c04c22ba0a0419,0x432adb38ba023b28,0x8bc294ab4b24413b,
0xcdb43bbbcb4b0bbb,0x3b83cdb1398dac24,0x8a3bac41b8b3c4dd,0x8d2b33b3b9203cda,
0x4b2d34344c30322a,0x2dc091b9a3c1b4c4,0xa33cb4dbbcbd24a3,0xbb2d3a2bc8ac2b4b,
0xb9b22bcca3acc332,0x44cb3cba333bb2b4,0x0bbcb31c88a23caa,0xba33b4ddbabbbc43,
0xb43ac82c2ac124bc,0xc2abcbbc930c2c90,0x2b4b4b323422b23c,0xbbca944b543cbbc4,
0x344ca45954b33b38,0x15a4c334b123522a,0xc3124332250ca340,0x24b48140b445bb3a,
};

static int backbone_model2_conv1_quant1_threshold[64 * 14] =
{ // torch.Size([64, 14])
-1164, -751, -544, -389, -286, -182, -79, 24, 127, 230, 334, 489, 695, 1109,
-838, -485, -308, -176, -88, 0, 88, 176, 265, 353, 441, 574, 750, 1104,
-1047, -680, -496, -359, -267, -175, -83, 8, 99, 191, 283, 421, 604, 972,
-814, -459, -281, -147, -59, 29, 118, 207, 296, 385, 474, 607, 785, 1140,
-874, -507, -323, -185, -93, -1, 90, 182, 274, 366, 458, 596, 779, 1147,
-668, -336, -170, -46, 36, 119, 202, 285, 368, 451, 533, 658, 824, 1155,
-587, -285, -135, -22, 53, 128, 203, 278, 354, 429, 504, 617, 768, 1069,
-866, -495, -309, -170, -77, 15, 108, 200, 293, 386, 479, 618, 803, 1175,
-964, -617, -443, -313, -226, -139, -52, 33, 120, 207, 294, 424, 598, 945,
-1104, -708, -510, -362, -263, -164, -65, 33, 132, 231, 330, 478, 676, 1072,
-1005, -673, -508, -383, -300, -217, -135, -52, 30, 113, 196, 320, 486, 818,
-813, -486, -322, -200, -118, -36, 45, 127, 209, 290, 372, 495, 659, 986,
-980, -604, -416, -275, -181, -87, 6, 100, 194, 288, 382, 523, 711, 1087,
-837, -493, -321, -192, -106, -20, 65, 151, 237, 323, 409, 538, 710, 1054,
-978, -645, -479, -355, -272, -189, -105, -22, 60, 143, 226, 350, 517, 849,
-879, -536, -364, -236, -150, -64, 20, 106, 192, 277, 363, 492, 663, 1006,
-945, -648, -500, -388, -314, -240, -166, -92, -17, 56, 130, 241, 390, 686,
-800, -457, -285, -156, -71, 14, 100, 186, 272, 357, 443, 572, 743, 1086,
-1232, -748, -505, -324, -203, -82, 38, 160, 281, 402, 523, 704, 947, 1431,
-772, -471, -320, -207, -132, -56, 18, 93, 168, 244, 319, 432, 583, 884,
-727, -426, -275, -162, -87, -12, 63, 138, 213, 289, 364, 477, 628, 929,
-815, -484, -319, -195, -112, -29, 53, 135, 218, 301, 384, 508, 673, 1004,
-871, -534, -365, -239, -155, -70, 13, 97, 181, 266, 350, 476, 645, 982,
-1530, -1070, -840, -667, -552, -437, -322, -207, -92, 22, 137, 309, 539, 1000,
-1165, -714, -488, -319, -206, -93, 18, 131, 244, 357, 470, 639, 865, 1316,
-894, -518, -330, -189, -95, -1, 92, 186, 280, 374, 468, 609, 797, 1173,
-1039, -670, -485, -347, -254, -162, -70, 21, 114, 206, 298, 436, 621, 990,
-1427, -988, -769, -604, -495, -385, -275, -165, -56, 53, 163, 327, 547, 986,
-734, -408, -246, -124, -42, 38, 119, 201, 282, 363, 445, 567, 729, 1055,
-1368, -1012, -834, -700, -611, -522, -433, -344, -255, -166, -77, 55, 233, 589,
-908, -627, -487, -381, -311, -241, -170, -100, -30, 39, 110, 215, 356, 637,
-1041, -706, -538, -412, -328, -244, -160, -77, 6, 90, 174, 300, 468, 803,
-1128, -737, -541, -394, -297, -199, -101, -3, 94, 192, 289, 436, 632, 1023,
-1155, -783, -597, -457, -364, -271, -178, -85, 7, 100, 193, 333, 519, 891,
-846, -517, -353, -230, -148, -65, 16, 98, 180, 262, 344, 468, 632, 961,
-1071, -705, -522, -384, -292, -201, -109, -17, 73, 165, 257, 394, 577, 944,
-787, -478, -324, -208, -131, -54, 22, 99, 176, 254, 331, 446, 601, 909,
-796, -542, -415, -319, -256, -192, -129, -65, -2, 61, 125, 220, 347, 601,
-1076, -714, -533, -397, -306, -215, -125, -34, 55, 146, 237, 373, 554, 916,
-955, -641, -484, -366, -288, -209, -131, -52, 25, 103, 182, 300, 457, 770,
-1355, -999, -821, -687, -598, -509, -420, -331, -242, -153, -64, 68, 246, 602,
-946, -594, -419, -287, -199, -111, -23, 64, 151, 239, 327, 459, 635, 986,
-1154, -707, -483, -315, -203, -91, 19, 131, 243, 355, 467, 635, 858, 1306,
-1018, -651, -467, -329, -238, -146, -54, 37, 129, 220, 312, 450, 633, 1001,
-800, -456, -284, -155, -69, 16, 102, 188, 274, 360, 446, 575, 747, 1091,
-1107, -766, -596, -468, -383, -298, -213, -128, -43, 41, 126, 254, 424, 765,
-1091, -720, -534, -395, -302, -209, -116, -23, 69, 161, 254, 394, 579, 951,
-835, -459, -272, -131, -37, 55, 149, 243, 337, 431, 524, 665, 853, 1228,
-853, -499, -321, -188, -100, -11, 77, 165, 254, 343, 431, 564, 742, 1096,
-894, -535, -356, -221, -132, -42, 47, 136, 226, 316, 405, 540, 719, 1078,
-1053, -679, -491, -351, -257, -163, -70, 23, 117, 210, 304, 445, 632, 1007,
-1075, -712, -531, -395, -304, -214, -123, -32, 57, 148, 238, 374, 556, 918,
-1005, -629, -441, -300, -206, -113, -19, 74, 168, 262, 356, 497, 685, 1060,
-949, -655, -508, -398, -324, -251, -177, -104, -30, 42, 116, 226, 373, 667,
-866, -556, -400, -284, -206, -129, -51, 26, 103, 181, 259, 375, 530, 841,
-739, -452, -308, -200, -128, -56, 15, 87, 159, 231, 303, 411, 555, 842,
-811, -513, -364, -252, -177, -103, -28, 46, 120, 195, 269, 381, 530, 829,
-1205, -884, -723, -603, -522, -442, -362, -281, -201, -121, -41, 79, 239, 561,
-782, -490, -344, -234, -161, -88, -15, 57, 130, 203, 276, 385, 532, 824,
-1257, -891, -708, -571, -480, -388, -297, -205, -114, -22, 68, 206, 389, 755,
-1025, -689, -521, -396, -312, -228, -144, -60, 23, 107, 191, 316, 484, 820,
-1271, -910, -730, -595, -504, -414, -324, -234, -144, -54, 36, 171, 351, 712,
-1162, -762, -562, -412, -312, -212, -112, -12, 87, 187, 287, 437, 637, 1036,
-621, -287, -120, 5, 88, 172, 255, 339, 423, 506, 590, 715, 882, 1217,
};

static uint64_t backbone_model2_conv1_conv2_weight[64 * 9] =
{ // torch.Size([64, 3, 3, 1])
0xb, 0xe, 0xb, 0xb, 0x2, 0x4, 0xc, 0x3, 0xa,
0x3, 0x3, 0xb, 0x2, 0xa, 0xd, 0xa, 0xc, 0xc,
0x5, 0x4, 0x9, 0x5, 0x5, 0xb, 0x1, 0xb, 0xc,
0x5, 0x4, 0x5, 0xa, 0xc, 0xb, 0xc, 0xb, 0xc,
0x3, 0x9, 0xc, 0x2, 0xd, 0x9, 0xc, 0xc, 0x4,
0x2, 0x4, 0x2, 0xb, 0xc, 0xc, 0xc, 0xc, 0xc,
0x3, 0x0, 0xc, 0x3, 0x4, 0xd, 0x2, 0x3, 0xc,
0x0, 0x3, 0x4, 0x0, 0x4, 0x4, 0x2, 0xa, 0x4,
0x3, 0x3, 0x3, 0x8, 0xb, 0x5, 0x8, 0xd, 0x5,
0x3, 0x5, 0x4, 0xc, 0x5, 0xb, 0x0, 0x4, 0xc,
0x2, 0x0, 0xb, 0x4, 0x1, 0xb, 0x5, 0xb, 0xc,
0xc, 0x4, 0xb, 0xd, 0xc, 0x2, 0x0, 0xb, 0x2,
0x3, 0xb, 0x9, 0x1, 0x5, 0x5, 0x3, 0x2, 0xa,
0x9, 0xb, 0xb, 0xb, 0xd, 0x8, 0x1, 0xc, 0x4,
0xb, 0xd, 0x2, 0x3, 0xb, 0xc, 0x4, 0x4, 0xc,
0x4, 0x5, 0x3, 0x2, 0x4, 0x3, 0xc, 0xc, 0xb,
0xc, 0x4, 0x9, 0x4, 0x4, 0xd, 0x3, 0xd, 0xb,
0xa, 0xd, 0x3, 0xc, 0xb, 0x4, 0xc, 0x4, 0x3,
0x2, 0x4, 0x4, 0x4, 0x2, 0x3, 0x4, 0xc, 0xd,
0x3, 0x3, 0x8, 0x1, 0xc, 0xd, 0x2, 0x4, 0x9,
0x4, 0x2, 0xc, 0x1, 0xb, 0x3, 0xd, 0xb, 0x4,
0x0, 0xd, 0xc, 0x3, 0xa, 0xc, 0x4, 0x4, 0x4,
0xd, 0xc, 0xb, 0x3, 0x4, 0x4, 0x0, 0x4, 0x9,
0xc, 0xc, 0xb, 0x9, 0xc, 0x4, 0xb, 0x3, 0x4,
0xa, 0xc, 0xd, 0xb, 0xc, 0xb, 0x1, 0x0, 0x2,
0x3, 0xb, 0xc, 0x3, 0x5, 0x0, 0x2, 0x4, 0x4,
0x4, 0x3, 0x4, 0x4, 0x3, 0x8, 0x3, 0xd, 0xb,
0xc, 0xa, 0xb, 0xb, 0xc, 0xc, 0x9, 0xb, 0x8,
0x3, 0x9, 0xc, 0x3, 0xb, 0xd, 0x4, 0xb, 0xc,
0xa, 0xa, 0xb, 0xb, 0xb, 0xc, 0xa, 0xc, 0xc,
0x5, 0x4, 0xb, 0x3, 0xb, 0xc, 0x1, 0xd, 0xc,
0xb, 0x4, 0x4, 0xa, 0xb, 0x5, 0xc, 0xd, 0x3,
0x4, 0x5, 0x5, 0x9, 0x3, 0x4, 0xc, 0xc, 0xb,
0x2, 0x8, 0xc, 0x4, 0x0, 0xb, 0x5, 0x4, 0x4,
0xb, 0xb, 0x0, 0xc, 0xc, 0xc, 0x2, 0x3, 0xc,
0xb, 0xb, 0x5, 0xb, 0xb, 0x4, 0x3, 0x3, 0x3,
0xc, 0x4, 0x8, 0xd, 0x9, 0x5, 0xa, 0xc, 0x0,
0x3, 0x4, 0xc, 0xc, 0x4, 0x4, 0x2, 0xd, 0x1,
0x5, 0x3, 0xb, 0x5, 0xb, 0xb, 0x4, 0x9, 0xb,
0xa, 0x1, 0xb, 0xa, 0x9, 0x1, 0x3, 0x5, 0x5,
0x0, 0x1, 0x3, 0x2, 0x4, 0x6, 0x9, 0x1, 0x2,
0xb, 0xc, 0xb, 0x1, 0x2, 0x1, 0x4, 0x5, 0x5,
0x8, 0x8, 0x2, 0x0, 0x0, 0xa, 0xb, 0xc, 0xe,
0x4, 0x4, 0x3, 0x4, 0xa, 0x4, 0xb, 0xb, 0x2,
0x1, 0x8, 0x9, 0x2, 0xa, 0xc, 0x4, 0x3, 0xe,
0x9, 0x9, 0xa, 0xa, 0x3, 0x5, 0x9, 0x4, 0x3,
0x1, 0x9, 0x2, 0xa, 0x5, 0x5, 0xb, 0x3, 0x3,
0xb, 0x3, 0xb, 0xb, 0xb, 0xd, 0x0, 0xc, 0xc,
0xb, 0x2, 0x1, 0xc, 0x9, 0x1, 0xd, 0xc, 0x3,
0x4, 0x8, 0xc, 0x3, 0xc, 0xd, 0x3, 0xb, 0xb,
0xc, 0xb, 0xb, 0xc, 0xc, 0xb, 0x9, 0xc, 0x0,
0xc, 0x1, 0x4, 0xd, 0x3, 0x4, 0xc, 0x0, 0x3,
0x9, 0x3, 0x8, 0x0, 0xa, 0xd, 0xb, 0xc, 0xc,
0x4, 0x4, 0x4, 0x9, 0x3, 0x4, 0xc, 0xc, 0xb,
0x4, 0x3, 0x4, 0xb, 0x0, 0x4, 0xc, 0xd, 0x3,
0x3, 0xa, 0xc, 0x3, 0x0, 0xd, 0x3, 0xb, 0xc,
0x1, 0x9, 0xb, 0xb, 0xc, 0x4, 0xb, 0x4, 0x5,
0x3, 0x4, 0x2, 0x2, 0x8, 0xa, 0x0, 0xa, 0x6,
0x4, 0x0, 0xc, 0x4, 0x0, 0xc, 0x4, 0x3, 0xc,
0xa, 0x2, 0xb, 0x0, 0xc, 0xb, 0x4, 0x5, 0x5,
0x2, 0x1, 0xb, 0x4, 0x4, 0xb, 0x4, 0x5, 0x2,
0x3, 0x2, 0xa, 0xa, 0x5, 0xb, 0xb, 0x5, 0x0,
0x2, 0xb, 0xc, 0xc, 0xd, 0xb, 0xb, 0x1, 0x2,
0x0, 0x0, 0xa, 0x2, 0xa, 0x9, 0x4, 0xe, 0xc,
};

static int backbone_model2_conv1_relu2_threshold[64 * 7] =
{ // torch.Size([64, 7])
-19, 37, 93, 149, 233, 346, 571,
2, 44, 86, 128, 191, 276, 444,
-55, 22, 100, 177, 294, 450, 761,
115, 165, 216, 267, 342, 444, 646,
0, 47, 94, 141, 211, 306, 494,
-10, 54, 119, 183, 280, 410, 669,
54, 90, 126, 161, 215, 286, 428,
28, 64, 100, 136, 189, 261, 404,
-4, 41, 86, 132, 200, 292, 474,
-117, -51, 15, 81, 180, 313, 578,
45, 81, 117, 153, 207, 279, 423,
-18, 25, 68, 112, 177, 263, 437,
32, 86, 140, 194, 274, 382, 597,
35, 68, 100, 133, 182, 247, 378,
34, 79, 123, 167, 233, 322, 498,
73, 119, 166, 212, 281, 374, 559,
54, 98, 143, 187, 254, 342, 520,
61, 98, 135, 173, 228, 303, 452,
-32, -6, 20, 46, 86, 139, 245,
52, 87, 123, 158, 212, 283, 425,
38, 74, 110, 146, 201, 273, 418,
-6, 36, 80, 123, 188, 275, 449,
52, 87, 122, 158, 210, 281, 422,
-27, 14, 55, 97, 159, 243, 410,
47, 97, 147, 198, 274, 374, 576,
41, 87, 134, 181, 251, 345, 532,
76, 119, 162, 205, 270, 356, 529,
74, 118, 161, 204, 269, 356, 530,
27, 91, 154, 218, 313, 440, 694,
61, 104, 146, 188, 252, 336, 506,
-1, 53, 107, 161, 242, 350, 566,
31, 70, 110, 149, 209, 287, 445,
-52, 7, 67, 126, 216, 335, 573,
-84, -14, 55, 125, 231, 371, 651,
-20, 30, 80, 131, 206, 307, 509,
31, 68, 105, 142, 197, 271, 419,
36, 75, 114, 153, 212, 290, 445,
41, 85, 128, 171, 236, 323, 496,
-41, 7, 55, 103, 176, 272, 465,
-4, 50, 104, 159, 241, 350, 568,
-4, 65, 134, 203, 307, 446, 724,
11, 64, 118, 172, 252, 360, 575,
-76, -7, 61, 130, 233, 370, 645,
43, 79, 116, 152, 207, 279, 425,
-1, 58, 117, 177, 266, 385, 624,
11, 47, 84, 120, 175, 248, 393,
-58, 7, 73, 139, 238, 370, 635,
-41, 22, 87, 151, 248, 377, 634,
4, 51, 98, 145, 216, 311, 500,
-22, 19, 60, 102, 165, 248, 415,
-10, 49, 109, 169, 259, 379, 619,
7, 51, 95, 138, 204, 291, 466,
3, 52, 101, 150, 224, 323, 519,
31, 71, 110, 149, 208, 287, 444,
-15, 37, 90, 143, 222, 328, 540,
-2, 44, 91, 138, 209, 303, 491,
45, 81, 117, 153, 207, 279, 424,
-13, 58, 129, 200, 308, 450, 736,
44, 87, 130, 173, 237, 323, 495,
-19, 35, 89, 143, 225, 334, 551,
-36, 36, 109, 182, 292, 438, 730,
22, 67, 111, 156, 222, 311, 488,
69, 116, 163, 209, 279, 373, 559,
-2, 57, 117, 177, 267, 386, 626,
};

static uint64_t backbone_model2_conv2_conv1_weight[64 * 1] =
{ // torch.Size([64, 1, 1, 64])
0x43a43a0bb432a445,0x55c04ba03bc1bbcc,0xa34243331bc3b4cc,0x2bcd3bca4a40c24c,
0x34cb4bab5d23b39b,0x51448c434331b234,0xcb403a4413314333,0x232ca13cac331b15,
0xd488cb24a9b413b2,0x45ba45324c45c012,0xab8b4334c034c844,0x342443b14b23b43c,
0x43c24aa2bb440bc3,0x3433421bd3ba1c03,0x3c2babb32cb9422a,0x4c30ac3403384533,
0x32b2b2a33c3c8452,0xb1b9ba4ccb3a4c9b,0xb44c5c314b2bcb3a,0xb41121c242b3c341,
0xa4934a3383b22a1a,0x533948ccb32cdab4,0x3ccccc9cbcb83444,0x11adcbc4bc533302,
0xccba4b31bc0b51cc,0x043291abb543bba5,0xdc2d9b1a45cba31b,0xbbbb4a5c49bd4cb1,
0x395acc3cc2b038bc,0xb2330bb54925ab2b,0xbca8b2bcd8a522ca,0x4cda5c3bdbbcc30c,
0xb34b2404c52034b3,0xd1bcc59cad23acb0,0x33dbc3d829c3cbca,0x0dcb4b44b23c324c,
0xdbbdb0922b03b3bc,0x2db4c531bc8a444a,0xacc1cab82134cbc3,0xc8b3ba3b01c2bcb2,
0x45b4a4ca49a41b9b,0xc5d29122d8cbb323,0x9bba35a44833b2b0,0x3b33c04a9a1b3d3c,
0xdccd540bdabc3d4c,0x3cc5c33db04a4133,0xacc3ccbcca22bb34,0xca03339029c4a2d4,
0xbac059135b2cba98,0x0c3b340dd8ac31a3,0x000b20c2598c9bc9,0x235ac4a2334b5a04,
0x341d303492d11c5a,0xb431b3b22c1389b3,0xb332c4c4b443aab2,0x3d041b9dc90443b3,
0x892ba940d1a2c9b3,0xb1dc10b54b229d0b,0x93b4c0cbc4b4c0c8,0xbaca5a32a3aab52a,
0xca4533aca34ad334,0x093c244b53c4c511,0x444a543145d22232,0x3b32b040c2542201,
0x5cbba84a4bbbbc3c,0x39352dc443bc43c4,0xcc32bdcc3c4bc3ab,0xbb341a3a4131ac1a,
0xbc2c43da3bab4cbd,0x0a3ab8ccd32b333b,0x4bb58ccb4bcc41c3,0xcbbcc941223c3dc3,
0x4449bbca2832b220,0x3a4bca42bcabc843,0x9524261343b2b405,0xc32cc33cbbb3cc49,
0x494a0142c4ba2acc,0xbcbc13bcb48b4038,0x2ba4b0b0abbb34a9,0x0a3a495520392b48,
0xc23aa440c48cbcba,0xbacd042c21314ddb,0x23b43cb99b2c4b43,0x0b3455aabbca0bb0,
0xbc2c3b21b02645bb,0xa9c304cabb51a34b,0xca9cac3aac4320cc,0x45cc3a4492bc3bc2,
0x3d3d4aac343433b2,0xc3b043030122b00c,0x3b43bc39332c4bdd,0x341c3a344b3d2b3b,
0x034ba32b5cb34a0d,0x932bd420bcb4043d,0x32abb9a14a19c332,0xa4624ac0c3b45533,
0xd23a83d2ad3cdcc0,0x4c2bc3c4c2a0834b,0x5cbbb4b1c2a1bb41,0xbba0bccdaacab2b1,
0x4a329c9c4cb30314,0xdc0bcd4342ab3b50,0x334ca24ca2398b11,0x2b340abb3bdc2333,
0xda1341cd90043bc1,0x43c9321d23a1a3a4,0x3c3b2042a3a43bba,0x3baba3433b402914,
0xb4034ac11244b3b4,0x3438444ccb33b533,0x332b4155bc3a4a02,0x43b2d4a40d535c21,
0xba3cc4b02433c0b5,0xacccbbc351a0b4cc,0x4c839abb8b0bbcc0,0x23bab3c1b80aac2b,
0xc3aa0bd04c443493,0x4523822a3351d318,0x3b4a405293000c83,0x44cbc3ccb2b90b2b,
0xacbdb8cca14dabca,0xcccb4c020b3bc2ad,0x33a3084b14399cca,0x95cb3abcb8b2a349,
0xba4d04cc33434cdc,0xcabc34c4324cc932,0xcc3b3b4ccab93ccc,0xb23b44bb344c12bb,
0x44b3bbb3341b433b,0x8803ba2034cc3c32,0x39a32db34cacc410,0x2a8a5b423cb40453,
0x5ba1aa49484404aa,0xc4839399b3ab4a31,0xbc4432b2333123cc,0x0b04834430ab3b34,
0xbc8bacb0bd9b2cbc,0xaba513acd31b3323,0x43b4c8cc33184ba2,0xa13cc631352a32c3,
0x43cb04b2a32c9409,0x4b9339a384a33bbb,0x4820c3acc233b2cb,0x6bac91a3c9b22b1c,
0xb233b248b25c4cdc,0x904c8c3b392b2954,0xb421444b23204443,0x34299024b9404242,
0x24cc22bba214bc00,0x83b350938bcbb8b4,0xcb2cb802b34cc4dd,0x3249abb0cb3a333c,
0xb432359539cb4a5b,0xc053bbbbb2c34cca,0x3042259244c53445,0x0b34c59cc2c34ccb,
0xd311c9d4ab3baa24,0x4bcc9484cb33023a,0x50bc1422ba43cd24,0x1204caccc8c394bb,
0xda343bacbc23c29b,0x3409242a3ab3b333,0x2031130a3bb13020,0x0babc34ab14a20c3,
0xbbabc2e2193bbba4,0x8b0bc24a9b29442b,0xbaacaa22b490bdb2,0xcb14babdc8dcbbc3,
0x44c43e3c0352ccd3,0x401bc4341dcccc2b,0xcbbc43d449bcc0bc,0xb9443c3b2cc38bb3,
0x2d4bd4392dca444c,0x2cb3c0a323ca543d,0x39b5b9c09a30c93b,0xd30a3423232bddbc,
0x30d5b2c39c40355b,0xb3b2344ccbb20b44,0x243d4224414bca2c,0xb130a0c15323b40c,
0x25c34444ca252bcc,0x318055cccbbb9cc5,0xcbcac3cdc840833a,0x8b12ab43ba303aa0,
0xabb3b4cc1cda232b,0x4ccaccc1b40bb223,0xcdbcaccca90ad321,0xc32c33db3425ad21,
0x29bc92bb345bb33b,0x099b45d3b1cabcca,0x324ac42b433cc51d,0x3c3c35b2484532ac,
0xc4a5acad934305b5,0xbb5d1a3122213cc1,0x343d443ca5ba2243,0x443309c332453343,
0xcb9c4b9bb2a20c45,0x41d44c232c4433cc,0x5a34ac3b145d42cb,0x34a83b23334b44ba,
0x0393498950cb344c,0x4348c19429b14ca4,0xb34b3214a39bb343,0x2a23a4dc9a9cadd2,
0x22a4cb8b439bc8c0,0xbd9a4915420c24bd,0xb94231b03b43bbca,0x424a3021aaa94448,
0xc2bc42cb408b3c0b,0xab43940cc32c224b,0xbba9b2cbc4ba3c02,0xc930dcabcc9049d2,
0x84cc5c0510333c33,0x3335325bcccb3cc4,0xa1a04ab32aad34cb,0x32053d3b1dab32c2,
0x4c3c444c3bcc5ccc,0x9b2bbcbd04cc3c8b,0xbcb0cacd44dc10ba,0xcb9dbc33c93babb4,
0xc4a3c8a5d434c344,0x31b23434ac44c4b4,0x033b3334bd54a335,0x431524b334b4232d,
0xa09c442b3caa4434,0xb3454c534bea2321,0x435c29412b5c129c,0x4c229aac13ac34aa,
0xb5a3bb24025bab2b,0x55aa44331ccaa854,0x82544344dc0bc340,0xca2ab2c39243c32c,
0x1bc2a42d3b014042,0xd4c4144c44dbb433,0xbb3cba312b4b9aac,0xcc1cac35242aa32c,
0x84c3b0b32acacc43,0x40ca2c389903953d,0x031341b443cc3532,0x334babc2cc44003a,
0xc03cc24a34414bc3,0xb3333444a3ca235a,0xbb43a041db49328c,0x414b94b4dd34301a,
0x34dbbc3439343381,0x25043cb24b4aa348,0xdb431b45a24aa838,0x32c42c9bcdc1ab49,
0x48cb4bb4bb93dac2,0xc2c241cccb553dcc,0x1a1a142bb2294c33,0xb425b8a048cc232b,
0xccaa2abbc0bb13b2,0x3ba433bcc3020333,0x8bc3aa9dc3b34b0b,0xa1dcca4b4c4b2cd2,
};

static int backbone_model2_conv2_quant1_threshold[64 * 14] =
{ // torch.Size([64, 14])
-1087, -662, -450, -291, -185, -79, 26, 132, 238, 344, 450, 610, 822, 1246,
-1000, -590, -386, -232, -130, -27, 74, 176, 279, 381, 483, 637, 842, 1251,
-871, -509, -328, -192, -101, -11, 79, 169, 260, 350, 441, 577, 758, 1120,
-1053, -634, -425, -268, -163, -58, 45, 150, 255, 359, 464, 621, 831, 1249,
-938, -586, -410, -278, -190, -101, -13, 74, 162, 250, 338, 470, 646, 999,
-949, -568, -378, -235, -140, -45, 50, 145, 240, 335, 430, 573, 764, 1144,
-1307, -824, -582, -400, -279, -159, -38, 82, 203, 324, 445, 626, 868, 1352,
-1011, -658, -481, -349, -260, -172, -84, 4, 92, 180, 269, 401, 578, 931,
-1374, -824, -549, -343, -205, -68, 69, 207, 344, 482, 619, 826, 1101, 1651,
-1279, -876, -675, -524, -423, -322, -222, -121, -20, 79, 180, 331, 532, 935,
-1041, -671, -486, -347, -254, -162, -69, 22, 115, 207, 300, 439, 624, 994,
-1324, -887, -669, -505, -396, -287, -178, -68, 40, 149, 258, 422, 640, 1077,
-1027, -671, -493, -360, -271, -182, -93, -4, 84, 173, 261, 395, 573, 928,
-1186, -772, -565, -410, -307, -203, -100, 2, 106, 209, 313, 468, 674, 1088,
-1153, -744, -540, -386, -284, -182, -80, 21, 124, 226, 328, 481, 686, 1094,
-1163, -697, -464, -290, -173, -57, 59, 175, 292, 408, 525, 699, 932, 1398,
-1105, -716, -521, -375, -277, -180, -82, 14, 111, 209, 306, 452, 647, 1037,
-1157, -785, -599, -460, -367, -274, -181, -88, 4, 97, 190, 330, 516, 888,
-1109, -669, -449, -284, -174, -64, 45, 155, 265, 375, 485, 650, 869, 1309,
-1072, -676, -479, -331, -232, -133, -34, 63, 162, 261, 360, 508, 705, 1101,
-1236, -820, -612, -456, -352, -248, -144, -40, 63, 167, 271, 427, 635, 1051,
-1314, -796, -538, -344, -215, -85, 43, 172, 302, 431, 560, 754, 1013, 1530,
-453, -280, -193, -128, -84, -41, 2, 45, 89, 132, 176, 241, 328, 501,
-715, -424, -278, -169, -96, -23, 48, 121, 194, 267, 339, 448, 594, 885,
-1201, -854, -681, -551, -465, -378, -291, -205, -118, -32, 54, 184, 357, 703,
-1329, -879, -654, -486, -373, -261, -149, -36, 75, 188, 300, 469, 693, 1143,
-983, -634, -460, -329, -242, -155, -68, 18, 106, 193, 280, 411, 585, 934,
-850, -499, -323, -191, -104, -16, 71, 159, 246, 334, 422, 554, 729, 1080,
-1287, -869, -660, -504, -399, -295, -190, -86, 17, 122, 226, 383, 591, 1009,
-980, -601, -411, -269, -174, -80, 14, 109, 204, 299, 393, 536, 725, 1104,
-1175, -820, -642, -509, -420, -331, -243, -154, -65, 23, 112, 245, 423, 778,
-1612, -1104, -850, -659, -532, -405, -278, -151, -25, 101, 228, 419, 673, 1181,
-925, -502, -291, -132, -27, 78, 184, 289, 395, 500, 606, 764, 976, 1398,
-664, -359, -206, -92, -15, 60, 136, 213, 289, 365, 442, 556, 709, 1014,
-1160, -736, -524, -365, -259, -154, -48, 57, 163, 269, 375, 534, 746, 1169,
-946, -604, -432, -304, -218, -133, -47, 38, 123, 209, 294, 423, 594, 937,
-1141, -665, -427, -249, -130, -11, 107, 226, 345, 464, 582, 761, 999, 1474,
-1241, -808, -591, -428, -320, -211, -103, 5, 113, 222, 330, 493, 710, 1143,
-1139, -724, -516, -360, -256, -153, -49, 54, 158, 262, 366, 521, 729, 1144,
-1346, -844, -594, -405, -280, -155, -29, 95, 221, 346, 472, 660, 911, 1412,
-967, -620, -446, -315, -228, -141, -55, 31, 118, 205, 292, 423, 596, 944,
-1391, -982, -778, -624, -522, -420, -317, -215, -113, -11, 91, 244, 448, 857,
-1264, -840, -628, -469, -363, -257, -151, -45, 60, 166, 272, 431, 643, 1067,
-1289, -848, -627, -462, -352, -241, -131, -21, 89, 199, 309, 475, 695, 1136,
-1038, -627, -421, -267, -164, -61, 41, 144, 247, 350, 453, 607, 813, 1224,
-1245, -779, -547, -372, -255, -139, -23, 93, 209, 326, 442, 617, 850, 1315,
-1333, -902, -687, -526, -418, -310, -203, -95, 12, 119, 227, 388, 604, 1034,
-1080, -672, -468, -315, -214, -112, -10, 91, 193, 295, 397, 550, 754, 1162,
-1059, -651, -447, -293, -191, -89, 12, 114, 216, 318, 420, 573, 777, 1185,
-942, -580, -399, -263, -173, -82, 7, 98, 188, 279, 369, 505, 686, 1049,
-1197, -777, -568, -410, -305, -201, -96, 8, 113, 218, 323, 480, 690, 1109,
-932, -587, -414, -284, -198, -111, -25, 61, 147, 234, 320, 450, 623, 968,
-1166, -799, -616, -478, -386, -294, -203, -111, -19, 72, 163, 301, 485, 852,
-1163, -714, -490, -321, -209, -97, 14, 126, 238, 351, 463, 631, 855, 1304,
-1244, -840, -637, -486, -385, -284, -183, -81, 19, 120, 221, 373, 575, 979,
-1116, -680, -462, -298, -189, -80, 28, 137, 246, 356, 465, 628, 846, 1283,
-998, -598, -399, -249, -149, -49, 50, 150, 250, 350, 450, 600, 800, 1200,
-1111, -680, -465, -303, -195, -87, 20, 127, 235, 343, 451, 612, 828, 1259,
-1015, -610, -407, -255, -154, -52, 48, 149, 251, 352, 453, 605, 808, 1213,
-966, -597, -413, -275, -183, -91, 0, 92, 184, 276, 368, 506, 691, 1059,
-1036, -650, -457, -312, -216, -119, -23, 73, 170, 266, 363, 507, 701, 1087,
-1152, -730, -519, -361, -256, -150, -45, 60, 165, 271, 376, 535, 746, 1168,
-1426, -970, -742, -570, -456, -342, -228, -114, 0, 113, 227, 398, 626, 1082,
-1100, -743, -564, -430, -341, -252, -162, -73, 15, 104, 194, 328, 506, 863,
};

static uint64_t backbone_model2_conv2_conv2_weight[64 * 9] =
{ // torch.Size([64, 3, 3, 1])
0xb, 0xc, 0xb, 0xc, 0xd, 0xd, 0x8, 0xa, 0x9,
0x3, 0x1, 0xd, 0x3, 0x4, 0xd, 0x3, 0x9, 0xd,
0xa, 0x3, 0x3, 0x4, 0x3, 0x3, 0xb, 0xe, 0xd,
0x4, 0x0, 0xc, 0x4, 0x3, 0xc, 0x5, 0x3, 0xd,
0xb, 0xb, 0x3, 0xd, 0xb, 0x4, 0xc, 0xa, 0x5,
0x0, 0x5, 0x3, 0x3, 0x5, 0x3, 0x3, 0xd, 0xc,
0x4, 0x4, 0x4, 0x3, 0x4, 0x3, 0x5, 0x5, 0xa,
0x3, 0xc, 0xd, 0x3, 0x4, 0x5, 0x1, 0x5, 0x5,
0x4, 0x5, 0x4, 0x2, 0x5, 0x3, 0x8, 0x4, 0x4,
0x3, 0x0, 0xc, 0x2, 0x5, 0x4, 0xb, 0x4, 0x5,
0xd, 0xa, 0x5, 0xc, 0x3, 0x4, 0xd, 0x8, 0x4,
0x2, 0x2, 0x3, 0x0, 0x4, 0x5, 0x4, 0x5, 0x4,
0x9, 0x3, 0x4, 0xa, 0x4, 0x5, 0x1, 0xc, 0xd,
0xb, 0xd, 0xc, 0x4, 0xa, 0xd, 0x3, 0x2, 0xb,
0xa, 0x0, 0x5, 0xc, 0xd, 0xa, 0x4, 0x4, 0x5,
0xb, 0x4, 0xa, 0xc, 0xa, 0xb, 0xb, 0xd, 0xd,
0xc, 0x4, 0x5, 0xd, 0x0, 0x5, 0xc, 0xd, 0x0,
0x3, 0x3, 0x3, 0x4, 0x5, 0x5, 0x3, 0x3, 0x3,
0x3, 0x4, 0x4, 0x4, 0x4, 0x3, 0x4, 0x3, 0x3,
0xb, 0xc, 0xa, 0x1, 0x5, 0xc, 0xb, 0x6, 0xb,
0x2, 0x3, 0x4, 0x2, 0x4, 0x4, 0x4, 0x5, 0x1,
0x3, 0x3, 0x3, 0x4, 0x4, 0x3, 0x5, 0x4, 0x3,
0xd, 0xd, 0x2, 0xd, 0xa, 0x4, 0xc, 0x4, 0x4,
0x3, 0x5, 0xd, 0x5, 0x3, 0xd, 0x4, 0xc, 0xd,
0x3, 0x4, 0xc, 0x2, 0x4, 0xc, 0x0, 0x5, 0x4,
0xa, 0xb, 0xb, 0xb, 0xc, 0xa, 0xc, 0xd, 0xc,
0x1, 0x3, 0xc, 0x2, 0xd, 0xb, 0xd, 0xa, 0x4,
0x2, 0x3, 0x2, 0xb, 0xc, 0xe, 0x4, 0xc, 0xd,
0x3, 0xb, 0xc, 0x4, 0x3, 0xb, 0x3, 0x5, 0x3,
0xc, 0xc, 0x2, 0xd, 0xc, 0x4, 0xc, 0x4, 0x5,
0x3, 0x5, 0xa, 0xa, 0x3, 0x5, 0xd, 0xb, 0x5,
0xc, 0xc, 0xb, 0xb, 0xc, 0xc, 0xc, 0xc, 0xb,
0x5, 0x5, 0x4, 0x3, 0x4, 0x3, 0x2, 0xb, 0xb,
0x3, 0xd, 0x2, 0x4, 0xd, 0x5, 0x3, 0xc, 0x4,
0x5, 0x3, 0x5, 0x2, 0xb, 0x3, 0xb, 0xc, 0xb,
0x3, 0x4, 0x4, 0x2, 0x3, 0x4, 0xc, 0xc, 0xb,
0xc, 0xc, 0xd, 0x0, 0x2, 0x3, 0x4, 0x5, 0x5,
0x4, 0x3, 0x3, 0x4, 0x3, 0x2, 0x3, 0x2, 0x4,
0xc, 0xb, 0xc, 0xb, 0xb, 0xc, 0xc, 0xb, 0xc,
0x3, 0xc, 0x0, 0x4, 0xd, 0xc, 0x5, 0x2, 0x4,
0x3, 0x3, 0x3, 0x3, 0x2, 0x9, 0xd, 0xc, 0xd,
0xd, 0x8, 0x4, 0x2, 0x4, 0x3, 0x5, 0x4, 0xa,
0x4, 0x4, 0x5, 0x3, 0x4, 0x4, 0x2, 0x2, 0x3,
0x3, 0x5, 0x5, 0x4, 0x4, 0x4, 0x9, 0x1, 0x2,
0x9, 0xc, 0xb, 0xc, 0xc, 0xc, 0xc, 0xc, 0xc,
0x0, 0x0, 0x4, 0xa, 0x4, 0x4, 0x0, 0x4, 0x5,
0x4, 0x4, 0xb, 0x5, 0x4, 0xb, 0x4, 0x5, 0x2,
0xd, 0xb, 0xc, 0xc, 0xb, 0xb, 0xb, 0xc, 0xb,
0xb, 0xb, 0xb, 0xb, 0xd, 0xc, 0x1, 0xd, 0xd,
0xd, 0xd, 0x1, 0xc, 0xd, 0x2, 0xc, 0x0, 0x3,
0x3, 0xc, 0xe, 0x3, 0xa, 0xd, 0x0, 0x3, 0xa,
0x1, 0x4, 0x5, 0xd, 0xb, 0x3, 0xc, 0xc, 0xb,
0x0, 0xb, 0xc, 0x0, 0xc, 0xb, 0x5, 0x5, 0x5,
0x4, 0x3, 0x2, 0x4, 0x3, 0x4, 0x4, 0x4, 0x4,
0x8, 0xa, 0x2, 0x9, 0x3, 0xb, 0x4, 0x6, 0x3,
0x3, 0xb, 0x0, 0x2, 0xd, 0xe, 0x2, 0x3, 0x3,
0xc, 0xc, 0xa, 0xb, 0xd, 0x9, 0xa, 0xb, 0xc,
0x2, 0xc, 0xc, 0xd, 0xc, 0xb, 0xb, 0xb, 0xb,
0x2, 0x4, 0x3, 0x8, 0x4, 0x4, 0x3, 0x4, 0x4,
0x5, 0xa, 0xd, 0x4, 0x3, 0xd, 0x4, 0x2, 0xd,
0xc, 0xb, 0xc, 0xb, 0xc, 0xc, 0xb, 0xc, 0xc,
0xb, 0xc, 0xc, 0xb, 0xd, 0xc, 0x9, 0xc, 0xc,
0xc, 0xb, 0xb, 0xc, 0xb, 0xb, 0xc, 0xc, 0xc,
0xc, 0x4, 0x5, 0x2, 0x5, 0xb, 0x3, 0x9, 0xd,
};

static int backbone_model2_conv2_relu2_threshold[64 * 7] =
{ // torch.Size([64, 7])
25, 95, 164, 234, 338, 477, 755,
78, 131, 184, 236, 315, 421, 632,
135, 195, 255, 315, 404, 524, 764,
109, 164, 220, 275, 358, 469, 690,
113, 170, 226, 282, 366, 478, 703,
39, 103, 166, 229, 324, 451, 705,
38, 93, 148, 203, 285, 395, 616,
170, 230, 290, 351, 441, 561, 802,
-103, -55, -7, 40, 112, 208, 401,
61, 107, 154, 201, 271, 364, 551,
81, 129, 176, 224, 295, 389, 579,
12, 81, 150, 219, 322, 460, 735,
172, 218, 264, 310, 378, 470, 653,
61, 118, 174, 230, 315, 428, 653,
120, 164, 208, 251, 317, 404, 579,
53, 105, 157, 208, 286, 389, 596,
143, 203, 264, 325, 417, 539, 782,
-46, 28, 103, 178, 290, 439, 738,
58, 109, 159, 209, 285, 386, 587,
102, 155, 209, 263, 343, 450, 664,
55, 114, 173, 231, 320, 437, 672,
66, 117, 169, 220, 298, 401, 607,
164, 342, 520, 699, 966, 1323, 2036,
215, 279, 343, 407, 503, 631, 886,
77, 132, 186, 241, 323, 432, 651,
-5, 49, 103, 158, 240, 350, 568,
58, 116, 175, 234, 322, 440, 675,
31, 116, 201, 286, 414, 584, 924,
68, 111, 154, 196, 260, 345, 516,
96, 156, 215, 274, 363, 482, 720,
95, 155, 215, 275, 365, 485, 724,
42, 97, 152, 207, 289, 400, 620,
43, 93, 142, 192, 266, 364, 562,
89, 140, 191, 242, 318, 420, 623,
82, 133, 184, 236, 312, 415, 620,
81, 134, 186, 239, 318, 423, 633,
82, 133, 184, 236, 313, 416, 622,
9, 58, 107, 156, 229, 327, 523,
-11, 56, 125, 193, 296, 433, 707,
98, 140, 183, 225, 289, 375, 545,
72, 127, 183, 238, 321, 431, 652,
115, 167, 218, 269, 346, 448, 653,
28, 102, 177, 251, 362, 510, 806,
16, 108, 201, 293, 432, 617, 987,
-42, 30, 104, 177, 287, 433, 727,
9, 67, 125, 182, 269, 384, 614,
-35, 38, 113, 187, 299, 448, 746,
5, 77, 148, 220, 328, 472, 759,
12, 87, 163, 238, 352, 503, 804,
-17, 71, 160, 249, 382, 560, 916,
69, 147, 226, 304, 421, 577, 889,
107, 164, 221, 278, 364, 478, 706,
45, 106, 166, 227, 319, 441, 685,
64, 133, 202, 271, 375, 513, 789,
54, 120, 186, 252, 351, 483, 746,
99, 153, 208, 262, 344, 452, 670,
-92, 1, 95, 188, 329, 516, 891,
-10, 59, 130, 200, 305, 446, 727,
14, 67, 121, 175, 255, 363, 577,
144, 211, 279, 346, 447, 582, 851,
23, 82, 141, 199, 287, 405, 640,
-44, 24, 94, 163, 268, 407, 685,
10, 71, 132, 193, 285, 407, 651,
114, 173, 232, 291, 380, 498, 734,
};

static uint64_t backbone_model3_conv1_conv1_weight[64 * 1] =
{ // torch.Size([64, 1, 1, 64])
0x4c911c31a4b445c4,0xcb44dab4294c23c2,0xd4d44c824cbd2db3,0x223b1c843a383430,
0xc0b432b8bdcc1b43,0x3424430b23b31c2c,0x243203b2c09431d3,0x5dcd30400b243aac,
0x230d952bbb234cc1,0xbd3cb2bcaca42404,0x9a3bcbca32190cbb,0xeb4059038a1c9c25,
0x91bdba52331532b2,0x4bb598939bc24bcc,0x009bbcca3a45a3c9,0x34b3233923150344,
0x109a44cc32bbb2a5,0xc5bca3d1ba28c2c3,0x3ac34b3b3cbcba4b,0x4a2bb3c0bad2444e,
0xa33c31b93bcbcd10,0xc39243a12dc8bb30,0xac4c34c4a2339a0a,0x4ac1b3083ca1caac,
0x93c28b400ac00c4a,0xbb4b35339dc34b2a,0xcb10b3b2a52285a2,0x19cb843c0183cb10,
0x23343bab5c3cb2c3,0xb440c283513b0b3a,0x3b0352b4b9a23c9a,0xa02cba31cb51bc5c,
0xa3450b4b33cca231,0xa3bc431ab50bd984,0x2bbc4b2cbbab0ccc,0x212b3d019302bb0b,
0xb204443d324cca90,0xccc4349b2235bb43,0x8d1b3dbb2dc4248d,0xc4d2c4cc94133913,
0xab3b31bbdbb4a141,0xaaac4202b1b4a1b4,0xb289cba3b22b25c2,0x4c9d4c42bcac3b02,
0xd3bb343b4842b94c,0x338c242043343d4a,0x4042c319d3340003,0x033a2430d2bc33cb,
0xa33bb3b23380db94,0x14baab2b1ccbcc09,0xbb434b4ba4c41bb3,0x94bb53a3bd290243,
0xc95b834913114bc4,0x3cc4bc1aac4b440b,0x480bcd4b543924ca,0xa23599bc5ea403ba,
0x2023b95c3444ab4a,0xcc1409348b3c9333,0xbd9000439b43130d,0x24d1219201432341,
0xc5ccbb3a1c30c9bb,0x22a412bca431bd24,0x4a0cac33c4449bc2,0x32bbb325bb4b343c,
0x0c43423333042b24,0xd34b22a31b44c9ab,0x1b5ccc4431832844,0x31c05c52c333ac03,
0x382243c0d33b4112,0x33bbcbdbd40384cc,0x25d4cb2a4a524433,0xa8430ba334c2441b,
0x343baaab1329bc5b,0x444923b9bcc0cb19,0xad4b313c144484ab,0xa3dbb4c3aac4890c,
0x9ab24c05c4c33ca1,0xcc050b544cc0ba33,0xd149c13ca8bc5b41,0x3bcbaa45bc4434bc,
0xb3db03b443c14043,0x34c312a133bbcb3b,0xc545cc4b343a4435,0x9b49c44a14cbccd1,
0x9c50244222c3bb0a,0x14c83d4ba2cdc94b,0x334422c4c3a4b343,0xc33a1205cbb04c5c,
0xb44234ba93ca153b,0xc423c2bc04a4b983,0xb3c2cc4202ab4239,0xc9422234204394a3,
0xcbc3a22c0b4bbba2,0x52dc94c1a4ca3cc2,0x43c9a0dbd44cc2b2,0x393c9b1abbbc4112,
0x2cd4ba449213813a,0x4c04d541c4c414d3,0x4ccc243c813cb39c,0xabc4be3c4b43d4c4,
0xa44cc3d3b1b2943b,0x3323d0c24a152b0b,0xa2c2c9443bca3bc1,0x8bab50adcd21a91c,
0x355a44baaa4ca339,0xc3ab5cb901bd9249,0x434388bbcb33ba4b,0xba9b08b0b3c33b4c,
0xc52c324a93c0cc3d,0x03b4990bb2332a20,0x9b3442cd50181ccb,0xbb23d4c12bb890ac,
0x18a439a25cad2cb4,0x993032ac3a3204bd,0xba335a483bb330c0,0x0c448c3c5824dd1b,
0x3293a3a12d8bbcc9,0x3bca4019c130044c,0xc1932a223cb2d213,0x3c3490293cc0cdc2,
0xc3adc5dd318ccc32,0x3cbc04acc43babac,0x3c1cdab2cc8acbac,0x0abbbc8aaadc9cbc,
0xc9525a1b3bc9cb92,0xbb4bac3b0c323a92,0xbb3dc2b8532b23b2,0x4833a3345cbcb384,
0xd1434c0b33cbcd2c,0xc43d429993c3bb04,0x29ac34c040243cc0,0x3a142290449dba0a,
0xb32d0ab3b2ba3c98,0x30c44c4c3cc10b4b,0xc441b2c5bba53b2a,0xab3b840ba32a3c23,
0x0b4cbbb832cb853d,0x3340cb0834b43ba9,0xc5312234b3c3bcb0,0xc13c2aa3c93c448b,
0xb418342a10da1943,0x35934dbd3bcccb3b,0x329029a4a20b3844,0xc04ba32bb8344222,
0xaccbd4b032cab02b,0xbc23833a24430cab,0xd49b490bccdc1bc3,0xc4d4c4343cac329c,
0x143a3a90c95bcdc2,0xc34cab9318549c3c,0x5cb23b5bb44a3bbb,0xcb3a4d138b4201cd,
0xcb3032cacc4ba4cb,0xbc3c333b44453b10,0x24c50a15cc3d4405,0xba3cab54dd3a8392,
0x03ba22c03b4b24a9,0xcbc8441a413cbb34,0x53023434b3da0402,0xdb44ca9b334342aa,
0x3233104bca40ac88,0x1c8b1353ba4333d9,0x3b4ab40d3b32a4bd,0x2aab2bda32c3bb33,
0xb230b293a5ab32b9,0xbab2aacbb4334cab,0xc34bbb2bbb453b4b,0x3400c4b503b0443c,
0x2ac0d1a9b3534335,0x4bc2bb1424b0143c,0x2c1caa4bc943b93b,0x42ab40cbb431499c,
0xab4b3423301cbcd4,0xcbc04cca3445133c,0x44949bc39d484305,0x4a44bc3043a34dbb,
0x43344432dc334cbd,0xb80bb334d9344423,0x4b03c34b2b43b4bb,0xbcab4bcca422acc3,
0x8cc8833cacb56cbb,0xc33cca354b435444,0xdba3bca23dd02c93,0xcac314ccb2212b04,
0x14b3b0389393a14b,0x3a43c03b3cb33131,0x4b1c043b95c9150c,0xc2c0ab9c1b444122,
0x8b3440b4ccdc4b3b,0x33a33c2b8adc922d,0xb423a2abb3c34acb,0xad4b994b29a29ab2,
0x9838ba10bacbb2c0,0x1bb43cc1840cbac9,0x33c423c30d283cb4,0x234bcc343cb44a4d,
0x21430a3b2a43bbb0,0x443b51b2933cc1b2,0x4db92c903b44cc4b,0xb2403ca0a381c0a2,
0x2c3424b4cc8cb4d4,0x9bcaac1bb4bcc303,0x33432b3b3c442aa9,0x0c4da2c4cbb22a3a,
0x4342c3ccc84ab3a2,0x4cc58933bac24143,0x234cc4b14bd43ccb,0xca4bb4d19cc44443,
0xc44c3bada4443cc4,0xac1244d23db1404b,0xdd442dc41dc2ad3d,0x3adc34abb10b4b3a,
0x0bc40b44baab2dcb,0xc4ca43b3b01db201,0x8bc41a2bcc4c0c94,0x493bbc3bbbb1d3cb,
0x3a4ba4d4ca4a130c,0xb45adba3bc2bb34c,0xb101c142b4444bab,0x1c3db4c2bb3b542c,
0xd343c4b8324224cb,0x2a33a4ca053499bb,0xbbba2db3ad0cab03,0x0344d32342b113a4,
0xc13c21acab4cab29,0xb3cab2bc9a40a0ab,0xaccb2cc9adbbbbbb,0xb3c2b9bba3c20c20,
0x2b4a34b4cba0cbb3,0xcc3a24bb1ccb82ca,0x5ccb0450b1438b29,0xc92cbb459caab13c,
0x3d2004c1b3234a20,0x4b42d81c9b92949b,0xbaa99cb011033334,0xc1ca431cb4a32cb5,
0xb8bca32c31241ab4,0x33254b2130944b3d,0xa1abc3b45acb1cb3,0x1a24b9bd54132bd4,
0x1335013a443c3338,0x4144dbc8aa290322,0x2ac43bb2298d224b,0x45c3d2ca4043342a,
0x230cb44143bc0a2d,0xbcb3042db44b4333,0xa9313c2b4434a28c,0xd324c3c34a4cc2bb,
0xb52034ccab4cc448,0x42bd142994a43925,0x433402cc944344c4,0x4b4cc4b4c4bc4a3a,
0xca32554dabcb305c,0xc44cbc3b40545044,0xc1443ccc3ac939b4,0xbc2ac4c0cab34b43,
};

static int backbone_model3_conv1_quant1_threshold[64 * 14] =
{ // torch.Size([64, 14])
-1106, -698, -494, -341, -239, -137, -35, 66, 168, 270, 372, 525, 729, 1137,
-1043, -679, -497, -361, -270, -179, -88, 2, 93, 184, 275, 411, 593, 957,
-1064, -725, -555, -428, -343, -258, -174, -89, -4, 80, 165, 292, 462, 801,
-838, -512, -350, -228, -147, -65, 15, 96, 178, 259, 340, 462, 625, 950,
-1534, -1035, -786, -599, -474, -349, -224, -100, 24, 149, 274, 461, 710, 1210,
-1150, -767, -576, -432, -337, -241, -145, -50, 45, 140, 236, 380, 571, 953,
-961, -575, -382, -238, -141, -45, 51, 147, 243, 340, 436, 581, 774, 1159,
-722, -432, -286, -177, -104, -32, 40, 113, 185, 258, 331, 440, 585, 876,
-1149, -753, -555, -406, -307, -208, -109, -10, 88, 187, 286, 435, 633, 1029,
-1369, -940, -725, -564, -457, -350, -243, -135, -28, 78, 185, 346, 561, 990,
-895, -581, -424, -306, -227, -149, -70, 7, 86, 164, 243, 360, 517, 831,
-889, -549, -379, -252, -167, -81, 3, 88, 173, 258, 343, 470, 641, 981,
-896, -567, -402, -278, -196, -114, -31, 50, 132, 215, 297, 421, 585, 915,
-979, -648, -483, -359, -276, -193, -111, -28, 54, 137, 219, 343, 509, 840,
-1036, -673, -492, -356, -265, -174, -84, 6, 97, 188, 278, 414, 596, 958,
-795, -515, -375, -270, -200, -130, -60, 9, 80, 150, 220, 325, 465, 745,
-862, -515, -342, -212, -126, -39, 46, 133, 219, 306, 393, 522, 696, 1042,
-1041, -655, -462, -317, -221, -124, -28, 68, 165, 261, 358, 502, 695, 1081,
-942, -598, -426, -297, -211, -125, -40, 45, 131, 217, 303, 432, 604, 948,
-986, -612, -425, -284, -191, -97, -4, 89, 182, 276, 369, 510, 697, 1071,
-1038, -624, -417, -261, -158, -54, 48, 152, 256, 359, 463, 618, 825, 1240,
-1090, -692, -492, -343, -243, -144, -44, 54, 154, 253, 353, 502, 702, 1100,
-740, -431, -276, -160, -83, -6, 71, 148, 225, 303, 380, 496, 650, 959,
-1124, -750, -563, -422, -329, -235, -142, -48, 45, 138, 232, 372, 559, 933,
-1495, -989, -736, -547, -420, -294, -167, -41, 84, 211, 337, 527, 780, 1285,
-815, -509, -356, -241, -164, -88, -11, 64, 141, 217, 294, 408, 562, 868,
-955, -587, -402, -264, -172, -80, 11, 103, 196, 288, 380, 518, 702, 1071,
-1003, -657, -485, -355, -269, -182, -96, -9, 76, 163, 249, 379, 552, 897,
-898, -578, -418, -298, -218, -138, -58, 21, 101, 181, 261, 381, 541, 862,
-1221, -832, -638, -492, -395, -297, -200, -103, -6, 91, 188, 334, 528, 917,
-1892, -1359, -1092, -892, -759, -626, -492, -359, -226, -92, 40, 240, 507, 1040,
-872, -564, -411, -295, -219, -142, -65, 11, 88, 165, 242, 357, 511, 818,
-1029, -684, -511, -381, -295, -208, -122, -36, 50, 136, 222, 352, 525, 870,
-1148, -723, -511, -352, -245, -139, -33, 72, 179, 285, 391, 550, 763, 1188,
-836, -534, -383, -270, -195, -120, -44, 30, 105, 181, 256, 369, 520, 822,
-865, -495, -311, -172, -80, 12, 104, 197, 289, 381, 474, 612, 797, 1166,
-1156, -759, -560, -411, -312, -213, -113, -14, 84, 184, 283, 432, 630, 1028,
-1191, -745, -522, -355, -244, -132, -21, 90, 201, 313, 424, 591, 814, 1260,
-1040, -651, -456, -310, -213, -116, -18, 78, 175, 273, 370, 516, 711, 1100,
-729, -448, -308, -203, -132, -62, 7, 77, 148, 218, 288, 393, 534, 815,
-1126, -755, -570, -431, -338, -245, -153, -60, 32, 125, 217, 357, 542, 913,
-838, -524, -367, -250, -171, -93, -14, 63, 142, 220, 299, 417, 574, 888,
-880, -551, -386, -262, -180, -98, -15, 66, 149, 231, 313, 437, 602, 931,
-1040, -678, -498, -362, -272, -181, -91, -1, 89, 179, 269, 405, 586, 947,
-987, -637, -463, -332, -244, -157, -70, 17, 104, 191, 279, 410, 584, 934,
-1282, -819, -588, -415, -299, -183, -68, 47, 163, 278, 394, 567, 798, 1261,
-894, -518, -331, -190, -96, -2, 91, 184, 278, 372, 466, 607, 794, 1169,
-1087, -714, -527, -387, -293, -200, -107, -13, 79, 172, 266, 406, 593, 966,
-1272, -845, -632, -472, -365, -258, -152, -45, 61, 167, 274, 434, 648, 1074,
-794, -493, -342, -229, -154, -79, -3, 71, 146, 221, 297, 410, 560, 861,
-1147, -756, -561, -414, -316, -219, -121, -23, 74, 171, 269, 416, 611, 1002,
-1047, -685, -504, -369, -278, -188, -98, -7, 82, 173, 263, 399, 579, 941,
-1499, -1039, -810, -637, -523, -408, -293, -178, -63, 51, 166, 338, 568, 1027,
-1443, -968, -731, -553, -434, -316, -197, -78, 39, 158, 276, 454, 692, 1166,
-949, -521, -307, -147, -40, 66, 173, 280, 387, 495, 602, 762, 976, 1404,
-1067, -675, -479, -332, -234, -136, -38, 59, 157, 255, 353, 500, 696, 1088,
-1336, -921, -713, -557, -453, -349, -245, -141, -37, 66, 170, 326, 534, 950,
-832, -551, -411, -305, -235, -165, -95, -25, 44, 115, 185, 290, 430, 711,
-927, -585, -415, -286, -201, -116, -30, 54, 139, 225, 310, 438, 609, 951,
-949, -599, -424, -292, -205, -117, -30, 57, 144, 232, 319, 451, 626, 976,
-971, -605, -422, -285, -193, -102, -10, 80, 172, 263, 354, 492, 674, 1040,
-907, -602, -450, -336, -259, -183, -107, -31, 44, 121, 197, 311, 464, 769,
-881, -503, -314, -172, -78, 16, 110, 205, 299, 394, 488, 630, 819, 1196,
-1044, -637, -434, -282, -180, -78, 22, 124, 226, 328, 429, 582, 785, 1192,
};

static uint64_t backbone_model3_conv1_conv2_weight[64 * 9] =
{ // torch.Size([64, 3, 3, 1])
0x9, 0xb, 0x6, 0x4, 0x4, 0x8, 0xa, 0x4, 0xa,
0x9, 0xe, 0xb, 0x2, 0x4, 0x4, 0x1, 0x1, 0x9,
0x9, 0xd, 0xb, 0x2, 0xc, 0xa, 0x3, 0x4, 0x6,
0xb, 0xc, 0xc, 0xc, 0xc, 0x5, 0xc, 0xa, 0x5,
0x4, 0x2, 0xa, 0xb, 0xe, 0xd, 0x2, 0xb, 0xa,
0xc, 0xd, 0x3, 0xb, 0xb, 0x4, 0xb, 0x3, 0x4,
0x5, 0x4, 0xb, 0x4, 0xc, 0xc, 0xb, 0xb, 0x0,
0x1, 0xb, 0xa, 0xa, 0x6, 0x0, 0xb, 0xc, 0xb,
0x4, 0xa, 0xe, 0x1, 0x4, 0xc, 0x4, 0x2, 0xc,
0x3, 0x3, 0x4, 0x3, 0x4, 0x2, 0x3, 0x4, 0x0,
0x4, 0xd, 0xc, 0x3, 0x4, 0x4, 0x3, 0x9, 0x1,
0x2, 0x1, 0x0, 0x1, 0x3, 0xb, 0x1, 0xc, 0xe,
0x4, 0x4, 0xb, 0x4, 0x3, 0xc, 0x9, 0xc, 0xd,
0xd, 0x4, 0x3, 0xc, 0x4, 0x4, 0xb, 0xc, 0x0,
0x4, 0x4, 0xb, 0xc, 0x0, 0xc, 0x2, 0xa, 0xd,
0x4, 0x4, 0x4, 0xc, 0xd, 0xc, 0x0, 0x2, 0x9,
0x3, 0x4, 0x3, 0x4, 0x4, 0x2, 0xc, 0xc, 0xd,
0xb, 0x0, 0xb, 0xb, 0x4, 0x9, 0xc, 0xd, 0xa,
0x4, 0xc, 0xd, 0x5, 0x4, 0xb, 0x1, 0x2, 0x3,
0x3, 0xa, 0x1, 0xa, 0x6, 0xc, 0x8, 0x9, 0x3,
0x1, 0xc, 0xd, 0x3, 0xc, 0xc, 0x9, 0xc, 0x1,
0x3, 0x6, 0x2, 0x0, 0x2, 0xc, 0xb, 0x4, 0xc,
0xb, 0xc, 0xd, 0x9, 0xb, 0x3, 0x2, 0x4, 0x5,
0x8, 0x3, 0x4, 0xb, 0x3, 0x3, 0xd, 0xd, 0xc,
0x1, 0x5, 0x3, 0x3, 0x4, 0x3, 0xb, 0x5, 0x3,
0x9, 0x5, 0x4, 0x4, 0x3, 0xd, 0x4, 0xd, 0xc,
0xc, 0xb, 0xc, 0x0, 0x0, 0xb, 0x4, 0x5, 0x4,
0x3, 0xd, 0xc, 0x4, 0xc, 0xb, 0x4, 0x4, 0x4,
0x9, 0x9, 0xc, 0x0, 0xd, 0xc, 0x9, 0x5, 0x3,
0x0, 0x3, 0x2, 0x3, 0xe, 0x4, 0x3, 0x4, 0x3,
0xa, 0xe, 0x0, 0x2, 0xd, 0x2, 0x0, 0x3, 0xa,
0xc, 0x5, 0xa, 0x3, 0x4, 0xc, 0x4, 0xb, 0xc,
0xb, 0xb, 0x3, 0xd, 0xc, 0x4, 0xc, 0x3, 0x4,
0xb, 0x4, 0xb, 0xb, 0x4, 0xb, 0x3, 0x5, 0x2,
0x5, 0x0, 0xc, 0x4, 0x9, 0xd, 0x9, 0x4, 0xc,
0xc, 0x3, 0x5, 0xd, 0x0, 0x4, 0xd, 0xb, 0x0,
0xb, 0xd, 0xd, 0x4, 0x3, 0xc, 0x3, 0x3, 0x3,
0xb, 0x9, 0xc, 0xb, 0x4, 0x5, 0x8, 0x4, 0x4,
0xc, 0xa, 0xa, 0xb, 0xd, 0x9, 0x3, 0xd, 0xb,
0x3, 0x3, 0xc, 0x4, 0xc, 0x2, 0xc, 0xd, 0x3,
0x2, 0xc, 0xc, 0x4, 0xe, 0x3, 0x4, 0x1, 0xb,
0xb, 0x9, 0x5, 0x3, 0xd, 0xa, 0xb, 0xb, 0xc,
0x0, 0x4, 0xb, 0xc, 0x9, 0x3, 0xc, 0x3, 0x5,
0xd, 0xe, 0x2, 0x3, 0x2, 0xb, 0xa, 0x3, 0xb,
0x1, 0x2, 0xb, 0x1, 0xe, 0x3, 0x2, 0xb, 0x9,
0xb, 0xb, 0xc, 0xb, 0xc, 0xc, 0xc, 0x9, 0xb,
0xe, 0xc, 0x4, 0xa, 0xc, 0x3, 0x3, 0x4, 0xb,
0x4, 0x1, 0x4, 0x3, 0xd, 0xd, 0x2, 0x9, 0x1,
0xa, 0xa, 0x3, 0x1, 0x4, 0x5, 0x3, 0x5, 0x2,
0x4, 0x4, 0x4, 0xb, 0xc, 0xa, 0xb, 0xc, 0xc,
0x3, 0xb, 0xd, 0xb, 0xb, 0xc, 0xa, 0x3, 0xb,
0xa, 0x9, 0x2, 0x3, 0xd, 0x0, 0xc, 0xd, 0x4,
0x4, 0x3, 0x3, 0x4, 0x3, 0x3, 0x0, 0x4, 0x2,
0xb, 0x9, 0xb, 0x0, 0x4, 0x4, 0xa, 0x4, 0x5,
0x4, 0x5, 0x4, 0x2, 0xd, 0x1, 0x2, 0xc, 0x2,
0x4, 0x4, 0x0, 0x0, 0x3, 0x4, 0xb, 0xa, 0x4,
0x4, 0x4, 0x2, 0x1, 0x4, 0x4, 0xc, 0x3, 0x3,
0x3, 0xc, 0xc, 0x4, 0xa, 0xc, 0x5, 0x4, 0x2,
0xc, 0xc, 0xd, 0xb, 0x4, 0x4, 0xa, 0x4, 0x5,
0xa, 0xc, 0xc, 0x4, 0xc, 0xb, 0x5, 0xa, 0xb,
0x5, 0x3, 0xc, 0xa, 0xd, 0x1, 0xb, 0x0, 0xb,
0x9, 0x4, 0xa, 0x3, 0x2, 0x2, 0xc, 0xe, 0x9,
0x3, 0x4, 0x3, 0x4, 0x4, 0x4, 0x3, 0x3, 0x0,
0xb, 0xb, 0xc, 0xb, 0xc, 0xb, 0xa, 0x1, 0xa,
};

static int backbone_model3_conv1_relu2_threshold[64 * 7] =
{ // torch.Size([64, 7])
-80, 3, 87, 171, 297, 465, 801,
9, 58, 107, 157, 231, 329, 526,
72, 131, 190, 249, 338, 457, 694,
23, 75, 126, 178, 255, 358, 564,
-46, 63, 172, 281, 445, 663, 1100,
16, 62, 107, 153, 222, 314, 497,
23, 63, 103, 143, 203, 283, 443,
-9, 48, 105, 163, 249, 364, 595,
-74, -5, 64, 133, 238, 377, 655,
39, 86, 132, 179, 249, 342, 528,
55, 85, 116, 146, 192, 253, 376,
78, 131, 185, 239, 320, 427, 642,
-8, 42, 92, 142, 217, 318, 519,
38, 93, 148, 202, 285, 394, 614,
-8, 51, 110, 170, 259, 378, 616,
37, 81, 126, 170, 237, 326, 504,
7, 57, 107, 157, 231, 331, 530,
2, 45, 89, 132, 197, 284, 457,
-17, 41, 99, 158, 247, 364, 600,
1, 58, 114, 170, 255, 367, 592,
28, 76, 125, 174, 247, 345, 540,
-21, 49, 120, 191, 297, 438, 722,
-22, 31, 85, 140, 221, 330, 547,
-24, 46, 118, 190, 297, 440, 727,
6, 74, 143, 211, 314, 452, 726,
-14, 47, 108, 170, 262, 385, 631,
63, 102, 141, 180, 239, 317, 473,
30, 73, 117, 161, 227, 314, 490,
89, 128, 168, 208, 267, 347, 506,
4, 55, 106, 157, 233, 335, 538,
-23, 49, 122, 195, 304, 450, 741,
52, 90, 127, 164, 219, 294, 442,
42, 81, 120, 159, 218, 297, 454,
-4, 38, 81, 124, 188, 274, 446,
17, 69, 120, 172, 249, 352, 559,
-35, 28, 93, 157, 254, 382, 640,
-6, 51, 110, 168, 255, 372, 605,
-4, 34, 73, 112, 171, 249, 405,
-3, 65, 133, 202, 305, 442, 716,
-32, 13, 59, 104, 173, 265, 448,
-22, 48, 120, 191, 298, 441, 727,
-4, 47, 99, 151, 228, 332, 539,
74, 108, 142, 177, 228, 296, 433,
-92, -18, 56, 131, 243, 393, 692,
-3, 45, 95, 145, 219, 318, 517,
36, 89, 141, 193, 271, 375, 584,
-33, 43, 119, 196, 311, 464, 770,
-1, 36, 75, 113, 171, 248, 402,
21, 79, 137, 195, 281, 397, 628,
6, 55, 105, 154, 227, 326, 522,
-18, 22, 63, 104, 165, 247, 411,
-37, 32, 102, 173, 278, 418, 698,
63, 103, 144, 185, 246, 327, 490,
17, 65, 112, 159, 230, 324, 513,
-9, 27, 64, 101, 157, 231, 379,
10, 58, 105, 152, 223, 318, 508,
35, 68, 101, 133, 183, 248, 379,
-2, 49, 101, 152, 230, 334, 541,
74, 122, 170, 219, 291, 387, 579,
-1, 49, 99, 150, 225, 326, 528,
43, 79, 115, 151, 204, 276, 419,
70, 124, 177, 231, 312, 419, 634,
64, 110, 156, 202, 272, 364, 548,
49, 92, 134, 176, 240, 325, 495,
};

static uint64_t backbone_model3_conv2_conv1_weight[64 * 1] =
{ // torch.Size([64, 1, 1, 64])
0xcccab4bcd4dc2c3b,0xcbcaba4a5cb3b22b,0x14493babcb20aba2,0x00bbb2d99ac484bc,
0x344a22851c449344,0x022bc2bd25142994,0x9b04c3b43943a44c,0x3c02ac5ab44b302c,
0x33cc10aab2ab8cba,0x51b809caa23a9b2a,0x2135833c11ca930b,0x3aa23db202024bdc,
0x434a00c2a43430a1,0x22394a439445bcc2,0x34b032a4b244c00b,0x221043433bc3324a,
0x8b450aacb2ca1ca8,0xbb33323b84ab0b21,0x02ddcaaac335ca0b,0xb402baa13b4ac44a,
0x3852bc393ba2133b,0xa203b4c24bb338a4,0x41bc3321c42c4b3c,0xc049d13a33890232,
0x2b58ccbac3b33cab,0xba94a4bb45b3caab,0x3bccd280d9c92abc,0xb04bb2a3c0b28a44,
0xa3aa3215bac39c2b,0xa52bc1b4a9345434,0x130acbbc9c514dbb,0x293bbbb21d4babca,
0xaa302b1902a19b13,0xba843a323391ab21,0x833dbcb308b18abb,0xc320c083592a9349,
0xa32b23324b23c554,0xc359c2ba4bc34443,0x23ac02b093444c13,0x431cb3511933b83b,
0xa5b4c3334c23443a,0xb43ba2441c834032,0x2ada1009432b0bc2,0x3a93444babb3325a,
0xabbc09cbabc2b10b,0xbcc8a00caabcab43,0xa358abba2c444a4b,0x3a2cac08434cca08,
0x33435430441440a2,0x332459a3c3b10b2b,0xdabbca1333a31c2c,0xb8b1b4304bb24434,
0x343281cb34a41a91,0x544242028332ac3a,0x92cb13b4a345bcc5,0x44b44b344dc33a3a,
0x4394cb399c1b832b,0xc12cb43a4cc34104,0x329c320aa328429a,0xcb2bd433b938a84b,
0xb53c33c43b343449,0x5410332192a432b3,0x3803333599a3cb3c,0x1cac3343103b33b4,
0x9439521b2b44b334,0x0bb344288b8a2bb4,0x8b9a22c412033b23,0x9812bb3cbb18d9b3,
0x3b4330ccd3b9c0aa,0x0b842c4c923c3cc0,0x9213bac5ba94ca31,0x342c32b4244a9343,
0x3820b4c34a13a339,0x2433c032b2a4445a,0x2330102cca43ac00,0x218b29333d33022c,
0x0b4a3343a43b3bc2,0x1c0442031441b223,0x04c4a234482b4ca1,0x4122a0cd2a089333,
0x430bbbc49931aba9,0x0932bb93b2b5343a,0xb49b4333dc3cb190,0xb324b242aba92b4b,
0x9bd580889809b3cc,0x2c9cc1ac0b33a39a,0xaad121bb922113c2,0x23b42a0ac3b31acb,
0xa2ba34cc1ab1b909,0xa9baa02232d0b330,0x94933cd3dd43ba33,0x4331b13c1234b419,
0xcbbb3b0abb2c0239,0x13345a45d94b383a,0xac34024b2abc023a,0xab3c23cc40ab9895,
0xbb02d32932c8240b,0xbb82052000bcccc5,0xac38c4c42003b3ca,0x20bb2b21b293b3b0,
0xcb2cc4acc3c44102,0x1ccb34bc4332bccd,0x4b3bbbc01cc3c303,0x4a59bac332232b24,
0xa3432c0293422bd0,0xac8233339449b922,0x2639c3444a234b40,0x31bb233b30242242,
0x33c4cc344ca85422,0x2342a4c09340443b,0xeb4bb332354b822b,0xc243b44419433a2c,
0x2b3b31bc93ab3939,0x2b94aab3c30da89c,0xbb64bb33acc94a02,0x809b2ba248b3abc2,
0x4b4d3c3daba31a94,0xa1a3b202b4c3c440,0x14bbc9c8bb3233cc,0x382cc4cbccccbb54,
0xaaacb5ca94daa1a1,0x0cbca29b3c1aa440,0xc5acbc2010b932b2,0xc131c2c592065b22,
0x344aa44208534b42,0xaa53423a3c44ccc1,0xaa3b1395c2cca332,0xb8a0a22c94cba3b0,
0x43593b84333a2202,0x5154c3a21b2c43a4,0xdab294803253a9cc,0xb2c3333a8b0c13bb,
0xa3c042cc44333333,0x333313389b22bcc4,0x3b231405c1d3ca29,0x039bca4d2242b994,
0x308bb1401bb2b34c,0x09aba342bd234aba,0x4bac283385b2a1b4,0x22a1c10818b4c332,
0xb4b1a2454cb4ca33,0x05b3c9b04cc15909,0x02a423c2ca43b199,0x952caa34b943b328,
0x335b43cc3bc3d399,0x3a019abac5422a13,0x3c3333c44001345a,0x23491c343359ad31,
0xc0baa2bbbca0a480,0xa20b02ba33bc1ca1,0x4bc2b0bb3434ba4c,0x2ba08c33029a3abb,
0x040b32ac2b23b9c5,0xac4912bc3402ca3a,0x3c3303c339b2044c,0x2b2b1b12b52b2b22,
0x11212a3a14393cd4,0x4a44403433433a09,0x04142133accab2b3,0x130239b24213b2b3,
0xa3330bb4bab3c3b4,0xcc53ab54b43b4124,0x038bbb4a2101233b,0x323b393b353b4c8b,
0xa1cbb3804b32b4a2,0xb3bdca434c123229,0x90cb39bb224921c3,0x3c0a8323b2832bcb,
0xacb1219b299bc320,0xb8abc9cd11929108,0x0243a2ba832a614b,0xc002a299b1abba1b,
0xb2b03babca3ca3b9,0x9d1342cb4b23c33a,0x4cbc58ca293cb421,0xd2a0cbcc95bbb99c,
0xcc4c2a1cc24cbba3,0x91ccba09bac938d4,0xb40abcb1cc033b40,0x3cc2bc9da94dc2bc,
0x2b3ab482bb83431b,0x2b83352342abc92d,0x5a2aa8aa11cb0bc2,0x8830b2b9a0c23c33,
0xa3320ac22ac2aca3,0x44a3b3ba35ccb24b,0x004832d33342cb3b,0x333c3c44c232b01a,
0x00b2b389c0343a8d,0x2d1b4b3b24449ca9,0x0a93b31512b3b320,0x31844b3c99c339b1,
0xc34ca3343b9cb483,0xb238c333411ab32a,0x5423ca38344a1aac,0x14d3aab3a2c512c3,
0x33b1d8343cb34412,0x219344b934aa533d,0xdb21d0a043bca90a,0xab444412c94348ba,
0x324c109bb43349b4,0x3a334219a3033b34,0x0aa444932c02342c,0x3d2c180a001a4935,
0xc0bc244c0345b03b,0x3ad824c20ba44148,0x4c2b253d3942b0ba,0x28b2a1234cbca19b,
0xd2214305953b2bc9,0x449a44b1333823c4,0x151343bbc143cac2,0x2433a1a2335c841a,
0x3c3b3a2124934aab,0x62b44103c03b434c,0xcaa4bba398bbc9ba,0xaaca340331bba245,
0x20033b444c4b1424,0x3a3b4c30cb4cb434,0xc230448344332104,0x43c3224ba428d3ab,
0x0bd2012bcbbb4b8d,0x23a9aba94c42430c,0xbb9329b303941d23,0xbaac03ccbabba5ca,
0xa3b9a1484b8c2912,0x2339aba4ab133231,0x0c1b330b331a9388,0xa4bbbbb32b198391,
0x1b831b4c3abc9dc4,0xccb2bc3a9cab1cc0,0xbcac33a3b3dc3523,0xa38b19da032b0284,
0xac91d4342b39b3bd,0x1098a429cbb2ab15,0x4230b09b41ba2bc9,0x832b4ba2a444b314,
0x013923b244b42b94,0xbb3324ac4bb8aac0,0x043038c5a3a4281a,0x413c0033a1280484,
0x3babcbc1b3bcc31c,0xc2cdbcbbcb3dcbc2,0x83bb2db349c04cb2,0x4bcc432b9aa2ca34,
0xa9c32b102b3ad0ba,0x1bbac2cbb1c29432,0x0a8ba19c193cb9b3,0x84b4ac21a21bcdad,
0xb933b5bcbcbac01c,0x44cca93bc8a34bc3,0x8b93041bb4a4bb2a,0x133cb1cba143a4cc,
0xb42044443bb43432,0x22231b03b94d2b29,0xcc44c43254a2b23b,0x29d43caabb31b9a1,
};

static int backbone_model3_conv2_quant1_threshold[64 * 14] =
{ // torch.Size([64, 14])
-1107, -779, -615, -492, -410, -328, -246, -164, -82, 0, 81, 204, 368, 695,
-782, -448, -280, -155, -71, 11, 95, 178, 262, 346, 429, 555, 722, 1056,
-878, -594, -452, -346, -275, -204, -133, -63, 7, 78, 149, 255, 397, 681,
-793, -452, -282, -155, -70, 14, 99, 184, 270, 355, 440, 567, 737, 1077,
-947, -624, -462, -341, -261, -180, -99, -18, 61, 142, 223, 344, 505, 828,
-801, -506, -358, -247, -173, -100, -26, 47, 121, 195, 269, 380, 527, 823,
-1054, -715, -546, -418, -334, -249, -164, -80, 4, 89, 174, 301, 470, 809,
-1234, -796, -577, -413, -303, -194, -84, 24, 134, 243, 353, 517, 736, 1174,
-682, -415, -281, -181, -114, -48, 18, 85, 152, 218, 285, 385, 519, 785,
-1008, -624, -432, -288, -192, -95, 0, 96, 192, 288, 384, 528, 720, 1105,
-894, -537, -359, -225, -136, -47, 41, 130, 219, 309, 398, 531, 710, 1066,
-993, -665, -500, -377, -295, -213, -131, -49, 32, 114, 197, 320, 484, 812,
-890, -522, -338, -200, -108, -17, 74, 166, 258, 350, 442, 580, 764, 1131,
-951, -566, -373, -229, -133, -37, 59, 155, 251, 347, 443, 588, 780, 1165,
-944, -605, -436, -309, -225, -140, -55, 28, 113, 197, 282, 409, 578, 916,
-772, -403, -218, -80, 12, 104, 196, 289, 381, 473, 566, 704, 889, 1258,
-728, -449, -310, -205, -136, -66, 3, 72, 142, 212, 281, 386, 525, 804,
-1010, -636, -449, -309, -216, -123, -29, 63, 157, 250, 343, 483, 670, 1044,
-813, -479, -313, -188, -104, -21, 61, 145, 228, 311, 395, 520, 687, 1020,
-1010, -664, -490, -361, -274, -187, -101, -14, 71, 158, 244, 374, 547, 894,
-977, -611, -428, -290, -199, -107, -16, 75, 166, 258, 350, 487, 670, 1036,
-953, -662, -516, -407, -334, -261, -188, -115, -42, 30, 103, 212, 358, 650,
-1094, -732, -550, -414, -324, -233, -142, -51, 38, 129, 220, 356, 537, 900,
-905, -559, -386, -256, -170, -83, 2, 89, 175, 262, 348, 478, 651, 997,
-1006, -647, -467, -332, -242, -152, -62, 27, 116, 206, 296, 431, 611, 970,
-747, -501, -378, -286, -225, -163, -102, -40, 20, 82, 143, 235, 358, 604,
-867, -508, -328, -193, -103, -13, 75, 165, 255, 345, 435, 570, 749, 1109,
-872, -481, -285, -139, -41, 56, 154, 251, 349, 447, 545, 691, 887, 1278,
-930, -604, -440, -318, -236, -154, -72, 8, 90, 172, 253, 376, 539, 866,
-1063, -707, -528, -394, -305, -216, -127, -38, 51, 140, 229, 363, 541, 898,
-1193, -696, -448, -262, -138, -14, 109, 234, 358, 482, 606, 792, 1040, 1537,
-916, -550, -366, -229, -137, -46, 45, 137, 228, 320, 412, 549, 732, 1099,
-846, -503, -332, -203, -117, -32, 53, 139, 224, 310, 395, 524, 695, 1038,
-1089, -660, -445, -284, -177, -70, 37, 144, 251, 359, 466, 627, 842, 1271,
-972, -601, -415, -276, -183, -91, 1, 94, 187, 279, 372, 511, 697, 1068,
-1031, -601, -386, -225, -118, -10, 96, 204, 311, 419, 526, 687, 902, 1332,
-983, -607, -418, -277, -183, -89, 4, 98, 192, 286, 380, 521, 709, 1086,
-891, -573, -414, -295, -215, -136, -57, 22, 101, 181, 260, 379, 538, 856,
-903, -573, -408, -285, -202, -120, -37, 44, 127, 209, 292, 416, 581, 911,
-802, -477, -314, -192, -110, -29, 52, 133, 214, 296, 377, 499, 662, 988,
-930, -570, -390, -255, -166, -76, 13, 103, 193, 283, 373, 508, 688, 1047,
-939, -611, -447, -325, -243, -161, -79, 2, 84, 166, 247, 370, 534, 862,
-888, -605, -463, -357, -286, -215, -144, -74, -3, 67, 138, 244, 386, 669,
-1182, -780, -579, -428, -328, -227, -127, -26, 73, 174, 274, 425, 626, 1028,
-1272, -874, -675, -526, -427, -327, -228, -128, -29, 70, 169, 318, 517, 915,
-1024, -667, -489, -355, -266, -177, -88, 0, 89, 179, 268, 402, 580, 937,
-945, -615, -450, -327, -245, -162, -80, 2, 84, 166, 249, 372, 537, 866,
-1043, -668, -481, -340, -246, -153, -59, 34, 127, 221, 314, 455, 642, 1017,
-1066, -667, -467, -318, -218, -118, -18, 81, 180, 280, 380, 530, 729, 1128,
-1012, -643, -459, -320, -228, -136, -43, 48, 140, 232, 325, 463, 647, 1016,
-779, -448, -282, -158, -75, 7, 89, 172, 255, 338, 420, 544, 710, 1041,
-1071, -660, -455, -301, -199, -96, 5, 108, 211, 313, 416, 570, 775, 1185,
-846, -483, -301, -165, -74, 16, 107, 197, 288, 379, 470, 606, 787, 1151,
-1040, -601, -381, -217, -107, 2, 111, 221, 331, 441, 550, 715, 934, 1373,
-655, -361, -213, -103, -29, 43, 117, 191, 264, 338, 412, 522, 670, 964,
-944, -629, -472, -354, -275, -196, -118, -39, 39, 117, 196, 314, 472, 786,
-902, -545, -367, -233, -144, -55, 33, 123, 212, 301, 390, 524, 703, 1059,
-1081, -742, -572, -445, -360, -275, -190, -105, -20, 64, 149, 276, 446, 786,
-889, -572, -414, -295, -216, -137, -57, 21, 100, 179, 258, 377, 536, 852,
-875, -524, -349, -218, -130, -42, 44, 132, 219, 307, 395, 526, 701, 1052,
-1283, -932, -757, -626, -538, -450, -363, -275, -188, -100, -12, 118, 293, 644,
-1180, -819, -639, -503, -413, -323, -232, -142, -52, 37, 128, 263, 444, 805,
-1050, -697, -520, -387, -299, -211, -122, -34, 53, 142, 230, 363, 539, 893,
-809, -478, -313, -189, -106, -24, 58, 140, 223, 306, 388, 512, 677, 1008,
};

static uint64_t backbone_model3_conv2_conv2_weight[64 * 9] =
{ // torch.Size([64, 3, 3, 1])
0xb, 0xa, 0xb, 0xb, 0x5, 0xa, 0x2, 0x6, 0x2,
0xa, 0x9, 0x3, 0x3, 0xe, 0xb, 0x2, 0x3, 0xc,
0x2, 0x3, 0x8, 0x3, 0x4, 0x3, 0xb, 0xd, 0x8,
0xb, 0xc, 0xb, 0x3, 0xc, 0xc, 0x4, 0x3, 0xd,
0x8, 0x5, 0x5, 0xc, 0x1, 0x4, 0xa, 0xa, 0x2,
0x9, 0xd, 0xc, 0x0, 0x3, 0xa, 0x9, 0x4, 0x3,
0xa, 0xb, 0xb, 0x5, 0xb, 0xb, 0x4, 0x1, 0x9,
0xc, 0xc, 0xd, 0xc, 0xb, 0xb, 0x8, 0x8, 0xb,
0xb, 0xc, 0x8, 0x0, 0x5, 0x2, 0xd, 0xa, 0xa,
0xc, 0xe, 0x2, 0x1, 0xb, 0x4, 0x3, 0x3, 0x2,
0xb, 0xe, 0x3, 0x4, 0x1, 0x3, 0x1, 0x0, 0x8,
0x3, 0x2, 0x5, 0x0, 0xb, 0x2, 0x2, 0x4, 0x4,
0x2, 0x4, 0x3, 0xb, 0x3, 0x2, 0xc, 0xd, 0xc,
0xb, 0xd, 0xc, 0x4, 0x3, 0xc, 0xb, 0x4, 0x3,
0x3, 0xa, 0x3, 0xc, 0xb, 0x3, 0xd, 0xd, 0x2,
0x0, 0xb, 0x4, 0x2, 0xd, 0x0, 0xc, 0xc, 0x9,
0x3, 0x2, 0xc, 0x4, 0xb, 0xc, 0x2, 0xa, 0xc,
0x3, 0x9, 0xb, 0x5, 0xb, 0x2, 0x5, 0x2, 0x3,
0x4, 0xc, 0xd, 0x3, 0xb, 0x9, 0x4, 0x8, 0x9,
0xd, 0x3, 0x3, 0xd, 0x4, 0x4, 0xc, 0x9, 0x0,
0xa, 0xa, 0xb, 0xc, 0xb, 0xa, 0xb, 0xc, 0xb,
0x3, 0xd, 0x2, 0xa, 0xb, 0x5, 0x2, 0x4, 0xb,
0xb, 0xb, 0xb, 0xb, 0xb, 0xc, 0xc, 0xc, 0xb,
0x2, 0xc, 0x0, 0xc, 0x3, 0x4, 0x8, 0x5, 0xa,
0x3, 0x4, 0x4, 0x3, 0x4, 0x4, 0xb, 0xc, 0xc,
0x3, 0x3, 0x4, 0x3, 0x4, 0x3, 0x9, 0x5, 0x3,
0xb, 0xc, 0x3, 0xb, 0xd, 0x0, 0x0, 0xb, 0xb,
0x2, 0xc, 0xc, 0x2, 0xd, 0xc, 0x4, 0x0, 0xb,
0xb, 0x2, 0xb, 0x1, 0x6, 0x0, 0x2, 0xc, 0x2,
0x4, 0x5, 0x3, 0x5, 0x4, 0xb, 0x9, 0x9, 0x9,
0x4, 0x4, 0x2, 0x3, 0x5, 0x4, 0x3, 0x4, 0x2,
0xb, 0xd, 0x8, 0x2, 0xc, 0x3, 0xb, 0xc, 0x3,
0xd, 0xd, 0x2, 0xb, 0xb, 0x2, 0x0, 0x3, 0x3,
0x4, 0x4, 0x4, 0x2, 0x3, 0x3, 0x9, 0x3, 0x3,
0x3, 0x3, 0x0, 0xc, 0xc, 0xa, 0xa, 0xb, 0xc,
0xd, 0xc, 0xb, 0xc, 0x0, 0x9, 0xb, 0x9, 0x0,
0xb, 0x0, 0x3, 0xc, 0xc, 0x3, 0xa, 0xd, 0xc,
0x2, 0x4, 0x3, 0x3, 0x4, 0xc, 0x3, 0xa, 0xc,
0xc, 0xd, 0xc, 0x0, 0x1, 0x9, 0x4, 0x4, 0x4,
0xb, 0xd, 0xc, 0xc, 0x4, 0xc, 0xa, 0x4, 0x3,
0xa, 0x0, 0x9, 0xc, 0xc, 0xb, 0xa, 0xc, 0xd,
0x3, 0x4, 0xd, 0xa, 0x4, 0xc, 0xb, 0x2, 0x4,
0xb, 0x5, 0xb, 0xd, 0x2, 0xb, 0x4, 0x3, 0x1,
0xb, 0x3, 0x0, 0x4, 0x5, 0x4, 0x4, 0x3, 0x9,
0x3, 0x3, 0x4, 0x3, 0x4, 0x3, 0x4, 0x5, 0x1,
0xa, 0x0, 0xa, 0x4, 0x3, 0xc, 0x5, 0x1, 0xc,
0xc, 0x3, 0x3, 0xd, 0x3, 0x4, 0xc, 0x2, 0x3,
0x8, 0xb, 0xd, 0x5, 0x4, 0xc, 0x3, 0x3, 0xb,
0xa, 0xb, 0xc, 0xc, 0xc, 0xb, 0xc, 0xc, 0x2,
0xc, 0x2, 0x0, 0xd, 0xd, 0x1, 0xa, 0xc, 0xc,
0x5, 0x2, 0xb, 0x2, 0xc, 0xc, 0xa, 0xd, 0xc,
0x3, 0x4, 0x3, 0x3, 0x4, 0x3, 0x2, 0x3, 0x3,
0x8, 0xb, 0xa, 0xb, 0xd, 0xc, 0xb, 0x3, 0xc,
0x4, 0xc, 0xb, 0x8, 0x3, 0x4, 0x8, 0x4, 0x5,
0x2, 0x4, 0xa, 0x1, 0xd, 0xc, 0xd, 0xc, 0xb,
0xc, 0xc, 0xc, 0x3, 0x1, 0x1, 0x4, 0x5, 0x4,
0x4, 0xb, 0xb, 0x3, 0x4, 0x0, 0xa, 0x3, 0x4,
0x4, 0x4, 0x5, 0x3, 0x2, 0x4, 0x0, 0x0, 0xa,
0xc, 0xc, 0xc, 0xb, 0x8, 0xb, 0x4, 0x4, 0x4,
0xb, 0xc, 0x0, 0xb, 0xc, 0x4, 0xc, 0xb, 0x4,
0xc, 0xc, 0xb, 0xc, 0xc, 0x2, 0xc, 0x9, 0x1,
0xc, 0x3, 0x4, 0xd, 0x4, 0x3, 0x0, 0x5, 0x2,
0x2, 0x2, 0x4, 0x2, 0x4, 0x4, 0x4, 0x4, 0xb,
0xc, 0xd, 0xc, 0xb, 0xb, 0x9, 0xb, 0x1, 0xb,
};

static int backbone_model3_conv2_relu2_threshold[64 * 7] =
{ // torch.Size([64, 7])
43, 111, 180, 248, 350, 486, 759,
0, 53, 106, 159, 239, 345, 557,
2, 45, 87, 130, 194, 279, 449,
-26, 27, 81, 134, 215, 323, 539,
71, 112, 153, 194, 256, 338, 502,
76, 110, 144, 179, 230, 298, 434,
59, 88, 116, 145, 188, 245, 359,
-29, 28, 86, 144, 232, 348, 581,
-61, -16, 28, 73, 140, 230, 409,
6, 55, 104, 153, 226, 324, 519,
32, 80, 128, 176, 248, 345, 537,
-24, 14, 54, 93, 153, 232, 390,
23, 60, 97, 134, 189, 262, 409,
18, 56, 94, 132, 189, 266, 418,
46, 80, 115, 149, 201, 270, 408,
26, 68, 110, 152, 215, 299, 467,
32, 64, 96, 129, 177, 242, 371,
48, 112, 175, 238, 333, 459, 712,
105, 141, 176, 212, 265, 336, 478,
-1, 34, 70, 106, 161, 233, 378,
44, 97, 150, 203, 283, 389, 601,
-12, 33, 80, 127, 197, 291, 478,
-16, 29, 74, 120, 189, 280, 464,
-3, 46, 95, 145, 219, 318, 516,
55, 85, 115, 145, 189, 249, 368,
137, 205, 273, 340, 442, 578, 850,
-144, -63, 16, 97, 218, 380, 703,
66, 106, 145, 185, 244, 323, 481,
-24, 36, 98, 159, 251, 374, 620,
32, 99, 167, 234, 336, 470, 740,
-128, -44, 39, 123, 249, 417, 752,
47, 90, 133, 177, 242, 328, 502,
14, 58, 103, 147, 214, 303, 481,
50, 99, 147, 196, 269, 367, 562,
2, 48, 93, 139, 208, 299, 482,
32, 87, 141, 196, 277, 386, 604,
-31, 25, 82, 138, 224, 337, 565,
-8, 26, 62, 98, 152, 224, 368,
65, 111, 158, 204, 274, 367, 553,
17, 55, 92, 129, 186, 260, 410,
-9, 34, 78, 122, 188, 276, 452,
19, 54, 89, 124, 177, 247, 387,
-44, 7, 59, 111, 190, 294, 503,
-4, 42, 89, 137, 207, 302, 491,
-1, 44, 91, 137, 207, 300, 486,
109, 148, 187, 225, 284, 361, 516,
55, 93, 131, 170, 227, 304, 457,
86, 124, 161, 199, 255, 330, 480,
6, 57, 109, 161, 238, 341, 548,
-32, 23, 79, 134, 217, 328, 551,
54, 106, 158, 209, 287, 390, 597,
12, 58, 104, 150, 219, 311, 495,
23, 73, 123, 173, 248, 347, 547,
25, 62, 98, 134, 189, 262, 407,
122, 172, 221, 271, 345, 444, 642,
65, 116, 166, 217, 293, 394, 597,
38, 73, 109, 145, 198, 270, 413,
28, 84, 140, 196, 280, 392, 616,
108, 146, 184, 223, 280, 356, 509,
11, 49, 86, 123, 178, 252, 401,
34, 94, 155, 216, 307, 428, 670,
51, 103, 154, 206, 283, 386, 592,
45, 94, 142, 191, 265, 362, 558,
40, 89, 139, 188, 262, 360, 557,
};

static uint64_t backbone_model4_conv1_conv1_weight[64 * 1] =
{ // torch.Size([64, 1, 1, 64])
0x2133c402324a3133,0xc321b28404134340,0x26088a03b483bb23,0xb3223b042a3832a3,
0xb3dbc443034b0ca3,0x9a0cc2b4c2dc2b4a,0xb4224b923ab1cb3d,0xcc323332bb2ba239,
0xa82313a32bb4a32c,0x1b34ba914c120422,0x0aa4124b20c29321,0xc43ccc34b32d44c2,
0xcb4c2d303c4ba5c3,0xa38acb9438353ab3,0xbb38a240ba843442,0x4a4ba444444834ac,
0xd80b459cc5c1a280,0x984a4bcc2c2c5b13,0xacd34c440bb3bbcc,0x1bc53339430acb10,
0xc03bbb9cca2382d1,0x4bcda0bb343cccc8,0x2bc0b5aa8c0ccda5,0x8409b330ac0aa43a,
0x34ccc3924042c2b4,0xbacab984c4ba9b3a,0xc3c0433b1435bb3b,0xc23ab0323132b92a,
0x0c3ba508d55b21c4,0x34c3490413c39431,0x34224443adcc14cd,0x240223234a3ca3b1,
0x4c0bbba2c5422cba,0x43a4c23c08232443,0xa3214a4b13bb32a0,0xc3ac2a8b214c33ab,
0x2ca33b3331ab2aa2,0xc39c3ca30c243bc3,0xc90ba844c3b3b2b2,0x48aba8093039cbbc,
0xcccc230a3a240ac5,0xcca3a10a40b02b3c,0xad2032ab2baa339a,0xc23b32329abbb3cb,
0xc333b3144db1d52c,0xa0cb4b1a24104a4b,0xd4b9c3cb102cbb3c,0xa314cbb34b44148c,
0xd43b33c21c2440b3,0x2babc9b3ac0a4bbc,0x3ca9b23494142449,0xa1422834014c3429,
0x34c3dc432b542b04,0xbd3c2311033cc242,0x3cc1c3c24424c332,0x923cb0cb0bc92c2c,
0xbacb2943293abb3b,0x4301da3b22232aa3,0xbc9044284bcb34cb,0xb5b22c413b52448b,
0x328b83c93394c134,0xb9c4c222008adaac,0x2c0290bb122abcb3,0x89024bc8c0baca39,
0x241329dd23a38420,0xcb4422b331434c44,0xbbb31b330093932a,0xc23a42bb1000d3a0,
0xb04b48412cb1b4c6,0x14a5bb2b32c33148,0x2c32cccc3ba19333,0x28934230acb53bbc,
0x91ccc233204a1b33,0xcbb1121424ac4b33,0xc4b34225ab11bc3c,0xba84c23a532bb34b,
0x32c2a02a02c4c383,0xb2c4308c433b93bc,0xadbbc2cd2a3bab44,0xc12b49bbccc3abca,
0x439124c45baa0ba2,0xbbb92236330600cc,0xca2223b9b4a481cb,0x3bb9babab3ab204a,
0x903c2c4bbbacd42d,0xa8c85a4c94133ac3,0x2b8304bc401b4434,0x3344a333a9134342,
0xa3b3b2cc03334da4,0xbb23c220acbcb04a,0x9c00bb42ca13bbbb,0xd9c82bb9ac22b9ac,
0x3cb084c393d4cb4c,0x3a44b48cbb950323,0xa343431a82b0abb2,0x4ca24bb0b4483a43,
0x5c043bd942410a45,0x14b2a232909a32cb,0x4a12aac1b53d2429,0x33490a10d28b99b9,
0x93b52d44ba44bbcc,0x493b4910ccc2344b,0xa34acc3d3dad233b,0x9ccd229b11a5bbba,
0xc43532325abb52c2,0x3b3b823444a0d34c,0x4acbcb938c9d343b,0xdc2043414ba0c2cc,
0x3332283b954dc3b4,0x38bc2ab2ccbc32b4,0x45c3cb53b10ac022,0xb39b32422c2a3102,
0xac4bbb1b9c2cb3bc,0xb4cb25cb82c453c3,0x39b9acdca04b21ca,0x5a31b632bacc3033,
0xcbb2a2b8ccb538cc,0xcc3c3ac442404cc4,0x9403c23390a44aba,0x4922c2b0432cab43,
0x4da0aca3cb434442,0xaa0c31a533433452,0x38aab321c22a02d4,0x2ab023a843a2ca3b,
0xb34bc24aa3b42a35,0x2b5333ab4b4acc23,0x02c4b0354923abab,0x4c435b23abbc4a43,
0x940bb3ccbccba05c,0x24c44a141a41b342,0xbdcabbc41103a2bb,0x3bb43c8aa4312948,
0x42ddb35344bbdc34,0x3345a293a223292b,0xd1834b44a592bc34,0xbb13c29a4ac21a43,
0xac2ab8920b49b44b,0xb034a4c10adb0b03,0xb9323db81c3944bc,0x983ab5a4c81a4812,
0xbcbcadba334548cc,0xdbccc3a033ba3218,0x4ca0bb9bb53b98b4,0xa4bc4a92443cb93b,
0x4424cccaa53cc1c4,0x8c4c02ac008c9c04,0x15c0ac2a93123443,0xcb1aa2a3bbb4c201,
0x830235bba40bb334,0xb02c3bb21a9b23c4,0x34184c02bb4233cb,0xb3a44912ca34a324,
0x2cddc9bcaac5cccc,0xdcd4d3133dad40c4,0x24542dcc8cb4cdac,0x3bc94bc22a39c345,
0x4ac4c1b3a3aaa832,0xb90c4dda94bbca22,0xba9c9b23c3dabaab,0xbc092bbb8bbaccca,
0x0324b4b323c3294a,0x2bb2a3bad8cd3a32,0x242331bbc2b3ac33,0x33dccbdba142bcc9,
0xa2ad4bbc8943c2bb,0x12a15b4c3533a4a3,0x4c30340c4a303492,0xc4341c414b3295ab,
0x44cbd4c9bb3bd4b0,0xdba32b140b484034,0xc4cbbb32ac32bc90,0xc0b8a3b13b44c3ba,
0xacab852ad101bc25,0x32a2203c443c3342,0x93c8b2843aa1bccb,0xa3caa0a24ccd292b,
0x343cca904a212402,0x8b25c0928813b343,0x49504a4b280142a3,0xc20242222544b0b8,
0x4abcbc4c38341ac4,0xb1dc2220b3cb4bb4,0xbd0139cc2108bcab,0x3b3a0232338bbb3b,
0xb4b049342b0a0bca,0x40bc432424b3ccbb,0xb432b4c9493c3bab,0x4c043b00cba95a53,
0xcacbc330aac3c300,0x2b49aacac1bc2b4b,0xaa1abb91b1c4ba3b,0xc4cc9a8c492192bb,
0xab1d3b5c4c3821bb,0x59c3489b2bbb05d3,0x3acbc3bbb9a03513,0x344c024359cb49cc,
0x5cb3cdc3c5a4c235,0xc2aa12312313b091,0xba421cca8a9d8a40,0xb93c2b22c4a8a333,
0x9542443b43bb4245,0x01bb3a848b19122b,0xbd8093b490b4a33b,0x8180b0423b81a2bb,
0x23cbd132153aa4b3,0x3cbc09b1080aeca3,0x4420a2a29c241343,0xb22340a3bc34bb93,
0xd53334432a3044dc,0x3b3a3cb2b332ccc4,0x55ba03540bb30402,0x212bbba121214b33,
0x1bc5bbc3bb2b4c33,0xca32a833cd3232bb,0x9a3b3b24b29b34ca,0x8ccc83ab8ac4c928,
0xcdc43954d0424c28,0x48bcb21aa2c4b42c,0x043b43caa3bb29ab,0x3a04ba32ba8b4291,
0x25a822ec9a5b2ca3,0xb4c340c3a3204b33,0x24c81c1b2b3c44ab,0xc90230333b23cbb3,
0xccc1c1cccd3c1b4c,0x5b4a22a5bc4420c4,0xb419c9440bb332d9,0xacb9a3204ba3342a,
0xbb3c53b8cb2c3139,0x8c80aa21bb38b2d3,0x634b34bc1b03344a,0x42b11c90c44c0023,
0xc8b4a2aaba314bb3,0xab9baa09b9bbca4a,0xbcbab832cbbbbbbc,0xb9aba9214acbc9bb,
0x8b33c00cc250dbab,0xcbcbb4634342b54b,0xcda534ac5c5bbc0b,0x42544424bcd3945c,
0xcc3414b2aa404abc,0x4404d229bac3cb4c,0x3022242ca209bc93,0xab931c32d0302202,
0x44ccc3a24393b4bb,0xbc5aabb43514cca4,0xc3c394242b03cbca,0x2044aa92344ab343,
0xcd333b33bb2540b4,0xa32cbbcb4bc4333c,0x8c5ac3bcc2bac00b,0x302ccccb443b20cd,
0x4a1494bcdbb3cb43,0xba8d599b242dc123,0xa2c0b4c32cac3bab,0x1a91cba3bcb9b412,
};

static int backbone_model4_conv1_quant1_threshold[64 * 14] =
{ // torch.Size([64, 14])
-884, -479, -276, -125, -23, 77, 178, 280, 381, 482, 583, 735, 938, 1343,
-1560, -1068, -823, -639, -516, -393, -270, -147, -25, 97, 220, 404, 650, 1141,
-849, -516, -349, -224, -141, -58, 25, 108, 191, 274, 358, 482, 649, 982,
-886, -460, -248, -88, 17, 124, 230, 337, 443, 549, 656, 815, 1028, 1453,
-1396, -930, -697, -522, -405, -289, -172, -56, 60, 177, 293, 468, 701, 1168,
-1266, -826, -607, -442, -332, -222, -113, -3, 106, 216, 326, 490, 710, 1149,
-1327, -791, -522, -321, -187, -53, 80, 215, 349, 483, 617, 818, 1087, 1623,
-1075, -661, -454, -299, -196, -92, 10, 114, 217, 321, 424, 579, 786, 1200,
-1047, -658, -463, -317, -220, -122, -25, 71, 169, 266, 363, 509, 704, 1093,
-1170, -794, -606, -464, -370, -276, -182, -88, 5, 99, 193, 334, 522, 898,
-1479, -1009, -775, -598, -481, -363, -246, -129, -11, 105, 223, 399, 634, 1104,
-1294, -848, -624, -457, -345, -233, -122, -10, 101, 212, 324, 492, 715, 1162,
-1055, -656, -456, -307, -207, -107, -7, 92, 192, 291, 391, 541, 741, 1140,
-1202, -773, -559, -398, -290, -183, -76, 30, 138, 245, 352, 513, 728, 1157,
-879, -538, -367, -239, -154, -68, 16, 102, 187, 272, 358, 486, 657, 998,
-1200, -802, -603, -454, -355, -255, -156, -56, 42, 142, 241, 390, 589, 987,
-1070, -683, -489, -344, -247, -150, -54, 42, 139, 236, 333, 478, 671, 1058,
-1072, -675, -477, -328, -229, -130, -30, 68, 167, 266, 365, 514, 713, 1109,
-1295, -806, -561, -378, -255, -133, -11, 111, 233, 355, 477, 661, 905, 1394,
-1355, -928, -715, -555, -448, -342, -235, -129, -22, 84, 190, 350, 563, 990,
-1136, -645, -400, -216, -93, 29, 152, 275, 397, 520, 643, 827, 1072, 1564,
-1227, -716, -460, -268, -141, -13, 114, 242, 370, 497, 625, 817, 1072, 1583,
-1448, -1005, -784, -618, -507, -397, -286, -176, -65, 45, 155, 321, 543, 985,
-1071, -630, -409, -244, -134, -24, 86, 196, 306, 416, 526, 692, 912, 1353,
-1088, -710, -520, -378, -284, -189, -94, 0, 94, 189, 283, 425, 615, 993,
-1332, -910, -699, -541, -435, -330, -224, -119, -13, 91, 197, 355, 566, 988,
-1334, -830, -578, -389, -263, -138, -12, 113, 239, 365, 491, 680, 932, 1436,
-1162, -714, -490, -322, -210, -98, 13, 125, 237, 349, 461, 629, 853, 1301,
-1212, -691, -431, -236, -106, 23, 153, 283, 413, 544, 674, 869, 1129, 1649,
-1266, -799, -566, -391, -274, -157, -41, 75, 192, 309, 425, 600, 834, 1301,
-845, -489, -311, -178, -89, 0, 88, 177, 266, 354, 443, 577, 755, 1110,
-1336, -763, -476, -261, -118, 24, 167, 311, 454, 597, 740, 955, 1242, 1815,
-919, -595, -433, -312, -231, -150, -69, 11, 92, 173, 254, 375, 537, 861,
-1375, -827, -553, -348, -211, -74, 62, 198, 335, 472, 609, 814, 1088, 1636,
-1105, -713, -516, -369, -271, -173, -75, 22, 121, 219, 317, 464, 660, 1053,
-1056, -657, -458, -309, -209, -110, -10, 88, 188, 287, 387, 536, 735, 1134,
-1180, -760, -550, -392, -287, -182, -77, 27, 132, 237, 342, 499, 709, 1129,
-984, -588, -390, -242, -143, -44, 54, 153, 252, 351, 450, 598, 796, 1192,
-1784, -1241, -969, -765, -629, -493, -357, -221, -85, 50, 185, 389, 661, 1205,
-1893, -1333, -1053, -844, -704, -564, -424, -284, -144, -4, 135, 345, 625, 1185,
-1564, -1104, -875, -702, -587, -472, -357, -242, -128, -13, 101, 274, 504, 963,
-1027, -551, -312, -134, -15, 103, 222, 342, 461, 580, 699, 877, 1116, 1592,
-1644, -1113, -848, -649, -517, -384, -251, -119, 13, 145, 278, 477, 742, 1273,
-1453, -943, -688, -497, -369, -242, -115, 12, 139, 267, 394, 586, 840, 1350,
-1034, -571, -339, -165, -49, 66, 182, 297, 413, 529, 645, 819, 1051, 1514,
-1047, -699, -525, -394, -307, -220, -133, -46, 40, 128, 215, 345, 519, 868,
-1099, -626, -390, -213, -95, 22, 140, 259, 377, 495, 613, 790, 1026, 1499,
-1706, -1231, -993, -815, -696, -577, -458, -339, -220, -101, 17, 195, 433, 909,
-1179, -601, -311, -94, 49, 194, 339, 483, 628, 773, 917, 1134, 1424, 2002,
-983, -628, -450, -317, -228, -139, -50, 38, 127, 216, 305, 438, 616, 971,
-852, -492, -312, -178, -88, 1, 91, 181, 271, 361, 451, 586, 765, 1125,
-1313, -870, -648, -482, -371, -261, -150, -39, 70, 181, 292, 458, 679, 1122,
-1441, -872, -587, -374, -232, -89, 52, 194, 336, 478, 621, 834, 1119, 1687,
-1234, -839, -641, -493, -394, -295, -196, -97, 1, 99, 198, 347, 544, 940,
-1120, -715, -513, -361, -260, -159, -57, 43, 144, 245, 347, 498, 701, 1106,
-1377, -900, -662, -483, -364, -245, -126, -7, 111, 230, 349, 528, 766, 1243,
-980, -621, -441, -307, -217, -127, -37, 52, 141, 231, 321, 456, 635, 994,
-1194, -713, -472, -292, -172, -51, 68, 188, 308, 429, 549, 729, 970, 1451,
-1379, -964, -757, -601, -497, -394, -290, -186, -82, 20, 124, 280, 487, 902,
-1498, -687, -282, 21, 224, 427, 629, 832, 1035, 1237, 1440, 1744, 2149, 2960,
-1156, -755, -555, -405, -305, -205, -105, -5, 94, 195, 295, 445, 645, 1045,
-1131, -689, -467, -301, -191, -80, 29, 140, 251, 361, 472, 638, 859, 1301,
-1642, -1129, -872, -680, -551, -423, -295, -167, -38, 89, 217, 410, 667, 1180,
-1074, -699, -511, -371, -277, -183, -89, 4, 97, 191, 285, 426, 613, 988,
};

static uint64_t backbone_model4_conv1_conv2_weight[64 * 9] =
{ // torch.Size([64, 3, 3, 1])
0xe, 0xd, 0x4, 0xc, 0xa, 0x4, 0xc, 0x3, 0x5,
0x4, 0x5, 0xc, 0x4, 0x4, 0xc, 0x4, 0x3, 0xc,
0x3, 0x5, 0xb, 0xc, 0xd, 0x3, 0x3, 0x3, 0x8,
0x0, 0x4, 0x4, 0xc, 0x2, 0x6, 0xa, 0xc, 0xb,
0x3, 0x4, 0xb, 0x5, 0x5, 0x8, 0x3, 0x3, 0xb,
0x6, 0xc, 0xc, 0x5, 0xc, 0xc, 0x4, 0xa, 0xc,
0xc, 0xb, 0xc, 0xb, 0x1, 0xb, 0x4, 0x5, 0x5,
0x4, 0x0, 0xc, 0x2, 0xc, 0xd, 0xb, 0xd, 0xb,
0x5, 0x3, 0xd, 0xa, 0xd, 0xc, 0xb, 0xa, 0x0,
0xb, 0x4, 0xa, 0xb, 0x5, 0x2, 0xb, 0x3, 0x2,
0xe, 0xc, 0x0, 0xc, 0x4, 0x3, 0xb, 0x4, 0x4,
0x2, 0x2, 0x3, 0xa, 0xb, 0xc, 0xc, 0xd, 0xd,
0x3, 0x3, 0x3, 0x2, 0x4, 0xa, 0xd, 0xe, 0xc,
0x3, 0x3, 0x8, 0x4, 0xe, 0xc, 0x3, 0xb, 0x0,
0x5, 0xd, 0xb, 0xb, 0x3, 0x4, 0xb, 0x4, 0x4,
0x4, 0x5, 0x3, 0x4, 0x3, 0xc, 0x9, 0xc, 0xc,
0xa, 0xd, 0xc, 0x4, 0xb, 0xb, 0x4, 0x4, 0xb,
0x9, 0xd, 0x5, 0xc, 0xb, 0x4, 0x9, 0x4, 0x4,
0xa, 0x4, 0x5, 0x2, 0x4, 0x4, 0xc, 0xb, 0x0,
0xc, 0xb, 0x4, 0xc, 0xb, 0x5, 0x1, 0x4, 0x5,
0xc, 0xb, 0xa, 0x4, 0xc, 0xc, 0x6, 0x4, 0x2,
0xc, 0xd, 0xc, 0xb, 0x4, 0x6, 0xb, 0x4, 0x5,
0x4, 0x4, 0x4, 0xc, 0x4, 0x5, 0xd, 0xd, 0x3,
0xa, 0xb, 0xb, 0x4, 0x2, 0xb, 0x5, 0x5, 0x3,
0xc, 0xd, 0xd, 0x3, 0x9, 0x4, 0x4, 0x2, 0x4,
0x4, 0x4, 0x1, 0x4, 0x4, 0x3, 0x3, 0xa, 0x3,
0x3, 0x4, 0x4, 0x3, 0x3, 0x4, 0x1, 0x3, 0x2,
0xc, 0x4, 0x5, 0xc, 0xb, 0x5, 0xb, 0xb, 0x3,
0x2, 0xb, 0x9, 0x3, 0x6, 0xb, 0x3, 0x8, 0x0,
0xd, 0x1, 0x3, 0xb, 0x5, 0x5, 0x1, 0x4, 0x2,
0xc, 0x4, 0x3, 0x2, 0xc, 0x4, 0x4, 0xd, 0xd,
0xc, 0xb, 0x1, 0x3, 0x6, 0x4, 0x3, 0x1, 0x3,
0xd, 0x5, 0x9, 0xd, 0xb, 0x5, 0x3, 0xb, 0x9,
0x2, 0x5, 0x4, 0xa, 0x4, 0xc, 0x4, 0x4, 0xa,
0x2, 0xa, 0x1, 0xc, 0x6, 0x3, 0xa, 0x9, 0x1,
0xc, 0xd, 0xd, 0xa, 0x2, 0xb, 0xb, 0x1, 0xa,
0xd, 0x5, 0x4, 0xc, 0x4, 0x4, 0xc, 0xc, 0xb,
0x4, 0x2, 0xb, 0x5, 0xc, 0xb, 0x5, 0xc, 0xc,
0x2, 0x0, 0x9, 0x4, 0x4, 0x4, 0x4, 0x4, 0x3,
0x0, 0x3, 0x4, 0x3, 0x4, 0x4, 0x0, 0x3, 0x3,
0x3, 0x9, 0x1, 0xe, 0x4, 0xc, 0x2, 0x2, 0x1,
0xa, 0x3, 0x4, 0xa, 0x6, 0xb, 0x3, 0x3, 0x9,
0x4, 0x4, 0x4, 0x3, 0x4, 0x4, 0x0, 0x1, 0xb,
0xc, 0xd, 0xc, 0xc, 0x3, 0x2, 0x4, 0x4, 0x4,
0x5, 0x3, 0xd, 0x4, 0x6, 0xc, 0xa, 0xc, 0xd,
0x4, 0x5, 0x4, 0xa, 0x3, 0xb, 0xd, 0xd, 0xc,
0x4, 0xc, 0xc, 0xb, 0x5, 0xc, 0xa, 0x4, 0x4,
0x2, 0xd, 0xb, 0x5, 0x4, 0xc, 0x4, 0xb, 0xd,
0x4, 0x6, 0x5, 0xb, 0xc, 0x2, 0x4, 0xc, 0x1,
0xc, 0xa, 0xb, 0xd, 0xe, 0xb, 0x4, 0x5, 0x2,
0x4, 0x4, 0x4, 0x4, 0xb, 0x3, 0xd, 0xc, 0xc,
0xe, 0xd, 0x3, 0xc, 0x3, 0x3, 0xa, 0x4, 0x1,
0xc, 0xa, 0xb, 0xc, 0x3, 0xb, 0xc, 0xb, 0xc,
0xb, 0x5, 0x3, 0xd, 0xa, 0x2, 0xc, 0xa, 0x0,
0xb, 0x4, 0x3, 0x3, 0x3, 0x9, 0xa, 0xd, 0xc,
0x5, 0xc, 0xd, 0x0, 0x3, 0xd, 0xa, 0x2, 0xb,
0xb, 0xc, 0x5, 0xc, 0x1, 0xa, 0x5, 0x4, 0xb,
0x2, 0x5, 0x0, 0xb, 0x4, 0xb, 0x0, 0x5, 0xb,
0x4, 0x5, 0x4, 0x5, 0x3, 0x8, 0xb, 0xc, 0xc,
0x4, 0x3, 0x4, 0x5, 0x4, 0x4, 0x3, 0x3, 0x2,
0xe, 0xd, 0x3, 0x2, 0x4, 0x4, 0x9, 0x1, 0xb,
0xa, 0xc, 0x3, 0xb, 0xc, 0x9, 0xc, 0xd, 0x1,
0x3, 0x2, 0x0, 0x9, 0xd, 0xb, 0x8, 0xd, 0xc,
0x3, 0xc, 0xc, 0x4, 0xc, 0xb, 0x6, 0x4, 0x5,
};

static int backbone_model4_conv1_relu2_threshold[64 * 7] =
{ // torch.Size([64, 7])
-3, 67, 138, 209, 316, 458, 742,
7, 63, 120, 176, 260, 372, 596,
46, 95, 143, 192, 266, 363, 559,
79, 143, 207, 271, 367, 495, 751,
-1, 54, 110, 166, 250, 362, 585,
86, 140, 193, 246, 325, 431, 644,
-27, 15, 57, 99, 163, 247, 417,
-31, 33, 99, 165, 263, 394, 657,
52, 95, 139, 183, 249, 337, 512,
-5, 36, 79, 122, 187, 272, 444,
-8, 57, 123, 188, 287, 418, 680,
-76, -3, 70, 144, 254, 401, 696,
-42, 52, 148, 244, 387, 579, 962,
67, 124, 181, 237, 322, 436, 663,
0, 55, 110, 165, 247, 357, 577,
-19, 33, 86, 140, 220, 326, 540,
28, 74, 120, 166, 235, 327, 512,
76, 120, 164, 208, 274, 362, 538,
9, 59, 110, 161, 237, 338, 541,
43, 102, 162, 221, 309, 427, 664,
36, 105, 174, 243, 346, 484, 760,
108, 160, 212, 264, 343, 447, 656,
71, 115, 159, 203, 269, 358, 535,
0, 55, 110, 165, 248, 359, 579,
-28, 27, 82, 138, 221, 332, 554,
13, 67, 122, 177, 259, 369, 588,
42, 84, 126, 168, 230, 314, 481,
41, 89, 138, 186, 259, 356, 549,
-54, 8, 71, 134, 229, 355, 608,
43, 103, 164, 224, 314, 435, 676,
45, 109, 173, 236, 332, 459, 713,
86, 138, 191, 243, 321, 425, 633,
37, 83, 129, 175, 244, 337, 521,
-28, 28, 85, 143, 229, 343, 572,
6, 66, 127, 187, 277, 398, 639,
71, 133, 195, 257, 350, 474, 722,
32, 73, 115, 156, 218, 300, 466,
2, 58, 113, 169, 252, 363, 586,
18, 78, 137, 197, 287, 406, 645,
-17, 15, 49, 83, 133, 201, 336,
26, 73, 119, 165, 235, 328, 513,
47, 102, 157, 212, 295, 405, 625,
51, 99, 146, 194, 265, 361, 551,
-5, 43, 93, 142, 216, 315, 513,
65, 128, 191, 254, 349, 475, 727,
-9, 56, 123, 189, 289, 422, 688,
16, 58, 100, 142, 204, 288, 455,
17, 75, 133, 191, 279, 395, 627,
-171, -123, -76, -29, 42, 136, 326,
70, 121, 172, 223, 300, 402, 607,
29, 74, 119, 165, 232, 323, 504,
36, 94, 151, 209, 295, 410, 640,
41, 78, 114, 150, 204, 276, 420,
3, 50, 97, 145, 216, 310, 499,
-1, 43, 88, 133, 200, 290, 469,
-57, 1, 59, 117, 204, 320, 553,
48, 84, 121, 158, 213, 287, 434,
12, 63, 113, 163, 239, 340, 541,
23, 71, 120, 168, 241, 339, 533,
-50, -17, 15, 47, 96, 161, 291,
-22, 42, 107, 173, 271, 402, 663,
43, 89, 135, 181, 250, 343, 527,
-15, 81, 178, 275, 421, 615, 1003,
65, 131, 198, 264, 364, 498, 764,
};

static uint64_t backbone_model4_conv2_conv1_weight[64 * 1] =
{ // torch.Size([64, 1, 1, 64])
0x43433a3304b2a345,0x2a80ab034ba02050,0x8ab039b32ba39024,0xac2b3a3c3300a148,
0xaa034824ca1cb4c2,0x20acaa83903bba84,0xc5a1b9108b2bb24a,0xd3422bb9abbb909b,
0x41b241bbbb4c8ab4,0xbbc39b452b32b2b0,0x3a349b2ac44c2bab,0x8b24cab3aa0a14b2,
0xb349bcba48ca340a,0xbbcccc881b4a5b0c,0x3bcb1bb33bbb349b,0xcba3331bbb33b4ab,
0xba01bc9a30bab23a,0xc2cccbabba2c3322,0x141bcbc391315b58,0xcb2bb3bbac42b03b,
0x3cb8a3300b9a0039,0xc282993c295b23da,0xaa42b89b411a93b3,0x8a91b530c30320aa,
0x13214b3348313349,0x32a23333414a4132,0x32a42a9243b3a0a2,0x9344b130433332a2,
0xb30a04a3a2b310ca,0x00aaa24b43c2ca8a,0x1b0c9b2b0b4ac12b,0x2bbaab9c29a34bb3,
0x1b321243b024c2b9,0x42233b3b3a4cc1aa,0xb3349b3b423b4b50,0x494ab3a143383b24,
0xa2a03b4b2bbcbbb9,0x45b2cc2cacbbbbc0,0x0ba22bb3a12981a4,0xab2c3323ab3ba3b0,
0x932a2bb109939ca1,0x9a9bb9cbb3baa6ca,0x2096aab8192a92aa,0xaa3b19b0b82904cb,
0xbac3b12a42bcb233,0x192abb3b3b3cb23a,0x2ba8ab834b2223b3,0x9bbb4c0b4a34bc84,
0x3ac5cbc0a3b89220,0x294a2ca4bcbdca2a,0xbb143ba4a4b4c2b1,0xc143ca2b21a0cad3,
0x2cb0ab2cc9a3c344,0x0b0b4000bb99c9ab,0xcbcca3c3c8a20392,0xc28823c0c52ba34b,
0xd0333b1334c3b234,0x3c001832b2481c2c,0x219023104a2191aa,0x82204abb08c32332,
0xc4b40b03839394c8,0x213cb0bbc2933983,0xa328431c98aa3c3a,0xba3c32caacbbc0c1,
0x131b43022032a280,0x3390b433b4893388,0x2123038a292a3901,0x4383bbb2bb1a343a,
0x9c3b422c23343a3b,0x4a01332324c3bc0b,0x3c444442ca9333d3,0x29b3334232b3b344,
0xba28bba2b1aa5902,0xb0b2b0bab0b4ba0b,0x0c205bb12824b3b8,0x8aa3229ad1cb0ac4,
0xaba43b1a4bb30014,0x409191c22418993a,0x0bb3234239940993,0xc1ba42303010224a,
0x228002ba81baa2a2,0xc233bb0308b11530,0x302591b9caa32b29,0x2c339bba29919c31,
0x431a52313a33a922,0x3303234442180220,0x223211093b823a0b,0x23440b433cb044b9,
0x3cb319abaca3ba12,0xa8a3b4b99b03b32b,0xbd482cb409aa3449,0x3ac104319b2c4aa3,
0x202242c23a04124b,0xa3aca4b3a4cb8241,0x12b0133340c2a329,0xb23a3cac04332200,
0x5acbb3aa0ca9a9a4,0x34ba3b2bbac88bbb,0xb1ba3cbbbb3b0a2c,0xa332ba11b24c31c2,
0x2babc9b9bc4cb22a,0x182c2cc8cb081ba8,0x23c18aa0050abb12,0xa9bb1a1cc9b92c2a,
0x24943ab5309bc4c8,0xba3b23aa9a24b12b,0xcb499b1b2212cba8,0x3221102b1aaba2c3,
0x3400b0b0b3bb4203,0x82a444aaba944142,0xb9383b3910330302,0x4933b30442589005,
0x33ca31291cab32a3,0xb3c34390c0aaa11a,0xbbb1aacb90bbabb8,0x23bbcaa52a9a25cc,
0x9a4b9a3a42c3a934,0xcbb53b3baa2cb33b,0xba1a208b4ba830cb,0x24442b843b341212,
0x9b1acb0b3a33238b,0xc3a43bc333329a10,0x3123b43922d931a2,0x8cb24b121b33dc2b,
0x0b93a3433dc022ca,0x4329aaa4aa34a303,0x1c2a221a43b3c53b,0xb43a521abc4348d3,
0x929d344cb144ccb9,0x49b33c2820b313ab,0xcb244b2a323a2ca3,0x304221402b4bbb84,
0x2b2893a2ca923183,0x3333443b52a302ba,0xab39a332a3393b19,0x4a23ba34024b1924,
0xb3bd134bcb93c95a,0x49c21bb333044921,0x3ab949d002b01c3a,0xb234333aa91c2120,
0x2324a4224ab49220,0xcb23034853102049,0x3330b2130d4a2b1a,0x2192a04132323113,
0x4b33cb82519b8c39,0x13a4b9bb1c2ac220,0x11313ca5aa013232,0xbac99333418a238b,
0x32c208b852b4abb4,0x1a433b9ccca0d43a,0x12a0acb13b3baba1,0x32b4bb033b20420b,
0x822cb232a94944bc,0x92330b3ccb3a3825,0x10c09cbc141dab91,0x43493c9abc20a23b,
0xb40c30baa0002248,0xb2c2b2222a114a22,0x48932aa332290a3c,0xab44312b2b2b2412,
0x2c23411c2814c2a3,0x9ac3b94bb2b4b823,0x2c09a943b93c4a23,0x02b044344c31201c,
0x0391104320acbb23,0x40b31c323a33b1c1,0xaa3043220021bc8b,0xba392333522b2013,
0x4b2334d33ac84bcc,0x0b3144b3b4b11b5a,0x43831414c2108b3a,0x0b99cba319d13228,
0x4cbb4439bc4bc20b,0xc4c3444834a142c3,0x804bb451b39ba44d,0x33b2b328c4190389,
0xa3b0ab2ab10b392b,0x21b90ca0bb43a0b2,0x31928ca9c24b4a4c,0xa02bb4833032a2b1,
0xa5c393bab323ba40,0xbb2bc119413ab129,0x389b99d3bca0130d,0x39b32bb082c992ac,
0x493b20b40338a3cb,0x320c920103059205,0xa4a49b442943b34a,0xc0a9b03a420d40ac,
0xb4123a3282c43d8a,0x4c9193390c332301,0xc3c12b0abdb33133,0x22328310a34b3342,
0xba23cbc433a343bb,0xab30baccc3b34baa,0x03aa3c3cc30aac98,0x403bbba2ccaab8c3,
0x3932ca1802a3333a,0xb33bcaac44b3224a,0x4a3333b499a48323,0x1e43a33c8442bc43,
0x2c093bc324429d33,0xdc0133a33b313931,0xd3ca4399a8d02333,0x141b9433b2c9432b,
0xa4a3bc1023bc0bdb,0x23d323baba243384,0xc312422cb2353330,0xca8d3493b28cc93c,
0x3223d292103cc333,0x21a4333e4ac20c3a,0x323b2443cc0b2983,0x114b9a023a222a43,
0x10ad125aca3cc3a9,0x02c41022a3b249a3,0xba2c421b93093a32,0x224330a0c93bb103,
0x2d31c341aa031b32,0x8c3341ac4323bbb0,0xc00c444c3bc434ab,0x201b3242a153bcc4,
0x010bcc2b343ba230,0xa2812b9cc63cb308,0xab43b2a04ba8c392,0xaa324cc233849abb,
0xbb32cc40c0b24a0b,0x3d280100c241d2bb,0x2b2233b1dbadc24c,0x1b20430223440304,
0x5ac4cb3b33131015,0xb3a42aaaa20bc23a,0xbbb34cb82cba3bb3,0xcb54cb0b3c483b2a,
0x93a2b303223cab43,0x332ab0220c2b4a09,0x4443b8b4b323bbb8,0x0211cb3a2293aa02,
0x4c02bc9333109923,0x80a34aa24932b44a,0xbab438b192c39ab4,0xc8440b303843b2a8,
