static uint64_t backbone_model0_conv1_weight[16 * 9] =
{ // torch.Size([16, 3, 3, 3])
0x15d, 0xc6d, 0x05e, 0x06d, 0xd6d, 0xd6d, 0xc5e, 0xd6d, 0xc6a,
0x55b, 0xc5c, 0x49d, 0xd3c, 0xe3b, 0xa53, 0xe44, 0xe33, 0xc44,
0xd34, 0xd45, 0xd25, 0xd45, 0xe55, 0xe55, 0xc45, 0xd55, 0xd45,
0x31b, 0x443, 0xa43, 0x54a, 0xdcc, 0xfdd, 0x542, 0x343, 0xc09,
0x243, 0x9cb, 0xded, 0x555, 0x441, 0xddd, 0x454, 0x244, 0xacb,
0x4c4, 0x4db, 0x4c1, 0x5c2, 0x5c3, 0x5cb, 0x5c0, 0x4c3, 0x4c3,
0x344, 0x345, 0x454, 0xc3b, 0xc1b, 0xc3a, 0xcbb, 0xcbc, 0xd9b,
0x2c5, 0xae4, 0x3eb, 0x5d5, 0x1e4, 0xce1, 0xbd5, 0x5d5, 0x5d5,
0xc33, 0x2b4, 0x4b1, 0x410, 0x4cc, 0x4dd, 0x4bb, 0x5dd, 0x4de,
0x3c9, 0x544, 0x544, 0x334, 0x0b3, 0x334, 0xa33, 0xeed, 0xedd,
0xccc, 0xeed, 0xddd, 0x440, 0xc9b, 0x933, 0x544, 0x555, 0x554,
0x512, 0x555, 0x554, 0xb90, 0x144, 0xb43, 0x332, 0xedd, 0xdcd,
0xddd, 0xbdc, 0x454, 0xdde, 0xccc, 0x555, 0x393, 0x435, 0x454,
0x344, 0x334, 0x434, 0xdee, 0xcdc, 0x454, 0xcdd, 0xbac, 0x534,
0x454, 0x556, 0x456, 0x42a, 0x14c, 0x422, 0xced, 0xdfd, 0x9dd,
0x455, 0x555, 0x444, 0x555, 0xa33, 0xbdd, 0x013, 0xddd, 0xeee,
};

static int backbone_model0_relu1_threshold[16 * 7] =
{ // torch.Size([16, 7])
-126, 107, 340, 573, 923, 1390, 2089,
-860, -640, -419, -199, 131, 572, 1233,
-626, -189, 248, 686, 1342, 2216, 3528,
-901, -702, -502, -302, -3, 396, 995,
-529, -356, -183, -10, 249, 594, 1113,
890, 1254, 1618, 1982, 2528, 3256, 4348,
235, 410, 586, 762, 1026, 1378, 1905,
-843, -573, -303, -33, 373, 913, 1723,
-1106, -767, -427, -87, 422, 1102, 2120,
-802, -593, -384, -174, 139, 558, 1186,
-662, -473, -284, -95, 189, 567, 1133,
-130, 170, 470, 771, 1221, 1821, 2721,
-597, -413, -229, -45, 231, 599, 1151,
-674, -501, -327, -154, 106, 453, 974,
-496, -327, -159, 10, 263, 600, 1106,
-633, -462, -291, -120, 137, 479, 992,
};

static uint64_t backbone_model0_conv2_conv1_weight[16 * 1] =
{ // torch.Size([16, 1, 1, 16])
0xb2c30ad12562e2d4,
0x9b4bbb97416b0ed0,
0xc4544d43cccdd040,
0xcd95c5dc55443344,
0xbccb10cdf1ca4cc9,
0xc9a9b9c6c45bddd5,
0x1410bacd535bddde,
0x44cc4c54cdb450b3,
0xccdac4da533543b9,
0x22c13acc3363a666,
0x54dd3d549bc4401b,
0xdcdcd5c035254bcb,
0xc356c3ccc11cd232,
0xc5565c5ac1acc31b,
0x54dd5b42a44553c1,
0x663d5c5ad04cc4b3,
};

static int backbone_model0_conv2_quant1_threshold[16 * 14] =
{ // torch.Size([16, 14])
-673, -504, -392, -308, -252, -196, -140, -84, -28, 29, 85, 169, 281, 449,
-613, -426, -301, -207, -144, -82, -19, 43, 106, 169, 231, 325, 450, 638,
-247, -173, -124, -87, -62, -37, -13, 12, 37, 61, 86, 123, 172, 246,
-477, -345, -256, -190, -145, -101, -57, -13, 32, 76, 120, 187, 275, 408,
-894, -729, -620, -537, -482, -427, -372, -318, -263, -208, -153, -71, 39, 204,
-532, -388, -292, -220, -172, -124, -76, -28, 20, 68, 116, 188, 285, 429,
-619, -475, -379, -308, -260, -212, -164, -116, -68, -20, 28, 100, 196, 339,
-305, -192, -117, -61, -23, 14, 52, 89, 127, 164, 202, 258, 333, 445,
-555, -419, -329, -261, -216, -171, -126, -81, -36, 10, 55, 122, 213, 348,
-305, -154, -53, 22, 72, 123, 173, 223, 274, 324, 374, 450, 550, 701,
-414, -270, -173, -101, -53, -5, 43, 92, 140, 188, 236, 308, 405, 549,
-529, -388, -295, -225, -178, -131, -84, -37, 9, 56, 103, 173, 267, 407,
-455, -324, -236, -171, -127, -83, -40, 4, 48, 91, 135, 201, 288, 419,
-442, -286, -182, -104, -52, 0, 52, 104, 156, 208, 260, 338, 442, 598,
-250, -153, -89, -40, -8, 25, 57, 89, 122, 154, 186, 235, 300, 397,
-508, -335, -220, -134, -77, -19, 38, 96, 153, 211, 268, 355, 470, 642,
};

static uint64_t backbone_model0_conv2_conv2_weight[16 * 9] =
{ // torch.Size([16, 3, 3, 1])
0x4, 0x3, 0x5, 0x3, 0xc, 0xd, 0x4, 0xd, 0xf,
0x5, 0x5, 0x5, 0x5, 0xd, 0xd, 0x5, 0xd, 0xf,
0xb, 0x6, 0x9, 0xd, 0x4, 0x6, 0xd, 0xd, 0x6,
0x4, 0x5, 0x4, 0xc, 0xf, 0xf, 0x9, 0x1, 0x5,
0x4, 0xa, 0x4, 0x3, 0xd, 0xd, 0xa, 0xd, 0xe,
0xc, 0xd, 0xd, 0xc, 0x4, 0x5, 0x1, 0x6, 0x6,
0xb, 0xc, 0xb, 0xb, 0x5, 0x5, 0x0, 0x6, 0x6,
0x9, 0x3, 0x5, 0x4, 0x6, 0xe, 0x3, 0xe, 0xf,
0x4, 0x5, 0x3, 0xc, 0x3, 0x6, 0xc, 0xf, 0xf,
0x4, 0x2, 0x9, 0x4, 0xd, 0xe, 0x4, 0xe, 0xf,
0xc, 0xd, 0xc, 0xc, 0xd, 0x5, 0xc, 0x6, 0x7,
0x3, 0xc, 0xa, 0x5, 0x5, 0xe, 0x1, 0x7, 0x6,
0x3, 0xc, 0xc, 0x5, 0xe, 0xc, 0x6, 0xe, 0x3,
0x3, 0xd, 0xb, 0x4, 0x9, 0xf, 0x4, 0x5, 0xe,
0x4, 0x0, 0xd, 0x5, 0xd, 0xd, 0x5, 0xf, 0x4,
0x4, 0x4, 0x0, 0xd, 0xf, 0xe, 0xc, 0xb, 0xb,
};

static int backbone_model0_conv2_relu2_threshold[16 * 7] =
{ // torch.Size([16, 7])
-210, -126, -42, 42, 168, 337, 589,
-123, -63, -3, 57, 147, 267, 447,
0, 109, 219, 328, 493, 712, 1041,
-70, 42, 154, 266, 434, 658, 994,
-82, -27, 27, 82, 163, 272, 435,
-99, -42, 15, 72, 158, 272, 442,
-163, -89, -16, 58, 169, 317, 539,
55, 146, 237, 328, 465, 647, 920,
16, 126, 236, 346, 511, 731, 1060,
-38, 77, 193, 308, 481, 712, 1058,
25, 104, 183, 261, 379, 537, 773,
18, 124, 229, 335, 494, 705, 1023,
91, 163, 234, 306, 414, 558, 773,
11, 81, 150, 219, 323, 462, 670,
3, 104, 206, 307, 458, 661, 964,
-212, -102, 8, 118, 283, 502, 832,
};

static uint64_t backbone_model1_conv1_conv1_weight[16 * 1] =
{ // torch.Size([16, 1, 1, 16])
0xce5545abd2bb4cb4,
0xcb02aa6dc24322eb,
0x7bbc44b5c04baa4b,
0xd954bd1de334f51b,
0x0babccb0b55d2d3e,
0xd2d34c4adac346c5,
0xba732d06d443a34a,
0x34b13453265a4aec,
0x23431ccba3eda353,
0x9a3ab0bc05599a4e,
0xcac2b4c34cd44b96,
0x35a3b42f6031cdab,
0xc4c3f63b444a0d42,
0xb667c4ac4aa1b5ba,
0x192a24b435d7a16c,
0xab3b997c17d5b92c,
};

static int backbone_model1_conv1_quant1_threshold[16 * 14] =
{ // torch.Size([16, 14])
-459, -331, -245, -181, -138, -96, -53, -10, 33, 75, 118, 182, 268, 396,
-659, -493, -382, -298, -243, -187, -132, -76, -21, 35, 90, 173, 284, 451,
-362, -203, -97, -17, 36, 90, 143, 196, 249, 302, 355, 435, 541, 701,
-1000, -764, -606, -488, -410, -331, -252, -174, -95, -16, 62, 180, 338, 574,
-638, -481, -376, -297, -244, -192, -139, -87, -34, 18, 71, 150, 255, 412,
-395, -270, -187, -125, -83, -41, 0, 42, 83, 125, 166, 229, 312, 437,
-456, -258, -126, -27, 39, 105, 171, 237, 303, 369, 435, 535, 667, 865,
-427, -253, -136, -49, 9, 67, 125, 184, 242, 300, 358, 445, 562, 736,
-593, -439, -337, -260, -209, -158, -107, -56, -5, 46, 97, 174, 276, 429,
-537, -387, -287, -212, -162, -112, -62, -12, 38, 88, 138, 213, 313, 463,
-448, -289, -183, -103, -50, 3, 57, 110, 163, 216, 269, 349, 455, 615,
-502, -359, -264, -192, -144, -97, -49, -1, 46, 94, 142, 213, 309, 452,
-537, -385, -283, -207, -156, -105, -54, -4, 47, 98, 149, 225, 327, 479,
-526, -303, -154, -42, 33, 107, 182, 256, 331, 405, 480, 592, 741, 964,
-305, -132, -16, 71, 129, 186, 244, 302, 360, 418, 475, 562, 678, 851,
-503, -293, -153, -48, 21, 91, 161, 231, 301, 371, 441, 545, 685, 895,
};

static uint64_t backbone_model1_conv1_conv2_weight[16 * 9] =
{ // torch.Size([16, 3, 3, 1])
0xb, 0x3, 0xb, 0x4, 0xe, 0xb, 0xc, 0xe, 0x5,
0xc, 0x3, 0x2, 0x0, 0xf, 0xa, 0x1, 0xc, 0x4,
0x2, 0x1, 0x2, 0x3, 0x3, 0xa, 0x4, 0xd, 0xf,
0x0, 0xc, 0x1, 0x2, 0xd, 0x2, 0x3, 0xf, 0xd,
0xc, 0x1, 0x4, 0xd, 0x4, 0x6, 0xd, 0xb, 0x2,
0x3, 0x9, 0x3, 0x4, 0x1, 0xb, 0xb, 0x7, 0x0,
0x0, 0x9, 0xb, 0xc, 0x4, 0x1, 0xa, 0x3, 0x7,
0x4, 0x3, 0xc, 0xc, 0x7, 0xb, 0xb, 0x0, 0xb,
0x4, 0x5, 0x5, 0x4, 0xa, 0xb, 0xb, 0xd, 0xd,
0x4, 0x6, 0x4, 0x4, 0xc, 0x1, 0xc, 0xd, 0xc,
0x1, 0x2, 0x3, 0xb, 0x6, 0x4, 0x0, 0xc, 0xd,
0x3, 0x9, 0x2, 0xc, 0x6, 0x6, 0xb, 0x4, 0x1,
0xb, 0x1, 0xb, 0x3, 0xd, 0xf, 0xb, 0xb, 0xa,
0x0, 0x9, 0xa, 0x9, 0x4, 0x7, 0xb, 0x1, 0x4,
0xa, 0xa, 0xb, 0xb, 0x5, 0xa, 0xb, 0x6, 0x4,
0x3, 0x3, 0x3, 0x0, 0xc, 0x3, 0x3, 0xf, 0xc,
};

static int backbone_model1_conv1_relu2_threshold[16 * 7] =
{ // torch.Size([16, 7])
-192, -123, -53, 16, 120, 259, 467,
-233, -141, -48, 44, 182, 367, 644,
-220, -140, -61, 19, 139, 299, 539,
-191, -107, -23, 61, 188, 356, 608,
-99, -49, 2, 52, 128, 229, 381,
-240, -160, -79, 1, 122, 283, 525,
-138, -67, 4, 75, 182, 324, 538,
-157, -90, -24, 43, 144, 278, 478,
52, 74, 96, 118, 152, 196, 263,
-46, -10, 27, 64, 119, 192, 302,
-39, -8, 24, 55, 102, 165, 260,
-254, -179, -104, -29, 83, 233, 458,
-294, -199, -104, -10, 132, 321, 605,
-157, -77, 3, 83, 203, 364, 604,
-111, -62, -13, 36, 110, 208, 355,
-201, -120, -39, 42, 163, 324, 567,
};

static uint64_t backbone_model1_conv2_conv1_weight[64 * 1] =
{ // torch.Size([64, 1, 1, 16])
0x303236a3dcac3d93,
0xccc1cc944a239cec,
0x10f2c1cc4cc43343,
0xab5d44cdcc30dcca,
0x1b9d54ab9eec5abc,
0x0b40a442bbdcde24,
0x251142a45b2111e9,
0x1329035a143b6dbb,
0x56443d42a5314c5b,
0xd0c5c4ad4d4d5cdc,
0x6d9aa2aae223bcbb,
0xa045c4c4c642d554,
0x414b24bcecaa0369,
0x544ace594451252d,
0x30a66543c49c5c53,
0x3254522199edbd13,
0x6d42a23243b3cac9,
0xb42d51355cdc54b4,
0xcb0254d5c3a42eb5,
0x925d4dc302cc1335,
0xd55acac45c412ad9,
0xce445ddd4b40a5d2,
0x444226c4ec43535c,
0xdc9bbd4c6445c3c4,
0xd1a45acc43b4fcc3,
0xccc541d0c4eddb4c,
0xc2499b5c75ab33c0,
0xcc3dc565a99d444d,
0xccd1edba455ac5cd,
0x4025b334012e432e,
0x42503ab4b466a247,
0x64dc50c4da91e542,
0x327c54cbcbb0c334,
0xa9a1b03ca44b23de,
0xbad954db1ec3dbcc,
0x44ec4a53d42dccc2,
0x432d325b3c563945,
0xa2adec9a9b2c32cb,
0xdc5443cc4a4dbbcd,
0x566bbc4145554b5c,
0x20cd405c4303443c,
0xbc0ceb3abbcbaf39,
0x3da5d05235a46d42,
0x41c4cc3dc355f3c3,
0x65e3c3421ac44954,
0x442c2034c33bf2bb,
0x246d2e2c241cc9b4,
0xdcb343dc44ecdeb5,
0xddbaca4c66d33333,
0xc605d4bcd44cccc4,
0x3a556ce04b1c43b2,
0x33999eb463bbc3e4,
0x404e54043cd23643,
0xdec333cb3c54bbd4,
0xee44b54c54005e34,
0xab3b333cbbdd132e,
0xb130332532c46d55,
0x9337ccccb61c1c33,
0xabcdd365cc652c24,
0x65425c5526dbd454,
0x35b3b9454542d543,
0x49e62bd545334b44,
0x934dcd534d2e359d,
0x13d35bc43de15c24,
};

static int backbone_model1_conv2_quant1_threshold[64 * 14] =
{ // torch.Size([64, 14])
-596, -414, -293, -202, -142, -81, -21, 40, 100, 161, 222, 312, 433, 615,
-861, -675, -550, -457, -395, -333, -271, -209, -147, -85, -22, 71, 195, 381,
-1085, -804, -617, -477, -383, -290, -196, -103, -9, 84, 178, 318, 505, 786,
-620, -468, -366, -290, -239, -189, -138, -87, -36, 14, 65, 141, 243, 395,
-886, -684, -549, -448, -380, -313, -245, -178, -110, -43, 24, 126, 261, 463,
-688, -532, -427, -349, -296, -244, -192, -140, -87, -35, 17, 96, 200, 357,
-508, -344, -235, -153, -99, -44, 11, 65, 120, 174, 229, 310, 420, 583,
-531, -351, -232, -142, -82, -22, 37, 97, 157, 217, 277, 366, 486, 665,
-491, -276, -134, -26, 45, 116, 188, 259, 331, 402, 473, 581, 723, 938,
-981, -734, -569, -445, -363, -281, -198, -116, -33, 49, 131, 255, 420, 667,
-791, -575, -430, -322, -250, -178, -105, -33, 39, 111, 184, 292, 436, 653,
-442, -254, -129, -35, 27, 90, 153, 215, 278, 341, 403, 497, 622, 810,
-654, -446, -307, -202, -133, -63, 6, 76, 145, 215, 284, 388, 527, 736,
-1038, -747, -553, -407, -310, -213, -116, -19, 78, 175, 272, 418, 612, 903,
-328, -149, -29, 61, 121, 181, 241, 301, 361, 421, 481, 571, 690, 870,
-680, -497, -376, -284, -223, -162, -102, -41, 20, 81, 142, 233, 355, 538,
-480, -321, -215, -135, -82, -29, 25, 78, 131, 184, 237, 317, 423, 583,
-554, -381, -265, -178, -120, -63, -5, 53, 111, 169, 226, 313, 429, 602,
-588, -413, -297, -210, -152, -94, -35, 23, 81, 139, 197, 284, 401, 575,
-478, -327, -227, -151, -101, -51, 0, 50, 101, 151, 201, 277, 377, 528,
-713, -512, -378, -278, -211, -144, -77, -10, 57, 124, 191, 291, 425, 626,
-660, -459, -324, -224, -156, -89, -22, 45, 112, 180, 247, 347, 482, 683,
-642, -399, -237, -116, -35, 46, 127, 208, 289, 369, 450, 572, 733, 976,
-801, -558, -397, -275, -194, -114, -33, 48, 129, 210, 291, 412, 574, 817,
-796, -572, -423, -312, -237, -163, -88, -14, 60, 135, 209, 321, 470, 693,
-844, -635, -496, -392, -322, -253, -183, -114, -45, 25, 94, 199, 338, 546,
-544, -352, -224, -129, -65, -1, 63, 127, 191, 254, 318, 414, 542, 733,
-610, -438, -324, -238, -181, -124, -66, -9, 48, 105, 162, 248, 363, 534,
-780, -582, -450, -351, -285, -219, -153, -87, -21, 45, 111, 210, 342, 540,
-775, -571, -435, -333, -265, -197, -129, -61, 7, 75, 143, 245, 381, 585,
-285, -90, 39, 137, 202, 266, 331, 396, 461, 526, 591, 688, 818, 1012,
-547, -340, -202, -98, -29, 40, 109, 177, 246, 315, 384, 488, 626, 833,
-566, -357, -218, -114, -44, 26, 95, 165, 235, 305, 374, 479, 618, 827,
-646, -486, -379, -299, -246, -192, -139, -85, -32, 21, 75, 155, 261, 421,
-743, -559, -437, -344, -283, -222, -160, -99, -38, 24, 85, 177, 300, 484,
-706, -522, -399, -307, -246, -184, -123, -61, 0, 61, 123, 215, 338, 522,
-439, -236, -101, 0, 68, 135, 203, 270, 337, 405, 472, 574, 709, 911,
-639, -510, -423, -359, -315, -272, -229, -186, -143, -99, -56, 9, 95, 225,
-660, -487, -371, -285, -227, -169, -112, -54, 4, 62, 119, 206, 321, 495,
-516, -269, -105, 18, 101, 183, 265, 347, 429, 511, 593, 717, 881, 1127,
-416, -274, -180, -109, -61, -14, 33, 80, 127, 175, 222, 293, 387, 529,
-996, -804, -676, -580, -516, -452, -388, -324, -260, -196, -132, -35, 93, 285,
-756, -499, -328, -199, -114, -28, 58, 143, 229, 315, 400, 529, 700, 957,
-735, -507, -355, -240, -164, -88, -12, 64, 140, 216, 292, 406, 559, 787,
-511, -309, -174, -73, -6, 61, 129, 196, 263, 331, 398, 499, 633, 835,
-1155, -849, -645, -492, -389, -287, -185, -83, 19, 121, 223, 376, 581, 887,
-677, -487, -360, -265, -202, -139, -75, -12, 51, 115, 178, 273, 400, 590,
-891, -683, -545, -441, -372, -303, -234, -165, -96, -27, 42, 146, 284, 492,
-980, -671, -465, -310, -207, -104, -1, 102, 205, 308, 411, 566, 772, 1081,
-715, -498, -353, -244, -171, -99, -26, 46, 119, 192, 264, 373, 518, 736,
-641, -417, -268, -156, -81, -6, 68, 143, 218, 292, 367, 479, 628, 852,
-904, -660, -498, -376, -295, -213, -132, -51, 31, 112, 193, 315, 478, 722,
-522, -338, -215, -123, -61, 0, 62, 123, 185, 246, 308, 400, 523, 708,
-971, -732, -572, -452, -372, -292, -212, -132, -52, 28, 108, 227, 387, 627,
-898, -629, -450, -316, -226, -136, -47, 43, 132, 222, 311, 446, 625, 893,
-685, -535, -435, -360, -310, -260, -210, -160, -110, -60, -10, 66, 166, 316,
-584, -386, -254, -155, -89, -23, 43, 108, 174, 240, 306, 405, 537, 735,
-668, -411, -240, -111, -25, 61, 146, 232, 318, 404, 489, 618, 790, 1047,
-771, -521, -355, -229, -146, -63, 21, 104, 187, 271, 354, 479, 646, 896,
-453, -240, -98, 9, 80, 151, 222, 293, 364, 435, 506, 612, 754, 967,
-309, -151, -46, 33, 85, 138, 191, 243, 296, 348, 401, 480, 585, 743,
-425, -242, -119, -28, 33, 94, 155, 216, 277, 338, 399, 491, 613, 796,
-737, -545, -417, -322, -258, -194, -130, -66, -2, 62, 126, 221, 349, 541,
-609, -437, -323, -237, -180, -122, -65, -8, 49, 107, 164, 250, 364, 536,
};

static uint64_t backbone_model1_conv2_conv2_weight[64 * 9] =
{ // torch.Size([64, 3, 3, 1])
0xc, 0xa, 0x4, 0xd, 0xd, 0x6, 0xc, 0x4, 0x4,
0x6, 0x5, 0x5, 0x5, 0xb, 0x9, 0xd, 0xd, 0xd,
0x4, 0xd, 0x9, 0x4, 0xd, 0x2, 0x9, 0xe, 0x3,
0x5, 0xb, 0xd, 0x6, 0xb, 0xd, 0x5, 0x1, 0xa,
0xd, 0x4, 0x4, 0x9, 0xe, 0x5, 0x4, 0x0, 0xd,
0x5, 0x6, 0x5, 0xd, 0xe, 0xd, 0x4, 0x4, 0x3,
0xd, 0xb, 0x5, 0xe, 0x2, 0x5, 0xd, 0x3, 0x5,
0xc, 0x0, 0xd, 0xc, 0x3, 0x5, 0xb, 0x5, 0x6,
0x4, 0x2, 0xc, 0x5, 0x6, 0xc, 0xc, 0xb, 0xc,
0x3, 0xc, 0xb, 0x1, 0xc, 0xa, 0xd, 0xd, 0xc,
0xd, 0xe, 0xe, 0xc, 0xd, 0xc, 0x5, 0x6, 0x5,
0xd, 0xc, 0xa, 0xb, 0xe, 0x4, 0x1, 0xd, 0xa,
0x0, 0x5, 0x6, 0x9, 0xc, 0x5, 0xd, 0xe, 0xd,
0xc, 0xe, 0x1, 0xc, 0x3, 0xc, 0xa, 0x5, 0x2,
0x3, 0x4, 0x2, 0x2, 0x4, 0x3, 0xc, 0xf, 0x9,
0xa, 0xa, 0x1, 0xa, 0xc, 0xe, 0x2, 0x5, 0x5,
0x5, 0x6, 0x5, 0x1, 0x3, 0x2, 0xd, 0xd, 0xc,
0x3, 0x2, 0x3, 0x9, 0xb, 0xd, 0x4, 0xd, 0xe,
0x9, 0xa, 0x3, 0xb, 0xa, 0x5, 0x4, 0x7, 0xc,
0xd, 0xc, 0x3, 0xd, 0x5, 0xb, 0x2, 0x6, 0xd,
0x5, 0x6, 0x3, 0x4, 0x5, 0x1, 0xd, 0xc, 0xd,
0x4, 0xc, 0x5, 0x4, 0x6, 0x3, 0xc, 0x3, 0xd,
0x3, 0x3, 0x9, 0xa, 0x5, 0xc, 0x9, 0x6, 0x9,
0xb, 0x4, 0x6, 0xd, 0x4, 0x6, 0xe, 0xd, 0x9,
0xa, 0x5, 0x4, 0x9, 0x7, 0x4, 0x3, 0xc, 0xd,
0x3, 0xb, 0xa, 0x4, 0x6, 0x5, 0xc, 0xb, 0x5,
0xe, 0xd, 0xc, 0xd, 0xd, 0xc, 0xb, 0x6, 0x6,
0xb, 0xc, 0x1, 0xc, 0xc, 0x5, 0x5, 0x6, 0xa,
0xc, 0x2, 0x0, 0xc, 0xc, 0x5, 0xa, 0x5, 0x6,
0xc, 0xd, 0x2, 0xc, 0xe, 0x4, 0xa, 0xc, 0x4,
0x3, 0xa, 0xc, 0x9, 0xc, 0xf, 0xb, 0x3, 0xc,
0xd, 0xc, 0x6, 0xd, 0xc, 0x5, 0xd, 0xc, 0x5,
0xa, 0xb, 0x3, 0xc, 0xb, 0x3, 0xe, 0xe, 0x4,
0xb, 0xb, 0x5, 0xd, 0x6, 0x1, 0xb, 0x5, 0xd,
0xa, 0xc, 0xb, 0x1, 0x4, 0xc, 0x4, 0x7, 0x5,
0xd, 0xc, 0xc, 0xd, 0xb, 0x4, 0xb, 0x5, 0x5,
0xd, 0x2, 0x4, 0xd, 0xd, 0x5, 0x4, 0xd, 0xb,
0xd, 0xc, 0x2, 0x6, 0x6, 0x3, 0xc, 0xd, 0x0,
0x4, 0xc, 0x4, 0x3, 0x5, 0x5, 0xd, 0xc, 0x5,
0x5, 0x6, 0x1, 0x3, 0xc, 0x5, 0xd, 0xe, 0xb,
0xd, 0xc, 0xd, 0x4, 0x2, 0xa, 0x5, 0x4, 0x3,
0xa, 0xd, 0x2, 0x5, 0x6, 0x2, 0xc, 0xc, 0xb,
0xd, 0xd, 0xc, 0x4, 0xc, 0xc, 0x6, 0x5, 0x0,
0x4, 0xb, 0xd, 0x5, 0x5, 0xd, 0x5, 0x6, 0xd,
0x4, 0x5, 0x3, 0x2, 0x2, 0xc, 0xc, 0xe, 0xd,
0x4, 0xe, 0xe, 0x3, 0xc, 0xb, 0x4, 0x3, 0xd,
0xb, 0xc, 0xb, 0xd, 0xd, 0xa, 0x9, 0xd, 0x4,
0xa, 0x4, 0xb, 0xa, 0xc, 0xb, 0x5, 0x7, 0x4,
0xb, 0x5, 0x5, 0x3, 0x4, 0x3, 0x3, 0x4, 0x5,
0x3, 0x9, 0xc, 0x4, 0x9, 0xd, 0x4, 0xd, 0xe,
0xc, 0xd, 0xb, 0xd, 0xd, 0xc, 0x5, 0x5, 0x0,
0x4, 0x3, 0xd, 0x5, 0xc, 0xd, 0x6, 0xa, 0xd,
0x4, 0xa, 0xc, 0x4, 0xc, 0xc, 0xd, 0xe, 0x4,
0xd, 0xa, 0x4, 0xc, 0x6, 0x5, 0xe, 0x6, 0x6,
0x3, 0x4, 0xa, 0xa, 0x6, 0x3, 0x9, 0x5, 0x3,
0x4, 0x4, 0xc, 0xb, 0x6, 0xe, 0x3, 0x5, 0xd,
0x4, 0xc, 0xe, 0x3, 0xb, 0xe, 0x4, 0x5, 0xc,
0x4, 0xa, 0x3, 0xd, 0x4, 0x5, 0xf, 0xd, 0x5,
0x4, 0x3, 0x1, 0x4, 0x4, 0xb, 0xc, 0x5, 0x6,
0xc, 0x3, 0xc, 0x2, 0xc, 0xc, 0x2, 0xe, 0x1,
0xd, 0xe, 0xc, 0x9, 0x4, 0x4, 0x2, 0x5, 0x5,
0xb, 0xc, 0xb, 0x4, 0xc, 0xc, 0x4, 0x6, 0x4,
0x3, 0x6, 0x4, 0x6, 0x9, 0xc, 0x3, 0xd, 0xa,
0xb, 0xa, 0x9, 0x6, 0x6, 0xd, 0x9, 0xb, 0x3,
};

static int backbone_model1_conv2_relu2_threshold[64 * 7] =
{ // torch.Size([64, 7])
9, 40, 72, 103, 149, 211, 305,
33, 78, 123, 168, 235, 325, 460,
-36, 7, 50, 93, 157, 243, 372,
22, 62, 102, 142, 202, 282, 403,
15, 47, 79, 110, 158, 222, 317,
26, 81, 136, 191, 273, 383, 548,
42, 69, 95, 121, 160, 213, 291,
4, 52, 100, 148, 220, 316, 460,
20, 60, 100, 140, 200, 280, 399,
1, 34, 66, 99, 148, 214, 312,
12, 83, 154, 225, 332, 474, 687,
-25, 24, 73, 123, 196, 295, 442,
32, 72, 113, 154, 215, 296, 419,
-75, -47, -19, 9, 51, 107, 191,
-44, 18, 79, 141, 233, 356, 540,
-23, 15, 53, 91, 148, 223, 337,
69, 106, 144, 182, 238, 314, 427,
-39, 13, 65, 117, 194, 298, 454,
2, 60, 117, 175, 261, 376, 549,
43, 77, 111, 144, 195, 262, 362,
60, 94, 128, 162, 212, 280, 382,
-50, 0, 50, 100, 174, 273, 423,
-21, 19, 60, 100, 161, 242, 363,
43, 100, 157, 214, 300, 414, 585,
-128, -55, 18, 90, 199, 345, 563,
-5, 32, 68, 105, 160, 234, 344,
-81, -5, 72, 149, 264, 417, 648,
49, 93, 138, 182, 249, 338, 471,
1, 57, 113, 170, 254, 367, 536,
-11, 31, 72, 114, 177, 260, 385,
-75, -3, 69, 141, 249, 393, 609,
7, 50, 93, 136, 200, 286, 415,
-83, -20, 42, 104, 197, 322, 509,
8, 48, 87, 127, 186, 265, 383,
-21, 45, 110, 175, 273, 404, 599,
-1, 43, 88, 133, 199, 288, 422,
23, 58, 94, 129, 182, 252, 358,
40, 90, 141, 191, 267, 368, 519,
12, 49, 87, 125, 181, 256, 369,
58, 89, 121, 152, 198, 260, 353,
26, 56, 87, 117, 163, 225, 316,
21, 56, 92, 127, 180, 251, 358,
21, 52, 83, 114, 161, 224, 318,
-14, 32, 77, 123, 192, 283, 420,
-9, 39, 86, 134, 205, 300, 442,
39, 92, 145, 198, 277, 383, 542,
-2, 33, 69, 105, 159, 231, 339,
-68, 8, 85, 161, 275, 428, 656,
42, 85, 127, 170, 234, 320, 448,
-48, 10, 67, 124, 210, 324, 496,
59, 99, 139, 180, 241, 321, 443,
37, 63, 89, 115, 154, 206, 284,
-87, -27, 32, 92, 181, 300, 479,
128, 186, 244, 301, 388, 504, 677,
28, 71, 114, 158, 223, 309, 440,
34, 84, 133, 183, 257, 355, 504,
-42, 3, 48, 94, 162, 252, 388,
-51, 12, 76, 139, 235, 362, 552,
-15, 18, 51, 84, 133, 199, 298,
-28, 18, 64, 110, 179, 272, 410,
39, 82, 124, 167, 231, 316, 444,
5, 40, 76, 111, 164, 235, 341,
32, 74, 115, 156, 218, 301, 425,
6, 44, 82, 120, 177, 253, 367,
};

static uint64_t backbone_model2_conv1_conv1_weight[64 * 1*4] =
{ // torch.Size([64, 1, 1, 64])
0x4b43451bd2dcc53c,0x3330da55545143d4,0xbbdba94eec1ce5b5,0xa545bccbbd4cedbb,
0x4a54dcb094dd34ad,0x35cbca2a5dc4c5cd,0x3d1c453c35d46454,0x6ce22d56aab4c59c,
0xbc505c5dbd2ca444,0xedc22311344b4cc3,0xcdd5c9c5b40292c4,0xc5dac913c9b3dbac,
0x5552c4b5c402a94d,0x620db5459cc425cc,0x2441446451cb5634,0x5b5331559c433a54,
0xb5c341432ab2c3d3,0xc5491bcd9b44444b,0xdb9b4e1c053c4c5d,0x4caf54cccdd4045b,
0xdc45442245daaedd,0xbc0ddbacda2d434c,0x6c5dcecedb53444c,0x4c5dc44e4ac4c535,
0x42bd5cbad443c466,0xb25cc45c4a4e0c05,0xb43543aa4c949cc4,0xdbbc4455bc43bc4d,
0x4c5beb493e9d2ccd,0xb0bd42211bbcdcb5,0xc02c454ac6e43494,0xc0dcbc544b2ac2b3,
0xddead1a66c4c4442,0xccc5acdcdcaccc6e,0x4a5c4cd94a1d6cbc,0xc5cbb9c0c4c60693,
0xb455d35ccd1d4c54,0xcdbe29a4eb4c0db4,0x2b540d1c63463c44,0x05cd265415533c59,
0x4533aa4b215d4d51,0xdb5dbb3ac44c5abe,0x3b2c14dd1a44c9c2,0xd53351ba644d232a,
0x6545cd4edd1bb595,0xb0c9cca53b549cb4,0xc5d5335512bbb140,0x4555d4ccdc5cbe5d,
0x54bb3ca6bb4edc54,0xe4c5ecc443c34d23,0x44b45c90c434c9a4,0xc53c93b4c2bcddb5,
0xc455c549b54c55c2,0xcdb45cbc53949d1c,0x45b4b55c3d4cbc21,0x1465d43b33344c3c,
0xd3dc4eddd4531c29,0xdc543d6bc4cbc439,0xb444d3cdccccde90,0xd450ccc4cccd5dcd,
0xdb214b533445bc3b,0x5c3a42ccac43a255,0xbbddaccd4cc2d5c9,0x4d5b0949db252994,
0xc30b1cc465522c5c,0x5ab4534dd9144a4e,0x2c5d45d50cbb55da,0xcb3c4a33b52246c2,
0xcc935dd4c4ca1444,0xcbb4b95a345bbabc,0x5c11dac34ce4b2ba,0x3901b334d9bbab4d,
0xa43a4cce5bcc435c,0x4a509b5dc3534b9c,0x3bccc4de400424c3,0x53d2b5ddd550cc24,
0xccbc4bd3d4339c54,0xdc465b4a351b4b1a,0x44bbddbcdd4ccedb,0xd51b34ba242b3dbb,
0x5c03b53dddd4c9a4,0x243d9c5b334434b6,0xddd14c2d54c3b144,0x3cba54c44b520d41,
0xa13c45a4eccad46a,0xc54b144b6c4c44d5,0x5ac44d3b4345dc25,0x15d3c6b3c30a4d1b,
0xacd99de594b3c344,0xb1d3d402dd4c054c,0x544cdade1bdbcdbc,0x1e50acb45b1c95bb,
0x43c3441b5393d4db,0xc595bbc05a14d535,0xdedc44db393bac31,0x9b49540c3c0cc902,
0x5045b53bd90c24bc,0x45d4e6ac4d4cda44,0xd4d5665c2bdc45bb,0x5254230a2d542c5c,
0xb3c5c55cc34d6535,0x44c49cc5bcc2c54b,0x35434453da4d443a,0xc5541eb3dc42ca55,
0x544cd429bcdc4c4c,0xb1d3bb019d4d349d,0xddd253b4d5e435b4,0xadde62243bb3c595,
0x4cca0b4444d404cc,0x49d3c4c34ab2db95,0x43ed4c4cddc23322,0x1d2442b4ccb4c533,
0x552c544bb4ce332a,0xa43cccaddd3c4b43,0xbcc353edc1cb14cc,0x44c95bcd5b4db490,
0xdebdc5c55526ccb1,0x413d4b5b33c4bbc4,0x9adc9d453442d5b4,0x0cdbbad25db3c4c0,
0x4c52db433dcb4c4d,0x4cd5b6d3cc324b34,0x39a5b6ad49d555c4,0x4636c54c15443b32,
0xbdbccdc50d02cd65,0x4a5335cbcbd9bdb3,0xc54accd6d254bbdb,0xd9dd514c14cdd3b2,
0x5c43a3935a4b2c41,0xd353424aa3c4ddc9,0x3ba54995b4bcc4da,0xd44c3c34c9ca4c13,
0x03d30959cc1d3c5a,0xc455aadbc4cccd95,0x35ac3123c409abc3,0xe54d425544444a05,
0x3453d3cb1c44443d,0xd3bcd43b4d24233d,0x5c5a445d35eabc52,0x4c2bd4b5c4ba41c1,
0x4441dd15b433bb23,0xbcd9d554c5a4cdb9,0x46d22a54cb1cddbd,0xca24cdd5bb5c9cb4,
0x533c4d433434dcc5,0x4511bb45b30b3524,0xc50cb115d35329bd,0x3d5d4bab4c9e2c3d,
0x26ccda64415db134,0xb4d5b4a2c54d956c,0xb43cb4bdbcc9b253,0xad4b439dd4bca434,
0x442bc2613dccc21b,0xcdb3c6c4459a3cb9,0x16da3ba5d5434ba1,0xe634cb3bda44d245,
0xc53c45b3c034dd9c,0x4c4b6b0bdc34c424,0xc0cdbcce49c1cd3c,0x5dda22cc55ca5bb4,
0xaebb21db3d404d5d,0x4ddc4949c9d5dacd,0x5c3d30d0433144d4,0x94d49bc354cab543,
0x0b51c4cccae5dd6d,0xa450c1432cad4cc2,0xd1dc324dd35ecb56,0xbd0cdccd3e2bc5da,
0xcc454d4b0ca54d34,0x4c2452c354d455c4,0xbc95ea05a51cc35c,0xc543cd34ebd53bc9,
0x5b559d3dd3d54cdc,0x5cadb549e4b42ae5,0x2bd2d04b4d34c495,0x04d414ba5b23dc45,
0x4c5bd452dbb35492,0x04d351bc42d6bcd2,0x53d5dc6453cbbd5a,0x53464042c115bb05,
0x55b4bc5b4c2e3bcb,0x3dd3dcd455d29dbc,0xb5534ac5db53a4a9,0xdc3c313c5bdd3494,
0x35b4435edd5d3d4a,0x3403dd9dcdcd535d,0x2c5b45dddc3544d0,0xc04c5a2d44ce4ba1,
0x41195a3ddcc0d5a2,0xabc1c455cc5ebb46,0xd5eb39bcab0bb2d0,0xb45a022c5c5ddd5c,
0xa5bb3dcd25b5b0c4,0x5559cc523423d53b,0xcbed34add4c445d3,0x1cac42c56c4c152b,
0x430456560cac413c,0xd6bb15d36dc544c4,0x4d25533535d51144,0x04c413453ac39bbc,
0xe4b4552d9354cccc,0x454ac5beddcdb4cd,0xdd51c3c5c94cb41b,0xa49caceddc2c3ecc,
0x4cc11cc6cccc64c4,0xcb3d4145a0445b45,0x60adde3c2cb54d1c,0xd14b5664cb4bac55,
0xc403bd60c333b9c0,0xd3205cbac94dbd91,0xd51ba5529193a1a2,0xc351d3a01cb544a0,
0xbdcb5ddce6c4dda5,0x496ddd6bd34d3cdc,0x2ce3d4dddc44da1c,0xccd92cdc5bbcdddd,
0xbdc15dcd3ab3c554,0xccd2d454c2ad4c32,0xad35dc35dc4c1cdc,0xa53c3cc3dd5cdd2d,
0xb922bb53c4a3932c,0x2dc932bbb329bdc4,0xc6523042d2b42142,0x4345dab2c3a23442,
0x2434d4bdd31c0d4d,0x554c455c434b34d9,0xccbc4414d434d5d5,0xdb5464cc4b2d2c31,
0x3335514d149dd69a,0xc45d1d554b74c533,0x03a54b5d1ddba104,0x4559cb4bd264cdcc,
0xb49295a534344cb2,0x54332c4cbd55c952,0x366d3b3b2cdc434a,0x5d9b4c2c54cd5414,
0x4c22d4c54dad5d5d,0x435b54cbd5d45cb3,0x4a3bdcb34544a443,0x9cccc9b1e5e434d4,
0x5565d351cdcbbc4c,0x555d5ac95baa3635,0xda4b59b5b5d54526,0x4c4c5543ccb4bb64,
0x5a34ed4c9eda3bdb,0xcbcd2a93bd242b2c,0xd39c4b43c6d444c1,0xc992b045353ac659,
0x5e253cdac4d4dc54,0x5b4bd3543db163dc,0x2db4dac15c5ab5ac,0xaa5cccc4cdc4cdae,
0x5ccacad4b9bec4cb,0x3bc53cc2b42b3dd3,0x9640c1d13423554b,0x54bcd2bc44abc4ab,
};

static int backbone_model2_conv1_quant1_threshold[64 * 14] =
{ // torch.Size([64, 14])
-979, -722, -552, -424, -338, -253, -168, -82, 3, 89, 174, 302, 473, 729,
-1182, -862, -649, -490, -383, -277, -170, -64, 42, 149, 255, 415, 628, 947,
-855, -630, -480, -368, -293, -217, -142, -67, 8, 83, 158, 270, 420, 646,
-629, -366, -191, -59, 29, 117, 205, 292, 380, 468, 556, 687, 863, 1126,
-945, -677, -498, -364, -274, -185, -96, -6, 83, 173, 262, 396, 575, 843,
-899, -671, -519, -405, -329, -253, -176, -100, -24, 52, 128, 242, 394, 622,
-1006, -707, -507, -357, -257, -157, -57, 43, 143, 243, 343, 493, 693, 992,
-1001, -716, -526, -384, -289, -194, -99, -4, 91, 186, 281, 423, 613, 898,
-1197, -868, -649, -485, -375, -266, -156, -46, 63, 173, 282, 447, 666, 995,
-850, -601, -435, -310, -227, -144, -61, 22, 105, 188, 271, 396, 562, 811,
-1023, -752, -572, -437, -347, -256, -166, -76, 14, 104, 194, 330, 510, 781,
-843, -580, -406, -275, -187, -100, -12, 75, 162, 250, 337, 468, 643, 905,
-917, -647, -468, -333, -243, -153, -63, 27, 117, 207, 297, 432, 611, 881,
-531, -347, -224, -132, -71, -9, 52, 113, 175, 236, 298, 390, 513, 697,
-1054, -789, -613, -481, -392, -304, -216, -128, -40, 49, 137, 269, 445, 710,
-571, -390, -270, -180, -120, -59, 1, 61, 121, 181, 241, 332, 452, 632,
-783, -511, -330, -193, -103, -12, 79, 170, 260, 351, 442, 578, 759, 1032,
-754, -556, -425, -326, -261, -195, -129, -63, 2, 68, 134, 232, 364, 561,
-967, -709, -538, -409, -323, -238, -152, -66, 20, 105, 191, 320, 491, 749,
-1118, -812, -607, -454, -352, -250, -148, -46, 56, 158, 261, 414, 618, 924,
-757, -527, -374, -259, -183, -106, -30, 47, 124, 200, 277, 392, 545, 775,
-942, -624, -412, -253, -147, -41, 65, 171, 277, 383, 489, 648, 860, 1178,
-1006, -770, -614, -496, -417, -339, -261, -182, -104, -25, 53, 171, 328, 563,
-769, -537, -383, -267, -190, -112, -35, 42, 120, 197, 274, 390, 545, 776,
-790, -492, -293, -144, -45, 55, 154, 254, 353, 452, 552, 701, 900, 1198,
-778, -510, -332, -198, -108, -19, 70, 160, 249, 338, 427, 561, 740, 1008,
-883, -621, -447, -316, -229, -142, -55, 33, 120, 207, 294, 425, 599, 861,
-798, -579, -433, -323, -250, -177, -104, -31, 43, 116, 189, 299, 445, 664,
-960, -703, -532, -403, -318, -232, -146, -61, 25, 111, 196, 325, 496, 753,
-809, -566, -405, -284, -203, -122, -42, 39, 120, 201, 281, 402, 564, 806,
-807, -517, -323, -177, -81, 16, 113, 210, 307, 404, 501, 646, 840, 1131,
-946, -667, -481, -342, -249, -156, -63, 30, 123, 216, 309, 448, 634, 913,
-550, -381, -268, -184, -128, -71, -15, 41, 98, 154, 210, 295, 407, 576,
-765, -522, -360, -238, -157, -76, 5, 86, 167, 248, 329, 451, 613, 856,
-924, -661, -485, -353, -265, -178, -90, -2, 86, 173, 261, 393, 569, 832,
-886, -613, -432, -296, -205, -114, -23, 68, 158, 249, 340, 476, 658, 930,
-860, -577, -389, -247, -153, -59, 36, 130, 224, 318, 413, 554, 743, 1025,
-680, -455, -305, -193, -118, -43, 32, 107, 181, 256, 331, 444, 593, 818,
-810, -537, -355, -218, -127, -36, 55, 146, 237, 328, 419, 556, 738, 1011,
-827, -594, -439, -322, -245, -167, -90, -12, 66, 143, 221, 338, 493, 726,
-865, -638, -487, -373, -297, -221, -146, -70, 6, 82, 157, 271, 423, 650,
-950, -693, -521, -393, -307, -222, -136, -50, 35, 121, 207, 335, 506, 763,
-693, -443, -277, -152, -68, 15, 98, 182, 265, 348, 432, 557, 723, 973,
-1002, -715, -523, -379, -283, -187, -91, 5, 101, 197, 293, 437, 629, 916,
-958, -611, -379, -205, -90, 26, 142, 258, 374, 490, 605, 779, 1011, 1358,
-822, -589, -434, -317, -240, -162, -85, -7, 70, 148, 226, 342, 497, 730,
-979, -718, -544, -414, -327, -240, -153, -66, 21, 108, 195, 325, 499, 760,
-955, -695, -522, -391, -305, -218, -131, -44, 42, 129, 216, 346, 520, 780,
-951, -665, -474, -330, -235, -139, -44, 52, 147, 243, 338, 481, 672, 959,
-695, -421, -239, -102, -11, 80, 171, 262, 353, 445, 536, 672, 855, 1128,
-1035, -731, -529, -377, -276, -175, -73, 28, 129, 230, 332, 484, 686, 990,
-883, -609, -427, -290, -199, -108, -17, 74, 165, 256, 347, 484, 666, 940,
-679, -459, -312, -202, -129, -55, 18, 91, 165, 238, 311, 421, 568, 788,
-1425, -1083, -855, -684, -570, -456, -342, -228, -114, -1, 113, 284, 512, 854,
-860, -637, -488, -376, -302, -227, -153, -78, -4, 70, 145, 257, 405, 629,
-445, -280, -171, -88, -33, 22, 77, 132, 186, 241, 296, 379, 489, 653,
-735, -498, -340, -222, -143, -64, 15, 94, 173, 252, 331, 449, 607, 843,
-866, -593, -412, -275, -185, -94, -3, 88, 179, 269, 360, 496, 678, 950,
-573, -356, -212, -104, -32, 40, 112, 184, 256, 328, 400, 508, 652, 869,
-847, -603, -441, -319, -238, -156, -75, 6, 87, 168, 249, 371, 534, 777,
-581, -326, -157, -30, 55, 139, 224, 309, 394, 478, 563, 690, 859, 1114,
-1018, -727, -533, -387, -290, -193, -96, 1, 98, 195, 292, 438, 632, 923,
-961, -687, -505, -368, -276, -185, -94, -2, 89, 180, 271, 408, 591, 865,
-617, -435, -314, -223, -163, -102, -42, 19, 79, 140, 200, 291, 412, 594,
};

static uint64_t backbone_model2_conv1_conv2_weight[64 * 9] =
{ // torch.Size([64, 3, 3, 1])
0x5, 0xb, 0xc, 0x6, 0x3, 0x1, 0x6, 0x5, 0xb,
0xc, 0x4, 0xc, 0xd, 0xe, 0x4, 0x4, 0xe, 0x5,
0xd, 0xd, 0xd, 0x4, 0x4, 0x5, 0x4, 0x4, 0x5,
0x3, 0xa, 0xb, 0xb, 0xe, 0xd, 0x4, 0xd, 0x1,
0x3, 0x3, 0x4, 0x4, 0x5, 0x5, 0x4, 0x6, 0x4,
0x9, 0x9, 0x1, 0x4, 0xd, 0x3, 0x2, 0x4, 0x7,
0x5, 0xc, 0xd, 0x5, 0xc, 0xd, 0x5, 0xd, 0xd,
0x5, 0x0, 0xd, 0x5, 0x4, 0xe, 0x6, 0x4, 0xd,
0x1, 0xc, 0xb, 0x4, 0xe, 0xf, 0x3, 0x3, 0x2,
0xb, 0x1, 0x2, 0x4, 0xa, 0xd, 0xd, 0xc, 0xf,
0x3, 0xe, 0xd, 0x4, 0xd, 0xd, 0x6, 0x5, 0xb,
0xc, 0x5, 0x6, 0xe, 0x4, 0x3, 0xd, 0xb, 0xc,
0x3, 0x1, 0x4, 0x3, 0x5, 0x9, 0x6, 0x4, 0xd,
0xc, 0x5, 0x0, 0xd, 0x4, 0x6, 0xc, 0xe, 0x5,
0xa, 0x4, 0xd, 0x3, 0x7, 0x3, 0xd, 0x3, 0xd,
0xd, 0x3, 0x1, 0x5, 0x6, 0xd, 0x5, 0xe, 0x0,
0xe, 0xd, 0xc, 0xd, 0xd, 0x1, 0x5, 0x5, 0x5,
0xc, 0x4, 0x5, 0xc, 0xd, 0xd, 0x2, 0x5, 0x6,
0xc, 0xc, 0xc, 0xd, 0xd, 0xe, 0x2, 0x9, 0xa,
0xd, 0x5, 0x5, 0xd, 0x4, 0x5, 0xd, 0xd, 0x2,
0x3, 0xb, 0x6, 0x2, 0xc, 0x5, 0xe, 0xe, 0xa,
0x1, 0x4, 0x4, 0xa, 0x5, 0x3, 0x5, 0x5, 0xa,
0xc, 0xe, 0xa, 0x3, 0x6, 0x6, 0xc, 0xc, 0x3,
0x5, 0xc, 0xd, 0x6, 0xc, 0xc, 0x5, 0x2, 0xd,
0xd, 0xe, 0xe, 0xc, 0xa, 0x4, 0x5, 0x5, 0x5,
0x3, 0xc, 0xa, 0x9, 0x9, 0xc, 0xb, 0x0, 0xe,
0x3, 0x6, 0x4, 0x5, 0xc, 0xd, 0x5, 0xe, 0xc,
0x4, 0x5, 0xd, 0xb, 0x5, 0xd, 0x3, 0x0, 0xe,
0x4, 0x5, 0x6, 0x1, 0x0, 0x1, 0xd, 0xe, 0xc,
0x5, 0x5, 0x2, 0x2, 0xd, 0xd, 0xe, 0xd, 0x3,
0x4, 0x5, 0x4, 0x5, 0x5, 0x0, 0x3, 0x5, 0xb,
0x4, 0x6, 0x5, 0xd, 0xc, 0x4, 0xd, 0xe, 0xc,
0xc, 0xd, 0xd, 0x6, 0x2, 0x5, 0x0, 0xd, 0x0,
0x3, 0x4, 0x0, 0xe, 0x1, 0x5, 0x2, 0xe, 0xd,
0xe, 0xd, 0x5, 0xe, 0xc, 0x6, 0xc, 0x4, 0x5,
0x5, 0xb, 0xd, 0x6, 0x5, 0xd, 0xb, 0x5, 0xb,
0xb, 0xd, 0xd, 0x5, 0x2, 0xe, 0x6, 0xa, 0xc,
0x9, 0x3, 0x3, 0xd, 0xc, 0x5, 0xd, 0x6, 0x6,
0xd, 0x5, 0x5, 0xf, 0xa, 0x5, 0x5, 0x9, 0x4,
0xc, 0xd, 0xd, 0x0, 0xc, 0xd, 0x5, 0x6, 0x5,
0x4, 0x6, 0x4, 0x3, 0x4, 0xd, 0x4, 0xd, 0xd,
0xc, 0x4, 0xb, 0x3, 0x4, 0x2, 0x5, 0x5, 0x5,
0x3, 0x3, 0x1, 0x1, 0x4, 0x4, 0x4, 0x6, 0x5,
0x5, 0x5, 0x5, 0x3, 0x5, 0x4, 0xb, 0xd, 0xc,
0x4, 0xb, 0xb, 0x5, 0x1, 0x0, 0x5, 0x5, 0x5,
0xd, 0xd, 0xb, 0xd, 0x2, 0x5, 0xc, 0x6, 0x6,
0x6, 0x5, 0xb, 0x5, 0x5, 0xc, 0x3, 0x4, 0xd,
0xd, 0x4, 0x5, 0xc, 0xa, 0x5, 0xc, 0x4, 0x6,
0xd, 0xc, 0x6, 0xe, 0xd, 0x6, 0xd, 0xd, 0x5,
0xa, 0xc, 0x2, 0x4, 0xe, 0xd, 0x3, 0xd, 0xc,
0x6, 0x4, 0xd, 0x5, 0x4, 0xd, 0x5, 0x3, 0x4,
0xb, 0x1, 0xe, 0x0, 0xd, 0xd, 0xc, 0xd, 0xc,
0x5, 0xd, 0x5, 0x6, 0xc, 0xd, 0xa, 0x6, 0xe,
0xc, 0x3, 0xc, 0xc, 0xc, 0xd, 0xd, 0xd, 0xd,
0x9, 0x5, 0x2, 0x5, 0x5, 0x7, 0xe, 0xb, 0x5,
0xb, 0xd, 0x5, 0x5, 0xe, 0x5, 0x2, 0xc, 0x2,
0xd, 0xc, 0xc, 0xc, 0x5, 0x5, 0x5, 0x6, 0x9,
0xb, 0xd, 0xc, 0x2, 0xe, 0xd, 0x9, 0xa, 0xd,
0x3, 0x2, 0x4, 0x4, 0x5, 0x4, 0xc, 0xe, 0xf,
0xa, 0xe, 0xa, 0x9, 0xe, 0xc, 0x4, 0xb, 0x5,
0x1, 0x4, 0x2, 0x4, 0xd, 0xd, 0xc, 0xd, 0xe,
0x3, 0xc, 0xe, 0x5, 0xc, 0xd, 0x4, 0x6, 0x6,
0x3, 0x4, 0x5, 0x9, 0x5, 0xa, 0x5, 0x5, 0xc,
0x3, 0x5, 0xe, 0x5, 0x4, 0xe, 0x4, 0xd, 0xc,
};

static int backbone_model2_conv1_relu2_threshold[64 * 7] =
{ // torch.Size([64, 7])
-6, 73, 151, 230, 347, 505, 740,
-11, 39, 89, 140, 215, 315, 465,
39, 80, 120, 160, 220, 301, 421,
-45, 5, 56, 106, 182, 283, 434,
-29, 45, 119, 194, 306, 454, 678,
14, 72, 130, 188, 276, 392, 566,
18, 59, 100, 140, 201, 282, 403,
43, 77, 111, 145, 197, 265, 368,
-7, 58, 123, 188, 286, 416, 611,
-3, 72, 148, 223, 335, 486, 711,
-50, 6, 63, 119, 204, 317, 486,
24, 66, 108, 150, 212, 296, 421,
7, 57, 107, 158, 233, 334, 485,
-59, 2, 63, 124, 215, 337, 520,
55, 102, 149, 196, 267, 361, 503,
27, 69, 111, 153, 216, 299, 425,
13, 62, 110, 159, 232, 329, 475,
44, 80, 116, 153, 207, 280, 388,
34, 79, 124, 170, 238, 329, 465,
67, 101, 134, 168, 218, 285, 385,
-26, 34, 94, 155, 245, 366, 547,
6, 52, 98, 144, 214, 306, 445,
50, 89, 129, 168, 228, 307, 426,
54, 99, 144, 189, 256, 346, 482,
-40, 26, 92, 158, 256, 388, 585,
29, 64, 98, 132, 183, 251, 354,
-11, 37, 86, 134, 206, 303, 448,
-38, 25, 89, 153, 249, 376, 568,
-17, 45, 107, 170, 263, 388, 575,
43, 84, 125, 166, 228, 310, 433,
88, 125, 162, 199, 255, 329, 440,
41, 85, 129, 173, 239, 326, 458,
19, 61, 104, 147, 211, 297, 426,
29, 76, 123, 170, 241, 335, 476,
44, 93, 141, 190, 263, 360, 505,
47, 93, 140, 187, 257, 350, 490,
16, 68, 120, 172, 250, 353, 509,
34, 82, 131, 179, 252, 349, 495,
51, 100, 150, 199, 273, 371, 519,
22, 73, 125, 176, 253, 355, 509,
46, 86, 125, 165, 224, 303, 421,
5, 53, 101, 149, 222, 318, 462,
-8, 48, 104, 160, 244, 356, 524,
47, 89, 131, 173, 236, 319, 445,
60, 87, 113, 140, 180, 233, 312,
24, 83, 142, 201, 290, 408, 585,
-7, 44, 96, 147, 224, 327, 480,
-21, 33, 86, 140, 220, 328, 488,
31, 87, 143, 199, 283, 395, 563,
-6, 48, 103, 157, 238, 347, 510,
-57, -11, 36, 83, 153, 246, 386,
-9, 52, 114, 176, 269, 393, 578,
41, 91, 141, 190, 265, 364, 514,
74, 117, 159, 202, 265, 350, 477,
35, 106, 176, 246, 351, 491, 702,
47, 88, 129, 169, 231, 313, 436,
-2, 40, 82, 124, 187, 271, 398,
10, 75, 139, 203, 300, 428, 621,
32, 110, 187, 265, 381, 536, 769,
-7, 51, 109, 167, 253, 368, 542,
2, 66, 130, 195, 291, 419, 612,
50, 97, 144, 191, 262, 356, 497,
-16, 30, 76, 122, 191, 282, 420,
57, 106, 156, 206, 280, 379, 528,
};

static uint64_t backbone_model2_conv2_conv1_weight[64 * 1*4] =
{ // torch.Size([64, 1, 1, 64])
0x545dcd45a5525b44,0x55455bc55d63d595,0x553545555eb546dd,0x4c635dd6bd555adc,
0x55dcbaeddccb2bcd,0x15bc0cc6435c06ac,0x457a453dacd33ddb,0x2cd459ad6dc544de,
0xd2b23cad93c6bd20,0xc59103bc0e464ccb,0xdccbc54dccbda3bd,0x5de04521bd9bad5c,
0xd553a13356b4bccd,0xce5b4b2ca6d55366,0x5cbd5b24415c3c50,0x094124cc454dc216,
0xcdccccddddc42355,0xedbbabdb5c55d6b4,0xdccc69b455dc9255,0x3c5ecddda94dcb44,
0xb4354ccd3c3b45c2,0x4cb32b42446a4343,0x4b0945564bb43152,0xe4a63493313d5a2a,
0x52dd3556543c614a,0x645ded405c6ea5d6,0xe35b69d55541dc6c,0x60e65ebd995cc3bd,
0xee5d4535e43cd3dc,0x5b4b2de04543ac66,0x50c5dd55d45b4d66,0xc4eed416b445d252,
0xcb4454b54c55ad5d,0xc4dd6d545ce45595,0x65b5346d46d64564,0xc4cdc4650cd4c2e4,
0x553dce5652465dd6,0xd36b44c55d46434c,0x554655666e4355d4,0x5d35d366cc43cc45,
0x5eb66cda45c6c03a,0xa2d2ced463d3d5c6,0x9beb155e56ecd37c,0x5bedadcc5d5dbb4d,
0xe55adc52cebcc5a2,0x465455b5e564543e,0x433550dce36d5195,0x66b56d0455550dda,
0x3b3933549b433b04,0xa554ba34be9d23f5,0x4b2b43cb5444b4ca,0xb3db1c0539b9a254,
0xcc6ad43d356add92,0x5cc55c6202c5461d,0x56355d65b5cc43cd,0xc2cc4ce96cd65cbd,
0x2251ccb5b454ceb2,0xcb244dcc5d355d45,0x455bcc66dd5d65e3,0xa4c5b5d5c1566456,
0x2dedbd3a2ac54bdd,0xdabb5b43cc15cc3c,0x24bbc0541c55d5a3,0x3dd33964ddeddce1,
0x43cdcdccddd44c56,0xdd52cebc245cd29d,0xdded3cd4cbbe9ecb,0x4b95acd4a3635d5b,
0xcde0d4ddabea3c05,0x5c54de9c556cde44,0x91cdddd6ed5e1cad,0xc135c2dc34b45564,
0xcbc64d5d555ed254,0xd564a25ceccccceb,0x30b55d1dbdd65dd4,0xe52c63dc45935d0d,
0xeb4b335bdeb54346,0x4dd26555ddd4425e,0x45555253b02555c6,0xd5d5de46b22b4c44,
0x3e5c5bdd01e0b42c,0xc5dbddcc5ed33c03,0x5ba2d4cdd1532c05,0xb254da54bc555ccd,
0x0c2ad6ea1b25c4c3,0x5cbdc594cd4c2c3a,0xbdd354dc4cd5cdbd,0xc6c9db35bd9ed65d,
0x6d3db64d2ca6dc64,0x35b4db29cdddc933,0x50d5b4cc4cea43cc,0xb4d0dd44bacce44d,
0x1de3a6664d6d4a34,0xd6566366d354d5d3,0xc5dc55b5db25e545,0x444c3c44dc3a35c6,
0x3de6ec2b51a55c55,0xe6b5d4cbd3445b1b,0xecd4bb345dda4ddc,0x2c15d43e964b5d9b,
0xdc54355c0ecd362c,0x55b315bdc54d302d,0x0cc325ddc533ed5d,0xbc555cc4cbdbeedb,
0xbbb49c52ce5440cd,0xa5a355445444335d,0x432524d45c46d551,0x4e436b45bdd4eed1,
0x554b6524355d535b,0x65b64643cc51e5cc,0x15b6c646c6b4b24e,0xd66c5c255d3535dd,
0x3c02e2cc44d5bb05,0xeedc5ec234944b43,0x4aab5d4c5b4c3a05,0xac4ceddd554db4b6,
0xbdc45c3c3c2bd344,0x5345242b3ab5ccd1,0xbadbd30db555dc33,0xd6ccb442d2525461,
0xc145cb4ddde3de5d,0xda4d3cd4cd3b5b45,0xed35d3ddcdd4bd3d,0x4be42564352eed5c,
0xbabc2dbdcc4cc42d,0x39cb0b91dcb2ccdd,0xd1c9bca3ccdcd5d0,0xdc02d332ccb04dc2,
0xbd295dccad4ceec5,0x4dc94d6db44549c4,0xb55cdb4a454c455b,0xd6c24455c3266c65,
0x56d25dbc264345ed,0x43b61121e516e553,0x65ca59555245a53a,0xb4cc3dc4ed345cdc,
0xc653dc34b45d5c6c,0xcc5c154c2abdad45,0xddc3bdc4dbdb5ebd,0x4ccc34531bced4a5,
0xa65aa2ca55d5dbdd,0x1c6bc52d465cad3c,0xdc4dcdbd4b2dadcc,0x55cb653d352ce4d4,
0xa5d66c4c94415ad6,0x5343cc5cb14c4dbc,0x4b1d164dc4655544,0xc6e5244b6c6a4c6b,
0xc39e54d4dcd4e35e,0xec0acdde35639695,0xbdc4bcecb6bebd5d,0x6c2dddcbd555d354,
0xe44beaaddbdcb156,0x5dc3db5d33c3ee54,0x9dc3ed34f35b4ebd,0xc3cd5df5ce4cc454,
0xb555b6bd9c4ec01e,0xb5b494c3d6544d35,0x54ba5cd54c65d542,0xc355355c45cbd5d4,
0x2cdee4c24cd3ddc9,0xb35dbdd24345434b,0xc2cb5e534dd3ddcc,0xadd2b9c1d5e542c4,
0x1ed2b43424524d06,0x52c654445c534594,0x3546cd46d453c596,0x5e445d654ce543cb,
0x5ecc25ddc0b4ed54,0xdefe14bd5e04ca5c,0x4b2641dbd5b54345,0xdc9c1a55c514b44c,
0xbc95d24d33d46914,0x1124dce50535651a,0xcb1343cc53045d4c,0x31a3cdcd654d2aed,
0x549c45d26cd2de63,0xdd4e555cd54cea94,0x2555cc5c52b5ad94,0x53d3ca5ecd05d5db,
0x4d9c55e4dddc54db,0x59cbac2564543a64,0x6453c4dad352c535,0x4bbbc4b2dda555a4,
0xd5ed4193e54ecdbc,0x533355554bd2eceb,0xc46dc2bde5d41ea3,0x05d45de639dc3555,
0x55d2aced34bb3dcd,0xd45de4d4cb4b54b9,0xc55d36cd4bd49dc2,0x3ca6c5be45440bb1,
0x53abdd65a45dc5d5,0x6553bd45dbb143ed,0x5abcc446bcc45bc2,0xb5cb46d4d55bdd3d,
0x2c2c45446ca5ce64,0xddcd2445d65b4d4d,0x56453a55555c3a56,0x59c5e25cd9c644c6,
0x5c5cd43d6556d5a5,0xddd45c4db5d55c76,0x53e42d5a63255442,0xd55d55a5c5dc140c,
0x5d4e35dd0dd5d456,0x4cddd50e0bdbbd5b,0xbdc5d99d55da5c9d,0xbabbdcb4acabd45e,
0xe1adad55e44a4cc5,0xd4d55c456e45634c,0x45435664d3514515,0xd4435dd6cc555da5,
0x5c5eb3bc5423cc6b,0x4cbc55bba5bc9b51,0x31544e2423ccae53,0x4d4cadcc41e6d3fc,
0xc1d45bcdb5ebc594,0x53dbe3dcbbcd3ce2,0xeddec4dec5ccbd4d,0xe54d5aeeac9d556e,
0xbdd445bd54cce55b,0xc3cadc5dd5dce5e5,0xededdd42c5dd2edd,0xd6ddccdd235d55cc,
0x15065bebc5d5dd3e,0xdddccebc3ac5b5c3,0xbddc24ce45340c5e,0xc4de453d425d2c3e,
0x543d42504c33bc62,0x521652cddc5e56d4,0xd3544324b5c4166e,0x5bd5c4455bbde5cd,
0xb9d364d33d4b533b,0xc6b553549d05d5da,0xeb5d9602db4cd434,0xb5640a6bd445320b,
0xc354442bdc4c566c,0x4ac6ccbd3c4ca5e3,0xecdad6dcc3cdc25c,0xc56dcd3c6d6c423e,
0xa5cddc2dd53ceabc,0x4c54c55c54d43da3,0xcabd4d1344b944cc,0xd4cc45e3d4c4335d,
0xd4d464dd5b2c6ccc,0xc4dac3553305de51,0xd46e5954a544335b,0xb4d5bd456d5464c4,
0xb3434ae3dbdda49d,0x47dc5ec15cddc3b5,0xcd93e53de344dd5e,0x54c26355ee44b5bd,
0x435eeddc43c4453c,0x4ccedddeca3c5d5d,0xedcd41455ddc6d9d,0xc042eddd65c5cecd,
};

static int backbone_model2_conv2_quant1_threshold[64 * 14] =
{ // torch.Size([64, 14])
-788, -464, -248, -86, 22, 130, 238, 346, 454, 562, 670, 832, 1048, 1372,
-1174, -842, -621, -455, -344, -233, -123, -12, 98, 209, 320, 486, 707, 1039,
-979, -722, -551, -422, -336, -251, -165, -80, 6, 92, 177, 306, 477, 734,
-1170, -785, -529, -336, -208, -80, 49, 177, 305, 434, 562, 754, 1011, 1396,
-1167, -861, -658, -505, -404, -302, -200, -98, 3, 105, 207, 359, 563, 868,
-592, -360, -205, -88, -11, 67, 144, 222, 300, 377, 455, 571, 726, 959,
-1228, -852, -601, -413, -288, -163, -37, 88, 213, 339, 464, 652, 903, 1279,
-1232, -840, -580, -384, -254, -123, 7, 138, 268, 399, 529, 725, 985, 1377,
-1084, -720, -478, -296, -174, -53, 68, 190, 311, 432, 553, 735, 978, 1342,
-1049, -652, -387, -189, -57, 76, 208, 340, 472, 605, 737, 935, 1200, 1597,
-1555, -1055, -721, -471, -304, -137, 29, 196, 363, 530, 697, 947, 1280, 1781,
-853, -567, -376, -233, -138, -42, 53, 148, 244, 339, 434, 577, 768, 1054,
-1059, -735, -519, -356, -248, -140, -32, 76, 184, 292, 401, 563, 779, 1103,
-1333, -948, -692, -500, -371, -243, -115, 13, 142, 270, 398, 590, 847, 1231,
-918, -603, -393, -235, -130, -25, 80, 185, 290, 395, 500, 658, 868, 1183,
-1606, -1065, -703, -433, -252, -71, 109, 290, 470, 651, 831, 1102, 1463, 2005,
-1182, -871, -665, -509, -406, -303, -199, -96, 8, 111, 215, 370, 577, 887,
-1241, -860, -606, -416, -289, -162, -35, 92, 218, 345, 472, 662, 916, 1297,
-1377, -961, -684, -476, -338, -199, -60, 78, 217, 355, 494, 702, 979, 1395,
-1108, -756, -520, -344, -226, -109, 9, 126, 244, 361, 479, 655, 890, 1243,
-1062, -754, -549, -395, -292, -189, -86, 17, 119, 222, 325, 479, 684, 993,
-1262, -915, -683, -510, -394, -278, -163, -47, 69, 185, 300, 474, 705, 1052,
-1198, -861, -637, -469, -357, -244, -132, -20, 92, 204, 317, 485, 709, 1046,
-984, -626, -387, -209, -89, 30, 149, 268, 388, 507, 626, 805, 1043, 1401,
-1390, -963, -678, -465, -322, -180, -38, 105, 247, 389, 531, 745, 1029, 1456,
-958, -680, -494, -355, -262, -170, -77, 16, 109, 202, 295, 434, 619, 898,
-1001, -657, -429, -257, -143, -28, 86, 201, 315, 429, 544, 715, 944, 1288,
-739, -437, -235, -83, 17, 118, 219, 320, 421, 522, 623, 774, 976, 1278,
-1160, -851, -645, -490, -387, -284, -181, -78, 25, 128, 231, 386, 592, 901,
-1059, -738, -523, -362, -255, -148, -41, 66, 174, 281, 388, 549, 763, 1085,
-1389, -1028, -787, -606, -485, -365, -244, -124, -3, 117, 238, 418, 659, 1021,
-1300, -959, -731, -561, -447, -333, -220, -106, 8, 121, 235, 406, 633, 974,
-1049, -732, -521, -362, -256, -151, -45, 61, 166, 272, 378, 536, 747, 1064,
-1387, -972, -695, -488, -349, -211, -73, 66, 204, 343, 481, 689, 966, 1381,
-1197, -845, -611, -436, -319, -202, -85, 32, 149, 266, 383, 559, 793, 1144,
-1438, -996, -702, -481, -333, -186, -39, 108, 256, 403, 550, 771, 1066, 1508,
-860, -545, -334, -176, -71, 35, 140, 245, 351, 456, 561, 719, 930, 1246,
-1400, -1020, -767, -577, -451, -324, -198, -71, 55, 182, 308, 498, 751, 1131,
-1475, -1091, -834, -642, -514, -386, -258, -130, -2, 126, 255, 447, 703, 1087,
-847, -554, -359, -213, -115, -18, 80, 177, 275, 372, 470, 616, 811, 1104,
-1010, -760, -594, -469, -386, -303, -220, -136, -53, 30, 113, 238, 404, 654,
-752, -436, -225, -67, 39, 144, 249, 355, 460, 565, 671, 829, 1040, 1356,
-1155, -835, -621, -461, -354, -247, -140, -33, 73, 180, 287, 447, 661, 982,
-1095, -766, -546, -381, -271, -162, -52, 58, 168, 278, 388, 552, 772, 1101,
-1155, -829, -612, -449, -341, -232, -123, -15, 94, 202, 311, 474, 691, 1017,
-1008, -646, -405, -225, -104, 16, 137, 257, 378, 498, 619, 800, 1041, 1402,
-1385, -986, -720, -521, -388, -255, -122, 11, 144, 277, 410, 610, 875, 1274,
-1138, -820, -608, -449, -343, -237, -131, -25, 81, 187, 293, 453, 665, 983,
-1094, -724, -477, -292, -169, -45, 78, 201, 325, 448, 571, 756, 1003, 1373,
-1003, -670, -447, -280, -169, -58, 53, 164, 276, 387, 498, 665, 887, 1221,
-1153, -763, -503, -308, -178, -48, 83, 213, 343, 473, 603, 798, 1058, 1448,
-1134, -842, -648, -502, -405, -308, -210, -113, -16, 81, 178, 324, 518, 810,
-1029, -680, -447, -273, -156, -40, 76, 193, 309, 425, 542, 716, 949, 1298,
-1080, -778, -576, -425, -324, -224, -123, -22, 79, 179, 280, 431, 633, 935,
-1587, -1158, -872, -657, -514, -371, -228, -85, 58, 202, 345, 559, 846, 1275,
-1526, -1138, -878, -684, -554, -425, -295, -166, -36, 94, 223, 417, 677, 1065,
-1395, -1053, -825, -654, -540, -426, -312, -198, -84, 30, 144, 315, 543, 885,
-1335, -939, -675, -477, -345, -213, -81, 51, 183, 315, 447, 645, 909, 1305,
-896, -583, -374, -217, -113, -9, 96, 200, 305, 409, 513, 670, 879, 1192,
-1046, -730, -519, -361, -256, -150, -45, 60, 165, 271, 376, 534, 745, 1061,
-1246, -900, -669, -496, -381, -266, -150, -35, 80, 196, 311, 484, 715, 1061,
-918, -618, -417, -267, -167, -67, 34, 134, 234, 334, 434, 585, 785, 1086,
-1300, -928, -681, -495, -371, -247, -123, 0, 124, 248, 372, 558, 805, 1177,
-1344, -1008, -784, -615, -503, -391, -279, -167, -55, 58, 170, 338, 562, 899,
};

static uint64_t backbone_model2_conv2_conv2_weight[64 * 9] =
{ // torch.Size([64, 3, 3, 1])
0x4, 0x2, 0xd, 0x5, 0x5, 0xe, 0xd, 0xd, 0xe,
0xe, 0x5, 0x5, 0xc, 0x6, 0x0, 0x6, 0x4, 0xd,
0x9, 0x6, 0xd, 0xa, 0x3, 0x6, 0x5, 0xd, 0x5,
0xd, 0xd, 0xd, 0xd, 0xd, 0xc, 0xd, 0x4, 0xa,
0x5, 0x5, 0xe, 0x5, 0x4, 0xd, 0x6, 0xc, 0xd,
0xd, 0x5, 0x5, 0x6, 0x4, 0xe, 0xd, 0xe, 0x2,
0xd, 0xc, 0xd, 0x1, 0xd, 0xe, 0x5, 0xa, 0xe,
0x5, 0x4, 0xb, 0x6, 0x5, 0x3, 0x5, 0x5, 0x4,
0xd, 0xd, 0xb, 0xd, 0xd, 0x4, 0xe, 0xd, 0x4,
0x9, 0xd, 0xc, 0x3, 0xe, 0xf, 0xb, 0x5, 0xc,
0x5, 0x5, 0x5, 0x5, 0x6, 0x4, 0x5, 0x6, 0x3,
0x3, 0x5, 0xd, 0x4, 0xd, 0xe, 0xd, 0xe, 0xc,
0xc, 0xb, 0x6, 0x5, 0xc, 0xe, 0xb, 0x1, 0x4,
0xa, 0xd, 0xd, 0xb, 0xd, 0xd, 0x4, 0xc, 0xe,
0xc, 0xc, 0x3, 0xd, 0x0, 0x4, 0xf, 0xe, 0xd,
0x5, 0x6, 0x6, 0x4, 0x3, 0x5, 0x4, 0xe, 0xe,
0xb, 0xc, 0x5, 0x4, 0x6, 0x6, 0x3, 0x6, 0x5,
0x2, 0xb, 0xb, 0x9, 0xa, 0x5, 0x5, 0x6, 0x7,
0xb, 0x1, 0x3, 0x5, 0x4, 0x4, 0x6, 0x5, 0x6,
0xe, 0xd, 0xa, 0x2, 0xe, 0xb, 0x3, 0xd, 0xe,
0x6, 0x5, 0x5, 0x6, 0x4, 0xc, 0xa, 0xd, 0xd,
0x2, 0x4, 0xb, 0x5, 0x5, 0x0, 0x6, 0x6, 0x4,
0x4, 0x6, 0x5, 0xd, 0x5, 0x6, 0xb, 0xe, 0xe,
0xa, 0xb, 0xd, 0xe, 0xc, 0x4, 0xe, 0xc, 0x3,
0x5, 0x5, 0x5, 0x5, 0x5, 0x3, 0x5, 0x5, 0x2,
0x5, 0x4, 0xd, 0x5, 0x6, 0x3, 0xc, 0xd, 0xd,
0x2, 0x6, 0x2, 0xc, 0xe, 0xe, 0xc, 0xe, 0x2,
0xa, 0xe, 0xd, 0x3, 0xe, 0xc, 0x6, 0xe, 0xc,
0x5, 0x5, 0xd, 0x3, 0x5, 0xd, 0xb, 0x7, 0x4,
0xc, 0x2, 0x5, 0xd, 0x4, 0x6, 0xe, 0xd, 0x4,
0x5, 0x5, 0xd, 0x5, 0x6, 0x3, 0xa, 0x4, 0x5,
0x4, 0x4, 0x4, 0x3, 0x3, 0x3, 0x4, 0x4, 0x4,
0x5, 0xc, 0xd, 0x1, 0xd, 0xc, 0xd, 0xe, 0x5,
0xd, 0xd, 0xd, 0x2, 0xd, 0xe, 0x1, 0xc, 0xd,
0x4, 0x4, 0x4, 0x4, 0x5, 0x5, 0x5, 0x5, 0x5,
0x5, 0x6, 0x3, 0x5, 0x5, 0x4, 0x5, 0x9, 0xb,
0x4, 0x6, 0xc, 0x4, 0xc, 0xe, 0xd, 0xe, 0xd,
0x4, 0x6, 0x5, 0x5, 0x6, 0x3, 0x5, 0x5, 0x5,
0x5, 0x4, 0x4, 0x5, 0x5, 0x3, 0x0, 0x6, 0x6,
0xd, 0x6, 0x2, 0xd, 0xe, 0x0, 0xe, 0xe, 0xa,
0xe, 0x6, 0x5, 0xe, 0x6, 0xc, 0x5, 0x5, 0xc,
0x4, 0x2, 0xd, 0x5, 0xd, 0xe, 0xc, 0xe, 0xc,
0xd, 0x5, 0x6, 0xd, 0x4, 0x6, 0xe, 0xd, 0x5,
0xd, 0x5, 0x6, 0xd, 0x4, 0x5, 0xc, 0x5, 0x5,
0xe, 0xd, 0xd, 0xc, 0x4, 0x4, 0x5, 0x5, 0x6,
0xd, 0xd, 0xd, 0xd, 0x2, 0x5, 0x4, 0x6, 0x6,
0x4, 0x4, 0x5, 0x5, 0x5, 0x4, 0x5, 0x4, 0x4,
0x6, 0x5, 0xc, 0x5, 0x3, 0xe, 0x5, 0xc, 0xd,
0x4, 0x5, 0x4, 0x4, 0x5, 0x3, 0x4, 0x5, 0x5,
0xd, 0xe, 0xe, 0xd, 0xd, 0xc, 0xc, 0x2, 0x5,
0xc, 0xc, 0xd, 0xd, 0xc, 0xd, 0xd, 0xd, 0xc,
0xb, 0x4, 0x3, 0xb, 0x6, 0x5, 0x4, 0x6, 0x4,
0x9, 0x3, 0x2, 0xe, 0xe, 0xe, 0xb, 0xd, 0xc,
0xb, 0xd, 0xc, 0x3, 0xe, 0xd, 0x5, 0x6, 0x5,
0x4, 0x2, 0x2, 0x3, 0x6, 0x5, 0x3, 0x7, 0x5,
0x5, 0x7, 0x6, 0x2, 0x4, 0x3, 0xc, 0x4, 0x3,
0xb, 0x1, 0x3, 0xd, 0x5, 0x6, 0xd, 0x4, 0x6,
0xd, 0xd, 0xa, 0xc, 0xd, 0xd, 0xb, 0xd, 0xd,
0x0, 0xe, 0x3, 0x6, 0x3, 0xe, 0x5, 0x5, 0xe,
0xc, 0xa, 0xc, 0x6, 0x5, 0xe, 0x4, 0x6, 0xd,
0x2, 0x3, 0xc, 0x9, 0xd, 0xe, 0x2, 0xe, 0xd,
0x0, 0xc, 0xc, 0xd, 0xd, 0xc, 0xd, 0xd, 0xd,
0x5, 0x6, 0x6, 0x4, 0x5, 0x4, 0x3, 0x5, 0xc,
0x5, 0x6, 0x5, 0x2, 0x6, 0x5, 0xb, 0x0, 0x4,
};

static int backbone_model2_conv2_relu2_threshold[64 * 7] =
{ // torch.Size([64, 7])
121, 183, 246, 309, 403, 528, 716,
118, 185, 252, 318, 418, 551, 751,
25, 88, 151, 214, 309, 435, 624,
28, 77, 127, 176, 250, 349, 497,
125, 189, 252, 316, 411, 538, 728,
91, 167, 243, 318, 432, 583, 810,
-18, 59, 136, 212, 327, 480, 710,
55, 125, 195, 265, 370, 510, 720,
-11, 58, 127, 197, 301, 440, 649,
96, 156, 215, 275, 364, 484, 662,
-165, -86, -6, 73, 192, 351, 590,
100, 157, 213, 270, 354, 467, 637,
63, 120, 178, 235, 321, 437, 609,
-27, 37, 100, 164, 259, 387, 577,
24, 101, 178, 254, 369, 522, 752,
18, 59, 99, 139, 200, 281, 402,
57, 126, 196, 266, 370, 510, 719,
99, 164, 229, 294, 392, 523, 719,
56, 114, 172, 230, 318, 434, 608,
54, 126, 198, 270, 378, 522, 738,
63, 133, 204, 274, 379, 519, 729,
71, 129, 186, 243, 328, 442, 614,
143, 206, 270, 334, 429, 556, 747,
-18, 38, 93, 148, 230, 340, 506,
-40, 26, 92, 158, 257, 389, 587,
143, 185, 227, 269, 333, 417, 544,
143, 206, 269, 332, 426, 551, 740,
45, 124, 203, 283, 401, 560, 798,
87, 158, 228, 298, 404, 544, 755,
99, 149, 199, 248, 323, 422, 571,
13, 65, 118, 170, 248, 353, 510,
12, 36, 60, 84, 120, 168, 240,
32, 81, 130, 179, 252, 349, 496,
-31, 24, 79, 134, 216, 326, 491,
57, 118, 179, 241, 333, 455, 640,
22, 71, 119, 167, 240, 336, 481,
135, 193, 251, 310, 397, 513, 687,
11, 92, 173, 254, 376, 538, 781,
17, 95, 174, 252, 370, 526, 762,
154, 217, 281, 345, 440, 568, 759,
126, 181, 237, 292, 376, 487, 654,
57, 119, 182, 244, 338, 463, 651,
193, 244, 296, 347, 424, 527, 681,
44, 111, 179, 246, 347, 482, 684,
109, 166, 223, 279, 364, 477, 647,
98, 155, 212, 268, 353, 467, 637,
72, 123, 173, 224, 300, 402, 554,
48, 102, 155, 208, 289, 395, 555,
55, 100, 146, 191, 259, 349, 485,
59, 122, 185, 248, 342, 468, 656,
-11, 49, 109, 169, 260, 380, 561,
52, 113, 173, 233, 324, 445, 626,
47, 118, 188, 258, 364, 504, 715,
111, 174, 238, 301, 397, 524, 714,
-18, 72, 163, 253, 388, 569, 840,
42, 113, 184, 255, 361, 503, 715,
95, 159, 223, 287, 383, 511, 703,
28, 77, 125, 173, 245, 341, 486,
101, 159, 216, 274, 360, 476, 648,
108, 177, 246, 315, 418, 556, 764,
72, 155, 237, 320, 444, 609, 857,
13, 72, 130, 188, 276, 392, 567,
-15, 73, 162, 250, 383, 560, 825,
-4, 79, 163, 246, 371, 538, 788,
};

static uint64_t backbone_model3_conv1_conv1_weight[64 * 1*4] =
{ // torch.Size([64, 1, 1, 64])
0xc4c00d4a40cba245,0x3ddc5c34b9dbccc5,0xcb445b26aedc45c4,0xd5ac2544d2d465d4,
0x36a02490464a9a5b,0xd5c1bcdd44aada2c,0xc44cc56d424dc420,0x45c0045a55c31422,
0xcdce3ab4d5541b6d,0x5dc555dbc33d1d55,0x412b4d3624dc5d9d,0xe5d0b5b6d436b425,
0x2babc124442b5a3c,0xbdd2ac4d0cb516d6,0xcc5c24434154ccc4,0x3659cc39cbbdcbdc,
0xcd6db665d93c3ec3,0xda3a5adda34c9a5a,0xa3b54c1aa55ab1bc,0x0139b0a29605d333,
0xc4ccce3d34554d5d,0xcc35d3dd35cb3ccd,0xdb0ddb4d545d454b,0x64433c4b4bdadcea,
0x523bc32b44cad2da,0xd51b19cc93c314bd,0x5c24dbb4c30b15b9,0xadbd1c1c54e93ddc,
0xb59d524ad34ecbbb,0x9c2d3154a4195510,0x45c45ed903bbc09b,0x9434daec4ccb49d5,
0xe5ca53b5262dda24,0xbd4c1c5033e9ab33,0x955b45504bccb344,0x5c3cc4533bd3a5cc,
0x5d43c35c59c3c3db,0x443dc552d5a16c22,0xbd4243c40ba0e164,0x4d4cdec5b1bc599a,
0xad24a5b3bcc5dad4,0x4bbb55535ddc65d4,0xacb2ccb40ee562ce,0x9c50514d94bcd9ab,
0x5dc4ba344d3d05b4,0xd544614bcc54c233,0xddcb3ccceb34cbd4,0xcbc10ccc4b2dbcab,
0x0350d1bb9dcc3c55,0x5659ccc433d243d4,0x5d552dd2a35ccdbc,0xd4dbbacc5dc54c0c,
0xc515bcc414cc4756,0x35cccc3b55434ba5,0xdd1eb4c22dcd45b3,0x423d9401c55d4444,
0x2cc54bcab4b4d540,0x55239b56ca5554d6,0x4d04c3cddb5332a5,0x5a0dbcb4de55cd6d,
0xd5004442d5db3d13,0xbd3c0ccbcbbd3bac,0x450a525dd442a33d,0x46a5c45b26b3c506,
0x44e44530dcda9392,0x923c50344e5a4cb4,0x3d354bc4c444644c,0x142d36d4d45452ad,
0x5dac3b455cdbd0db,0x44dd6e04c3a4d336,0x5ac4b335da9dcda4,0xd4d3ca41dda5b4b5,
0x2caecdbd44c24441,0x5942b3dc34cd2dcc,0x2ccd4c043c2c544b,0xd4cb3c45cb040143,
0xce431cbc4db4b625,0xb553a5c13d54443c,0x1bddadb4d32243c5,0xbcbc29e4ab3dcb5c,
0xcb54cdd403dd4635,0x6359d6dd455c3bb4,0x3b4dedc5c3cdd6c3,0x244b3d1545c55c5d,
0xadc53cc9bbd6559b,0x5dc4465cddcc4544,0x54034b45e3544acc,0x144b4939d1bb53b3,
0xc430ed5debcbe255,0xc5662dcd2ccda4dd,0xc4c54dddb144c44b,0xc3b224cd6b39ddba,
0x4903bbe44a4143cc,0x4c4456b04dc1cd52,0x5ad51a261cccbccc,0x44bc54144e155933,
0x33ddc46959bc51b4,0x034c323c45c0bde4,0xdea43abbd546c335,0xd2e23abb02bc3b4b,
0xdcbccdb6b4d534bb,0x0ed3d44e25ada5cd,0x0cbdd39dc3db5ddd,0x5059455cad4cddc4,
0xacb4445c33cc94c4,0xd5dcbda0d2e5b41c,0x2b304bc5d403e4cb,0x94d3dcb2e5cdacbb,
0xd5553c4c3cc3e455,0xe4405325cd44d9a5,0x4dd9bcc5e5042434,0xc4bd3424a4d55d3a,
0x6943cbbc3dbb3345,0xc5435db32455ce9c,0x5eb4c4515cedd3a4,0xdce4b45c4344c44c,
0x5b34ddad2e53445b,0x555025e4b9054354,0x4badedd5455acc40,0xab403ee5224c424d,
0x3c13ab5dc44495cb,0x4c4dd5d452ec9343,0xc3cecb9223d343cd,0x4c2c5d45d43d00c0,
0x5e4aa544bda35ddd,0x352344cc4b1c045c,0xd334dcd33b1cbcdd,0xcddb2c2cdd34b0ab,
0xa414acacca33e545,0xdad04353c3456b51,0x4c0d5b3a2d4c5315,0x3c41eea55b5dbbb1,
0xbdba3444cd54dddc,0x4b9bcd35bdb33534,0xc6d424a524bc3bad,0x4cd635bc333cd5c5,
0x4d5224b42bc45dc3,0x5bbb6645a6c45441,0x44440cc545bd5346,0x2ddd9dc5ec23b451,
0xcbba544db254433e,0xbd49d4c5adb6dd5d,0xd5dd642d52d50e4a,0xac5c44adcc2db4d5,
0x1ac4ddbc4dd435d9,0xc2cedd9cd463d545,0xe4eedb35d3dd4d05,0xda96142dd36ed6c4,
0x3c6db45b9ed3c041,0x2b5dd434bc53ddc4,0xc41dcddbc64c5cec,0xdad5cdd5b644ca9d,
0xc4d5addc192c439d,0x1353dedd954cd54c,0xd5cbe54dd46bdc49,0x5214143d943d23ca,
0x5ecc355d2e345dd4,0xc04155dca4cd4b5c,0xc5ca0cd5354c552d,0xdb253aed553c92cb,
0x4bbd4d6c5c6c9b2d,0xdcd4b4b5cd360c33,0xad5cd1dc5dc25dc5,0x4cb1ccb9d43901cc,
0xb43cccd054352222,0xa3bacd4d5534a4ad,0xbeac145c3dcb5544,0x5d5d654c3d23ecd5,
0x0a4d45c443cc1ed4,0x55ce33c54cc3b43b,0xa554d1b514acc5d5,0x3cb5ca44e4c5324c,
0xd42bbb43cb45cb4c,0xcc95e6b23ccccbdd,0xdcd0ebddb53c5cdb,0x4dc163bcdbcdcbbc,
0x5c2d54adddc54403,0x5ab3c953bd51442c,0x45dd5dcd523494dc,0xd3d42bedad3bb954,
0x5ba50352bc5c4bcb,0x3d5335d03dd3ce31,0x5a401c9555d3bc4d,0x22d535c4b4ba534b,
0xdac4cd9493d46d5b,0x2ed505256bac4e4b,0xdccc3b0bd6554e46,0xb41555b6dd494293,
0x0ac454a3cb553bc5,0x5d659392bd534cc4,0x5b45534d34c24551,0x553435bc2255cb52,
0x3dad34b5350ad5bd,0xe4cd4dad15dc6c3d,0x22455cc34ddd5c64,0xac14d4c5d44cc5ec,
0xe35d553bb333ddc4,0x02c3cab24dbcc23c,0xc514430d4bc496ed,0x4c23454d154ad42a,
0xb5dd3c4cd3add134,0x1cbb1dd35dccedec,0xdd132c41cbda35d5,0x3cda5511414a54cb,
0xcdb4aa0ceb363b2c,0x4d45c54bd91b5c4c,0x34913563d550c34d,0x4b433d5d4a043bc4,
0x5bd0344443aca244,0xdb14524ca53ad9f4,0x4d22eccdb23c53dc,0xd3da453cdca43c1d,
0x529a4c4cc5bd4c5c,0x431dbc51eceb53c6,0xdb51c3bb95549b4c,0x5553de23943d4add,
0x412213504d545242,0xd455b2cd45e205d2,0xab5cd40e404acc40,0x3da24bac322bda3d,
0xcab2d75cd41c3632,0xdcdbddd340004c06,0x65bdbb4c56c95e44,0x3d46bc55d76d667c,
0x5dab342d45cc4c44,0x5d2dc53b35eddd4c,0x44543cb44b2e94dc,0x454c1d23d6d340eb,
0x4d6433c0dc443c24,0x33d44231dd54c435,0x42bbcdca4c3205ed,0xa419ccdc3c3bccad,
0x5ec4c54bbcdaabd3,0x4eed44429cc1b440,0x55c43cc9cddc4cd4,0xcdc34c25d32c4252,
0x29b4b45cdb4c4133,0x5442a324e2555934,0x02cb4db0b043db63,0x3545eee635035b94,
0x1b25db39ec4a5363,0xca45354be1ccca14,0x34355c24cd43cc4d,0x36b9db4d434244a6,
0xd5d54095c422125c,0xac434cc14cd34445,0x4b01b53d03c4c945,0x444506c4e35c5360,
0x4d424b4c1c42beb2,0xdd54a0c9b5d9c31d,0x45b91b3454439d3c,0x1ba5113c42dcc3d9,
0x315cfc4e5cdcc524,0x45bc3ced95cdc1cc,0x4d2cad2bdc0c03ac,0xe0bc3e6244da4b24,
};

static int backbone_model3_conv1_quant1_threshold[64 * 14] =
{ // torch.Size([64, 14])
-787, -535, -366, -240, -156, -72, 12, 96, 181, 265, 349, 475, 643, 896,
-859, -581, -395, -256, -164, -71, 22, 114, 207, 300, 392, 531, 717, 995,
-729, -484, -321, -199, -117, -35, 46, 128, 209, 291, 372, 495, 658, 903,
-810, -568, -406, -285, -204, -123, -42, 39, 119, 200, 281, 402, 564, 806,
-594, -415, -295, -206, -146, -86, -27, 33, 93, 153, 212, 302, 421, 600,
-1027, -761, -585, -452, -363, -275, -186, -98, -10, 79, 167, 300, 477, 742,
-938, -672, -495, -362, -274, -185, -97, -8, 80, 169, 257, 390, 567, 833,
-673, -477, -346, -248, -182, -117, -51, 14, 79, 145, 210, 308, 439, 635,
-774, -524, -358, -233, -149, -66, 17, 100, 183, 267, 350, 475, 641, 891,
-722, -493, -340, -226, -149, -73, 3, 80, 156, 232, 309, 423, 576, 805,
-849, -621, -469, -355, -279, -203, -127, -51, 25, 101, 177, 291, 443, 671,
-784, -554, -400, -285, -208, -132, -55, 22, 99, 175, 252, 367, 521, 751,
-826, -580, -416, -293, -211, -129, -46, 36, 118, 200, 282, 405, 569, 815,
-1009, -673, -449, -281, -169, -57, 55, 167, 279, 391, 503, 671, 895, 1231,
-944, -646, -447, -298, -199, -99, 0, 99, 199, 298, 398, 547, 745, 1044,
-901, -608, -412, -265, -167, -69, 28, 126, 224, 322, 420, 567, 762, 1056,
-599, -393, -256, -154, -85, -17, 52, 120, 189, 257, 326, 428, 565, 771,
-1066, -761, -557, -405, -303, -202, -100, 2, 103, 205, 307, 459, 662, 967,
-914, -649, -473, -341, -253, -165, -77, 11, 99, 187, 275, 407, 584, 848,
-906, -640, -462, -329, -241, -152, -64, 25, 114, 202, 291, 424, 601, 867,
-883, -598, -409, -266, -171, -77, 18, 113, 208, 303, 398, 540, 730, 1015,
-776, -512, -336, -204, -116, -28, 60, 148, 236, 324, 412, 543, 719, 983,
-1004, -723, -536, -395, -301, -207, -114, -20, 74, 168, 261, 402, 590, 871,
-660, -444, -301, -193, -121, -49, 23, 94, 166, 238, 310, 418, 561, 777,
-732, -509, -361, -250, -175, -101, -27, 47, 122, 196, 270, 382, 530, 753,
-1045, -789, -618, -490, -404, -319, -234, -148, -63, 23, 108, 237, 407, 664,
-971, -710, -537, -407, -320, -234, -147, -60, 27, 113, 200, 330, 503, 764,
-776, -531, -367, -245, -163, -81, 0, 82, 164, 245, 327, 450, 613, 858,
-1039, -745, -550, -403, -305, -207, -109, -11, 86, 184, 282, 429, 625, 918,
-888, -611, -426, -287, -194, -102, -9, 83, 176, 268, 361, 500, 685, 962,
-910, -655, -484, -356, -271, -186, -101, -15, 70, 155, 240, 368, 539, 794,
-891, -661, -508, -393, -317, -240, -163, -87, -10, 66, 143, 258, 411, 641,
-752, -509, -347, -225, -144, -63, 18, 99, 180, 261, 342, 464, 626, 869,
-968, -680, -488, -344, -248, -152, -56, 40, 136, 232, 328, 472, 664, 952,
-995, -662, -440, -273, -162, -51, 60, 172, 283, 394, 505, 672, 894, 1227,
-824, -598, -448, -335, -260, -184, -109, -34, 42, 117, 192, 305, 456, 681,
-1300, -943, -704, -525, -406, -286, -167, -48, 72, 191, 310, 489, 728, 1086,
-822, -578, -415, -293, -212, -130, -49, 32, 114, 195, 276, 398, 561, 805,
-1115, -809, -605, -453, -351, -249, -147, -45, 57, 159, 261, 414, 617, 923,
-869, -615, -445, -318, -233, -149, -64, 21, 105, 190, 275, 402, 571, 825,
-805, -577, -424, -310, -234, -158, -82, -6, 70, 146, 222, 336, 488, 717,
-950, -687, -511, -379, -292, -204, -116, -28, 59, 147, 235, 367, 542, 806,
-865, -613, -444, -318, -234, -150, -65, 19, 103, 187, 271, 398, 566, 819,
-953, -728, -578, -465, -391, -316, -241, -166, -91, -16, 59, 171, 321, 546,
-755, -535, -388, -278, -205, -131, -58, 16, 89, 163, 236, 346, 493, 713,
-786, -525, -351, -221, -134, -47, 40, 126, 213, 300, 387, 517, 691, 952,
-809, -559, -392, -267, -183, -100, -17, 67, 150, 234, 317, 442, 609, 859,
-682, -426, -256, -128, -43, 42, 127, 212, 297, 382, 467, 595, 765, 1021,
-958, -680, -495, -356, -263, -171, -78, 14, 107, 199, 292, 431, 616, 893,
-870, -631, -471, -352, -272, -192, -112, -33, 47, 127, 207, 326, 486, 725,
-747, -559, -433, -339, -277, -214, -151, -88, -26, 37, 100, 194, 319, 507,
-695, -500, -370, -272, -207, -142, -77, -12, 53, 118, 183, 281, 411, 606,
-915, -663, -494, -368, -284, -200, -116, -31, 53, 137, 221, 347, 516, 768,
-775, -531, -369, -248, -167, -86, -5, 76, 157, 238, 319, 441, 603, 846,
-843, -600, -439, -317, -236, -156, -75, 6, 87, 168, 249, 370, 532, 774,
-840, -493, -261, -88, 28, 144, 259, 375, 491, 606, 722, 895, 1127, 1474,
-976, -686, -492, -347, -250, -154, -57, 40, 136, 233, 330, 475, 668, 958,
-729, -517, -376, -270, -199, -128, -58, 13, 83, 154, 225, 331, 472, 684,
-950, -676, -493, -357, -265, -174, -83, 8, 100, 191, 282, 419, 601, 875,
-735, -484, -316, -191, -107, -23, 61, 144, 228, 312, 396, 521, 689, 940,
-618, -405, -263, -157, -86, -15, 56, 127, 198, 269, 340, 446, 588, 801,
-693, -443, -277, -153, -70, 13, 96, 180, 263, 346, 429, 553, 719, 969,
-464, -336, -250, -186, -143, -100, -58, -15, 28, 71, 114, 178, 263, 392,
-1550, -1169, -914, -724, -597, -469, -342, -215, -88, 39, 166, 357, 611, 993,
};

static uint64_t backbone_model3_conv1_conv2_weight[64 * 9] =
{ // torch.Size([64, 3, 3, 1])
0xc, 0xd, 0xb, 0x5, 0x5, 0x5, 0x4, 0x5, 0x5,
0x4, 0xa, 0x5, 0x4, 0x3, 0x6, 0x4, 0x9, 0x1,
0x5, 0x6, 0x3, 0x3, 0x3, 0x3, 0x1, 0x4, 0xb,
0xc, 0xb, 0x2, 0xc, 0x5, 0x3, 0x0, 0x6, 0x4,
0xd, 0x5, 0x6, 0xd, 0x2, 0x5, 0x9, 0xd, 0x0,
0x4, 0x6, 0xc, 0x9, 0x6, 0xb, 0xc, 0x3, 0xa,
0x5, 0x3, 0x2, 0x5, 0x5, 0x4, 0x0, 0x4, 0xa,
0x2, 0x9, 0xc, 0x4, 0x6, 0xb, 0xe, 0xc, 0x4,
0x9, 0x7, 0x0, 0xa, 0xe, 0xa, 0x3, 0x3, 0x2,
0xc, 0xa, 0x4, 0xe, 0xa, 0x5, 0x0, 0x4, 0x4,
0xe, 0x4, 0x4, 0xd, 0x4, 0x4, 0xc, 0xd, 0xd,
0x4, 0xd, 0xc, 0x5, 0xe, 0xc, 0x5, 0xb, 0xa,
0xc, 0x5, 0x4, 0xd, 0x6, 0x4, 0xc, 0x3, 0x2,
0x4, 0x5, 0x4, 0x4, 0x5, 0x2, 0x4, 0x4, 0xb,
0x5, 0x0, 0xd, 0x0, 0xd, 0xc, 0xc, 0xd, 0x3,
0x6, 0xb, 0xb, 0xd, 0xc, 0xb, 0xc, 0x4, 0x4,
0x4, 0x4, 0x5, 0xb, 0xd, 0x4, 0xd, 0xe, 0x0,
0xe, 0xe, 0x9, 0xd, 0xc, 0xa, 0xc, 0x2, 0x0,
0x5, 0x5, 0xb, 0xc, 0xd, 0x3, 0xd, 0xb, 0xc,
0x4, 0xc, 0xd, 0x4, 0xd, 0x3, 0x6, 0x4, 0x0,
0xa, 0x3, 0xe, 0xa, 0xc, 0xe, 0x2, 0xd, 0xa,
0x1, 0xc, 0xb, 0x9, 0xd, 0x4, 0x5, 0x6, 0x5,
0xb, 0xf, 0x1, 0x3, 0xc, 0xb, 0xc, 0x4, 0xa,
0xb, 0xe, 0xc, 0xd, 0xc, 0x5, 0xc, 0x3, 0x5,
0x0, 0x6, 0x4, 0xd, 0x4, 0x5, 0xd, 0xe, 0x3,
0xc, 0x2, 0xb, 0xc, 0x4, 0xd, 0xc, 0xd, 0xc,
0x4, 0xd, 0xd, 0x5, 0xb, 0xc, 0x4, 0x1, 0xd,
0xa, 0xd, 0xb, 0xe, 0x4, 0xb, 0xd, 0x4, 0x3,
0xc, 0xb, 0xd, 0xc, 0xe, 0x2, 0x1, 0x4, 0x0,
0x9, 0xe, 0x3, 0x3, 0x5, 0xa, 0x0, 0xb, 0xc,
0x4, 0x5, 0xc, 0x4, 0x2, 0xd, 0x3, 0xc, 0xe,
0x6, 0xc, 0xd, 0x3, 0x5, 0xc, 0xd, 0x5, 0x2,
0xd, 0x4, 0x4, 0xc, 0x6, 0x2, 0xb, 0x5, 0x4,
0x6, 0x4, 0xc, 0x4, 0x5, 0x9, 0x1, 0x0, 0xa,
0xc, 0xc, 0x9, 0xe, 0xc, 0x2, 0xd, 0xa, 0x2,
0xa, 0x4, 0x4, 0xc, 0x7, 0x9, 0x2, 0xb, 0x2,
0x4, 0x4, 0x4, 0x4, 0x4, 0x4, 0x2, 0x4, 0x4,
0xd, 0x1, 0x4, 0xd, 0x4, 0xb, 0x4, 0x6, 0x4,
0x0, 0x3, 0x4, 0xc, 0x5, 0x5, 0xb, 0x4, 0x5,
0xd, 0x4, 0xc, 0xe, 0xc, 0xa, 0x4, 0xc, 0x0,
0x1, 0xd, 0xb, 0x9, 0x7, 0x2, 0xb, 0xb, 0x2,
0x5, 0x3, 0x9, 0x6, 0xb, 0x3, 0x4, 0xb, 0xa,
0x4, 0x5, 0x3, 0xa, 0x0, 0x2, 0xc, 0xf, 0xc,
0x4, 0x4, 0xe, 0x4, 0x6, 0xd, 0x3, 0x5, 0x0,
0xc, 0xe, 0x2, 0x5, 0xe, 0x3, 0xa, 0x6, 0x5,
0x5, 0x5, 0x9, 0xb, 0xd, 0xb, 0xe, 0xd, 0xa,
0x3, 0x0, 0x9, 0x4, 0x6, 0x0, 0x4, 0x5, 0x5,
0x4, 0xd, 0xe, 0x5, 0xd, 0xd, 0x5, 0x4, 0x1,
0xb, 0xc, 0x4, 0x1, 0xb, 0x4, 0x4, 0x6, 0x3,
0x3, 0xe, 0xe, 0x4, 0xd, 0xc, 0x3, 0x5, 0x5,
0xc, 0xd, 0xd, 0x3, 0x0, 0x9, 0x6, 0x5, 0x5,
0xb, 0xc, 0x3, 0x5, 0x5, 0x3, 0xc, 0xe, 0x4,
0x4, 0xd, 0xd, 0x5, 0xb, 0xd, 0xa, 0x4, 0x3,
0x6, 0x1, 0xc, 0x4, 0xd, 0xc, 0x3, 0xc, 0x2,
0xd, 0xd, 0x3, 0x4, 0xc, 0x5, 0xb, 0xa, 0x5,
0xc, 0xd, 0xc, 0x0, 0xd, 0xd, 0xa, 0xd, 0xc,
0x5, 0xc, 0xc, 0x6, 0x4, 0xb, 0x5, 0x5, 0xc,
0xb, 0xd, 0xa, 0xd, 0xc, 0x4, 0x5, 0x5, 0x3,
0xb, 0x5, 0x5, 0xd, 0x5, 0x4, 0xd, 0x4, 0x4,
0x9, 0x4, 0x4, 0xc, 0xe, 0x4, 0xb, 0x9, 0x5,
0x5, 0x5, 0x4, 0xc, 0xe, 0x2, 0x1, 0x0, 0xb,
0xe, 0xd, 0x4, 0xc, 0xb, 0x2, 0x4, 0x4, 0x4,
0x5, 0xc, 0xc, 0xe, 0xc, 0x5, 0xd, 0x3, 0x5,
0xb, 0xb, 0x4, 0x1, 0xf, 0x3, 0xb, 0x3, 0x3,
};

static int backbone_model3_conv1_relu2_threshold[64 * 7] =
{ // torch.Size([64, 7])
-12, 43, 99, 155, 238, 349, 516,
39, 79, 119, 158, 218, 297, 417,
13, 64, 115, 166, 242, 344, 498,
41, 73, 105, 138, 186, 250, 346,
-30, 53, 136, 219, 343, 509, 758,
-13, 39, 91, 143, 221, 325, 482,
15, 43, 72, 100, 143, 200, 285,
56, 87, 118, 148, 194, 255, 346,
10, 55, 101, 146, 215, 306, 443,
68, 105, 141, 178, 232, 305, 414,
20, 61, 101, 142, 203, 284, 405,
48, 85, 122, 158, 214, 287, 398,
-19, 24, 68, 111, 176, 263, 393,
60, 95, 131, 166, 220, 291, 398,
-33, 13, 59, 105, 173, 264, 401,
17, 41, 65, 89, 125, 173, 244,
-2, 46, 95, 144, 217, 314, 460,
41, 91, 142, 192, 268, 368, 519,
21, 54, 87, 121, 170, 237, 337,
17, 49, 81, 113, 161, 225, 321,
-36, 34, 104, 174, 279, 419, 628,
-46, 4, 55, 106, 182, 284, 436,
-9, 52, 114, 176, 268, 391, 576,
-59, -3, 53, 109, 194, 306, 474,
25, 79, 132, 186, 266, 374, 534,
7, 43, 78, 113, 166, 237, 343,
7, 43, 78, 113, 167, 238, 344,
5, 51, 97, 143, 212, 304, 442,
-43, 6, 56, 106, 181, 280, 429,
3, 28, 52, 76, 113, 161, 234,
23, 73, 123, 173, 247, 346, 495,
28, 62, 96, 130, 181, 249, 351,
35, 74, 114, 153, 212, 291, 410,
-12, 39, 91, 142, 219, 323, 477,
9, 58, 108, 157, 232, 331, 480,
-73, -7, 59, 124, 223, 354, 551,
45, 75, 105, 134, 179, 238, 327,
35, 68, 101, 135, 185, 252, 352,
-13, 29, 71, 112, 175, 259, 384,
-38, 11, 61, 111, 185, 285, 434,
15, 65, 114, 164, 239, 338, 488,
14, 51, 88, 125, 181, 256, 367,
-10, 36, 83, 129, 199, 292, 432,
42, 77, 111, 145, 197, 266, 369,
-18, 41, 101, 160, 250, 369, 547,
42, 85, 128, 171, 235, 321, 450,
80, 142, 205, 267, 360, 485, 671,
9, 51, 93, 135, 198, 283, 409,
13, 44, 75, 106, 153, 215, 308,
-54, 7, 68, 129, 221, 343, 526,
-3, 50, 102, 155, 234, 340, 498,
33, 70, 107, 143, 199, 273, 384,
51, 80, 108, 137, 180, 238, 324,
26, 60, 93, 127, 177, 244, 344,
-14, 23, 60, 98, 153, 228, 340,
60, 101, 142, 184, 245, 328, 451,
-12, 46, 103, 161, 248, 364, 537,
20, 52, 85, 117, 166, 231, 329,
-25, 21, 66, 111, 179, 269, 405,
41, 69, 97, 124, 166, 221, 304,
41, 74, 108, 142, 193, 261, 363,
-41, -1, 39, 79, 139, 219, 339,
23, 90, 157, 224, 325, 459, 660,
-37, 23, 84, 145, 236, 357, 539,
};

static uint64_t backbone_model3_conv2_conv1_weight[64 * 1*4] =
{ // torch.Size([64, 1, 1, 64])
0x69dcdc4ddb24a5cd,0xccb4c205dc4d2453,0xb5d5355502d4b65e,0x4b4cc344dcbb05bc,
0x1c34543abc4940b5,0xd434439bd0d3d5cc,0x51dbd34c3c4552a4,0xd42d533e49352034,
0xd3cc91c2445494a3,0x5d9b433c52bb4bdd,0xdba4cd3c95edad9c,0x944c1cda3d40344c,
0x441cbd26455dcc4c,0xdcaaddc2b5c3a34d,0x334cd63bc34a44d5,0x344455ac563b4b54,
0xcc31443c1bc343c5,0xc5c056c240ea52d3,0x04c543945b54db44,0xd4be94bba5554ca4,
0x5914c4c454a21a51,0x54993dcb35313344,0x3db24432e23b135b,0x4b44945344cedc5d,
0x315cc3d4c5ccdb94,0x349c326c4b43cb44,0xa3d519912dbbc5bc,0x5c33a43ea0da4b53,
0x4a2652c5c5bb5455,0xb45b3b32c415dd44,0x5da9445db6cc5c34,0x5d2d32c9c42ca54b,
0x4b4c41c4b9c4c03a,0xd3b3cc3bd2cad3cc,0x539ce43d22b25ceb,0xccda5dc4d34c440b,
0x4ec44d4e4dcd3240,0xb4c95dc4239342cb,0xb044a3db5e44d52b,0xcec4db43354e3dbb,
0x4d4c33d543cd52c6,0x469d4a4d54c5d44b,0xcbb5bc2494a50443,0xb555b45c25d3bc55,
0x4c460c5b403b5549,0xb51a9c534c551d93,0xd5bc416c44bbd13b,0x4d45d3bcdc2c44c4,
0x3cbc5b9d9aa3bdcc,0x5aca45c346033c4b,0x45cb4b3ae4b5cb3b,0xe533bebcb1b5344c,
0xbb25bba44445d55c,0x04d12535d3490c3b,0x2c5a33cab45ccd52,0x5c50dcb4e04cb6cb,
0xc353db5555552b45,0x6444454c455ad5d5,0x54d5a405aeada354,0x5196543c4643554b,
0x5dcb2bc445541c3c,0xd5cc0b3b44cb4de3,0x44c3c55dd42ceab3,0x3eb5332bc4de451c,
0x44bde4511599dc1c,0x3d54e5c52544c555,0x4d3cc4334a6d51b4,0x91491bc253d00c6a,
0xb9355bc2a2ed3645,0xb24d53c0c4c2cd52,0xad5502c5b6d3b3d5,0x4dd4c6cc5ada4dd3,
0xccd2bc35b4333c33,0xb3dc9daac6334ed3,0x59c4dc33d0ac3444,0xb32204d2c1accc5b,
0x5bc493a3a5444bac,0x5299dd4bd4bdcc54,0x5dbac5d4edc03cdd,0x3bc55c514dbdc41c,
0x135cc03bb4bde35c,0x4c24d546b54b92ba,0xb3454cc44b6cb5a1,0x23a4e3c354db3d5b,
0xd2429c25c0b3cb44,0x4b43bbb42149b3c4,0x5cbccd6c4ccdcca4,0xb54554a3a543bc45,
0x33cee4dac9cba42d,0x0c4c95a335c32444,0x190bd3b24b33ccd1,0xc3e3c4955ad43e45,
0x5c4ca635559dcc5c,0x3c20a992ddb4cb6a,0x5a4a4433a6bc49c3,0x4dd25acd462d34c2,
0xb4956dd3215c90c6,0xa44c51d954ccb65d,0xc4d9cb431cc641bb,0x3650346cb53cc4d6,
0x9b4c314de42db35c,0x449b1b0334025333,0xc1cc35a123b3c5d2,0xdc14c30950cda3ce,
0x43943c434aa04945,0xb22d34d15a456c43,0xda343ba54a3de344,0x94553b2b5b42b2d4,
0x4961444cb4229c3b,0xbd45cc44cd2ddcc1,0x54324dcbc5d254c3,0x5edc3ad4c45c4dbe,
0xfa44454344434044,0x3549234d43b2b4b3,0x433c53d32431cd4b,0x3145b935c5493552,
0xd4d3c4b54a562513,0xcc342595acada2d5,0x521b455e4bbdae54,0x53aa0544c544d53b,
0xd35da355d5bb106d,0xcd49a4d0e43b31ba,0x34ddc544bb1d44d5,0xcac30acbbc3a2c9d,
0xc344cc5dd4546652,0x54445ab5bd4c2c3d,0xcdd6cec4445d4533,0x9c542dd0a52a5b93,
0x5dc543ccc15353c9,0x25dc5dca5e1d5acb,0xdbb44dcd1cd4ccbd,0xd9ca0b434b43c4b1,
0x3549b50b0b55bc54,0x55e9b3bc4d2d45b4,0x440d556bc43c425e,0x40355c4cc34bb5a0,
0x429cb135cd54d443,0x45eaddcb3d444dc4,0x5cc03cc5315c433d,0x445c5a2cc2b152c5,
0x94925c141dac433d,0x1be44a4c45c35cae,0x55c41392d924b153,0x452b24ca430cccc2,
0xb1e32c4b19cc5ad1,0x5cb214d3342152a4,0x9cb51a259d2454b3,0xd54d43b452a55cc5,
0xcd5035c453523254,0xab3c44a4dd354453,0xca5d5311353d2c44,0x4453cc32a55dd69d,
0x54b21d4cd11c14ce,0x04c49cc2cc4b4d2d,0xb523b554d49a32c0,0x0add45301cc9acbd,
0xda4244d26bb4db50,0x54c4c4ccd5e4cc25,0x39da143dc5a9c439,0xcb5cbb31ca5dd259,
0x96d9444c255cbd4c,0x9144b24c545504e5,0x00c0d3c3c54e3cb0,0x245b2da4cdec3c55,
0xada555cd4a0bcbd5,0x46cc34635c34c1cc,0xbd3be35d2c45443d,0x5c53cb5bc5d5cc14,
0x45544ac55b445b43,0xb524ab4444b452cd,0xcb4e444d32d21a54,0xc54bb424335ce4cc,
0xc152bdad519aa39c,0x9a4c2a4104b3b52c,0xbcbccc404ac99bb3,0x2b45bbcba421cb42,
0x45dbbdcb19d53414,0x2d6492c4cdadc545,0xbd0454cb5c22bb2d,0xad4b5d5bc03333cc,
0x4ecb46c554144db5,0x44b04bcccc45d654,0x3b453c5b65145945,0xd1595dcc455aac5b,
0x34ccd52dccadbc30,0xbc4cdb9d3c504c3d,0x02c50b354dc424c2,0x65d5434d5cd9dd52,
0xb54d559435e6a433,0x4c5953639a341c56,0x6dccbc95cd555ccd,0xc0ba5d3956bccc34,
0x01c4a911b55442db,0x1c3e13254c1b6453,0x395c1bd1bb4bacb1,0xa0024b0243b2a3ab,
0xcacdc53dcc44e1dc,0x3c1a55da5d2139ca,0x4542dcb95d444cd4,0xb5dbc4cc5c35bdc2,
0x4144444bbccdadcd,0x53b2d634b234915c,0xa40b25d4d234c44d,0x14c3ad4a94d4c5bd,
0x4b94425b523cbe4b,0x3bc10cbb5354b592,0xc44c23954d54944b,0x45454c4db43c2232,
0x325cd5bc02c45a3d,0x62cb40ab3c9b544d,0xbd45edc5ac54a5cd,0x24b4cdb934d350dc,
0x5da544a5c4cc3a3d,0x95c443c3d1541444,0x43aac534d345a392,0x32c305431303d0dc,
0xd5cc4cc3eaaac5bd,0x2dcd9ccacbbcad4c,0x39ddb24c4cddc9db,0xb42bdc5daedccc05,
0xcc34545cdd04aa2c,0xdd94cce5dd9c312d,0x495b934544b559e5,0x24cc4dc5d504bd44,
0x4dc95d3cd0e5c245,0x4cd295c4caddbd44,0x2cd53cc3d0e3dc1c,0xbddd4d6c1e5dd52b,
0xd251b23a643b125c,0x6d3c5c4c10dcd9c2,0xc540cd6a4c4035c4,0x0b3034abbd50cba4,
0x4a5ccb9a923cb1bc,0xdd45cac5ddcb21d9,0x4451bcc3c5445cc3,0xd90dbbb4c4ba530c,
0x5ddabcc442a34c9c,0xb5c359c4b3bc43bb,0x95ce44ccdd54b34b,0x9244dc54c33bc5cd,
0xbccbcdc54c1a43dd,0xcbdc4ecdccdd5dec,0xcc54b4dc2dcb2252,0x51acb6d29d4999dd,
0xec3cbad333dccb3d,0x424c9ccdcb4cc95d,0x35ded4542c4a3dc3,0x5ca4924dcb40b4c3,
0xcd5b1551cdbb346d,0xbd4b46450aec55a3,0xc33ccbba5dccb424,0x3d4da2d59d4e3cbc,
0x5cc5c35cc54c0ccc,0xccbdcc446b5c4c90,0xbd5d5ddccbbadccc,0x3dc49bcc2bdbc352,
};

static int backbone_model3_conv2_quant1_threshold[64 * 14] =
{ // torch.Size([64, 14])
-1052, -730, -515, -354, -246, -139, -31, 76, 183, 291, 398, 559, 774, 1097,
-710, -491, -344, -235, -161, -88, -15, 58, 131, 205, 278, 388, 534, 753,
-772, -549, -399, -287, -213, -138, -64, 11, 86, 160, 235, 347, 496, 720,
-806, -541, -363, -230, -142, -53, 35, 124, 213, 301, 390, 523, 700, 966,
-763, -481, -293, -153, -59, 35, 129, 223, 317, 410, 504, 645, 833, 1114,
-734, -510, -362, -250, -176, -102, -27, 47, 122, 196, 270, 382, 531, 754,
-874, -624, -457, -332, -249, -165, -82, 2, 85, 168, 252, 377, 544, 794,
-943, -642, -442, -292, -192, -92, 9, 109, 209, 309, 409, 559, 759, 1060,
-866, -637, -485, -370, -294, -218, -141, -65, 11, 88, 164, 278, 431, 660,
-1374, -1030, -800, -628, -513, -399, -284, -169, -54, 60, 175, 347, 576, 921,
-662, -423, -264, -144, -64, 15, 95, 175, 254, 334, 414, 533, 693, 932,
-849, -593, -423, -295, -210, -125, -39, 46, 131, 216, 301, 429, 600, 855,
-818, -596, -449, -338, -264, -190, -116, -43, 31, 105, 179, 290, 437, 659,
-726, -490, -333, -215, -137, -58, 20, 99, 177, 256, 335, 452, 610, 845,
-624, -356, -178, -44, 45, 134, 223, 313, 402, 491, 580, 714, 892, 1160,
-1111, -827, -638, -496, -402, -307, -212, -118, -23, 71, 166, 308, 497, 781,
-884, -597, -405, -261, -165, -69, 27, 123, 219, 315, 410, 554, 746, 1034,
-955, -673, -484, -343, -249, -155, -61, 33, 127, 221, 315, 456, 645, 927,
-794, -586, -447, -343, -274, -204, -135, -66, 4, 73, 143, 247, 385, 594,
-934, -700, -545, -428, -350, -272, -194, -117, -39, 39, 117, 234, 389, 623,
-801, -532, -352, -218, -128, -38, 52, 141, 231, 321, 411, 545, 725, 994,
-680, -434, -270, -147, -65, 17, 99, 181, 263, 345, 427, 551, 715, 961,
-1131, -832, -632, -482, -382, -282, -182, -82, 18, 118, 218, 368, 568, 867,
-841, -553, -361, -217, -121, -25, 71, 167, 263, 359, 455, 599, 791, 1079,
-776, -507, -328, -193, -104, -14, 76, 165, 255, 344, 434, 569, 748, 1017,
-817, -584, -429, -313, -236, -158, -81, -3, 74, 152, 229, 346, 501, 733,
-539, -334, -197, -94, -26, 43, 111, 180, 248, 316, 385, 488, 625, 830,
-881, -615, -438, -305, -216, -128, -39, 49, 138, 226, 315, 448, 625, 891,
-724, -480, -317, -196, -114, -33, 48, 130, 211, 292, 374, 495, 658, 902,
-809, -546, -370, -238, -150, -62, 26, 114, 201, 289, 377, 509, 685, 948,
-886, -617, -437, -302, -213, -123, -33, 57, 147, 236, 326, 461, 640, 910,
-665, -442, -293, -181, -106, -32, 43, 117, 192, 267, 341, 453, 602, 826,
-1052, -754, -556, -408, -309, -210, -111, -12, 87, 186, 285, 434, 632, 929,
-934, -610, -394, -233, -125, -17, 91, 199, 307, 415, 522, 684, 900, 1224,
-911, -629, -442, -301, -207, -113, -20, 74, 168, 262, 356, 496, 684, 965,
-707, -483, -334, -222, -147, -73, 2, 77, 151, 226, 301, 413, 562, 786,
-826, -587, -427, -308, -228, -148, -68, 11, 91, 171, 251, 370, 530, 769,
-703, -465, -306, -187, -107, -28, 51, 131, 210, 289, 369, 488, 647, 885,
-1060, -792, -613, -479, -390, -300, -211, -121, -32, 57, 147, 281, 460, 728,
-752, -523, -370, -256, -180, -103, -27, 49, 125, 202, 278, 392, 545, 773,
-1146, -799, -568, -394, -279, -163, -47, 68, 184, 300, 415, 589, 820, 1167,
-944, -675, -496, -361, -272, -182, -92, -3, 87, 176, 266, 400, 580, 849,
-560, -349, -208, -102, -31, 39, 110, 180, 251, 321, 391, 497, 638, 850,
-835, -581, -411, -284, -200, -115, -30, 55, 139, 224, 309, 436, 605, 859,
-756, -536, -390, -280, -206, -133, -60, 14, 87, 160, 234, 344, 490, 710,
-709, -455, -286, -159, -74, 11, 96, 180, 265, 350, 435, 562, 731, 986,
-805, -561, -398, -276, -195, -114, -32, 49, 130, 211, 293, 415, 577, 821,
-879, -596, -407, -265, -170, -76, 19, 113, 208, 302, 397, 538, 727, 1011,
-592, -409, -286, -194, -133, -71, -10, 51, 112, 174, 235, 327, 449, 633,
-755, -520, -363, -245, -166, -88, -10, 69, 147, 226, 304, 422, 579, 814,
-783, -547, -390, -273, -194, -116, -37, 41, 120, 198, 277, 394, 551, 787,
-592, -374, -229, -120, -47, 26, 98, 171, 244, 317, 389, 498, 644, 862,
-946, -647, -447, -298, -198, -98, 1, 101, 201, 301, 401, 550, 750, 1049,
-720, -485, -328, -210, -132, -53, 25, 104, 182, 261, 339, 457, 614, 849,
-1120, -854, -677, -544, -455, -366, -278, -189, -100, -11, 77, 210, 388, 654,
-958, -658, -458, -308, -209, -109, -9, 91, 191, 291, 391, 540, 740, 1040,
-1065, -790, -606, -469, -377, -286, -194, -102, -11, 81, 173, 310, 493, 768,
-697, -449, -284, -161, -78, 5, 87, 170, 252, 335, 417, 541, 706, 954,
-626, -440, -316, -223, -162, -100, -38, 24, 86, 148, 210, 303, 427, 613,
-727, -534, -404, -308, -243, -178, -114, -49, 15, 80, 145, 241, 371, 564,
-1032, -790, -628, -507, -426, -346, -265, -184, -103, -22, 58, 180, 341, 583,
-1039, -764, -581, -444, -352, -261, -169, -78, 14, 105, 197, 334, 517, 792,
-991, -675, -464, -306, -201, -96, 10, 115, 220, 325, 431, 589, 799, 1115,
-982, -716, -538, -405, -317, -228, -139, -51, 38, 127, 215, 349, 526, 792,
};

static uint64_t backbone_model3_conv2_conv2_weight[64 * 9] =
{ // torch.Size([64, 3, 3, 1])
0x3, 0x5, 0x5, 0x3, 0x5, 0x5, 0xc, 0x5, 0x4,
0x6, 0xb, 0xe, 0xc, 0xe, 0x1, 0xc, 0x5, 0x5,
0x5, 0x5, 0x5, 0x4, 0x4, 0x5, 0xc, 0xd, 0xd,
0xd, 0xd, 0xc, 0xd, 0x9, 0xc, 0xe, 0xc, 0xa,
0x5, 0x5, 0xd, 0x4, 0x5, 0xd, 0x4, 0x1, 0xe,
0xd, 0xd, 0x2, 0xb, 0xd, 0xe, 0x3, 0x3, 0xc,
0x3, 0x4, 0xc, 0x5, 0xb, 0x5, 0x3, 0xf, 0x3,
0xd, 0xc, 0xb, 0xd, 0xe, 0xc, 0x5, 0x4, 0x1,
0x5, 0x6, 0xc, 0x0, 0x5, 0xe, 0x3, 0x6, 0xc,
0xb, 0xd, 0xd, 0x2, 0xd, 0xc, 0x2, 0xc, 0xc,
0x1, 0x4, 0x1, 0xc, 0xe, 0xd, 0xb, 0xc, 0x1,
0xc, 0xd, 0xd, 0xd, 0x5, 0x5, 0xe, 0x3, 0x4,
0xc, 0xd, 0x0, 0xd, 0xd, 0x5, 0xd, 0x4, 0x5,
0x3, 0xc, 0xc, 0x0, 0xe, 0xd, 0xc, 0x5, 0x5,
0x4, 0x2, 0x3, 0xc, 0xe, 0xb, 0xc, 0xd, 0xd,
0xd, 0xc, 0xc, 0xd, 0xd, 0xc, 0xb, 0xc, 0xd,
0x4, 0x4, 0x3, 0x3, 0xd, 0xf, 0x4, 0xd, 0xc,
0xd, 0xd, 0xd, 0xc, 0xd, 0xc, 0x4, 0x5, 0x5,
0x5, 0xc, 0xd, 0x6, 0x5, 0xd, 0x9, 0x5, 0x0,
0xd, 0x6, 0x5, 0xc, 0x5, 0xa, 0xd, 0x5, 0x5,
0xc, 0xf, 0xa, 0xc, 0x1, 0x4, 0x0, 0x1, 0x2,
0x4, 0x3, 0x4, 0x5, 0x4, 0x3, 0x4, 0x5, 0x3,
0xb, 0x5, 0x5, 0x4, 0x4, 0x5, 0x3, 0xe, 0xe,
0xc, 0xe, 0xe, 0x0, 0xc, 0xc, 0x4, 0xb, 0x1,
0x3, 0x5, 0xa, 0x5, 0x4, 0xc, 0xd, 0xf, 0xd,
0x4, 0x5, 0x5, 0xb, 0xb, 0xc, 0xd, 0xd, 0xd,
0x9, 0xd, 0x5, 0x4, 0xe, 0x4, 0xb, 0xb, 0x0,
0x5, 0x5, 0x5, 0x3, 0x3, 0x3, 0xd, 0xd, 0xc,
0x3, 0x3, 0xb, 0x1, 0xf, 0x1, 0xa, 0x3, 0x0,
0xc, 0xc, 0xd, 0xc, 0xb, 0xb, 0xd, 0xe, 0xc,
0x4, 0x5, 0x3, 0x5, 0x6, 0x5, 0x0, 0x4, 0x4,
0xa, 0x3, 0x4, 0x9, 0xd, 0xd, 0xd, 0xe, 0xe,
0x0, 0x7, 0x4, 0xc, 0x4, 0xc, 0xc, 0xc, 0xa,
0xa, 0xc, 0xa, 0xa, 0xc, 0xc, 0xd, 0xd, 0xd,
0xb, 0xc, 0x4, 0xd, 0xd, 0xb, 0xd, 0xd, 0xb,
0x4, 0x4, 0xc, 0x5, 0xd, 0xd, 0x5, 0xe, 0xc,
0xd, 0xd, 0xa, 0xd, 0x5, 0x5, 0xd, 0x6, 0x2,
0xe, 0xd, 0xa, 0xd, 0x5, 0x3, 0xc, 0x4, 0xa,
0xd, 0x2, 0x4, 0xd, 0x3, 0x6, 0xb, 0x5, 0x5,
0xc, 0x5, 0x5, 0xd, 0xc, 0x5, 0x9, 0xe, 0x5,
0xc, 0x5, 0x4, 0x3, 0x4, 0x5, 0x4, 0x5, 0x3,
0xa, 0x4, 0x5, 0xd, 0xb, 0x4, 0xe, 0xe, 0xc,
0xd, 0xd, 0x3, 0xd, 0xd, 0x4, 0xd, 0x3, 0x5,
0x3, 0x1, 0x4, 0x4, 0x4, 0x5, 0x0, 0x1, 0xb,
0x5, 0x5, 0xb, 0x4, 0x5, 0xd, 0x5, 0x5, 0xc,
0xd, 0xe, 0xd, 0xe, 0xc, 0x2, 0xb, 0x3, 0x4,
0x3, 0x6, 0x5, 0x0, 0xd, 0x6, 0x0, 0xd, 0x4,
0xd, 0xd, 0x1, 0x9, 0xe, 0xc, 0xc, 0xe, 0xc,
0x4, 0xd, 0xc, 0xd, 0x5, 0xd, 0xa, 0x6, 0xc,
0xc, 0x6, 0x6, 0xd, 0xb, 0xc, 0xb, 0x0, 0x0,
0x3, 0xd, 0xc, 0x5, 0xc, 0xd, 0x5, 0x5, 0xd,
0xb, 0x5, 0x4, 0xb, 0xd, 0x4, 0xb, 0xe, 0xc,
0xd, 0xe, 0xe, 0x2, 0xb, 0xb, 0x3, 0xb, 0xb,
0x2, 0xb, 0xd, 0xc, 0xb, 0xb, 0xc, 0xb, 0xc,
0x5, 0x4, 0xc, 0x5, 0x5, 0xa, 0x4, 0x2, 0x4,
0x2, 0x5, 0x6, 0xc, 0xa, 0x6, 0x1, 0xd, 0x4,
0x4, 0xa, 0x1, 0x5, 0x6, 0xb, 0x2, 0x5, 0x3,
0x1, 0x4, 0xb, 0x4, 0x6, 0x3, 0x4, 0x5, 0x3,
0x5, 0xa, 0xd, 0x4, 0x6, 0xc, 0xc, 0xc, 0x4,
0xc, 0xd, 0xd, 0xa, 0x4, 0x4, 0x4, 0x6, 0x5,
0x5, 0x5, 0x5, 0x6, 0xc, 0xc, 0x5, 0x5, 0xd,
0xd, 0x5, 0x4, 0xd, 0x6, 0x3, 0xa, 0x5, 0x3,
0xc, 0x3, 0x2, 0x2, 0x4, 0x5, 0x5, 0x5, 0x6,
0xc, 0x3, 0x0, 0xc, 0x6, 0x3, 0x3, 0x4, 0xa,
};

static int backbone_model3_conv2_relu2_threshold[64 * 7] =
{ // torch.Size([64, 7])
-38, 18, 73, 129, 212, 322, 489,
24, 76, 127, 179, 256, 359, 513,
63, 98, 133, 168, 221, 291, 396,
36, 86, 136, 186, 261, 362, 512,
78, 121, 165, 208, 274, 361, 491,
47, 85, 123, 161, 218, 293, 407,
-4, 63, 129, 196, 296, 430, 630,
-19, 24, 67, 110, 174, 260, 388,
3, 60, 118, 176, 263, 379, 552,
15, 55, 95, 135, 195, 275, 394,
25, 63, 101, 138, 195, 270, 383,
-19, 31, 80, 129, 203, 302, 450,
78, 115, 152, 190, 246, 321, 433,
22, 60, 97, 134, 190, 264, 376,
1, 44, 86, 128, 192, 277, 404,
8, 54, 101, 148, 219, 312, 453,
160, 218, 275, 332, 417, 532, 703,
68, 108, 148, 188, 248, 328, 448,
109, 152, 194, 236, 300, 385, 512,
56, 100, 144, 189, 255, 344, 477,
7, 50, 93, 136, 201, 287, 417,
5, 44, 84, 124, 183, 262, 381,
91, 126, 162, 197, 251, 322, 428,
23, 82, 141, 200, 288, 406, 583,
47, 103, 160, 217, 302, 415, 585,
54, 89, 123, 157, 209, 278, 381,
45, 82, 119, 156, 211, 284, 395,
23, 54, 85, 116, 163, 225, 319,
-5, 46, 97, 148, 224, 326, 479,
-35, 17, 68, 120, 197, 301, 456,
-146, -63, 19, 102, 227, 392, 641,
39, 92, 146, 199, 279, 386, 546,
65, 106, 147, 187, 248, 330, 452,
8, 53, 98, 143, 210, 300, 434,
0, 45, 90, 135, 202, 292, 426,
81, 111, 141, 171, 216, 277, 367,
96, 137, 179, 220, 282, 365, 489,
-43, 1, 45, 88, 154, 242, 373,
57, 107, 157, 206, 281, 380, 530,
58, 98, 137, 176, 235, 314, 431,
17, 56, 94, 133, 191, 268, 384,
34, 81, 128, 175, 246, 340, 481,
16, 61, 106, 151, 219, 309, 444,
58, 85, 113, 140, 181, 236, 318,
35, 73, 112, 150, 208, 285, 401,
6, 55, 103, 152, 224, 321, 467,
4, 61, 119, 177, 263, 378, 551,
-4, 45, 94, 143, 217, 315, 462,
-57, -11, 35, 82, 151, 244, 383,
42, 78, 115, 151, 205, 277, 385,
63, 92, 121, 150, 194, 253, 341,
81, 119, 157, 195, 252, 328, 442,
54, 104, 155, 205, 281, 381, 533,
9, 45, 81, 117, 171, 243, 351,
-10, 25, 61, 96, 149, 219, 325,
35, 79, 123, 167, 233, 321, 453,
-24, 8, 40, 72, 119, 183, 278,
-27, 31, 88, 146, 232, 347, 520,
-3, 37, 78, 118, 179, 260, 382,
134, 187, 240, 293, 372, 478, 637,
87, 130, 173, 216, 280, 366, 496,
-36, 14, 64, 114, 189, 289, 439,
72, 125, 177, 229, 307, 412, 569,
22, 51, 80, 109, 153, 211, 299,
};

static uint64_t backbone_model4_conv1_conv1_weight[64 * 1*4] =
{ // torch.Size([64, 1, 1, 64])
0xb4b5cccbd4abc502,0xc324be42243352d2,0x5cd3c0455ddce62c,0x425634bd243c24bc,
0xbcb1cbd443b5b34c,0x03c5a355c33ccbb0,0x5bcaca5ac1c45cc6,0x49ab4b62cc095ec5,
0x34cb92c333b64c49,0x435db545d54cd424,0xb13acc126325dc1c,0xc92db4db0c54dc24,
0x264bc9ddcdcdad0b,0xc2a1c93543ca4c2d,0xe653aa55d9dcb4dd,0xca94a53b3c445c2d,
0xa43b204344ebb12c,0x4c4d4bda24200de3,0x53d5b35359402393,0x55bcb5d354039b35,
0x3d5d45c451da2333,0x55bcc6bc535ccdd9,0xd03ab42cdaa25d34,0xcabda343aa55cdb4,
0x24b49cc53045cd4c,0x53341b45343b3c45,0xba125bd534c54a95,0x9d0b44c45ad64dc3,
0x0bbddcbcd64bd2cb,0x904c254544542ddc,0x5b3c6cbb245cdcd0,0x55444b5ad903cdcd,
0xc5e33452d245193a,0x34454d35d3525553,0x4ccad5cb4b24c254,0xd14b1333d9dc29c4,
0xd2ec5e3acddcd55d,0xcdb4c444e59d5cc5,0x2545dd4ab34464a5,0x4de31a3d4d253cf5,
0xc5cc1bc19dcdcbc3,0x31ba3c54abccb5b1,0x2545cc3c103cdbcd,0x4dad5c4d49ddc435,
0xcba3d4d44bd4a439,0x9abc9cbe5adbd550,0x55c2444cdb3444cc,0x5a2413a2a354ba93,
0xbbb59352cc420a10,0xc3db5d3accdd045c,0x5c9ab9424cda4393,0x0c01b3092a543cce,
0x2c4334c344db4342,0x432bd03b34334dd1,0x2134b4c292144404,0x150b40a5a333330b,
0xad4d445b45ab45bb,0xdbcc92e43db3d25d,0xdd4aaa2e0953a249,0x04c5bd5cbb5cd5a4,
0x253d303c4cca45c4,0xd3039d5c4d02a55d,0xd544356bbc0d433e,0x5a44a41c34cca445,
0x4d4341c50ddca045,0xd5acbdbd4d245535,0x42b59ca4b5ca3a34,0x0c9d53c051b4a4a6,
0x3e55d943bdcdaacb,0x5cc2b544c5bb5c35,0xa453cc339cd05345,0xedc4cdba4cd59cbb,
0xd5bb1c50c0b954d5,0xccd5c1b4d4ae5cbc,0x4c46dc5cdf5dcd5e,0x2cd4e45becbdd5b6,
0xdbccb34bb5234cc1,0xd1d02d4d4bcd1b5a,0x553434cb4c4ab43c,0x64cdcac40a4dd324,
0x4a61d554d355c634,0xbb4b14cb6bd64cdd,0x54d1c5ccdc4465cd,0xecc54c65d3c6dc4d,
0x2b93cc5c4a5db9c3,0xccb154e5ccc4a540,0xcd534345235b4cb5,0xc434c9d3bb431dbc,
0xc3c43c44db61c511,0x2b359ddc5bcc9543,0x4bdc4bac5a4b9344,0x4d15c4b0c1ba55b3,
0x4d4ac90caaaa05da,0x09a53cb455b54ebd,0x1db3c3cbdc4d05ce,0x3135ac5cd4a0cc4c,
0x4d43d4ba234dca31,0x52215305dda39532,0x4a6123abb0345cc9,0x943e4ec4cbd35e3d,
0x34abd5453245d62a,0xccd5b54c3eb9b2d0,0xdd20344b5aca4d4c,0x443d434ab31a54cc,
0x0baa09a31ca3c3bc,0xbcdb4dbd1ddab44b,0xbcbc9c4bca3bdd2b,0x1bc9b95cba4bd2ca,
0x34463bcdc2d321c2,0x525c0d09b3b3455d,0x59c4b2a04ca04459,0x3e2434ab4ab3db46,
0xd5c42d5454a3c243,0xad31a4cb45e394ce,0x1513ca04913b3a35,0x4d40cd30442b52d3,
0x9bcca3cdc4343dc4,0x4b95434533b45d03,0x952052445cb0c35b,0x300db4d449d41436,
0xa415c339cc90534b,0x4ae15dc105ed44c4,0x29c393c2dc33393c,0x1494d44bc3155d34,
0x3e4a235e5cc2c201,0xc4c335a52b3044cb,0xb223534c425d3333,0x3aba3b3c4b05d335,
0xc5bc3c5da4ba3e2c,0x91b43cd6cd34955b,0xd4ac2b6544ca54aa,0x5c3a10b35c4524ac,
0xdc4dda6e5429ca2a,0xdb4c2dd315c0c65d,0x241b54c1c2323193,0xc52bbc5cbb51ddbc,
0x34124c35cc33bcb3,0x5b0c35a5c593bd0b,0x4332b044e5904aa5,0xe0bccc43d3012a3e,
0x932334934125b34c,0x3334c344dd2b4b2a,0x34ee4c5b34db432c,0x3f244442a9444b5e,
0x9c5545656a3c5432,0xb3dc555e54baacba,0xd5b4406ebc4a63c4,0xddc33c445304c5cd,
0x5c4cd435b4434700,0xccd4a313ccabcd3c,0xecba39c93b31bb44,0x04d2444cb3b351bd,
0xbc2cc3dd3ced1acb,0xcc4b334cb4235c45,0xb5533bb4ecc43502,0xd4a432c002ba1dc5,
0x3b12ccac42ddbc3a,0x426cdcbdbc553b2b,0x4b533ab46bb0359d,0x42c9cbe04963accd,
0xa4339c3d4cc5c59c,0xcddbcd3333dda30d,0x34bcbd5bdc5c52c9,0x44c49c6ccd344dd5,
0x3d2b44cdba6dcca2,0xcd2644d214b4cde5,0x323c5a4adadc0ec5,0x35c4a49aa44b55ad,
0xc4add42bacdd5da3,0xb1c4c443cc2b504b,0xd243ca5059dc356a,0xad234d345b3bdc2d,
0x2440204acecb21c2,0xacc5521333d15ced,0x2241c4d0c9c15353,0xccc03b5454e43c25,
0x4bb43043dc45dcb3,0xbd43dbecd5bcc454,0x3d53c3dad4d54e03,0xe5bcd4ebc3e409bd,
0xc5cd10bdcac1c4d3,0xcd5a13b6cb35451d,0xc54a4bbcacc13c5e,0xdddbb36b0c24d5b5,
0xcccb3b45c5543bc2,0xda3baa41d3bcd44c,0x5cb3c44a4aab93cb,0xd392dd44d4cecacc,
0x35553d53ed0db243,0x4049b9c5cbc4a2ab,0x5c41ed44434ab5b4,0x3d443dbab4d464cb,
0xadcbb4d543ac454b,0xb46522ad44265cb5,0xdb4d62c255d3162c,0x4d4454b35b54354c,
0xcdd354d544db3dd3,0x5c436ccb44d24d33,0xc953cce4d4dadc25,0x15acc5dcccae5a06,
0x3019244454c45994,0xa422ca5944101a34,0xb445341bd3244413,0x555222242453aa34,
0x2cc4d2443f504cbb,0x0ccb595a450c9c45,0xda6213c5d53443d4,0xde4444c34ad53d2b,
0x4d4acba4d55bc1b2,0xa36b2ac62326b3dc,0xb2b35bc35b0b21cb,0xdca4944b43eb234a,
0x4544c32c4d15ccd4,0xccbc5c54bccbd55c,0xb5625259343abdc4,0xa34bdded3cdbae3d,
0x3c545d5d9cddca20,0xd95b4edc44c595bc,0x51b334309b335453,0x9502c5c544c50ab5,
0x4513c3bdcc541033,0x43035d31cc4c3b43,0x1d9b3db3431cebcd,0x02232a3d4a5dc2bc,
0x459deb433254b532,0xccc3b9353c3a45cc,0xcc4c13c53023b2bd,0x554e0c1bcbc354cd,
0x2cd55bd9cccd4435,0x5c31bccd46135dcc,0xdcb5c1dc3dcc105b,0xe395c4c35434e4d5,
0xbcc9d5aa5cd5c3b3,0x55eccc552cbdc4c3,0x5d5ce4dd52d440db,0x52ce4e63d44c3ccd,
0xc6a3c4144344bca9,0xb4ccdc6e23ccca4c,0xe53cb2ad44ccc4d3,0xccbc35dbb4c2a4ad,
0x444ca93cdd2444d1,0x4da3b4b3c4ca152d,0x4ca42bc9dcc3b93e,0xeb23d35cc1edc055,
0x3cb6eac5c39453d4,0x3bc4a9bb03a05c5c,0xcac4933baa9bc515,0xd0350b4bc2cb4eb2,
0xb44350c1ccb5d4c1,0xbcd3cd4999be4c44,0x5d3cde4cdd449c55,0x5ce3cb5dddcd49a5,
0x555dccc2b22d5d15,0x25353dd53934ddd5,0xcdd4cdc5dac2acbd,0xb33c4451c3b36152,
};

static int backbone_model4_conv1_quant1_threshold[64 * 14] =
{ // torch.Size([64, 14])
-1063, -742, -528, -368, -261, -154, -47, 60, 167, 274, 381, 541, 755, 1076,
-1122, -804, -592, -433, -327, -222, -116, -10, 96, 202, 308, 467, 679, 997,
-914, -623, -428, -282, -185, -88, 9, 107, 204, 301, 398, 544, 739, 1030,
-1010, -702, -497, -343, -240, -138, -35, 67, 170, 272, 375, 529, 734, 1042,
-922, -616, -412, -259, -157, -55, 47, 149, 251, 353, 455, 608, 812, 1117,
-1012, -653, -413, -234, -114, 6, 125, 245, 365, 484, 604, 784, 1023, 1382,
-1006, -644, -403, -223, -102, 18, 139, 259, 380, 500, 621, 802, 1042, 1404,
-1326, -939, -681, -487, -358, -229, -100, 29, 158, 287, 416, 609, 867, 1255,
-1327, -971, -734, -557, -438, -320, -201, -83, 36, 154, 272, 450, 687, 1042,
-2217, -1700, -1355, -1096, -923, -751, -579, -406, -234, -61, 111, 370, 715, 1232,
-1314, -943, -696, -511, -388, -264, -141, -17, 106, 230, 353, 538, 785, 1156,
-880, -593, -401, -258, -162, -66, 30, 126, 221, 317, 413, 557, 748, 1036,
-1041, -729, -521, -364, -260, -156, -52, 52, 156, 261, 365, 521, 729, 1042,
-1077, -716, -475, -294, -174, -53, 67, 188, 308, 429, 549, 730, 971, 1332,
-1322, -959, -717, -536, -415, -294, -173, -52, 69, 190, 311, 493, 735, 1098,
-955, -641, -432, -275, -171, -66, 38, 143, 247, 352, 456, 613, 822, 1135,
-895, -571, -355, -193, -85, 24, 132, 240, 348, 456, 564, 726, 943, 1267,
-1095, -758, -533, -364, -251, -139, -26, 86, 199, 311, 424, 593, 818, 1156,
-2006, -1503, -1167, -916, -748, -580, -412, -245, -77, 91, 259, 510, 846, 1349,
-920, -647, -465, -329, -238, -147, -56, 35, 126, 217, 308, 445, 627, 900,
-1109, -705, -435, -233, -98, 36, 171, 306, 441, 576, 711, 913, 1182, 1587,
-967, -683, -494, -352, -258, -163, -68, 26, 121, 216, 310, 452, 642, 926,
-1185, -866, -654, -495, -389, -282, -176, -70, 36, 142, 249, 408, 620, 939,
-1337, -998, -771, -602, -489, -375, -262, -149, -36, 77, 190, 360, 586, 925,
-922, -629, -433, -287, -189, -91, 7, 105, 202, 300, 398, 545, 740, 1034,
-829, -573, -403, -275, -189, -104, -19, 67, 152, 237, 323, 451, 621, 877,
-1402, -1055, -823, -649, -533, -418, -302, -186, -70, 46, 162, 335, 567, 914,
-870, -573, -376, -228, -129, -30, 69, 167, 266, 365, 464, 612, 809, 1105,
-1132, -825, -620, -467, -365, -263, -160, -58, 44, 146, 249, 402, 606, 913,
-707, -439, -261, -127, -38, 51, 140, 229, 318, 407, 497, 630, 809, 1076,
-958, -679, -493, -354, -261, -168, -75, 17, 110, 203, 296, 435, 621, 900,
-949, -623, -406, -243, -134, -25, 83, 192, 301, 409, 518, 681, 899, 1225,
-1069, -731, -505, -336, -224, -111, 2, 114, 227, 340, 453, 622, 847, 1185,
-908, -611, -413, -264, -165, -66, 33, 133, 232, 331, 430, 579, 777, 1074,
-946, -684, -509, -378, -290, -203, -115, -28, 60, 147, 235, 366, 541, 803,
-1337, -955, -700, -509, -381, -254, -127, 1, 128, 256, 383, 575, 829, 1212,
-1076, -672, -403, -201, -66, 68, 203, 338, 472, 607, 742, 944, 1213, 1617,
-1030, -728, -527, -376, -275, -175, -74, 27, 127, 228, 329, 480, 681, 983,
-1143, -808, -585, -417, -305, -194, -82, 30, 142, 253, 365, 532, 756, 1091,
-1011, -650, -409, -228, -107, 13, 134, 254, 374, 495, 615, 796, 1037, 1399,
-1375, -1014, -774, -593, -473, -353, -232, -112, 8, 129, 249, 429, 670, 1031,
-1073, -774, -575, -426, -326, -226, -127, -27, 73, 172, 272, 421, 621, 920,
-866, -595, -414, -278, -188, -98, -7, 83, 174, 264, 354, 490, 671, 942,
-921, -634, -442, -298, -202, -106, -10, 86, 182, 278, 374, 518, 710, 997,
-1699, -1285, -1010, -803, -665, -527, -390, -252, -114, 24, 162, 368, 644, 1057,
-992, -696, -499, -351, -253, -154, -55, 43, 142, 240, 339, 487, 684, 980,
-1244, -926, -714, -555, -449, -343, -236, -130, -24, 82, 188, 347, 559, 877,
-1165, -837, -618, -454, -344, -235, -126, -16, 93, 203, 312, 477, 695, 1024,
-1285, -762, -414, -152, 22, 196, 370, 544, 718, 893, 1067, 1328, 1676, 2199,
-1367, -1022, -792, -620, -505, -390, -275, -160, -45, 70, 185, 358, 588, 933,
-926, -552, -302, -115, 9, 134, 258, 383, 508, 632, 757, 944, 1193, 1567,
-996, -685, -477, -321, -217, -114, -10, 94, 198, 302, 406, 562, 769, 1081,
-862, -557, -353, -201, -99, 3, 104, 206, 308, 409, 511, 663, 867, 1172,
-1187, -843, -613, -441, -327, -212, -97, 17, 132, 247, 361, 533, 763, 1107,
-1058, -699, -459, -279, -159, -39, 80, 200, 320, 440, 560, 740, 979, 1339,
-1179, -859, -645, -485, -379, -272, -165, -58, 48, 155, 262, 422, 635, 955,
-879, -610, -430, -296, -206, -116, -26, 63, 153, 243, 333, 467, 647, 916,
-1217, -838, -586, -397, -271, -145, -18, 108, 234, 360, 486, 675, 928, 1306,
-1257, -914, -686, -515, -401, -287, -172, -58, 56, 170, 284, 455, 684, 1026,
-1057, -739, -527, -368, -262, -156, -50, 56, 162, 268, 374, 533, 745, 1063,
-1426, -1040, -782, -589, -460, -331, -203, -74, 55, 184, 312, 506, 763, 1150,
-824, -583, -422, -302, -221, -141, -60, 20, 100, 181, 261, 382, 543, 784,
-1624, -1236, -977, -783, -654, -524, -395, -265, -136, -7, 123, 317, 575, 964,
-978, -653, -437, -275, -167, -58, 50, 158, 266, 374, 482, 645, 861, 1185,
};

static uint64_t backbone_model4_conv1_conv2_weight[64 * 9] =
{ // torch.Size([64, 3, 3, 1])
0x4, 0x5, 0x4, 0x5, 0x5, 0x4, 0x4, 0x5, 0xb,
0x5, 0x6, 0x4, 0x1, 0xa, 0xb, 0xc, 0xd, 0xb,
0x4, 0x6, 0x3, 0xc, 0x5, 0x4, 0xc, 0x4, 0x4,
0xd, 0xd, 0xb, 0xc, 0x5, 0x5, 0x4, 0x5, 0x5,
0x5, 0x5, 0x5, 0x0, 0xc, 0xc, 0xd, 0xd, 0xd,
0x6, 0x4, 0xd, 0x4, 0xd, 0xc, 0x4, 0x4, 0xb,
0x6, 0x5, 0xd, 0x5, 0xd, 0xc, 0xc, 0xb, 0xc,
0x2, 0x5, 0x5, 0x5, 0xa, 0x1, 0x6, 0x3, 0x3,
0x4, 0xd, 0xd, 0x2, 0x5, 0xe, 0x4, 0x4, 0xd,
0xb, 0xc, 0xc, 0x9, 0xe, 0xe, 0x3, 0xc, 0x1,
0xc, 0xc, 0xb, 0x3, 0x3, 0x4, 0x4, 0x5, 0x5,
0xe, 0x6, 0x5, 0xd, 0xc, 0x4, 0xb, 0xd, 0x2,
0x5, 0x5, 0x5, 0xb, 0x3, 0x5, 0xd, 0xd, 0x4,
0x3, 0x2, 0x4, 0xc, 0xc, 0xc, 0xd, 0xc, 0xc,
0xa, 0xd, 0xb, 0xb, 0xf, 0xc, 0x4, 0x3, 0x5,
0xb, 0x4, 0xc, 0xd, 0xc, 0x1, 0x3, 0xe, 0xd,
0x1, 0xb, 0x0, 0xc, 0x7, 0xb, 0x2, 0x4, 0x0,
0xb, 0x9, 0xd, 0x4, 0x2, 0xd, 0x6, 0x6, 0xb,
0x4, 0x4, 0xc, 0xe, 0xc, 0x5, 0xd, 0xb, 0xa,
0x3, 0xd, 0xe, 0x4, 0x5, 0xd, 0xb, 0xb, 0xb,
0xd, 0xe, 0x1, 0xc, 0xe, 0xa, 0x0, 0xb, 0x4,
0x4, 0x2, 0xc, 0xd, 0xc, 0x3, 0xe, 0xc, 0x2,
0x4, 0xc, 0xe, 0x5, 0x4, 0xd, 0x5, 0x4, 0xd,
0x5, 0x3, 0x2, 0x3, 0xd, 0xc, 0x0, 0xe, 0xc,
0xe, 0xe, 0xa, 0x3, 0x4, 0x9, 0x2, 0x4, 0x1,
0x4, 0x2, 0xc, 0x5, 0xc, 0xd, 0x6, 0xd, 0xd,
0x5, 0x4, 0xd, 0x4, 0x4, 0x4, 0x9, 0x3, 0x4,
0xd, 0x4, 0x5, 0xd, 0x1, 0x6, 0xc, 0x1, 0x3,
0xa, 0x4, 0xa, 0x4, 0xf, 0x3, 0x0, 0x3, 0x1,
0x6, 0x5, 0x3, 0xb, 0xd, 0xd, 0xc, 0xb, 0xb,
0x5, 0x9, 0xe, 0x5, 0xe, 0x3, 0x4, 0x9, 0x4,
0xc, 0xc, 0x9, 0xb, 0x2, 0xc, 0xe, 0xd, 0xb,
0xb, 0x5, 0x4, 0xc, 0xb, 0xc, 0xe, 0xe, 0xb,
0x6, 0xc, 0xd, 0x6, 0xd, 0xd, 0x5, 0x5, 0xc,
0xe, 0xd, 0x4, 0xb, 0xb, 0x5, 0x2, 0x5, 0x5,
0x5, 0x4, 0x6, 0xd, 0xc, 0xc, 0xe, 0xd, 0xe,
0x4, 0x4, 0x3, 0xd, 0xc, 0xc, 0xc, 0xd, 0xd,
0x3, 0xc, 0xc, 0xb, 0x6, 0x5, 0xe, 0xc, 0x5,
0xd, 0xd, 0xd, 0xb, 0xc, 0xc, 0xa, 0x3, 0xc,
0x5, 0x6, 0x5, 0xb, 0xc, 0xa, 0x0, 0xc, 0x4,
0xd, 0xb, 0x1, 0xe, 0x4, 0x1, 0xc, 0xc, 0xc,
0xd, 0x3, 0x5, 0xe, 0xb, 0x6, 0x2, 0x3, 0x3,
0x3, 0xa, 0x4, 0x5, 0x6, 0x3, 0xa, 0xd, 0xc,
0xd, 0xd, 0xd, 0x2, 0xc, 0x4, 0x5, 0x3, 0x5,
0x4, 0x5, 0x6, 0x3, 0x4, 0x5, 0xb, 0x1, 0x9,
0x4, 0xe, 0xe, 0xb, 0x4, 0x2, 0xc, 0xa, 0xb,
0x2, 0x4, 0x4, 0xe, 0x4, 0x4, 0xe, 0x4, 0x2,
0xb, 0x4, 0x3, 0xc, 0xb, 0x5, 0x3, 0xf, 0xc,
0x3, 0x6, 0x6, 0xc, 0x5, 0x4, 0x4, 0xb, 0x4,
0xc, 0xc, 0xd, 0xb, 0xc, 0xc, 0xb, 0xd, 0xc,
0x3, 0xd, 0xd, 0xd, 0xd, 0xc, 0xc, 0x4, 0x5,
0x6, 0x5, 0x5, 0xc, 0xd, 0x0, 0xd, 0xd, 0xd,
0x6, 0x5, 0xc, 0x5, 0xd, 0xd, 0x3, 0xc, 0x3,
0xa, 0xf, 0x3, 0x3, 0xc, 0x3, 0x2, 0xd, 0x0,
0xd, 0xd, 0xd, 0xb, 0xc, 0x1, 0xd, 0xb, 0xb,
0x1, 0xd, 0x1, 0x5, 0xe, 0x4, 0x4, 0xe, 0xa,
0xc, 0xa, 0x4, 0xe, 0x4, 0x2, 0xb, 0x5, 0x4,
0xa, 0x7, 0x5, 0x9, 0x4, 0x2, 0xb, 0x2, 0xb,
0x4, 0x4, 0x0, 0x4, 0x4, 0x5, 0x3, 0x4, 0x5,
0xc, 0xb, 0xc, 0x4, 0xc, 0xd, 0x7, 0x5, 0xa,
0xc, 0x5, 0x5, 0x5, 0xc, 0xd, 0x3, 0xd, 0xd,
0xa, 0xc, 0xb, 0xb, 0xd, 0xd, 0x5, 0x5, 0x5,
0x3, 0x4, 0x2, 0x4, 0xf, 0xb, 0xc, 0xa, 0x9,
0xa, 0xc, 0xb, 0xc, 0x7, 0xa, 0x4, 0x5, 0x2,
};

static int backbone_model4_conv1_relu2_threshold[64 * 7] =
{ // torch.Size([64, 7])
36, 85, 135, 185, 260, 360, 509,
-28, 26, 79, 132, 212, 318, 477,
18, 70, 122, 174, 252, 356, 512,
11, 51, 91, 131, 192, 272, 393,
35, 68, 101, 134, 183, 249, 348,
-5, 31, 68, 104, 159, 232, 341,
34, 66, 97, 128, 175, 238, 331,
-15, 46, 106, 167, 257, 378, 560,
-37, 0, 37, 74, 129, 202, 313,
29, 61, 93, 126, 174, 238, 335,
1, 33, 66, 99, 148, 214, 313,
-1, 48, 98, 147, 221, 319, 467,
-4, 25, 55, 84, 128, 187, 275,
12, 39, 66, 93, 134, 188, 270,
94, 150, 206, 262, 347, 459, 628,
-18, 24, 66, 108, 172, 256, 383,
-8, 54, 117, 179, 273, 398, 585,
-30, 24, 78, 133, 214, 322, 485,
30, 55, 80, 106, 144, 194, 270,
-11, 31, 74, 116, 179, 264, 390,
-51, 21, 93, 166, 274, 418, 634,
-3, 52, 106, 161, 244, 354, 519,
2, 38, 74, 110, 165, 237, 345,
-4, 28, 60, 93, 141, 206, 303,
43, 92, 142, 191, 266, 365, 513,
36, 78, 121, 164, 228, 314, 442,
5, 26, 48, 70, 102, 145, 210,
37, 78, 119, 160, 222, 304, 427,
3, 57, 111, 165, 246, 355, 517,
-12, 37, 85, 133, 205, 301, 446,
37, 83, 129, 175, 244, 336, 474,
43, 77, 111, 144, 195, 262, 364,
-8, 41, 89, 137, 209, 305, 450,
48, 94, 139, 185, 254, 345, 482,
8, 54, 100, 146, 214, 306, 443,
78, 124, 169, 215, 283, 375, 512,
0, 40, 81, 122, 183, 265, 387,
82, 122, 162, 203, 264, 345, 466,
54, 94, 134, 174, 234, 314, 434,
-79, -32, 15, 62, 132, 226, 366,
-6, 35, 76, 118, 180, 262, 386,
79, 116, 153, 190, 246, 320, 431,
5, 43, 80, 117, 173, 248, 360,
12, 50, 87, 124, 180, 255, 367,
32, 95, 158, 221, 315, 441, 630,
-37, 18, 72, 127, 209, 319, 483,
16, 58, 101, 143, 206, 290, 417,
-11, 49, 110, 170, 261, 382, 564,
-66, -17, 32, 81, 155, 253, 400,
36, 74, 112, 150, 207, 282, 396,
8, 42, 76, 110, 161, 229, 330,
59, 104, 149, 195, 262, 353, 489,
16, 59, 103, 146, 211, 298, 428,
63, 129, 194, 260, 358, 489, 686,
53, 95, 136, 178, 241, 324, 450,
33, 85, 138, 191, 269, 375, 533,
48, 79, 110, 141, 187, 248, 341,
-76, -9, 58, 125, 225, 359, 560,
14, 61, 108, 156, 226, 321, 463,
20, 82, 144, 206, 299, 422, 608,
15, 46, 78, 109, 156, 219, 313,
40, 81, 123, 164, 227, 310, 434,
33, 82, 131, 180, 253, 351, 497,
-6, 54, 114, 174, 264, 384, 564,
};

static uint64_t backbone_model4_conv2_conv1_weight[64 * 1*4] =
{ // torch.Size([64, 1, 1, 64])
0x594ccbdad3d4bca3,0xcd4d24a34dadc0bc,0x59ca3d5db5559dda,0xbaca4ba6edcc01c3,
0x49e436ec4c3acc5c,0x3b2c2d4d95443954,0x924b3ca45a3ba53c,0x45b04445353bc55b,
0x44c94219cc0ccb0c,0xc4453335c319c4ec,0xbb34aa033344a251,0x0cb3ac24cbcac4c4,
0xa594ab436d3c94c5,0x34dbc99cb2bddd4c,0xb5dc3a2d25ddbb43,0x5bcddd45cb5dabcc,
0xd6accd4c540543d2,0x644d11bb4bbdcc2a,0xb1454dcc094ca3de,0xd4abc4564252a5dc,
0xde113244235ba43c,0xd35c140ccc3bc221,0x321245444444594d,0x4d4a32bdb14c4455,
0x9b5cca430d453d2b,0xcaedc0d20d2b3c3e,0x23c35ac4616d91c5,0xe2d0443ddcccb45d,
0x5ccd154b495dd434,0x52419c491b3cd202,0x1bba44acc54b5dc0,0xd4bcd3b0cc434344,
0x01033acd44d54cb3,0xab4d5d345bdb24bc,0xb553dbeb5dccda4c,0xbe1c55abc4c2355d,
0x3c55b4d33cd34cac,0xb45c53d5321b44a2,0xcdccac2c44b6d065,0x5c0451d6a3d23ac2,
0xb13d5392c492c415,0xcc3cd45340b42521,0xbb43d2e3bd05cb13,0xac4d24339ab63c43,
0x5d4b455b25dd443d,0xc2343d9c433a35c5,0x2c45455cd5a2be3e,0xbdb40c3c51532355,
0xcbbb2c26ad5bcb44,0x2cdb5acbaa69bd4a,0xdc5cbcc5cd3a4ba5,0xccb4cdc2cabb9dd2,
0x0133154c5cb9331d,0x43cd3d405ddd4943,0xd9035c9db5399153,0x43b254155253c44d,
0x34432acc4d9544c3,0x5edd20555bb30b44,0x4533abb25aa5dc1b,0x545d5535a52b4434,
0x5cd322ddbb31bccc,0xca54b9513cc3c62b,0x5c2ccc5dc4cbdade,0xd4dc5ddb44cb5d4a,
0x5c4a3144255dcca3,0xb55c03442449b4c1,0x4c3444d54b454255,0x443c3b33dadb9553,
0xdd534c12233e4bd5,0x616db433334e3da4,0x4dc195c4ac55d4c5,0xc154cbc5dc32ccbc,
0x34b19ad5144446d5,0xc5de334c305de55b,0xa343574bc94ea3cb,0xa454545553304ab4,
0x4ace3422435cb2ba,0xb454cd93c3b43b33,0x4da44333d4454a23,0xc53b133c4d123c65,
0xa3d9c44b435414b4,0x449240cb2b5d3da5,0xd0c14444dc4acb64,0x54d13d1453adb9b9,
0x39393c355c5cd433,0x95dbdb6dc54d5424,0xc4cb4555523d5ac4,0x933ac4baca5bdc3c,
0x4c3c314bc132ab43,0xcab39cad543ca902,0x9cc7c22b4a0bab13,0xb4ac11a34ddc02a3,
0x33234c432b4dd544,0x133642a6c5bb14c5,0x5bba25045bcb5a54,0x4345c349e3524544,
0x4db9c3b4943cb45b,0xc345a1bcbba4db52,0x423bb5adc2d34a3b,0x544041a3b4aa4d4d,
0x41bbcbc63b2243b4,0xc43bdbc4c25b35ce,0xccbcebd544b2b945,0x9c4b4324a9c4cd43,
0x55430203932044b5,0x544c03553b236935,0xc3b5c3bbc43cb5b4,0x053d455545394d2a,
0x6525cb1ad45465d6,0x3bdc2ba424c452c4,0x32cbc6c4bc54cbd1,0x5b55b54a54cf54da,
0x3dc423cbcbdddddc,0xd15adda6ccddddaa,0x32c4cccdc33e57bd,0x4c24cd6d43acdc3b,
0xcdc51c1ca35a643c,0xdd533dddd41b99c3,0xb254ad0b1c4d4ecd,0x1cdbb12d164cb94c,
0xc4c1ab44ccc390b4,0xac1cd55d5e6445d5,0x5453b4343dcdb4dc,0x4bc3bb2c93c3caa3,
0x3bdabc440d2cbdc4,0xbdbed2535c54b333,0xb96a0c5cd3cbd9bc,0x4cc4bdd3d4c0dcc4,
0x3e44b4ccb42234bb,0xc53d303435044344,0x4c49224a9d34c19b,0xa31c45edb451a43a,
0xb0b00d4a5d2c33c4,0x32cbbc9bbdcd3a64,0xdccabbbab5ad5544,0xd3c3cc3dbb5cb01d,
0xdc1433553cc9d540,0x5546db35c03002c5,0xc31b30ca5e9a3344,0x3b4cccac4c5324d3,
0x60bac34cbcd2aab1,0x49c3bc9d2cba3251,0xd3a6b2bcb3b9c915,0xb4290b4b2b4ccdac,
0xd25d6b53dc91dd5d,0x2ddcb3d3baeacde4,0xbb146d951c52abc4,0xd4dc1ccc0dc4a60b,
0x909acb19ab3a9403,0x90b2a12920939b3a,0x1a399510cc22b939,0x304ab30a40a1bb2a,
0xb0513c55ddd255dc,0x93ccc1b4bd05ac1c,0xcdc34d245434c444,0x32d2253d4a243bcc,
0x30039babcdbc545c,0x3a1b9bcb53c26cb2,0xa9ccb5cdb9c2cbc9,0x1c24bc9c4dcaaccb,
0x93b5dcc42cb443ad,0x2525dd4dc3c43dab,0xd655cbcc2dcdb04b,0xd304c90d3464ac4d,
0xedb1a3d33abad45d,0xd5d55c3bb5b44b41,0xa40d25121c43cc54,0xdc4445de1cb44bb3,
0xc0c3b43bc56eb554,0xc595cc0ce4324bba,0xbdc43443353c54db,0x3435ec6e4a5ddd43,
0x4cdd54454b22accb,0x51c9dd2ddda53b53,0xa4bc49a5054d5a9c,0x35caccd4c54b5954,
0x4b04a02bc40c4436,0xbc53dcac4435bc4a,0x4cd5450cd23452db,0xa4d4cc5555130a3c,
0xacacc424d55cdca4,0xcb3cc644dd5ccc46,0x4c244d4dd442cc00,0x5dcbbbcbb245ddd4,
0x3a4c45b93c5ddd3d,0xd130456cac44b5cd,0xcdcbdda2c4a45bd5,0xcbcc9cd5cce35dc4,
0xdd3b44435d312a46,0xddcdc43d5ea3d43d,0x124a34ca45a5394c,0x2a2d5bd35444255b,
0xc3cb6c43dab4cbb3,0xd3432c53b9c593d4,0x64bb4c443c5b93dc,0x23dcabcacddd5ab5,
0x1d52c2ed3542344b,0x32bb25b444d46925,0x33cc4b1cac3b42cc,0x9bb43ada2940c24d,
0xd45c2d43bdbcb415,0xaaddc3503ad1553b,0xcac144b4ccc53b44,0xc2cdba3ac903c4c4,
0xbbdcdd3d35cc4bd2,0x5a43cb3d1dcb1d5c,0xebc4bcdcd2a95ccc,0xe6d3ccd355141c5c,
0x23b4c4c4144caad3,0x45053cf1b4534d34,0x39dcd2543b4d03c5,0xac4cbbb3adbd44b4,
0xa64bc33b2414c445,0x5d24352d35354d34,0x43bb462b43c41db3,0x244d4353bdd59544,
0xd5a63bb2cdcdc40c,0xb9b54bcdd14bbddd,0x01cd314923bdb2b2,0x4bc4dd5bbcdcbc3a,
0xbc5ae4c543945c35,0xb34c34d2935c9c46,0xd052c354ccbbd9b4,0x5d43433055b3e2bc,
0x3ddc403ec56acdda,0xc3dcb540c3c2acb2,0x3b4a5c6cdc4c32db,0x5dbd4cd4bb4bc44b,
0xdcbdd4a55c5cdb33,0xb05445d4b14d5a24,0xcc4c4344d43ccd53,0xcdc5dcc5ad4dbcd5,
0x1cedbd55cc4bbdc5,0xdacdccc4cc529b33,0xcc55ddd5bd4d1ac3,0xcdd3db50cc2b4dc5,
0x90aab92aa43ba504,0x93a3ba2b09939d13,0x492aa530bc32b20a,0x414ba23a4a19bb2b,
0x4cb494349d4cd44b,0xc4552b41e5344cea,0x4d5b3455c433cbb1,0xc52cc153d4634c55,
0x0c2243415d5ddddb,0x43d3cc4ddb3a3a5c,0xc4cc4caa02ed3314,0x4ac4cdbbc49acd3d,
